#version: 0.2
à ®
à ´
à ¤
à ¯
à µ
à¯ į
à ¥
Ġ à¤
àµ į
Ġ à®
Ġ à´
t h
a a
à® ¿
à´ ¿
a n
à¯ ģ
à® ķ
à¤ ¾
a r
à® ¤
i n
à¥ ĩ
Ġ k
a l
à¤ °
à´ ķ
àµ ģ
à® °
à® Ł
Ġ s
à´ ¨
à¥ į
Ġ p
à® ¾
à´ ¾
Ġ m
à¤ ¿
à® ª
à´ ¤
Ġ a
à´ ¯
à® ©
à® ²
i l
Ġà¤ ķ
a m
à´ °
i y
à® ±
à¤ Ĥ
a th
à® ®
à¤ ¨
àµ Ĩ
a t
à´ Ł
à¥ Ģ
c h
e e
à´ ±
à® ¯
Ġ th
r u
à¤ ķ
o n
à¯ Ī
Ġ v
à® ³
k k
e r
a y
à® µ
a i
à´ Ĥ
à¥ ĭ
Ġ n
e y
à¤ ¤
e n
à¤ ¯
à´ ª
u m
à´ ²
aa n
à¤ ²
a d
o o
s h
à¤ ¸
Ġ b
p p
à´ ®
Ġà¤ ¸
u n
Ġà® ª
à´ ¸
Ġ h
u r
Ġ 1
à´ µ
Ġà® ®
i r
àµ ĭ
Ġ d
a k
aa r
Ġà¤ ®
t t
Ġ o
àµ ¼
à¤ ®
a v
Ġà® ķ
à´ ³
àµ ½
a s
à´ ļ
i s
Ġ r
Ġ t
at t
àµ ĩ
Ġà¤ ª
Ġ "
à®ķ à®³
Ġ l
Ġà® ħ
Ġà´ ª
Ġ j
à¯ Ĩ
Ġk ey
à® ļ
à¤ µ
o r
à¥ĩ à¤Ĥ
à´ £
Ġà® µ
e s
e d
Ġ 2
l l
Ġ c
i t
g al
Ġà¤ ¹
an d
i d
à¥ Ī
à® £
Ġm e
Ġà´ ¸
Ġ g
à¤ ª
à¤ ¹
à¯ ĭ
k al
u d
i i
à´ Ļ
à¯ ĩ
à¤ Ł
Ġ (
àµģ à´Ĥ
à¥ ¤
ath u
Ġà´ ķ
Ġà® ĩ
à® ¨
Ġà® ļ
àµ »
à¥ ģ
Ġme in
Ġà® ¤
aa y
Ġà´ ħ
aa l
Ġp r
iy a
Ġà´ µ
Ġ ch
Ġ f
e l
i k
à´ ¦
u th
Ġà¤ ľ
à¤ ¦
Ġà´ ¨
Ġ u
i kk
Ġ w
a pp
a g
a h
àµ Ģ
à¥ Ĥ
à¤ Ĺ
Ġà´ ®
z h
Ġ1 9
Ġà® ¨
Ġth e
i v
in g
Ġ in
Ġà® Ĩ
Ġ2 0
àµ ¾
à®ª à®Ł
Ġà¤ ¬
Ġà¤ µ
à¤ ¡
i c
Ġ e
à® Ļ
i ru
Ġà¤ ¨
Ġà¤ ħ
i th
Ġ aa
à¤ ľ
à¥ĭ à¤Ĥ
à´ ·
Ġà¤ ı
t r
à® ¸
à´ Ĺ
Ġà¤ ²
n u
àµ Ĥ
à¯į ,
Ġo ru
à´ ¡
à¤ ¬
Ġ en
Ġà¤ Ķ
à¯į .
c k
an g
Ġa ur
Ġà¤Ķ à¤°
Ġà¤ ¦
à® ´
Ġa v
d h
i ch
u k
ath th
à¯ Ĭ
Ġà¤ °
à¤ ı
t e
o l
Ġk ii
Ġp ar
à¤ ¶
Ġk oo
Ġs h
Ġà¤ Ĺ
aa g
o m
ru m
u s
i m
ay e
à¯ Ĥ
a iy
Ġà´ İ
àµģ .
Ġà® İ
à®µ à®°
th u
à¯ Ģ
a b
an gal
Ġ y
ee y
i on
Ġm att
Ġà¤ ī
Ġà® Ĵ
Ġs am
an a
Ġà¤ ¥
Ġà® ī
à¤ ·
a in
Ġ an
il l
aa th
Ġà´ ļ
Ġh aye
0 0
i g
Ġà®® à®±
à¤ ļ
Ġà´ ¤
Ġ and
Ġt o
kk u
à´ ¬
aa m
Ġs e
à´ ¶
à´ §
i sh
à¤ ¥
a p
en t
Ġmatt rum
à¤ §
Ġà¤ı à¤ķ
Ġà´ Ĩ
al l
d u
iru n
Ġo f
un n
à¯ģ .
Ġs eey
Ġà´ Ĵ
i pp
th a
1 9
à´ ¹
Ġa ck
Ġav ar
Ġk ar
Ġ un
ll a
Ġk aa
u t
u l
Ġp o
Ġà®Ĵ à®°
aa d
il e
Ġa d
aan a
à¤ ¼
o g
r a
o d
a kk
ee n
Ġ ar
e tt
Ġà¤ ¶
à´ ľ
Ġb h
aag a
o s
ad h
Ġv ar
Ġà´ ¬
à¤ £
à´ķ à´³
Ġ is
Ġ20 1
an e
Ġà¤ķ à¤°
àµ Ī
iy e
u v
aa v
ath in
e sh
e t
i tt
à¥ ī
Ġà´Ĵ à´°
Ġà¤ Ĩ
Ġà´ ĩ
b h
à¤¾ à¥¤
Ġth aa
id h
aay i
2 0
à¤ Ī
Ġà¤ ¤
Ġà®ĩ à®°
y a
ud e
u kal
app att
Ġ aan
aay a
Ġà¤ª à¤°
à´ķ àµ¾
e h
Ġ 3
Ġà®ħ à®µà®°
à¯ģ ,
Ġà´ ī
a sh
à´¨ à´¤
à´ ¥
à®Ł à®¤
e c
l e
à¥Ī à¤Ĥ
Ġà¤ ¯
Ġà´ ľ
a ch
Ġà¤ ĩ
o t
à´ «
à¤ «
à´ ŀ
i p
à®Ł à®©
à®ķ à®ª
à´ ´
Ġen n
a zh
Ġà´ ²
Ġk iya
à´ķ à´¯
Ġl iye
Ġà´ħ à´µ
Ġà´İ à´¨
àµį .
u g
Ġà® Ł
ay aa
aa t
ich u
à¤ ĸ
Ġm a
an am
e m
r o
i a
am b
er s
Ġà®İ à®©
oo p
Ġ1 8
aa s
à¥Ī à¥¤
ay um
Ġa m
à¤ Ń
Ġà´ ±
Ġ on
Ġn ir
Ġà¤ Ń
àµ Ĭ
Ġà¤ī à¤¨
Ġ20 0
Ġà¤ ļ
Ġs t
o v
aa tt
Ġà´ ¡
oo r
k ar
av um
Ġà¤Ĺ à¤¯
Ġg ayaa
un nu
Ġ al
à´¿ .
th th
Ġn ey
Ġ S
k u
h e
es s
at th
in te
aa k
Ġ T
àµ º
av ar
à¤ ĩ
Ġà¤ «
à´ Ń
Ġa dh
aa p
à´Ļ à´³
ath il
Ġà´ Ĺ
Ġm ar
Ġ 4
w ar
Ġf or
r am
Ġ C
t er
uth al
Ġs th
Ġr oop
e k
at ion
athth il
Ġpar r
Ġà´ «
Ġ A
Ġà´ °
à®± à®¤
à®µ à®¤
Ġu p
Ġth an
Ġj o
ak sh
uk ayum
u lla
oo l
at e
â Ģ
Ġ 5
Ġà®Ĩ à®£
à´Ļ àµ¾
o p
à¤¾ ,
Ġà®ĩ à®¤
ĥ à®ª
à®¤ à®¤
i kal
e v
o w
e p
à®¤ à®²
à¤ª à¤¨
Ġà¤ ¡
à®© à®°
à¤¾ à¤Ĥ
à®ª à®¤
Ġà®ī à®³
b er
Ġh ain
r i
en d
in e
in n
Ġà´ Ł
Ġch ey
u kk
a j
Ġà®ħ à®¤
Ġ idh
Ġa s
Ġp ir
Ġà¤¸ à¤®
ee r
Ġà® ľ
) ,
un d
c e
à´° à´£
à´° à´®
Ġa p
an i
àµ¼ à´¤
aa kk
e w
u p
à´° à´¤
Ġad d
ang kal
c t
u kku
à®¯ à®¤
Ġk h
à®ķ à®°
à´¯ à´¤
Ġà® °
a e
àµį ,
s t
Ġ M
u b
iy il
Ġà´ ¯
uth th
Ġà´ ¶
Ġb e
Ġà´ ¹
Ġaa m
u ll
an t
à®Ł à®°
an s
Ġà¤ ĸ
Ġa th
à¥ Į
Ġn ad
Ġen d
20 1
à®¯ à®°
Ġà¤ Ł
aan u
Ġ I
an th
on d
Ġf r
Ġs aath
Ġà¤ĩ à¤¸
à® ľ
as t
n a
e g
Ġ 6
Ġà®µ à®°
th tha
Ġv al
app ad
' s
ai pp
ar i
Ġ ir
Ġm o
Ġw h
on e
Ġà´ħ à´¦
Ġk al
à®ª à®°
an k
and h
Ġà®ķ à®Ł
ud an
unn a
Ġth ey
Ġ19 9
Ġc om
Ġadd eh
e ll
ar n
Ġà´ ĵ
Ġà®Ĩ à®®
Ġc o
es t
f f
à®¯ à®²
Ġ aar
ak e
ay il
Ġm uthal
y am
u pp
Ġm an
ai k
Ġidh u
Ġ all
irun nu
à´¿ à´Ĥ
Ġ 7
ath e
Ġ irun
Ġk u
Ġk ur
à¯į "
Ġ P
Ġth at
ak al
l y
is t
ee t
à®ķ à®¤
ai v
Ġà¤ķà¤° à¤¨
Ġ it
oo d
àµ Į
ar am
Ġd o
ir athu
ab h
à®© à®¤
Ġ B
ai kk
à´° à´µ
or t
ar k
à¥ ĥ
Ġv il
ar d
at a
à¤° à¤£
r e
Ġp ad
s e
Ġk aar
à®Ł à®®
à¤° à¤¤
à®ķ à®®
Ġa t
aiy il
Ġaan d
i an
Ġ ee
àµģ ,
ai p
Ġà´ħ à´¤
à´¾ à´Ĥ
Ġjo e
à´¯ à´®
à®³ à®°
Ġl e
ai d
ik a
àµ¼ à´ķ
athth in
à®¯ à®©
à® ·
Ġth ee
er ic
m an
ar t
à® ĥà®ª
u u
Ġà®ħ à®©
Ġà¤ħ à¤ªà¤¨
Ġà® ²
tr a
Ġ 8
Ġ '
àµ» à´¡
à¥Ģ .
Ġv y
Ġv ish
appatt athu
à¤¿ à¤Ĥ
" ,
u gal
àµ» à´¸
p r
2 00
il a
Ġth o
Ġà®ĩ à®²
is s
al a
Ġà®Ĩ à®ķ
Ġth od
Ġn in
i f
Ġw ith
Ġc on
Ġ id
àµ¼ à´®
Ġaa g
p ad
Ġà´ Ń
ch ch
r it
Ġ W
aa j
Ġ ru
Ġp h
Ġà® ¹
amb ar
Ġp er
àµ¼ à´Ł
Ġo r
. "
Ġs w
à´ķ à´°
à¥Ģ à¤Ĥ
Ġà®ħ à®®
Ġ iru
à®¯ à®®
à¥Ī ,
Ġ âĢ
Ġ ill
Ġ19 8
à¤µ à¤°
à¤ Ĩ
Ġh o
à¥Ģ à¥¤
Ġ N
th ir
Ġkar ane
Ġà®ĩ à®¨
aay irunnu
iy am
Ġc l
1 8
a ck
i gal
ar an
Ġs p
Ġma el
ang k
aa h
or e
Ġà¤ª à¤¹
Ġà´ ı
ak a
Ġà´ ¦
Ġj is
à®³ à®¤
h one
u ru
Ġ 9
Ġk o
Ġà´ª à´°
Ġà® ı
as s
Ġu ll
Ġn il
à®Ł à®Ļ
Ġaand il
Ġ R
Ġ ith
ay og
Ġ H
Ġs o
en n
ay a
) .
Ġv i
Ġh u
at i
t on
Ġt e
Ġp ah
iy on
Ġp e
Ġ1 0
Ġh e
à´ ĸ
à¤° à¤ķ
er n
Ġs ar
il um
Ġà¤ħ à¤¨
Ġ oo
Ġ ud
à®ķ à®µ
Ġ D
a ee
in d
à®² à®¤
Ġà® ¸
Ġp ur
à¤ľ à¤¨
à´ İ
sh an
Ġ19 7
th aar
Ġj an
Ġc ur
Ġp ay
ec t
e ar
Ġà´ĩ à´¤
à®° à®®
à¤¤ à¤°
Ġà¤¯ à¤¹
un k
à®Ł à®ª
Ġà´ Ī
Ġ <
à®° à®¤
or d
à¥Īà¤Ĥ à¥¤
Ġp l
Ġth ir
ag ar
00 0
war a
iy aa
à¥ĩà¤Ĥ ,
Ġu l
àµ¼ à´¨
Ġm aan
us t
ig h
Ġà®ħ à®²
Ġg r
Ġu lla
Ġr o
àµ½ à´ķ
à¤¬ à¤°
aak a
Ġaddeh am
àµ¼ à´¡
Ġv el
Ġk aal
Ġà¤ħ à¤§
Ġd wara
app ed
Ġu s
à¤¯ à¤ķ
à¤ ģ
an j
à¤ ĵ
ee kar
ee l
à®¿ .
um b
an n
à®¤ à®ª
aal ar
Ġà®µ à®´
Ġw as
Ġnin nu
Ġbh ee
iy al
Ġ1 7
on g
àµ ĥ
Ġt r
Ġà¤ķà¤° à¤¤
Ġup ayog
ee k
Ġchey thu
Ġ1 5
it y
Ġm u
i b
à´¯ àµ»
er e
à¤Ł à¤°
v ar
Ġin ththa
ikk unnu
Ġ19 4
Ġ F
à¥ĩ à¥¤
Ġy eh
Ġmael um
Ġth al
aan am
Ġ19 6
à®ķ à®²
Ġee e
Ġà¤īà¤¨ à¤ķ
athth ir
Ġb aad
al e
in aar
Ġm un
à¤ ī
Ġk ad
o k
à® İ
ai gal
an ar
aa dh
v a
Ġ G
Ġd iyaa
iv e
à´° à´ķ
Ġ L
t a
Ġ Ċ
Ġg h
à¥Ģ ,
athin te
Ġà´¸ à´®
ey um
Ġa g
Ġun hone
Ġe x
Ġà®ķ à®²
o c
à´Ł à´¤
Ġd h
m ent
Ġs aid
. .
ee d
Ġm aar
ee v
Ġà®ħ à®Ł
o ru
Ġà¤¬ à¤¨
Ġam eric
q u
ud h
Ġu ru
Ġà¤¤ à¤ķ
ai th
Ġj aat
à¤¯ à¤°
à´µ à´°
a c
id e
Ġ J
o y
m m
ad i
Ġà´ī à´ª
Ġs u
att a
Ġà®ª à®²
Ġend ru
Ġ1 6
angal il
ar e
a il
ikk ukayum
Ġp aar
Ġà¤ªà¤¹ à¤²
Ġà®ª à®Ł
Ġpr ak
Ġenn iv
Ġb r
Ġk att
oo k
à¤¯ à¤¨
à®¤ à®©
Ġt aka
al k
à´Ĥ .
on n
Ġ1 2
Ġof f
ich a
in u
ah een
Ġà®ª à®¤
aa sh
Ġv azh
Ġà¤µ à¤°
Ġp att
à¤ Ľ
app ett
à® ħ
i es
Ġp ath
en g
à® ĩ
Ġm ool
ee th
Ġr e
Ġv aal
a w
Ġà¤ ĺ
Ġà¤ī à¤ª
Ġcur r
Ġith u
à¤° à¤®
Ġs ee
à¤ ł
Ġkoo d
Ġd ii
as th
av e
iy ar
athth ai
Ġà®ħ à®°
aa i
à´Ł à´ķ
p h
à´¿ ,
ikk unn
Ġa b
c o
Ġaa d
à´¤ à´®
à´¯ à´ķ
as e
al s
Ġvar sh
Ġv id
Ġ1 4
à´¯ à´ª
Ġk ud
Ġp oor
i e
t s
Ġs ah
as on
Ġv ah
am p
iy athu
al i
Ġà´ħ à´¨
ek h
à®² à®®
ai m
am il
an y
athin u
Ġcom p
ak i
Ġe ll
à¤¶ à¤¨
Ġà®ī à®°
Ġch e
Ġà®ħ à®±
Ġch h
v er
Ġà® ĥà®ª
Ġv iv
appatt a
Ġh is
or k
Ġ1 3
Ġm ud
Ġpr o
à´Ł à´¨
à® ŀ
Ġs ak
om e
Ġp inn
Ġ ed
à¥ĩ ,
k h
uk h
ir aar
a ur
T he
Ġb y
Ġirun thth
Ġà¤ Ľ
à¤¾ à¤ģ
Ġ19 5
Ġà®ª à®ķ
à´² à´¯
Ġ1 1
Ġs ang
2 1
à® ¹
ile kku
à®Ł à®ķ
l and
aan e
s on
Ġjaat aa
Ġà¤¨ à¤¹
aa ru
Ġ E
Ġpr ath
Ġb an
Ġp al
a er
Ġà¤° à¤¹
iya pp
à´¤ àµ½
Ġfr om
n d
ay am
Ġaa v
Ġap ane
Ġn aheen
à´ķ à´ª
ai kal
Ġv ad
Ġadh ik
à´¨ à´Ļ
Ġpr at
ic k
ay ude
ag u
à¤¸ à¤°
à¤¹ à¤°
Ġà®ķ à®£
Ġr aaj
Ġà®¨ à®Ł
à´° à´¸
àµ¼ à´·
am aana
ee s
Ġir and
Ġà®ĩà®° à®£
Ġn agar
Ġch ar
Ġd e
Ġ U
Ġenn a
à®¤ à®°
Ġà´° à´£
ch i
du gal
Ġy o
à¯į -
am aaya
à®± à®ķ
Ġar e
Ġ el
Ġth ud
à´¨ à´®
à¤¼ à¤¾
Ġh as
kk um
ith th
à´¹ à´¤
Ġà® Ĳ
iy um
Ġn er
Ġà¤ī à¤¸
oo m
Ġthan athu
b u
Ġà®¤ à®©à®¤
à®ķ à®´
Ġs c
à´µ à´¯
Ġr ec
Ġp an
am en
Ġ19 3
à´¯ à´¯
Ġà´Ĩ à´¦
Ġp aath
Ġavar athu
Ġà®ħà®µà®° à®¤
uth iya
Ġj u
à´· àµ»
Ġn ew
19 9
à¤ª à¤°
2 2
oo t
en s
Ġu y
y ak
Ġa bh
ar a
à¤ķ à¤°
Ġh ot
à®¤ à®®
Ġpr ad
Ġ aal
iy an
Ġte am
àµ¼ à´µ
uk irathu
aan d
i o
Ġs a
à¤¸ à¤®
Ġen b
Ġà´µ à´°
am aayi
Ġe zh
à´Ĥ ,
à´Ł à´Ļ
Ġà® ¯
à¤² à¤¨
à¤Ł à¤¨
Ġr ep
Ġn iru
Ġà®ª à®°
ath um
ar y
Ġà¤µ à¤¹
à®µ à®®
à®ļ à®©
on du
Ġd is
Ġm ah
à´® à´¤
à¤° à¤¸
à®± à®©
Ġà¤ ĳ
Ġà¤¸ à¤ķ
c l
Ġv a
à´ ħ
ai s
th i
à®¯ à®ª
t y
irun thu
Ġà¤® à¤¹
oo tt
Ġand ru
ee tt
Ġ K
à´ķ àµ»
Ġse ason
Ġp ol
Ġà¤Ĺ à¤Ī
Ġà®ĩ à®©
ag uth
à®¿ ,
aar an
Ġà¤Ĺ à¤ı
th er
Ġg aye
Ġà® ĵ
à®Ł à®²
iy o
Ġ ur
Ġà¤ ĵ
Ġpay an
Ġis s
in t
Ġd ee
Ġà´ľ à´¨
Ġk ond
à´¯ àµ¼
on t
à¤ ħ
ic e
ak ar
Ġk sh
am aaga
Ġ O
Ġd es
àµį "
Ġà´¨ àµ½à´ķ
Ġà®ħ à®µ
Ġs ch
Ġn alk
in ar
Ġk azh
Ġv ir
Ġs ir
i al
Ġà®ī à®±
j an
l o
ikk unna
ikk aan
Ġà®¨ à®ķà®°
Ġb o
g h
e tr
Ġà®Ĩ à®©
Ġà®ķ à®°
à´· à´£
ĠT he
adh u
à´ķàµ¾ à´ķ
ĠâĢ Ķ
Ġw ill
Ġvah a
ol d
à¤² à¤¯
ay s
Ġse v
y al
Ġho e
zh il
Ġin n
Ġr es
à®ļ à®°
t i
Ġà´īà´ª à´¯
Ġg aee
an angal
à¤ ĥ
ai r
à´° à´Ļ
Ġh ave
à® Ĩ
Ġe tt
us e
à¤¯ à¤®
Ġn o
Ġs aam
Ġy aa
Ġsh amil
Ġm ur
aththir ku
thu v
à®¤ à®µ
à´° à´¦
à¤¸ à¤¨
Ġà¤ī à¤¤
Ġc ar
igh t
ay i
Ġk and
Ġà´ī àµ¾
iy aaga
un du
Ġ( "
Ġn iyam
am aan
ee p
um m
Ġn ed
t th
atth il
iv u
, "
Ġk aan
h n
een d
Ġche iy
in a
Ġ 0
iy in
Ġw ay
k i
Ġ $
k a
Ġniru v
Ġm aatt
ett r
ig n
Ġavar kal
à´Ĺ à´¤
1 0
pp ed
Ġ2 5
à´¬ àµ¼
Ġà´ħ à´Ł
ay ile
à¯Ī .
Ġà®ª à®¯à®©
Ġs tr
e b
or n
Ġsth aap
ul d
Ġku zh
Ġà®¤ à®²
Ġs oo
à´ļ à´¤
an c
Ġr ah
Ġsth aan
Ġsh uru
à´ ĺ
av il
aal a
p o
Ġk an
o ut
ar kal
aiy ai
aal um
à´± àµ¼
Ġà®ļ à®®
Ġsam oo
Ġp in
Ġp uthiya
en nu
Ġà®ª à®£
à®° à®£
att r
Ġall athu
àµ¼ à´£
us tr
eey a
Ġv im
ub l
os t
2 3
Ġun d
Ġà´ķ à´£
t aa
à®± à®ª
Ġm ig
av id
aiy um
Ġà´® à´±
Ġà®Ĩ à®°
Ġv aa
y aan
à¤¦ à¤°
u sh
à´ª à´¤
1 7
u tt
aar i
Ġj eev
y an
Ġb ad
ath a
all y
à´ª à´¨
Ġe thir
od e
ar m
d ay
o dh
r ee
Ġm aath
Ġv an
he in
Ġs an
Ġp un
c om
Ġà´¤ à´¨
Ġun ake
Ġpah ale
pad uthth
Ġ im
Ġà¤ħ à¤²
à¤ĩ à¤¨
Ġà®İ à®¤
m aan
Ġà´ħà´µ à´°
Ġà´ ·
am e
ur e
Ġan t
à´¯ à´Ļ
Ġà®ħ à®£
Ġa f
at ch
Ġà¤ķ à¤®
Ġj ab
1 5
Ġvar ai
Ġà¤ĩà¤¸ à¤ķ
19 8
a kku
iy ai
ak h
i zh
i h
Ġ3 0
à®± à®¨
à´°à´µ àµ¼à´¤
Ġc r
Ġend ra
Ġk av
aad i
à¤ ¢
Ġa c
à´¤ à´¤
à´µ à´¨
Ġse ith
ar sh
os s
à®ķ à®©
Ġn uu
Ġà®ħà®¤ à®©
à¤® à¤¨
à´¯ à´±
à¤° à¤¹
Ġr aj
Ġ201 8
Ġa pp
g e
Ġn aam
à´ ĥ
à´ķ à´®
akk al
à®¯ à®µ
iy ude
Ġà®ħ à®´
Ġl ag
Ġp ak
ath an
à´µ à´¸
Ġà¤ľ à¤¬
Ġuru v
Ġà¤ §
b all
Ġm ad
Ġpir agu
Ġm ill
Ġs te
e th
p t
Ġà´ħà´µ àµ¼
Ġsam ay
ir e
ey ar
aag um
Ġ2 4
àµ¼ à´ļ
Ġg o
Ġp at
à´¯ à´¨
Ġs en
ar th
Ġsch ool
à¤¼ à¥Ģ
Ġ il
adh i
à´± à´µ
à® ĥ
à¤ ĺ
is ion
Ġà®ĩ à®¯
aiy in
Ġadh an
Ġk ondu
àµģà´Ĥ ,
ukal il
19 7
Ġà¤Ĩ à¤°
r ish
Ġun hein
Ġà´ĵ à´«
w ay
à´ķ àµ½
à¤µ à¤¨
av ai
à¤· à¤£
o ll
à´ķ à´°à´£
à´· à´¨
Ġv ay
Ġm unn
Ġm adh
ch h
aav athu
Ġà´ķ à´³
Ġav as
Ġin d
Ġn ig
av u
à®© à®®
Ġthan te
Ġn ot
p er
ed ukk
Ġ _
rum p
Ġsar v
en ce
m b
r y
Ġp ala
ana kk
1 6
id ent
ik h
Ġ V
ar gal
Ġà¤ı à¤²
y on
Ġs ey
Ġs ur
Ġv ik
Ġb aar
Ġà®µà®´ à®Ļ
à´¤ à´¨
Ġs ab
à¯į )
Ġk a
Ġy ear
in s
as am
à´² à´¤
à´° à´¨
à®µà®¤ à®±
3 0
o on
Ġth is
ion s
Ġà´īàµ¾ à´ª
à´¤ à´°
e j
Ġcom m
aap t
Ġhu e
ĠC h
à®® à®©
ug h
Ġà¤² à¤Ĺ
esh am
Ġwh o
à®° à®Ļ
ah ar
Ġs er
Ġà®ĩ à®Ł
Ġco un
Ġaan du
Ġ ang
Ġjis amen
Ġo pp
Ġà®Ĩ à®²
Ġkud umb
Ġà´ħ à´²
Ġà´ı à´±
Ġg ro
Ġà´ħà´µ à´¸
" .
ar p
Ġs ath
Ġ201 6
Ġà´ī à´£
s o
v e
Ġkh el
âĢ Ļ
Ġvel iy
Ġà´ħ à´®
at ed
ai t
Ġtho zhil
Ġs el
un g
Ġkar taa
ai kku
à®ª à®ķ
à¯Ī ,
bh av
is th
an ce
ill a
àµį -
tt ar
ey e
ath ar
ur n
Ġà¤īà¤ª à¤¯
Ġà´ķ à´´
Ġd aur
à´ª à´°
t o
i j
Ġmool am
war d
Ġpo ru
Ġju un
u e
Ġ =
angal um
Ġà´ķ à´®
i z
aan g
Ġmun bu
à´± à´¤
Ġà¤ķ à¤¹
Ġà®ª à®¯
Ġà¤ı à¤¸
Ġkaar anam
in um
or m
Ġaan aal
Ġp ii
ikk um
Ġà¤¸ à¤¹
Ġpr adh
Ġn e
à¥Īà¤Ĥ ,
Ġirunthth athu
on ey
Ġul pped
ar ch
Ġà´µ àµ¼à´·
im e
Ġpr avar
am m
à¤¸ à¤ķ
Ġirand u
Ġrep ort
Ġa k
19 6
a iya
Ġà®ļ à®°
Ġk ah
Ġen g
à®¤ à®©à®°
Ġà¤ľ à¤¨
Ġà¤¸à¤ķ à¤¤
Ġavar ude
sh am
Ġth er
oo s
er al
Ġm ore
à®³ à®µ
Ġnir mm
1 2
Ġà®ĩ à®£
à¤Ĺ à¤°
Ġ201 0
Ġà®ı à®±
ipp u
Ġà´® à´¤
f t
Ġezh uth
Ġà®ķ à®µ
Ġà¤ħ à¤®
à´± à´±
Ġr ash
Ġb ah
Ġo ut
à®³ à®©
ic al
Ġo l
th ar
kk al
ag e
à®µ à®Ł
Ġvi bh
Ġy uu
ath ark
ow n
ee du
Ġ201 7
ic t
Ġsey al
aath a
1 4
Ġf ir
" )
Ġà®¤ à®©
Ġvaal e
it e
Ġa er
Ġb l
Ġà´ª à´¤
tr iya
ii i
ikk u
Ġa tt
dh a
Ġà´Ĩ à´¯
in j
Ġk end
ek in
Ġs ad
Ġenb athu
Ġthe ir
aag avum
Ġà®İ à®Ł
Ġav al
à´ķ à´²
à´ķ à´¤
Ġf l
o tt
Ġ201 2
Ġru nd
Ġt w
os e
Ġs ain
à®² à®ķ
Ġameric a
irun n
à¤¬ à¤¸
Ġ1 00
à®ļ à®®
ikk a
Ġkar ate
Ġm ath
aiy aana
Ġl ekin
ing ton
Ġ2 3
Ġap ani
er m
à®° à®°
à®° à®ª
Ġd ev
à´ ł
Ġk aam
ee ii
à´Ł à´¯
Ġ201 1
ipp ad
aar am
Ġsh r
s s
or s
à´° à´§
Ġ2 1
Ġà¤ª à¤¤
Ġà´Ĩ à´°
Ġma er
Ġn av
Ġa zh
Ġp all
à¤² à¤¤
Ġà´ħ à´±
à´° à´ŀ
r iya
Ġc an
an tha
Ġvy ak
Ġà´ Ĳ
_ _
ĠâĢ ²
Ġpinn ar
Ġj aa
Ġbh aag
p l
Ġsam b
Ġj aan
% ;
Ġdo u
Ġà´ĩ à´¨
à®³ à®®
à®² à®°
eend um
il d
Ġ2 2
à´ ĩ
y s
Ġh ad
Ġd iv
Ġt ar
abh i
Ġth ad
appett u
Ġ uth
aa du
Ġk ol
à¤° à¤µ
n e
Ġpo att
Ġhu aa
d esh
Ġà®ĩ à®ļ
Ġr el
à¤ķ à¤²
en e
à´® à´¸
en k
Ġpr ash
el d
Ġ201 5
Ġk aee
Ġà¤ķ à¤Ī
Ġ201 3
ation s
Ġb ut
àµ¼ à´¦
Ġpr av
Ġoo f
ru v
Ġvar e
à´² à´µ
Ġl og
a ct
1 3
Ġ &
à¤¼ à¥ĩ
Ġchey y
ar r
à´Ļàµ¾ à´ķ
Ġ201 4
Ġnig azh
à´¯ à´¸
Ġiru pp
Ġpayan paduthth
Ġin ter
o ur
in ess
Ġk ath
yal aya
Ġk ee
ai g
5 0
Ġth a
A P
Ġuruv aakk
Ġm al
ch u
a ce
Ġm il
ag a
n g
à´ Ĩ
ill ai
an tra
at er
Ġà®® à®¤
Ġm ed
es ident
Ġw e
atth inte
Ġ5 0
Ġpl ay
Ġpr as
àµº à´¸
Ġà®İ à®´
ak on
ar s
ai tt
à®ķ à®ķ
Ġf in
Ġà´ķ à´°
in o
on s
à®ª à®¨
Ġth ur
ul t
à´µ àµ¼
Ġ qu
z z
Ġk il
Ġà®µ à®Ł
e tra
Ġ20 20
Ġkoo tt
Ġà¤¸à¤® à¤¯
an m
uk t
o und
à¤¤ à¤ķ
Ġà¤Ĩ à¤¯
ĠT h
appad ug
y u
av adhi
Ġpar iv
Ġ er
Ġjo hn
Ġco ll
àµģà´Ĥ .
Ġa ii
o zh
à´± à´¯
em ent
Ġvik as
Ġ2 6
ab le
ay kk
à¤® à¤ķ
2 4
Ġ19 0
ind r
Ġaag iy
Ġe k
a f
Ġà®İ à®²
ad e
sh ip
an il
v i
Ġse iyapp
Ġaf ter
Ġpo dh
à¤¶ à¤ķ
Ġj in
i x
Ġ20 19
Ġà®ª à®³
à®ķ à®Ļ
Ġ aay
à´ķ à´¨
Ġà´İ à´¸
Ġà®ī à®£
us s
Ġà®Ĵ à®©
ai thth
Ġo ct
Ġksh etra
p ar
Ġb een
am es
n n
Ġan ya
arn nu
Ġà¤¶ à¤¹à¤°
Ġf il
em ber
Ġraaj ya
Ġku chh
Ġp ank
Ġv is
Ġ2 7
ag am
Ġe v
Ġp ee
Ġ200 8
Ġit s
Ġrec ord
Ġà¤° à¤ĸ
ath i
ukal um
o j
ik sh
o uld
Ġs ans
àµ» à´±
Ġett avum
ubl ic
1 1
Ġr and
Ġjab a
Ġth iru
à´² à´®
à¤ ŀ
Ġà®® à®ķ
l es
Ġà¤ħ à¤Ń
Ġ2 9
Ġà´ħ à´Ń
angal ude
g r
en c
o athu
Ġp aad
kk ur
Ġà´¸ à´¹
Ġu t
Ġd on
àµ¼ à´¶
à¤® à¤¤
- -
Ġvil aiy
am s
Ġ2 8
à®® à®°
ik e
ar v
p att
r ith
' t
Ġk iye
ing s
ĠS t
à´§ à´¤
Ġs ent
iy aan
us iness
Ġar as
Ġà®¤ à®Ļ
ad a
Ġbe ach
Ġaag um
Ġà®® à®©
Ġà´µ à´²
à´°à´µ à´§
Ġull athu
Ġth og
ak an
i er
à´Ł àµ¼à´¨
à¤¨ à¤°
o b
Ġà´µ à´³
Ġr akh
Ġch al
Ġ200 7
aipp u
es day
Ġà¤¸ à¤¬à¤¸
Ġà® Ī
er man
ud dh
Ġv ag
Ġà®µ à®ķ
m a
Ġs aal
ay an
Ġse sham
Ġsab se
Ġsh ahar
Ġ18 9
m ak
Ġas s
l in
Ġs m
Ġp ettr
eng il
Ġ200 9
indr ana
Ġà®ħà®° à®ļ
Ġn oott
Ġvi j
iya kk
ur op
Ġmo on
at ra
Ġm on
Ġp oo
Ġà¤¬ à¤¹
19 4
tt r
Ġm als
Ġo ver
Ġthod ar
av in
Ġd r
Ġw ere
Ġdaur an
o ber
à®ķ à®Ł
Ġs and
Ġa ustr
kal il
ik ar
à¤ķ à¤°à¤£
Ġà´İ à´²
er y
2 5
f r
201 8
ith r
Ġse c
Ġkood uthal
à¤² à¤°
ach ch
in th
appatt aar
ri er
Ġsamoo h
w w
Ġaa s
Ġpo ar
Ġnir avadhi
unn athin
pp u
Ġl ok
app u
Ġà¤ī à¤¦
ic s
Ġv aar
Ġmu zh
av illai
or g
it s
Ġà®ħ à®Ļ
aath e
Ġà´ª à´Ł
Ġvish esh
Ġm ukh
à´¨ à´¯
Ġl l
Ġaa k
Ġe m
aas th
r id
Ġth ar
Ġvaa zh
Ġh oney
Ġpoor v
à¤ļ à¤¨
Ġth ay
or y
Ġph ir
à¤ª à¤¤
à´± à´ŀ
uth thu
Ġab out
en tr
Ġsth it
at es
Ġcomp any
Ġk app
à¤² à¤¬
àµ¼ à´ª
l ey
Ġn ag
k et
ain e
Ġh er
aay um
ol e
Ġaddeh athinte
h y
Ġa thu
Ġaar r
ah an
àµ½ à´ª
Ġà®ĩ à®±
Ġam g
y ek
ll athu
Ġtw o
Ġaa dh
th iy
à¤¨ à¤ķ
à¤ĩ à¤Ł
Ġà´¨ à´Łà´¤
ai se
al il
Ġà¤ħ à¤ķ
Ġà®® à®Ł
war i
Ġp aan
Ġà´Ĩ à´ķ
Ġk ir
Ġbh oom
Ġ200 6
à´³ à´¤
Ġun aki
ull athu
Ġp as
uk a
aav il
à´µ à´¶
o sh
Ġp aguth
Ġà®ī à®¯à®°
Ġ20 21
à¤Ĺ à¤¤
r on
Ġk anakk
à¤µ à¤²
Ġen nu
y og
Ġà®® à®°
. )
àµĨ ,
it ion
Ġle ag
Ġv iru
al d
Ġa ff
Ġ àµ½
or th
e x
à¤ķ à¤¨
Ġn y
Ġn aan
pp am
à®¯ à®±
Ġe mm
Ġp aal
kk a
it a
angkal il
Ġaad ya
s k
ik aar
uth i
Ġmig avum
y l
à®ª à®²
Ġà®İ à®¸
ug ust
Ġon e
ae ru
Ġs aadh
e zh
ai i
Ġan um
Ġb rit
Ġà¤ı à¤®
à´Ĺ à´Ļ
Ġà¤Ĩ à¤§
id am
Ġkur ipp
Ġà¤ı à¤¨
à´Ĺ à´®
Ġb andh
Ġch ii
esh an
Ġà®Ĩ à®µ
avar gal
Ġs k
in k
Ġs ays
à®¤ à®ķ
aatt r
Ġb ee
Ġc umm
ab d
T h
Ġfir st
d e
Ġa iss
Ġath inte
Ġà¤ħ à¤ª
ai ch
Ġ Ã
Ġal so
Ġp eyar
Ġà¤ Ī
ir k
Ġva end
Ġà®Ĵ à®ª
aksh in
Ġv as
Ġpr abh
Ġcl ub
àµ¼ à´¬
Ġà´ħ à´¸
appad um
à®± à®®
Ġs ila
Ġf oot
Ġà¤ľ à¤¹
Ġthir anj
à´² à´ª
id a
unn athu
aa b
Ġm akkal
ir a
Ġà®ħ à®ķ
ur ai
à´° à´¯
Ġ Y
à®ļ à®²
ath ai
à®µ à®ª
à¤¯ à¤¤
Ġà´¬ à´¨
Ġth itt
aram aaya
Ġh ii
Ġt ra
Ġà¤¬ à¤¡
Ġà®ĩà®¯ à®ķ
Ġpr am
Ġà¤ħ à¤°
Ġs ii
iy aalar
Ġv in
appatt ana
r ah
Ġà´ħ à´ª
r ap
Ġirun thaar
à®´ à®ķ
Ġà®ķ à®¤
Ġ18 8
Ġkaar y
Ġad uth
es e
Ġis ake
à´ Ĵ
Ġadh y
Ġp aer
Ġt ii
àµĭ à´Ĥ
Ġà¤Ĩ à¤µ
p s
ent s
Ġà® ·
Ġn aa
aththir k
Ġs att
Ġa eye
à®® à®¤
à´ľ à´¨
o u
av as
à¤¡ à¤°
Ġd i
Ġh el
Ġ ipp
av al
à®ŀ à®°
Ġto u
Ġcheiy unnu
Ġp en
à¤¦ à¤¨
ĠI I
it ed
Ġà®ļ à®ķ
ĠI n
appad ukirathu
Ġle ad
ĠP r
ikkunn athin
i eld
Ġvish v
Ġnew y
Ġvad iv
Ġà´ī à´¯
Ġ iyakk
à®° à®²
Ġà®ļ à®Ł
u c
Ġchey th
à¤¼ à¤¿
à¤ı à¤¸
Ġkoo r
Ġm in
s an
Ġirun thu
Ġku tt
Ġis e
19 5
à´® à´¯
Ġgh ar
Ġwh ich
Ġd ur
Ġà¤ĺ à¤°
g a
ol og
Ġà®¤ à®¯
à¤Ĺ à¤²
Ġar iv
th am
Ġs l
à¥ĭ ,
Ġà¤¸ à¤°
Ġpr aapt
à´ª à´°à´®
à´¸ àµº
Ġkaar an
Ġthod ang
à´² à´ķ
Ġuy arn
aakk al
ch a
m ar
Ġv itt
el y
Ġà®ª à®±
Ġà´² à´Ń
Ġ4 0
Ġsh ar
ar it
Ġfil m
Ġà´® à´¨
ation al
at ing
Ġg en
Ġà® Ĭ
Ġnir v
Ġ" "
Ġm uk
Ġb u
Ġw ork
Ġkah aa
à¤Ł à¤²
tt u
ikk al
Ġpravar tth
o ck
er t
Ġn iy
à¤° à¤¶
Ġb adh
Ġjis e
Ġd akshin
à´¯ à´µ
o h
à´Ł à´ª
Ġl a
Ġmar ch
àµ½ à´¬
à´± à´ķ
ett u
Ġmill ion
I N
Ġl abh
Ġsh ow
âĢ Ŀ
is e
Ġall engil
Ġs ank
Ġn aad
Ġpo athu
ikal il
à® Ĵ
Ġà®ħ à®¨
am bh
Ġs aar
Ġg ov
Ġk r
Ġkar na
Ġvazh angk
Ġfoot ball
à®µ à®²
Ġ20 22
Ġ ess
à¤° à¤Ń
Ġà´ª à´¦
à´± àµ½
Ġ3 1
2 8
à´¯ àµ½
Ġs aan
Ġpe ru
Ġst ud
u j
Ġà®ħ à®³à®µ
Ġpar ty
Ġyo u
av i
Ġà¤ı à¤«
ig a
y aa
Ġn aal
Ġan us
2 7
Ġb ar
upp u
Ġà®ī à®Ł
al am
Ġh aal
O N
à¤µ à¤µ
Ġl and
Ġkee zh
Ġà¤¦ à¤ķ
angkal ai
kkur ichu
Ġk all
ood e
à®ª à®®
kal aikk
op le
ud eyum
Ġth angal
kalaikk azh
f orm
Ġ oor
Ġv eer
Ġsak ata
àµ½ à´¡
ur a
à¤¦ à¤¸
Ġmatt u
Ġpradh ana
Ġb as
andh u
Ġthay aar
Ġch un
Ġrand aam
aar a
ill e
à´ķ à´¸
tha e
Ġpar is
Ġner aththil
à¥Ģ -
um ber
ic a
aav in
n o
Ġpal kalaikkazh
Ġsu tt
Ġmals ar
à´¸ à´°
Ġ18 7
rish t
2 9
Ġaan dugal
Ġ18 6
Ġp azh
an tr
àµ¼ à´¸
aiy aaga
Ġ200 4
Ġp adh
Ġà´ħ à´ķ
Ġb ack
Ġe ff
àµ¼ à´Ĺ
Ġp aas
ĠH e
v il
am i
Ġm eendum
à®ļ à®¤
Ġuru pp
Ġà´İ à´´
Ġr eg
Ġmaatt r
c c
Ġfor m
Ġvaazh kk
à¤¾ .
Ġs ay
Ġà¤Ĩ à¤Ī
à¤¨ à¤²
ukk aana
à´¶ à´¤
Ġà¤ħ à¤¸
à®¯ à®Ļ
Ġsam v
ithth athu
an ch
Ġin cl
Ġkond a
Ġà¤¬ à¤¢
Ġ200 5
à®µ à®©
ont ru
Ġà®ĩ à®Łà®¤
Ġvar al
anth r
b e
Ġ [
Ġs any
Ġà´¸ àµ¼à´µ
à´Ĺ à´¸
s il
Ġà¤¸ à¤Ń
Ġdo ll
à¤¯ à¤µ
Ġr oo
Ġw ould
l aan
ain thu
ra sh
Ġpro f
à´Ł àµ¼
à¤Ĩ à¤¤
Ġj eet
Ġin v
bh ag
Ġn et
Ġà¤¬ à¤ļ
2 6
Ġkaa tt
Ġl ast
à´Ń à´µ
ir am
Ġ20 00
en a
Ġt el
Ġv ell
Ġc ap
enk ilum
Ġl ad
ar in
itt undu
Ġà®® à®£
ash ington
Ġà¤ħ à¤µ
Ġs in
aig n
Ġa ugust
Ġt een
àµ¼ à´ľ
Ġenniv a
Ġà´ª à´Ļ
ru g
à¤ĩ à¤¸
ber g
b o
Ġavas aan
Ġmukh ya
b ur
à¤ Ŀ
Ġà´ ĺ
à¤° à¤¦à¤°
Ġà¤ķ à¤²
l a
Ġb ill
Ġpar t
Ġned i
Ġwh en
ct ion
Ġpe ople
ukk um
Ġà®ļ à®¨
Ġa thae
Ġs ome
Ġà®¤ à®°
Ġd ec
Ġà´ī à´¦
ch ar
av attr
à´¸ à´£
Ġd et
Ġn ee
Ġo v
Ġse pt
ul ai
avid yalaya
it va
Ġac c
à´Ł à´±
p aad
à¤® à¤²
Ġt ime
un t
Ġl iya
Ġmo ontru
al if
à¥ģ à¤Ĥ
ukal ude
an on
à¤° à¤¦
Ġhot aa
à¤¾ "
ar um
Ġn ov
à´ļ à´¯
Ġsad as
an nu
Ġà¤¸ à¤¦à¤¸
p an
Ġà´Ĵ à´¨
Ġaal b
Ġurupp inar
Ġà´ª à´ķ
h a
à´¨ à´±
Ġaav aar
Ġoct ober
Ġper iya
c ent
Ġpram ukh
Ġv ip
Ġà®ª à®Ļ
anth aar
Ġn eeth
Ġkapp al
à´¶ à´Ļ
h aa
E R
Ġr om
Ġà´¨ à´Ĺ
Ġà®µ à®¤
à¤¡ à¤²
ber t
Ġn eer
Ġsam s
à®¯à®µ à®±
à¤¤ à¤¨
Ġs n
à´İ à´¸
à®İ à®¸
.. .
Ġj aari
Ġh y
itt i
4 0
Ġth ol
Ġb el
Ġà®µ à®¨
Ġpaath uk
Ġrel e
ey y
Ġy uddh
th aan
un ch
iy aana
Ġvy aap
Ġà®µà®° à®²
Ġb ro
Ġd w
t ar
es iya
ĠÃ Ĥ
Ġin to
Ġpinn eedu
o te
à´² à´¨
Ġm aas
ĠU n
aiv u
Ġà´ı à´ķ
Ġde f
y athe
Ġ iv
aar th
nu u
Ġo ther
it al
y aas
ar shan
akk am
Ġv ee
Ġs al
Ġà¤¦ à¤°
ĠT rump
/ /
à¯ģ "
à®® à®²
à¤ķ à¤¸
à¤§ à¤¨
19 3
Ġv ig
umb ol
Ġj aane
Ġà´µà´³ à´°
Ġa im
Ġsam bhav
Ġlog on
àµ½ à´µ
à´ļ à´°
Ġe urop
Ġa ir
s am
Ġm iss
ain th
athar ku
Ġv adhu
Ġsaam b
Ġsamb andh
k e
Ġpo antra
b y
à¤ı à¤ķ
ov er
à®³ à®ª
arn thu
Ġà´İ à´«
Ġrash triya
kk ar
Ġpr esident
ĠN ew
aj an
atth ai
Ġirupp inum
ath aal
à´¤ à´²
Ġà®µ à®³à®°
à¤¹ à¤¤
w an
à´ķ à´±
Ġ( )
Ġmatt um
p ort
Ġe zz
Ġpin th
Ġj ust
ait thu
Ġk yon
j u
ash t
v al
Ġs on
iv il
Ġe iii
Ġhu i
Ġk am
Ġp ull
p atta
Ġp or
ach a
ch n
Ġkar yak
à´£ à´®
w n
Ġvij ay
Ġal b
i bh
athil um
ep t
Ġth eer
ru kk
av ae
Ġ199 0
Ġp u
à®ª à®©
Ġà¤¤ à¤°à¤¹
à®°à®£ à®®
Ġà´ķà´£ à´ķ
Ġtar ah
ay kku
it ies
Ġà´İ àµ»
aang k
Ġsoo ch
l d
Ġ z
Ġvishv avidyalaya
à´± à´¨
adh ik
à¤· à¤ķ
kk aal
Ġà®µ à®¯à®¤
à®´ à®¨
j i
enn um
Ġoff ic
Ġazh aikk
p ur
Ġs ing
Ġp ett
ipp ichu
avar i
aatt u
irunn aalum
Ġ200 2
Ġval ia
Ġs abhi
p ect
à´µ à´¤
eek sh
Ġp a
à´´ à´ķ
Ġb ec
Ġcon s
ern th
O R
idh i
s ar
à´ Ĳ
Ġm and
Ġviv ar
a z
Ġà¤ Ĳ
th al
Ġmaath ram
Ġkyon ki
l i
Ġà®ľ à®©
akk an
à®µ à®ķ
Ġmoon nu
ith a
Ġag ain
Ġsh e
Ġsam ud
Ġ udan
Ġrah ey
à¤¨ à¤¤
ch im
: //
aa ch
Ġsang eet
Ġsa f
Ġb unn
Ġ200 3
Ġch ithr
i um
Ġl ine
Ġvel iya
à¤ª à¤ķ
id appattathu
l eeii
n ew
Ġp aksh
aa en
à´° à´¶
à¤Ń à¤Ĺ
Ġ es
Ġs anth
Ġm uth
à¤¨ à¤¸
Ġh al
Ġant ar
iy ile
Ġa y
Ġg u
Ġà®Ĩ à®Ł
Ġchey tha
s w
Ġr haa
aipp ad
Ġc or
Ġmar ket
Ġ198 0
eeth am
Ġdis ambar
ang i
Ġà¤īà¤¸ à¤ķ
Ġr ail
Ġameric an
à®ĩ à®¨
Ġm as
ikk appattathu
app ol
idh eekar
l ine
Ġà¤ĳ à¤«
ith thaar
ich athu
Ġtha esiya
Ġà®İ à®®
ith thu
ew al
aa zh
à¤¦ à¤²
ag o
Ġà®Ĩ à®±
Ġà¤ĵ à¤°
aalar gal
Ġkood aathe
Ġà¤ļ à¤²
Ġo ur
Ġang ku
r ist
Ġm ag
ikk irathu
Ġà´İ à´¤
Ġgro up
Ġpaad al
à¤µ à¤¤
Ġaustr al
all a
Ġthud arnnu
Ġyear s
Ġà¤ļ à¤°
Ġull ana
Ġaa ee
Ġà®µ à®Łà®ķ
am ent
Ġd ash
Ġs it
Ġm od
Ġà´ħ à´§
aat ch
Ġon n
appatt ullathu
Ġn eel
Ġd ekh
um aayi
Ġch er
et s
Ġninnu lla
Ġjeev an
Ġk amb
Ġb aj
Ġdoll ar
aa on
Ġh im
à¤ľ à¤°
Ġaagiy avattr
oo th
Ġl aa
à´ķ à´µ
oc i
b r
Ġgov ern
Ġà®Ĩ à®¯
Ġpar ish
Ġnav ambar
Ġma j
201 0
Ġv aan
Ġà´ª à´°à´®
uv a
an na
Ġdes ign
Ġjaan aa
ett a
Ġvim aan
ip r
à®° à®Ł
Ġin c
Ġ197 0
Ġh av
Ġà´Ĩ à´£
iy ath
atth ile
ikk apped
ih as
Ġà®µ à®£
Ġà®¨ à®Łà®¤
aipp ugal
Ġprof ess
Ġan tha
Ġpah ali
Ġpay ir
Ġus a
Ġseiyapp att
ith ram
Ġon tr
Ġper cent
aag ak
er g
Ġà®¤ à®Ł
à´¬ à´±
Ġ200 1
Ġdon on
àµį )
Ġmattum ae
à´² à´±
Ġk ul
Ġch aar
Ġv ill
Ġenn irunnaalum
a x
f l
aat a
Ġt ur
Ġv e
Ġh igh
ers on
ek sh
Ġbrit ish
Ġn iv
or ld
y ath
Ġà¤² à¤¡
f ord
Ġmuk iya
à´¤ à´¯
Ġban aa
Ġo zh
Ġsang h
à´± à´Ļ
Ġav ai
im es
uv ar
a ud
Ġval angk
ay aayi
aksh a
ĠA m
Ġà¤ Ĭ
Ġaar amb
Ġpettr aar
Ġprad esh
Ġth ree
Ġprath yek
à´¤ à´ķ
Ġà¤¬ à¤°
Ġth un
ap ur
athth udan
à¤¿ ,
r al
Ġà´Ĩ àµ»à´¡
Ġvaal i
Ġmu un
Ġp uru
Ġà®ħ à®ª
Ġshuru at
Ġv eett
Ġk ewal
Ġd el
Ġà´ļ à´°
apped uth
Ġaav ash
Ġincl ud
à®Ł à®µ
Ġa sh
el s
ru k
Ġà¤ª à¤¦
Ġad ippad
am an
ith tha
op h
à´¨ à´¸
à®ªà®° à®ª
iv ers
Ġpe rump
Ġ196 0
Ġvaend um
à®¾ ,
Ġval ar
p e
angk um
ach u
Ġthaa zh
aiv ar
f er
il ulla
p en
Ġph il
Ġprav esh
Ġlag bhag
Ġà¤²à¤Ĺ à¤Ńà¤Ĺ
o du
as kar
Ġin s
r aksh
y angal
à¥Ĥ .
Ġan aitthu
Ġthee v
m ed
Ġthal aim
ir ku
Ġcoll eg
it ch
o us
is i
Ġm ee
tr y
Ġà¤® à¤¨
à®Łà®© à®°
in tr
Ġp ul
à¤¸ à¤²
ir ect
akk i
e al
Ġs il
Ġl ekh
Ġà´¶ à´¤à´®
Ġmath ipp
à®° à®ļ
Ġà®ª à®´
à¤Ł à¤ķ
E S
à´® àµ»
es ter
aam b
th an
aiy ar
à®² à®©
Ġk od
Ġco uld
ik on
Ġà®® à®²
Ġl eeii
à´Ł àµº
aan t
Ġj aise
Ġsh iksh
kal in
Ġpr ach
f ield
r en
Ġath il
Ġl aw
Ġà¤ĩ à¤¨
à¤ī à¤¨
l ing
Ġt ak
Ġà´¨ à´Łà´¨
Ġà®ħ à®Łà®Ļ
201 6
Ġà´µ à´Łà´ķ
te m
à¤² à¤µ
Ġpan iy
th thu
Ġà´Ĩ à´¶
Ġell ah
Ġd own
Ġà´¸ àµ¼à´ķ
Ġthe m
Ġaa t
Ġu chch
een a
ath am
Ġà®¤ à®±
Ġal ag
20 19
ikal ude
Ġthod arnthu
Ġath ikaar
Ġvad akku
ap oathu
Ġà´ĩ à´°
Ġm ay
à´µ à´ķ
ĠI t
o ch
Ġa ine
Ġav athar
à¤ı à¤¨
201 4
ad esh
à®İ à®©
itt aar
à´ķ à´ļ
à¤Ł à¤¬
Ġu ttar
ap atta
Ġkh ila
Ġs ub
Ġr em
Ġnir maan
Ġth ro
Ġsam gh
v ille
à¤ķ à¤¡
à¤¯ à¤²
ap r
Ġpodh uv
ap t
Ġà´īà´¯ àµ¼à´¨
Ġaa a
Ġm er
Ġme l
àµ¾ à´Ł
Ġju ulai
Ġà´µàµ¼à´· à´¤
Ġsany ukt
à¤° à¤¯
Ġà®ī à®Łà®©
alif orn
ak aa
re at
ap an
Ġà¤¸à¤® à¤°
à´¤ à´ª
Ġh aar
Ġar iyapp
Ġ6 0
, ,
à´¨ à´µ
Ġkhila f
Ġpr ati
Ġcon t
amp ion
Ġmadh yam
ad an
Ġr eeth
Ġse va
an ir
Ġan y
Ġbh aar
ot a
aw a
Ġpariv aar
Ġs ign
àµ¼ à´²
Ġ +
àµ¾ à´¡
Ġà´Ĩ à´µà´¶
Ġh am
Ġb al
ed n
Ġp id
ey il
Ġpar ambar
Ġà®¤ à®µ
Ġsh ak
Ġsth al
Ġ199 9
Ġà´ĵ à´¸
ion al
Ġm oo
ath aanu
av an
Ġameric i
Ġm aaru
ish t
201 5
d er
Ġs im
Ġà´ķ à´ª
201 1
aiy am
Ġtr ans
ozh um
Ġm ik
un ar
b al
Ġupayog ichu
Ġm y
Ġpath ipp
à´Ĵ à´°
aksh am
po athu
Ġs id
Ġy og
Ġaar ambh
Ġprabh aav
p athth
à´¿ "
ir iyar
Ġpr ov
Ġirand aavathu
Ġà´ª à´ł
Ġvy ath
Ġulpped unnu
ch aal
Ġv ii
Ġà®ķ à®©
Ġà®µ à®²
Ġfr anc
Ġbad al
à®¤ à®Ļ
Ġcur rier
Ġsath av
à¤ľ à¤¬
Ġl amb
Ġà®ļ à®¤à®µ
Ġaa kar
Ġhot i
v in
à¤ķ à¤¤
gal ai
Ġ18 5
I n
Ġà®İ à®£
Ġan u
Ġsec ond
Ġbh ash
Ġ199 6
Ġprad arshan
à®ª à®Ļ
Ġà®ī à®¤à®µ
Ġà´Ĩ àµ½à´¬
Ġs y
in ththa
Ġkaryak ram
Ġà´ §
Ġk l
Ġpalkalaikkazh ag
m aar
athark aana
er i
edn esday
kk am
itt a
à®ħ à®µà®°
am a
uk iraar
Ġà®µà®´ à®ķ
Ġà¤¨ à¤µ
Ġà¤¦ à¤¶à¤ķ
Ġk ku
ad es
Ġà¤« à¤°
ev er
ar g
àµ¾ à´¸
kar an
um ar
Ġwh at
ath ile
à´°à´£ à´¤
Ġdiv ision
aakk i
Ġshr in
à´± àµ»
à® ī
à´² à´¬
appad uthth
Ġvar um
Ġs upp
Ġkuzh uv
ukku p
Ġcomm un
Ġsth ith
Ġà®ĵ à®Ł
etr tr
àµ½ à´¸
201 2
à®Ĵ à®°
à´ ĵ
Ġd ikh
Ġw eek
. ,
Ġv en
aguth iyil
Ġv aas
à¥Ģ "
à®® à®£
à®¯ à®Ł
Ġe ph
Ġgen eral
à´² à´Ļ
Ġg ame
à¤Ĺ à¤¨
ev ision
Ġj od
Ġà´® à´°
201 7
Ġà®¨à®ķà®° à®¤
Ġs av
ag h
Ġe p
Ġagain st
ak am
Ġst ate
Ġd ay
Ġva el
Ġà¤ª à¤¶
Ġà¤ħ à¤Ĺ
Ġà¤Ĩ à¤Ĺ
Ġv idh
Ġj ahan
it i
ang e
om m
__ _
in i
à®ª à®ª
à´ľ à´¯
Ġà´ħà´µ à´¤à´°
à®· à®©
ĠâĢ ľ
kh ala
Ġund er
Ġbah ut
0 4
k aar
Ġe ar
Ġ6 5
Ġid aiyil
Ġpro du
uk ay
Ġdash ak
à®² à®µ
uth tha
enc y
à´® à´¨
Ġpr og
Ġch ern
p ir
v aeru
Ġth ere
iv er
Ġval are
à´ª à´±
Ġc all
Ġj ud
Ġb aah
and r
ic an
Ġd ep
à¤® à¤¸
ass il
Ġa en
Ġch ila
Ġv ith
Ġh ar
aiy aal
akk a
Ġj ii
à¤¬ à¤²
irun na
Ġmuzh uv
f ore
r av
Ġo h
Ġrakh aa
h am
ur ch
aa dugal
à´£ à´¤
Ġà´¯ à´¥
Ġend rum
Ġrele ase
v el
Ġb usiness
Ġ18 4
l er
Ġà´ķ à´¥
an sh
Ġad v
à¤ĩ à¤¡
Ġk ett
Ġà®Ĵ à®µ
ra il
r at
Ġov v
à® ı
à®¿ "
on a
à´³ à´µ
Ġhot ey
ch e
uth thuv
Ġv ict
it thaar
Ġsam m
Ġadh u
Ġpir a
pr il
à¤ĸ à¤²
Ġ199 5
Ġnigazh chch
j ana
k s
ey im
aan th
n er
Ġthe kk
Ġa ct
Ġaa thar
Ġà®İ à®°
aap aath
m o
Ġà®Ĩ à®¤à®°
Ġav ide
io us
Ġà®ħà®µ à®³
Ġà¤¸ à¤¤
Ġf ar
Ġsarv akal
Ġà®ī à®²
Ġdes eeya
u zh
Ġà®Ĵ à®³
Ġr adi
Ġpo al
200 9
Ġvid a
Ġd esh
ab a
Ġkondu llathu
Ġvadiv am
Ġk n
ec tr
Ġthiru mb
à¥ĥ à¤Ĥ
b i
m in
angal kk
Ġgo al
Ġà´¸àµ¼à´µ à´ķà´²
Ġa ud
Ġn ae
Ġà¤¨ à¤ı
iss y
p ath
e at
à¯į ;
ed upp
Ġo per
ith thuv
Ġn a
Ġad isth
yam aayi
Ġs risht
à¤ł à¤¨
à´° à´¹
Ġr ev
.. ..
b ar
il irunthu
Ġsutt ru
à¤¾ -
Ġan ta
Ġà¤ĩ à¤¤
Ġpak uth
Ġà´İ à´ķ
aav att
Ġnad atth
Ġco ur
Ġm rit
à¯ģ -
u esday
Ġl u
Ġà¤ħà¤² à¤Ĺ
j a
Ġth av
ur i
Ġà´ī à´¤
Ġru ss
y av
Ġà´¸ à´¨
Ġprad aan
o ppam
Ġs ol
Ġn ish
r as
à¤° à¤¨
Ġà¤¸ à¤°à¤ķ
Ġd ar
Ġà®Ĩ à®ļ
Ġà´ĩ à´ª
201 3
o use
àµģ à´ĥ
ch aar
Ġy udh
6 0
an ai
à´¸ à´¤
Ġch ampion
k aal
à¥ĩ .
Ġf our
à¤ª à¤¸
al th
is on
à´· à´ª
aad esh
Ġporu l
à´± à´¡
Ġc ol
ĠAm eric
à¤¤ à¤®
Ġg un
Ġpr an
Ġkar ati
athin aal
ugal ai
à®¿ -
ad akk
Ġj e
Ġkath aapaath
à¤° à¤¬
Ġm ukk
Ġr ed
Ġko ee
Ġrash tr
à®± à®µ
à¤¹ à¤¨
et er
a use
d an
v am
à®ķà®´ à®ķà®¤
j ect
Ġr et
ukk al
c on
kal ai
Ġà¤¤ à¤°
aat chi
up id
Ġnaan ku
Ġidh il
re ak
Ġprak aash
at v
Ġà¤ī à¤ļ
ov e
Ġ199 7
Ġur im
ikal um
Ġv ett
Ġà´¨ à´µ
ud d
ec ut
Ġprat ish
Ġa ee
Ġg eyim
Ġpar in
Ġan ub
à® Ĳ
à®ª à®µà®°
Ġjan m
Ġnoott r
à´ķ àµ¼
Ġko ll
Ġpe rum
aa pp
à¤¨ à¤µ
Ġth een
Ġd ig
Ġà¤¹ à¤°
à´°à´£ à´®
ikkunn athu
Ġà´¤ à´Ł
à¤ĩ à¤²
Ġtel evision
l ed
à®² à®ª
Ġà´µ à´¨
Ġth en
eer sh
Ġiru th
Ġb ain
Ġd id
y as
Ġv ich
Ġà¤¬ à¤²
Ġthaa kk
Ġ3 5
Ġmaar g
Ġn ay
Ġà®ķ à®³
ol a
Ġà´¶ à´°
av a
Ġà®ķ à®ª
Ġy adh
Ġaad yathe
8 0
à®² à®Ļ
200 7
Ġn eed
ur s
Ġavarkal in
m p
Ġn am
in al
Ġà´ķ à´²
d a
Ġà¤ħ à¤¬
aththil irunthu
Ġl ab
ub le
n na
Ġl ikh
ra el
Ġcheyy ukayum
Ġsamv id
c r
Ġà®¨ à®®
Ġaan u
gal il
ĠW ednesday
Ġpath iv
Ġ199 8
Ġm ot
ak aal
is m
olog y
an te
Ġs un
Ġsam an
Ġbaar e
j eev
Ġd ab
Ġsir antha
Ġniruv an
Ġsadas ya
ru th
Ġst art
Ġmaar i
7 0
Ġà´Ĩ à´¸
in ts
Ġin th
d am
Ġà®Ĩ à®¸
Ġad angkum
Ġshrin khala
à®± à®Ļ
ad esham
Ġenn aal
Ġfin al
Ġg eet
Ġ199 4
Ġh iss
Ġw ell
Ġpall i
Ġtra ck
Ġà®µ à®³
angkal in
Ġp uthth
Ġà¤ľ à¤°
Ġà®Ĵ à®¤
Ġvibh aag
Ġà´Ĩ àµ¼
appett a
Ġbe fore
Ġser v
and er
Ġà´Ĺ à´µ
Ġk ill
Ġd em
anj u
Ġban aaya
à´¸ à´®
aar ana
iru pp
à¤¥ à¤¨
ct or
Ġsir iya
Ġnoott aand
p as
onn aam
aaru de
Ġs aah
Ġpr ast
Ġun akaa
à¤£ à¤¨
Ġà®ķà®Ł à®±
appadug indrana
Ġk izh
at or
ab andh
Ġkatt id
Ġm us
Ġb ii
is tr
Ġe ver
Ġpar uv
3 1
Ġà®ĩà®¤ à®©
Ġkand upid
Ġn eend
ad o
aat i
y ar
Ġthal aivar
o a
Ġ199 2
Ġà®ķà®£ à®ķ
h en
Ġv ed
Ġc amp
Ġse m
Ġap ana
al aam
Ġsh abd
iyo ar
Ġinv est
Ġthro ugh
à®³ à®ķ
Ġd irect
Ġvilaiy aad
r an
ar bh
Ġth am
ir ikkunnu
Ġvilaiy aatt
ar ichu
Ġl oc
o ff
du kal
Ġmo zh
Ġsev anam
Ġhel p
angal e
ut th
aam m
Ġant im
w ork
Ġà´ª à´±à´ŀ
Ġà¤¬ à¤¦à¤²
Ġaa th
n ey
ar ku
Ġ4 5
o hn
Ġh ow
att ra
à´·à´£ àµ½
adhik am
ay al
it ra
Ġ if
Ġb er
Ġà¤¸ à¤«
Ġf ound
à´ľ à´¯à´ª
aigal ai
rash triya
à¤¨ à¤®
à¤¤ à¤µ
Ġnad athth
Ġthir aipp
Ġv eg
Ġvar g
à¤Ĩ à¤°
Ġjaat i
Ġuy ar
- à´¾à´Ĥ
ath aaka
à¯Ī "
à®µ à®©à®¤
Ġj ee
w er
aan ki
Ġl oss
Ġ gal
Ġà´ħà´µ à´³
Ġ195 0
à´ª à´ķ
Ġb et
aam al
idh a
Ġut paad
w as
Ġn or
Ġà´Ĵ à´ķ
Ġbh ar
à®ªà®¤ à®±
Ġsam aj
Ġim p
p aatt
Ġm ak
Ġm ug
pp ar
à´® à´±
Ġà®Ĩ à®°à®®
ul a
Ġrail way
à®µ à®Ļ
aay am
Ġsam eep
Ġ3 3
Ġmrit yu
A N
Ġvish va
Ġa chch
at r
Ġadhik aar
Ġp ust
Ġà®İ à®¨
Ġà´ĩ àµ»
eg a
ank i
ir ikk
à®£ à®¤
Ġun m
ot s
en il
Ġg aan
à¤¦ à¤®
Ġus ey
Ġm ost
r ess
y aksh
Ġs ark
Ġm en
à´® àµ¼à´¶
tr i
ĠI s
Ġvyak th
Ġnewy ork
b andh
y ear
athin ith
Ġkuzh andh
Ġk issy
Ġà®İ à®ĥà®ª
200 8
Ġgr aam
Ġg e
athth aip
à´°à´£ à´¯
Ġkaal p
à®© à®²
at ive
ur es
aay ulla
k il
u ber
Ġb in
Ġc ath
ĠS o
ĠT uesday
Ġà®Ĳ à®°
Ġà®ħ à®ļ
à®£ à®ª
Ġà´ī à´Ł
Ġà´ Ķ
al y
g am
w a
Ġkend ra
ond ay
Ġovv oru
il ity
ir adhu
à´¬ à´¨
ee sh
et a
à¥Ģà¤Ĥ à¥¤
à¯ĩ ,
Ġill ai
à´Ĥ "
im b
Ġmaar ch
k ey
oo w
ar at
à´µ à´²
el op
Ġro b
Ġnalk i
Ġkand eth
Ġ194 4
Ġmik acha
Ġm or
à¤¯ à¤¸
à´ļ à´ª
à´¡ à´¨
ich ch
Ġsam arth
Ġon ly
ikkunn ath
Ġpir athinith
Ġpur askar
ww w
l et
Ġl ong
Ġpo ints
Ġ eer
gal in
Ġà®ī à®²à®ķ
à´± à´ª
à¤¸ à¤¸
Ġc as
à´· à´¤
aiv aaga
Ġaand in
Ġch urch
Ġ4 9
Ġprak aar
à´ĺ à´Ł
20 20
Ġul ag
ikk an
Ġkal aign
Ġkad ar
aliforn ia
Ġaa sh
à¤¬ à¤®
Ġr ekh
Ġà´ıà´ķ à´¦
Ġv eendum
Ġn amb
u al
Ġir aan
Ġpur ath
int eyum
Ġp esh
ath ode
Ġm aavatt
Ġpoo y
ith am
à¤ļ à¤°
aam as
Ġvish ay
Ġ aayirunnu
as ed
Ġl ike
Ġà´Ĵ à´´
itt u
à®İ à®®
à®Ĩ à®°
3 5
Ġg l
Ġnag aram
Ġinclud ing
Ġpaniy aattr
i ed
var um
aa rum
Ġà®ķ à®±
Ġpas chim
Ġuyarn na
b an
Ġ #
if e
pad a
aikku zh
à´¿ -
Ġà´ĩ à´Łà´¯
Ġsth ir
Ġaavash yak
àµģ ;
Ġp enn
Ġj ol
Ġc le
om as
Ġtr ain
Ġenniv ar
Ġà¤Ĩ à¤ķ
à¤ĩ à¤ķ
Ġ5 00
igal ai
Ġkad al
ernth edukk
Ġsah ay
7 5
Ġsh eersh
Ġj ul
w ire
ic o
Ġan uv
Ġb en
Ġd oor
Ġcolleg e
à®° à®¸
Ġch aah
uth a
iv ugal
Ġis ai
aak um
Ġmon th
Ġv etrtr
E N
k y
Ġs v
19 0
à¯į" ,
arp oo
Ġv er
tt an
Ġt er
Ġvaazhkk ai
s tr
Ġb achch
à´£ à´¯
Ġst ar
yam aaya
am eric
r es
Ġcoun ty
Ġst at
Ġ9 0
Ġfr ee
Ġà¤Ĩà¤µ à¤¶
n am
kal ukku
unn y
à´¨à´® à´¨
Ġ oop
à¤¸ à¤¤
ak aar
Ġà¤®à¤¹ à¤¤
Ġinter n
ey ulla
à¤® à¤°
Ġis ka
à´· à´¯
Ġabh in
p aadu
Ġaras iyal
o x
Ġo tt
Ġj h
Ġpr aadesh
à¤ĸ à¤¨
Ġur pathth
im a
Ġà®ħà®µ à®±
Ġka und
à®¨ à®°
Ġà´ĩ à´±
Ġro ad
apur na
c ed
Ġbh ag
Ġv entr
Ġc ard
aat ak
ys tem
Ġn inn
ah at
u ch
iy aaya
Ġthan ne
Ġpah ala
Ġkuripp id
Ġalb um
Ġadh iga
ththa iya
Ġjab aki
p c
Ġn ik
Ġpr em
à¤¥ à¤²
Ġà¤ľà¤¬ à¤ķ
Ġsathav eetham
Ġà®ĩ à®ª
iv ar
akal il
igal il
Ġgovern ment
ra z
Ġho use
w ood
Ġk aiy
Ġbad ey
ad d
te in
ep h
p or
Ġk id
à®µ à®©à®®
Ġab b
asam kh
Ġm eyy
Ġt ri
Ġin st
Ġà¤ĸ à¤°
Ġaddeh athe
Ġpras idheekar
er ikk
à´² à´¸
Ġd en
Ġar im
à´µ à´¦
à¥ĩà¤Ĥ à¥¤
pr ess
Ġchh od
Ġà¤ Ŀ
3 3
o al
Ġà®ĩ à®Ļ
Ġwh ere
Ġpol ice
Ġs up
Ġl aksh
Ġà´¤ à´®
ĠR ep
Ġà®ªà®¤ à®µ
Ġmee thu
Ġà®ĩ à®Łà®®
à´¾à´Ĥ .
om an
aar e
iy aayi
oor v
Ġà´ħ à´ŀ
uth u
Ġun du
Ġ3 2
Ġam ainthu
Ġco ach
f or
er v
ila kku
Ġm c
ang iya
Ġp athil
ad y
ani an
Ġkal ikk
Ġà¤® à¤§
Ġr ich
ic es
Ġs r
Ġav attr
apped unnu
Ġ199 3
Ġpravar th
Ġaagiy avai
Ġt y
irun dh
20 22
Ġkaaranam aaga
Ġa ut
Ġek adesham
Ġse ll
Ġiru kkum
Ġà®Ĳ à®¨
Ġdur ing
at ah
Ġsh ram
Ġ aayi
à´° à´ĸ
ear ch
Ġnaal u
k r
Ġs aj
Ġv aad
Ġk ann
à®© à®£
Ġg erman
Ġvil ayaa
Ġà¤ķ à¤ª
Ġn an
Ġà´¤ àµ»
Ġvir iv
Ġv anth
ul ar
Ġbo ard
Ġjuun a
Ġarim ug
Ġw orld
Ġchey yaan
Ġ198 8
new s
Ġsam aapt
Ġ3 4
Ġpah unch
àµĢ à´Ĥ
20 21
Ġvid y
ipp ikkunnu
Ġ199 1
co tt
à¤¯ à¤¯à¤¨
Ġf ed
ĠM onday
Ġksh etr
Ġsan chaal
Ġmad e
Ġkaalp andhu
Ġ x
Ġh at
Ġà´İ àµ½
Ġprak hy
Ġste shan
Ġsit ambar
Ġà´µ à´¸
aiy aalar
Ġpaar ambar
Ġhaal aanki
Ġth el
Ġà´ķ à´Ł
h ya
Ġn j
Ġr og
Ġcl ass
Ġenniv ay
Ġ ing
g er
Ġ aaya
ar ter
sh ipp
s c
or i
Ġà¤ī à¤®
aaram bh
ĠPr esident
b ack
à´§ à´ª
Ġ198 4
Ġniruv anam
Ġadhy ayan
aamb yan
à´² àµ¼
Ġh ome
Ġnov ember
s u
ch it
us are
Ġà®Ĵ à®²
à¤¥ à¤®
18 9
Ġm id
ap h
Ġthod angk
Ġ198 9
Ġsept ambar
Ġ ik
Ġk adh
Ġa thth
Ġà®ĩ à®³
Ġvy avas
Ġsc or
Ġm am
Ġn ow
kal um
Ġà´İ à´Ł
200 0
Ġhe ad
intr ana
Ġ umm
à®¾ "
Ġb eh
Ġl eey
oru l
à®¤ à®µà®°
Ġà¤ı à¤¡
if ic
Ġel ectr
Ġep is
Ġradi o
angal ai
Ġpuru sh
) à¥¤
Ġà¤® à¤Ī
à¤µ à¤ª
Ġà´µ à´¯à´¸
Ġma ee
200 6
Ġbhoom i
à¯ģ )
Ġsh at
ukk aaga
Ġs ig
Ġ194 5
Ġkaa t
Ġpir ab
Ġcher ia
Ġ7 0
Ġsw at
Ġpatt iyal
Ġwh ile
Ġjohn n
Ġthiranj edukk
Ġsark aar
Ġà´ ŀ
Ġdev elop
à¯ Į
Ġà¤Ĩ à¤¤
Ġkav und
Ġmunn aal
v en
war e
Ġjan wari
Ġthud akk
Ġà¤ľà¤¨ à¤µà¤°
g an
à¤¶ à¤¤
Ġm atch
à´ª àµ¼
à¤ı à¤²
à´ª à´Ł
Ġch aambyan
ut thu
Ġs eer
à®® à®±
or ida
Ġch ik
Ġà®Ł à®ª
ush t
Ġo ro
Ġe pril
oll ow
Ġis aikkuzh
Ġaa p
Ġun ion
ist s
Ġthog ai
Ġa gal
am aanam
Ġpar ip
Ġcon tr
b on
dh i
ant s
Ġ8 0
Ġsin ce
Ġ Z
ad dh
Ġkoor inaar
à´± à´®
Ġpar im
Ġud aah
Ġgh osh
p a
à¤° à¤²
à´µ àµ»
Ġb ig
Ġpr ess
Ġà´ī à´³
Ġsa ern
Ġsthaap it
Ġp ublic
Ġm ake
Ġch el
Ġ20 23
ul an
v een
Ġà¤¹ à¤®
Ġà®ĩ à®±à®¨
Ġoo tt
Ġaav as
Ġbec ause
y uu
Ġm at
à¤¸ à¤µ
Ġà¤ĩ à¤ķ
al on
ang ku
us th
Ġpath ivu
Ġsath amaanam
T A
Ġg et
ipp ich
Ġar ug
Ġud h
Ġirunthth ana
à´ª à´£
atth e
I t
th o
in thu
Ġar m
Ġte chn
Ġpratish at
Ġkar udh
ib le
3 2
Ġd ene
Ġà¤ħ à¤ļ
à¤¯à¤µ à¤¸
Ġà¤Ĳ à¤¸
al ai
Ġpaniyaattr inaar
ĠA r
Ġle ak
art ment
Ġpraadesh ika
Ġà®ı à®©
Ġund aayirunnu
Ġvig yaan
iy ulla
Ġn asht
Ġt ru
Ġjis ka
in aayi
Ġà´¨ à´¯
Ġdo uble
Ġà®Ī à®°
ar on
Ġc y
à´¦ à´®
ipp ikkukayum
Ġà´² à´ķ
Ġp uth
tr o
Ġkh il
id er
Ġà¤ľ à¤²
Ġà®¨ à®©
200 5
Ġk on
à´² à´§
ab b
Ġyo on
Ġpinth un
Ġl o
kku v
ĠR uss
Ġchh ote
x t
i ew
en na
Ġb at
Ġb and
Ġath ir
Ġchern nu
e z
y arch
Ġh tt
Ġto p
Ġnir m
Ġà´ı à´ª
Ġvarsh am
n i
Ġp athin
Ġh ai
Ġà¤¬ à¤ľ
Ġpar y
4 5
Ġd av
Ġj ah
Ġà®µ à®ļ
Ġw ashington
" -
ad ikk
is ter
Ġà´ĩ à´²
Ġà´¶ à´ķ
Ġmed ia
s p
s ee
an ish
Ġp il
Ġr ach
Ġt imes
Ġg ol
Ġpo thu
ep ral
Ġà´ĵ à´Ł
Ġther ku
Ġsam aan
Ġl ii
Ġst ation
Ġor ay
Ġjis ase
aar tha
od y
as i
Ġw in
Ġpar ay
Ġà´İ à´¡
itt ar
Ġà´ĵ à´°
Ġban aane
Ġpariv art
Ġass oci
Ġsupp ort
Ġl ev
Ġà¤¹ à¤¸
Ġh ast
ikal e
à¤ ĳ
ang a
aa f
à´¤ à´µ
athth u
Ġs uv
Ġvel ippad
Ġsaar v
Ġnoottr aand
Ġm ain
à¤¡ à¤¨
Ġar t
v an
as k
Ġseith aar
Ġà¤ĳ à¤¸
Ġsen aa
Ġjul aai
es tt
6 4
à´¯ à´µà´¸
ai chch
Ġb ach
lo ck
Ġa is
Ġà´® à´Łà´Ļ
Ġà´ĵ à´Ĺà´¸
Ġpodh u
à´¨ à´ķ
Ġà®İ à®ļ
Ġs us
ath er
6 5
u te
Ġà¤ķ à¤¨
Ġanum ath
ol ina
er a
Ġmaan il
Ġkud iy
Ġma e
ull ana
Ġmud iyum
kkurichu lla
Ġpayir ch
à®ª à®±
à´Ł à´°
is tt
ip ar
Ġud desh
athin um
Ġ3 7
Ġvim ars
Ġjin hone
Ġb ur
Ġ4 4
Ġpur atth
igh ts
3 8
ath aaga
àµĨ .
Ġse iya
Ġà¤¶ à¤¤
Ġdw eep
Ġo b
Ġà´µ à´¹
ik i
udh al
Ġpr abandh
Ġam erikk
Ġvad akk
Ġnet work
ades a
Ġd oos
aigal il
3 4
e thir
p aadugal
ath aan
at an
Ġv aag
av aad
Ġà¤ª à¤¡
Ġhiss a
à´¿ )
Ġav aa
ĠUn ited
à´ ī
Ġk ram
Ġf eat
Ġap rail
Ġn im
à®£ à®Ļ
ag aala
Ġsp ec
à®ĩ à®²
Ġmah atv
Ġà®ª à®©
Ġpar anju
Ġnir d
Ġcheiy unna
Ġsaamb iyan
Ġp ass
Ġath in
Ġag ast
Ġvyak t
i et
t av
Ġà´Ĩ à´±
Ġà®° à®¯
Ġà®ı à®ª
Ġ Î
Ġà´® à´§
Ġà¤¤ à¤¬
Ġà¤ħà¤Ĺ à¤¸
Ġp and
à´¤ à´¨à´Ļ
Ġu tt
à®Ĩ à®®
Ġd un
Ġà®Ĩ à®ĥà®ª
Ġà¤ıà¤ķ à¤²
Ġà´ľà´¨ à´¸
Ġthitt am
Ġveer argal
à´¨ à´²
Ġà®ª à®¨
Ġà´İ à´ª
Ġ198 6
Ġmur ai
m er
t an
m on
u ck
Ġj al
Ġà®ļ à®Ļ
ah am
ide o
Ġanus aar
ly mp
Ġvarsh on
y ata
à´± à´²
Ġv eed
à¥ĭà¤Ĥ ,
Ġpar aam
ff er
à´ķàµ½ à´ª
Ġoct uber
Ġantar rashtriya
aal i
à´ĺ à´Łà´¨
Ġb ol
Ġr aksh
Ġr ayil
àµ» à´ķ
âĢ Ķ
Ġ198 5
à®İ à®²
Ġm eet
à´µ àµ¼à´¤
Ġà´µ à´´
Ġoru var
Ġ194 0
Ġdes ember
Ġd usare
Ġdo ubl
I C
Ġe kal
n eet
av iyal
Ġà¤Ĺ à¤°
aak h
Ġkh ar
Ġsamoo g
Ġbaah ar
Ġh og
ik amaayi
Ġaa b
à¤¬ à¤¦
Ġà¤ī à¤²
aaran ayaayi
i or
aa tr
à®© à®µ
Ġth arpoo
Ġle ft
icha el
Ġt ahat
Ġà¤¤ à¤¹à¤¤
ect ion
Ġ193 0
d ii
Ġk ab
ik aran
iv es
a ut
i als
àµį à´ĥ
am ulla
ĠA n
Ġperump aalum
Ġ iy
Ġb ase
it aa
ikk appatta
thu kkal
Ġ3 8
kh al
c ar
p aar
à´Ļ à´¨
Ġho ll
3 7
à®± à®©à®°
à®³ à®Łà®ķ
ĠC o
Ġus ake
Ġ4 8
Ġb iru
Ġpr athin
Ġà¤ħ à¤¤
abd i
IN G
à¤° à¤ľ
Ġa ward
Ġv ak
Ġch ild
ikk appattaar
al in
Ġ" .
appadug iradhu
à´° à´ļ
à¤¼ à¥ĭ
Ġvibh inn
à®¤ à®Ł
Ġo pen
Ġmo onnaam
Ġpaan ch
Ġveer ar
r ed
à®´ à®²
ath aayi
eekar ichu
Ġpat r
Ġchampion ship
à´± à´¸
Ġà´Ĩ àµ¼à´Ł
Ġ18 0
Ġthod arp
6 6
irun th
Ġà¤ĩ à¤®
aat mak
Ġma em
Ġà®ķ à®®
à¤¯ à¤¹
Ġt aba
Ġpar k
Ġà¤ı à¤ļ
Ġvar dh
anth am
ort s
Ġmu yarch
iraar gal
à´¬àµ¼ à´Ĺ
Ġvilayaa ttu
an usht
à®° à®©
à¤¸ à¤ª
Ġà¤Ĩ à¤®
eekar an
Ġnigazh v
à®¿ )
Ġc over
ig at
à´Ł à´£
Ġsam bh
Ġsevanam anusht
Ġd v
Ġmahatv apurna
à´¸ à´®à´¯
Ġà¤ħ à¤«
Ġmukk iyam
à´ķ à´£
Ġs umar
à´µ à´¨à´®à´¨
à¤µ à¤ľà¤¨
Ġà´ķ à´µ
Ġà¤Ĺ à¤¤
ig an
Ġv aap
ir odh
à´Ĺ à´µ
Ġhal anki
g ar
os ton
uv ari
Ġveliy idappattathu
9 0
er iya
Ġit ihas
Ġul kk
e f
e in
r is
à¥ĩ -
à®° à®ķ
Ġà´¨ à´¦
uv al
o app
à´¯ à´²
Ġà´Ĩ à´¨
Ġà¤°à¤¹ à¤¤
Ġprat in
Ġà®īà®£ à®µ
g in
u es
àµĭ ,
ich irunnu
uk e
Ġvaal aa
Ġà´īàµ¾ à´ķ
% )
Ġb ett
Ġc ent
Ġpo wer
Ġex per
Ġ197 2
Ġka un
à´µ àµ½
Ġà´¡ à´¬
p aguthiyil
Ġth amm
kku kal
Ġ198 7
Ġjan asamkh
yaa bh
ainth athu
Ġsam maan
Ġru n
Ġull oor
Ġud pada
Ġmaan aa
apped ukayum
U S
à®£ à®®
Ġà´ī àµ½à´ª
Ġbr and
ais s
Ġkuzh u
ih aas
Ġyadh aartha
à¯ģ ;
à´ļ à´±
Ġà´ª à´±à´¯
Ġsar kkar
Ġchun aav
Ġp usth
Ġd inn
Ġà´µ àµ¼à´¦
Ġà¤Ń à¤°
Ġjo onn
Ġpal vaeru
ĠII I
, âĢĿ
k ayum
Ġà®ħà®¤ à®±
angkal ukku
form ation
Ġever y
Ġneend a
Ġshat abdi
Ġà®ĩ à®Łà®Ļ
à´¬ à´¤
itt er
ukal e
Ġpaar v
Ġsthaap ana
à¤¨ à¤¨
Ġmatt ra
v iy
Ġk or
Ġà´Ĵ à´ª
yaabh yaas
A L
k um
Ġs ystem
att u
Ġg ames
Ġsthit i
à¤ķ à¤Ł
Ġà´® à´£
Ġnad ath
Ġnad aip
Ġcr oss
ajan ik
a u
aan athu
à¤¦ à¤ķ
ol v
Ġse tt
Ġvar n
Ġull adakk
Ġprakaash it
th ing
it thu
Ġpo ong
Ġà´¨à´Ĺ à´°à´¤
Ġsamarth an
ar iy
à®£ à®µà®°
Ġf eel
Ġf amil
Ġw eb
Ġà¤¨ à¤¦
aath am
Ġkazh iy
A S
ur ity
Ġpak uthi
an u
Ġl im
Ġg ir
Ġt oo
Ġf eb
ikk appatt
Ġà®ķà®Ł à®²
ru kal
à®¤ à®¨
ev ai
Ġmaan ila
anj a
iyan tr
Ġbl ack
Ġshiksh a
Ġj apan
Ġvar t
-- --
Ġdet aa
Ġanu bhav
Ġaen enil
à®± à®²
Ġth ose
ak aash
Ġin t
Ġà´ľ àµ¼à´®
Ġadh ai
Ġgr and
Ġpaar kk
Ġaalb am
W e
n il
aar it
Ġson tha
w een
Ġà´İ à´£
Ġam aipp
Ġpatt ri
yak aala
Ġjeev it
à´² àµ»à´¡
Ġà®ī à®¯
h ome
Ġsaadh aaranayaayi
Ġn orth
Ġl eg
Ġpr ot
a ff
ee e
ukal kk
eek shan
Ġethir aaga
Ġmoon tr
Ġmod el
Ġv end
ett ar
Ġg ood
Ġthan n
Ġjaa te
a gal
Ġ ood
aa ppu
ar as
Ġl ook
Ġniy anthr
Ġland an
Ġn ear
Ġà´Ń à´°à´£
Ġ198 3
Ġnil ayil
ay ilekku
pp an
om b
Ġan uk
Ġ197 6
Ġ angk
oo h
Ġg lo
Ġ6 4
Ġmuth anm
Ġà¤¸ à¤¡
Ġt ake
thth iram
akal um
Ġmaer k
Ġp ug
Ġ5 8
Ġbe ing
Ġmig a
ĠP h
Ġpad inj
ar iyapp
à®ªà®Ł à®µ
à®ĩ à®¤
Ġth aer
Ġv aeru
Ġà®ı à®°
t in
Ġy ah
ov in
Ġariyapp ed
m urai
Ġsarv adesa
ugh t
Ġpran ali
aarambh ik
ov a
aasth r
Ġlabh ichu
Ġrandaam athe
Ġen dha
à´§ à´¨
ap ar
Ġnil aiy
Ġvel ipp
à´ķà´°à´£ à´Ļ
Ġpaksh e
Ġprakhy aap
Ġp ort
ug g
200 4
Ġcoun try
Ġpen kal
iy ayile
em b
Ġjan uvari
Ġthir ich
b usiness
à´° àµ»
à¤¤ à¤¤
ud i
og rap
aav al
ĠN orth
Ġthudakk athil
Ġpuratth ir
Ġe ch
Ġ194 2
Ġrah ee
Ġbhash a
à®¯ à®ķ
att am
athe kku
à¤ħ à¤²
y r
Ġn uzh
iv ag
Ġthee rum
Ġpun arn
Ġprathyek a
3 6
i ff
Ġr os
om en
Ġpo st
Ġ197 5
oy il
iy udan
Ġv aay
àµ» à´Ĺ
aay irunn
Ġkal aa
eng ilum
Ġsak ate
Ġind ustr
s i
Ġ3 6
Ġà®ĩà®¯ à®±
4 4
Ġh and
Ġo wn
om in
Ġà´ĩ à´Ł
ais i
Ġpak aram
Ġmadh y
y eh
à®² à®¸
athin aayi
à®° à®µ
à´± àµ»à´¸
Ġ izh
à®ķ à®£
Ġk abhi
Ġà¤ķ à¤Ń
aar on
as ter
Ġà¤¶ à¤°
Ġ3 9
Ġà®Ĩà®ķ à®¸
Ġgr een
Ġdev al
Ġbain d
am ayam
ath ilekku
Ġn een
Ġà®¤ à®³
ĠS h
e ch
on ic
Ġpr es
ish ed
Ġthan th
Ġtho al
c es
p al
on ald
ad el
Ġt al
ith amaaya
Ġhe alth
Ġpoor i
Ġthayaar ipp
iy ull
Ġt ees
Ġà´ª à´ķà´°
Ġme khal
oj it
à¤¾ )
à¤² à¤ķ
Ġ196 8
Ġpodhuv aaga
business wire
aan i
Ġh ard
Ġt ulan
el and
Ġ19 20
Ġin aikk
Ġbh aran
Ġprak ad
Ġvart amaan
w al
Ġv ideo
ap e
ip ath
Ġsept umber
Ġm inn
Ġpr oc
Ġaa zh
Ġà®Ĵ à®±
ish esh
Ġseason il
Ġth aar
à´ª à´²
ĠA nd
rit i
Ġper il
Ġ197 9
Ġà®Ī à®Ł
Ġudaah aran
Ġà¤¹ à¤µ
Ġà´® à´ķ
Ġà´ħà´µ à´¯
sh ik
Ġnad ee
à¤ī à¤¸
à¤Ľ à¤²
Ġkan ad
Th is
am sh
Ġà´ħà´µ à´ķ
Ġfr anch
Ġte x
à´ĸ à´²à´¯
Ġex pect
à´± à´ļ
Ġpr op
à¤· à¤¤
à®ľ à®©
à´Ł àµ»
Ġw al
Ġun a
Ġaag e
à¤¯à¤¨ à¤¶
Ġà®Ĩà®¤à®° à®µ
Ġsaarv ajanik
5 5
Ġn iyantr
Ġj os
Ġg ad
Ġw ant
Ġvitt u
aan ennu
ers ey
Ġpoor tth
Ġmud iv
Ġm ood
Ġà¤ķ à¤¬
àµĨ "
Ġf ollow
athth aiyum
Ġman y
Ġporu t
Ġeng laan
Ġt old
Ġf ive
ro w
aaj ay
Ġprat yek
à® ĵ
Ġth ernthedukk
à´µ à´®
Ġev en
Ġaak ram
n ir
in es
Ġal avil
Ġ197 3
Ġ197 4
Ġpar as
Ġis aki
Ġà´ĵ à´ª
Ġà®īà®£ à®°
ĠSo uth
Ġa ich
Ġà®Ĩ à®ª
Ġpar aajay
ain s
ra j
Ġà´° à´ķ
Ġnagar a
Ġkazh iyum
Ġà¤ħà¤µ à¤§
Ġghosh ana
av ugal
ĠA l
Ġ194 3
à®ļ à®ª
it r
Ġà´ķ à´¤
uth or
Ġviv idha
j ur
Ġk ing
à´± àµº
Ġth aan
Ġth aamas
Ġl ak
akk aar
Ġpalkalaikkazhag aththil
à¤Ĺ à¤łà¤¨
tr ik
à´¶ à´°
Ġsu ch
Ġkond irundh
à®° à®µà®°
Ġs unny
im m
Ġpir ath
Ġud yog
Ġadisth aanam
c il
am aanu
Ġar ab
ĠC ol
ĠI nd
igal in
à®İ à®ĥà®ª
eng e
Ġà®¨à®ķà®° à®®
Ġinn um
Ġgro w
Ġp aid
à´¸ à´°à´¤
à¯į. "
ĠB ut
Ġaf r
Ġkend r
Ġsarvakal ash
Ġpooy int
Ġb aadh
à´³ à´ľ
ikk iraar
ig r
ra ch
200 2
à´ķà´°à´£ à´¤
gr ess
Ġcath ol
à¤¾ ;
àµĪ à´Ĥ
Ġpaguth iyaaga
Ġbhaar at
Ġpirathinith iththuv
Ġurpathth i
Ġa us
à®³ à®©à®°
Ġf ull
om a
Ġbh oor
Ġvid esh
Ġa inthu
Ġg an
zh s
Ġsh ould
ĠF r
Ġmadh ya
n agar
iv ing
ach ar
Ġ196 4
Ġveliy id
Ġaadh un
Ġkamb an
à´ª à´ķàµ½à´ª
ith ar
Ġsam raksh
ro ru
Ġbhoom ika
ir i
Ġà®¤ à®ķ
Ġform er
Ġth aram
18 8
Ġkett id
Ġkaun sil
v ad
Ġà´ ĸ
à´¸ à´¸
à®´ à®ª
Ġbh av
Ġnir desh
200 3
A R
Ġv ann
à¯ĩ .
Ġ197 8
à¤¯à¤ķ à¤¤
Ġmah ila
i ber
Ġc ity
Ġà®¤ à®¨
Ġadh arku
Ġkaan oon
o jan
Ġgo ing
Ġol ipar
Ġvyak ti
Ġk at
Ġs end
Ġs udh
iy og
thth athu
oy ude
Ġirunthth anar
unnathin aayi
Ġà¤«à¤° à¤µà¤°
Ġfar wari
Ġg ath
aatt ru
Ġman ag
aash tra
m un
o ar
Ġà¤ ł
oo thar
ap ed
Ġprath yaksh
Ġthiranj ed
Ġt ro
Ġir oapp
Ġman n
ithth anar
Ġkazh inj
Ġstr eet
Ġ est
Ġà®® à®ķà®©
itt athu
Ġid aththil
Ġsak th
Ġstat ement
à¤¥ à¤°
ĠW h
Ġpatt riya
Ġrom an
il s
Ġth ink
à´ľ à´ķ
Ġsthaan iya
Ġvay athu
Ġfed eral
am aagum
Ġy un
ish th
Ġvil akk
art a
Ġprofess or
i us
ch in
Ġà®¨ à®µà®®
ith u
le x
à¤ĸ à¤ķ
Ġit aal
ij i
y oj
Ġr as
Ġch rist
ent ly
à´¯àµ» à´·
Ġviru mb
Ġadhy aksh
3 9
Ġs pr
199 0
Ġkuripp aaga
r ay
Ġk amm
Ġm is
en al
Ġo on
as ari
Ġse ik
Ġjis ane
Ġà´¸à´® à´¯à´¤
Ġed uththu
n aam
s aath
à´° à´ªà´°à´®
à´· à´®
Ġà´Ĩ à´³
ett ra
ord ing
Ġadhik ansh
Ġsen tr
Ġulpped e
Ġuth av
y ing
Ġm ish
à´Ł à´®
Ġb is
Ġb ish
Ġà´¨ à´®
Ġko tt
ng el
Ġanuv ad
Ġse iv
Ġon d
Ġ196 9
Ġbanaa e
k an
Ġp ed
à®µ à®ļ
Ġme m
Ġch ain
àµģ. "
à¤Ń à¤µ
end er
Ġtulan aa
7 4
Ġa epral
Ġn ight
Ġà´ª à´²
Ġà®İ à®ª
Ġà®īà®± à®µ
Ġqu arter
Ġk ans
Ġb und
Ġg av
Ġch a
Ġkatt upp
Ġres earch
Ġputhth ag
ĠRep ublic
Ġb ull
av adikk
Ġj un
Ġ198 1
Ġsang rah
ĠK ore
Ġdab ly
an aal
à®Ł à®µà®°
ur aa
à¤ı à¤®
os p
uv ai
Ġprad arsh
Ġiruth iyil
Ġchik its
. âĢĿ
ipr avari
m ai
Ġà®Ĩ à®Ļ
Ġex p
Ġkood udhal
Ġaras aangk
entr al
Ġipp ol
Ġveliya e
Ġadippad aiyil
r ik
Ġà®ª à®ļ
ain tha
anam aaya
j ar
r os
Ġth aal
à®ļ à®Ļ
Ġnad anna
Ġthod akk
Ġva ek
6 7
U R
Ġpr ev
l eesh
Ġn ab
Ġpr asth
Ġman ush
ist an
ood iya
aikal ai
kkal aam
Ġsans karan
Ġn umber
Ġch ak
Ġmatt oru
Ġp ae
à´¸ à´±
Ġà¤ī à¤ªà¤¨
Ġmar an
Ġ7 5
Ġcl o
Ġprodu ct
f ul
Ġseiyapp atta
p u
un e
Ġà´ĩ à´¸
Ġro und
Ġsah od
Ġdig ital
Ġaavashyak ta
6 8
Ġv eedu
Ġpo s
Ġnad avadikk
appad uv
Ġmuthal il
Ġchh at
Ġà®¨à®Ł à®µà®Ł
Ġniy ukt
Ġvyaap ak
ai wan
200 1
Ġmuzhuv athum
Ġvict or
Ġkn ow
k ur
um an
Ġb all
Ġd ata
Ġ197 1
Ġpun ar
Ġk aath
ay aal
aiy udan
ut ion
) ;
à´¨ àµ½
Ġvar is
Ġgh at
Ġcour t
Ġm aiy
Ġc re
Ġavar ukku
Ġaddeh athinu
Ġm ult
unn ath
Ġko sh
à´İ à´«
ĠL e
Ġipp oathu
Ġdikh aai
Ġà¤¡ à¤¬
Ġcon c
Ġassoci ation
5 00
ay aan
àµ½ à´®
Ġà®ī à®¤
Ġavas ana
Ġs ix
es ota
Ġmun ththaiya
aash tr
Ġà´¨ à´·
Ġaa ru
Ġà¤ĩ à¤²
avum aaya
Ġà¤ĩà¤¸ à¤®
Ġswat antra
' re
k in
Ġk ull
à¤ª à¤²
ol i
Ġbh eet
Ġis amen
à´°à´£ à´Ļ
Ġjol ie
à¯į ),
à®© à®Ļ
Ġc alifornia
itt y
ment s
Ġhis se
ĠY ork
min istr
Ġ i
Ġ â
Ġj ag
it z
if t
Ġpatt am
Ġaduth tha
) :
ak aran
Ġà¤® à¤ľà¤¬
Ġj ames
ii sh
Ġre qu
ezh s
à´ Ī
à´ļ à´¨
Ġme ch
athth aal
Ġar th
Ġà´ĩ à´µ
Ġà®ĩà®² à®ķ
Ġsp anish
Ġupayog ikkunnu
Ġ196 7
Ġaduth a
con om
Ġa ind
à¤µ à¤¸
Ġu se
Ġan no
Ġid ayil
Ġvid yaabhyaas
athark aaga
Ġpaan i
Ġparis eel
Ġà®ľà®© à®µà®°
Ġsthith i
Ġanno un
b in
iy aagum
Ġch il
Ġnew s
Ġà´µàµ¼à´· à´Ļ
Ġbill ion
Ġthalaim ai
T H
Ġch aan
aag ath
re as
Ġ197 7
an aaya
Ġà¤Ĩ à¤¬
à´´ à´¯
Ġroop akal
Ġsah aay
Ġmad ang
I S
s el
à´® à´ķ
Ġà´¤ à´µ
Ġà¤Ĩ à¤²
ukal kku
ĠH ouse
Ġkol ej
pp ana
Ġà´ħ à´¡
an thu
Ġth avar
Ġpir ivu
Ġsamud aay
Ġh on
Ġà®ļ à®µ
app ozhum
Ġpad am
Ġsamoo ga
Ġmaj b
Ġs atra
Ġà¤ħ à¤¦
Ġar r
atth inu
Ġett u
Ġdun iya
7 6
Ġà¤¬ à¤¤
Ġen avae
Ġà®İà®© à®µ
Ġst and
à®µà®¤ à®©
Ġpaguth iyil
Ġk ilakku
Ġà¤® à¤¦
att ai
aas iriyar
Ġho ck
Ġbheet ar
c y
av y
Ġpat aa
Ġaadh ar
Ġpu uraa
Ġsaf al
Ġà´ħ à´¯
Ġà¤° à¤ķ
Ġsam ar
Ġvaral aattr
k irathu
ir ikkunna
aay ak
à®ªà®Ł à®¤
Ġan n
Ġà¤¶ à¤ķ
aak i
Ġvy av
Ġaustral ian
Ġathth iy
Ġtheerum aan
al aya
Ġa ik
Ġà¤ħ à¤Ĺà¤²
atth iya
Ġaag a
à®ħ à®®
à´°à´¦ àµ¼à´¶
Ġak sar
Ġthaakk uthal
h ar
Ġv ist
Ġj ack
à¤µ à¤°à¤£
angal ilum
ri an
Ġ196 6
Ġà¤ĳ à¤°
u el
Ġn as
ud arnnu
Ġin formation
Ġkh ud
à®ķà®° à®®
r n
u ff
à´¨ à´¨
à´£ à´ª
Ġc ru
ith aav
Ġà´Ĵ à´Ł
Ġ198 2
Ġ196 5
Ġyo ur
H e
aa ee
à®ª à®¯
ur o
Ġin jan
Ġà´¬ à´¹
Ġn aat
Ġpr os
à¤¼ à¥ĭà¤Ĥ
end s
à´İ à´¨
Ġjin amen
Ġchaah iye
aigal in
Ġbr itt
à¥ĩ "
à®Ł à®±
ay aaya
ir o
Ġ" (
Ġà¤ķà¤° à¤ķ
Ġfr ank
à®ľ à®°
Ġcon gress
eek aar
Ġaas iriyar
Ġthol aik
Ġdirect or
on y
Ġv aithth
Ġj ay
Ġkar ke
Ġcon n
Ġpol ulla
Ġpoatt iyil
C E
r itt
Ġa etr
ee f
Ġv ast
sh esham
à¤· à¤°
Ġru nn
var al
Ġmaathram e
Ġm ach
Ġr ak
Ġt urn
Ġc al
Ġà¤Ĩ à¤¦
Ġath e
Ġvazh iyaaga
Ġlog a
Ġpettr athu
Ġmuzh u
Ġfranc is
Ġkaat ch
9 5
b l
Ġm cc
Ġg ram
à¯ĭ ,
iss ion
197 0
Ġind i
Ġthodang iyathu
Ġsaman ya
ad em
Ġb ru
Ġyo jana
sk y
Ġthodangk inaar
i ence
en se
Ġo th
Ġam aippu
Ġal awa
ĠC ar
Ġne xt
r aam
Ġk uth
Ġs qu
ig ar
Ġud am
Ġkshetr on
Ġs war
Ġà´İ à´ļ
aath aara
Ġà´ı à´¤
Ġatt ack
raz il
al iye
Ġn etr
Ġch aal
Ġin jur
à´§ à´®
Ġis rael
à´¥ à´®
à¤ĩ à¤¤
Ġjis ake
Ġed ward
Ġpradh aanam
Ġvibh aj
r oss
sh ire
Ġt aur
Ġà®ī à®ļ
Ġà´Ĩ à´¤
à´¥ à´¯
Ġiru kk
ok e
Ġà´ĺ à´Ł
m ur
es amayam
aa shan
Ġm aal
Ġm ov
. -
j al
v id
à´° à´±
ikk appettu
àµ¾ à´ª
à®µà®° à®²
angal in
akk um
,, ,,
b le
en i
Ġj ill
and ra
Ġpr aj
Ġar ound
ayil um
Ġkee zhil
lymp ic
; -
Ġà´ª à´³
Ġà¤¬ à¤¸
Ġmud ivu
199 9
Ġsand arbh
Ġutt ari
c le
ull athum
oc rat
Ġnewy org
Ġvael ai
à´ķ à´Ł
à´¤ à´°à´µ
ay aanu
Ġr est
Ġirun ththa
Ġnil avil
Ġsur aksha
aiya e
Ġpett ra
Ġaab aadi
iy aanu
à´µ à´ļ
Ġneeth im
t al
Ġpust ak
am aayirunnu
à´³ à´±
as al
ap etta
Ġ15 0
Ġ194 1
Ġthud angiya
Ġariv iyal
Ġsing le
Ġh ere
àµ½ à´«
à¤Ł à¤®
Ġy ug
Ġà´ħà´µ àµ¾
Ġaud yog
Ġdoubl ue
à´¨ à´¡
Ġd a
Ġenn ee
Ġ4 6
ust om
Ġnalk unnu
Ġaval ude
Ġs ov
à´° à´ª
ch he
à´¸ à´°à´Ļ
ak aram
Ġl ow
Ġ5 5
Ġ194 6
m s
v aan
ip atta
Ġ7 2
Ġmaer ku
Ġvaap as
Ġnetr itva
nu t
Ġmatt roru
unn athil
ĠA ngel
âĢ ľ
à´İ àµ»
Ġ194 8
à®°à®ª à®²à®®
Ġvikas it
Ġbet ween
a eye
à®ķ à®¸
ad uthth
Ġd rish
Ġà¤¤ à¤Ł
aiv il
ve in
Ġabhin ay
Ġnoottraand in
Ġv ol
Ġsh oot
à¤¼ à¥į
Ġpad aipp
cl r
Ġhast aksh
7 8
r aaj
Ġp av
à´² à´£
Ġall ow
Ġlu is
Ġs een
Ġb aand
Ġin te
aag at
ĠW ashington
Ġaay ojit
m ond
ich h
Ġan thaar
Ġà´Ĩ à´Ĺ
Ġavar ai
Ġjan avari
Ġsang athan
à¤ĩà¤¨ à¤²
Ġutpaad an
l av
Ġ iii
à®¤ à®ķà®®
Ġb aal
kal ude
à¤ı à¤Ĺ
Ġsam g
Ġidh an
Ġbo th
d r
iy ittundu
Ġà®ļ à®¤
iru m
Ġko ad
Ġsad ak
adel ph
a ul
Ġs at
Ġn ar
Ġn aee
Ġà´¨ à´Łà´ª
zh al
Ġ5 1
à´ªà´° à´¯
Ġbu ild
Ġpadh ath
s bur
Ġs apt
Ġf ac
Ġà¤¨ à¤Ī
Ġà¤Ĩ à¤ª
Ġvazh i
Ġbro ad
Ġthamm ilulla
p inn
Ġà´ķ à´¨
Ġaag iyoar
Ġshr adh
Ġsatt am
Ġcont inu
d in
t ain
à¤¾ à¤ĥ
Ġm ont
Ġbh agam
Ġaar op
Ġeng leesh
an ant
Ġs oor
Ġm ass
ath eyum
aan s
Ġà´ª à´²à´ª
ik shan
unn athinu
Ġid am
Ġed ukk
Ġpal appozhum
Ġdis c
Ġkathaapaath thir
Ġhtt ps
Ġp eed
Ġà´ħ à´°
em m
Ġpro ject
aitt ad
Ġaakar sh
Ġvaas tav
à¥Ģ )
it ihas
ain dha
aikk appattathu
Ġ196 3
Ġuy ir
Ġres p
8 8
Ġ um
Ġà¤¹ à¤®à¤²
à¤Ĺ à¤Łà¤¨
à´ŀ à´¤
Ġk ank
àµ¼ à´ĺ
Ġe conom
Ġaa ttr
à¯Ĥ .
ani es
Ġà¤ ¢
il i
Ġn aatt
Ġy uva
Ġ3 00
Ġà´ħà´µ àµ¼à´ķ
Ġthir akk
Ġà®¨à®Ł à®¨
Ġned iya
Ġim arat
Ġlead er
Ġla ut
6 9
p ole
an co
Ġsah it
aikal il
aguth i
Ġvaral aattru
or j
Ġma x
à´ħ à´®
Ġmaer patta
Ġs ant
Ġo ttr
à¤¹ à¤ķ
aal aana
Ġpr aadh
à¤ĩ à¤®
Ġsa evai
ino ppam
Ġprast ut
Ġpayirch iyaalar
Ġad aiyaal
Ġà®¤à®µ à®±
e an
s ide
Ġr ight
Ġsh aadi
aag ap
Ġan chu
Ġath ig
Ġde te
Ġsc r
Ġsank hya
Ġstud io
Ġbase ball
Ġa yu
à®¯ à®¸
Ġn ational
Ġpr er
Ġw on
ov il
Ġus ed
Ġcheiy unnathu
Ġbrit iish
Ġmot or
n al
ath r
kk il
à¤¹ à¤°à¤£
Ġsam p
Ġà´ĩ àµ»à´¸
à´¥ à´¤
Ġiru thi
Ġond ru
an athil
à´Ĥ )
à´ª àµ½
à´µ à´±
Ġà¤ª à¤ķ
Ġan th
Ġal ex
Ġà¤¸à¤® à¤Ŀ
Ġvi ol
Ġpirab al
N E
à´° à´Ń
ay ulla
Ġà®ª à®Łà®®
Ġh it
Ġh om
ĠSt ates
Ġjeet aa
Ġveed iyo
Ġanthaar aashtra
th e
Ġs ens
ath aik
Ġà®ħ à®³
uk intrana
Ġsam ag
Ġad ministr
Ġkur ip
Ġvip ul
d i
r and
Ġh arr
à´µ àµ¼à´ķ
akal ude
ĠW e
iyar gal
Ġoffic ials
Ġaarambh ichu
id i
Ġch utt
Ġf act
Ġavar kk
g ed
Ġà´¤ à´ķ
ayaa s
Ġshar ash
.... ....
Ġsv ayam
ath aak
Ġthe v
ani z
Ġmu ch
Ġre al
Ġenb athai
Ġrep ublic
Ġsambandh it
Ġthel iv
neet ik
Ġpratin idh
Ġc am
ut er
Ġà¤¶ à¤¬
Ġaan g
Ġst ill
Ġal av
op e
Ġ .
aa te
on es
us ed
eekar anam
à¤ĺ à¤°
Ġlok am
ket ball
à®µà®© à®Ļ
Ġà®Ĩ à®¤
Ġkh and
Ġvi zh
Ġsec urity
Ġsams th
Ġprakhyaap ichu
4 8
7 7
à ¦
à §
at al
un a
Ġan ii
Ġis aliye
Ġà¤ĩà¤¸ à¤²
ng in
Ġvis it
Ġprofess ional
! "
5 3
m it
o pp
Ġs uru
at tha
at ri
Ġv ai
av el
Ġà®ļ à®ª
appatt u
ie f
or ge
à®µà®° à®¤
Ġ195 5
anm aar
Ġà¤Ĭ à¤ªà¤°
Ġtex as
Ġn alla
ak angal
à¤µ à¤¶
akk aan
à¤« à¤²
Ġvim aana
Ġprog ram
Ġaetr t
Ġs cott
Ġg air
Ġà´¤ à´°
ip s
ĠA M
est s
Ġtho tt
9 9
e zz
o ad
Ġal avu
à¤ĩ à¤µ
Ġ4 7
Ġ196 2
Ġmiss ion
Ġpoortth iy
Ġr ac
Ġà´¸ à´µ
uk ondu
Ġsth ree
Ġsuttru pp
adelph ia
l am
p ro
t ime
Ġj aay
Ġav ash
appatt anar
aakk ukayum
ugal il
Ġaag iya
Ġprat iyog
Ġulkk oll
Ġsapt ah
k eth
Ġv ery
Ġf und
Ġà®İ à®ķ
rit ik
Ġuth ar
Ġuth pp
Ġmag an
Ġprov id
Ġinvest ig
Ġrich ard
Ġd ut
Ġl ib
à¤ª à¤·
à´¦ à´¨
Ġse t
uthth athu
Ġthir d
Ġpaath ai
Ġkol g
Ġamainthu llathu
w itter
à´¦ à´¤
à¤ľ à¤ķ
Ġà´ļ àµ¼à´ļ
ustr al
1 00
o th
à´¨ àµ¼à´¨
Ġd eg
Ġdo ctor
Ġ193 9
Ġà¤§ à¤°
Ġsel v
Ġà¤¸à¤¹ à¤¯
Ġvett ri
5 6
h tt
k ae
Ġp ush
Ġa it
Ġb reak
Ġo du
anth ara
aim s
Ġak sh
athark um
Ġanum ati
v u
ikk ai
ol s
Ġkal vi
Ġsc ore
Ġp erson
Ġm ul
Ġt ax
ll ana
om p
rid ay
Ġmoontr aavathu
ĠAngel es
7 3
à¤ķ à¤ª
Ġd ays
Ġl ink
ot i
Ġph ot
Ġsah a
Ġj ile
à´İ àµ½
à¯į /
Ġp ook
ee tha
à´² à´ĺà´Ł
Ġen ter
à®´ à®®
Ġvil aivaaga
Ġà´ªà´° à´¸
Ġcomp anies
198 0
Ġret urn
Ġkhil aadi
ru s
Ġv aang
Ġ4 1
à´ľà´¨ à´¨
Ġpaathuk aappu
em ocrat
Ġsth anant
Ġpaathuk aapp
Ġk atch
à´ª à´¬
à¤² à¤®
Ġc ame
à´Ĺ àµ¼
Ġkar ar
Ġpol it
Ġavathar ipp
o ther
à®ķ à®ļ
ar ai
ur ing
à¤ª à¤£
Ġee du
Ġvir odh
Ġsm ith
Ġniv aas
ukay o
d o
iy at
Ġv aah
el an
à´§ à´Ļ
Ġpo t
Ġpo int
Ġpee chhe
n um
ar aaga
à¥Ĥ à¤Ĥ
aam athe
idh u
à¤« à¤°
pr iya
Ġaad yamaayi
Ġnadatth i
Ġm aad
à¤¬ à¤¨
Ġaan aar
Ġthun ai
Ġdably u
d d
y ap
iy iyal
Ġpr ayaas
Ġà´Ĩ à´§
ĠC omm
ian o
Ġbad ee
Ġmad ad
Ġnird desh
Ġglo bal
Ġà¤®à¤¦ à¤¦
à®© à®ª
Ġv ott
Ġl ene
Ġl ife
à®ªà®Ł à®®
Ġpar eekshan
ipp ikkaan
Ġpath av
Ġseiyappatt athu
Ġoop ar
c a
an iya
Ġm atthiya
à®® à®¸
à¤· à¤¦
Ġ4 00
Ġmaar iyathu
Ġthud ar
Ñ ģ
an o
à®© à®¸
à´¶ à´¨
àµº à´ķ
Ġà®Ĳ à®ķ
Ġteam s
Ġezh uthiya
Ġnirmm icha
Ġkil ap
aippad uthth
Ġhai h
àµį ",
id ayil
athu lla
ap o
Ġà¤Ĩ à¤¨
Ġaan gal
und aayirunnu
ruv ari
Ġkall uri
Ġbin aa
Ġsharash ari
h an
v ik
z e
Ġ q
Ġà¤® à¤¤
ikk appett
à¤· à¤®
Ġa up
à´ļ àµ¼
à¤µ à¤ķ
im ent
ap ati
aav a
ug irathu
Ġso ft
Ġanub av
Ġathin aal
varal aaru
g aniz
à¤° à¤ªà¤¤
ak ash
ic ago
à¥Īà¤Ĥ à¤ĥ
Ġhain h
aah i
Ġpe tr
Ġvazh akk
agu e
m ik
t il
and a
à¥Ī à¤ĥ
Ġà¤ı à¤ª
Ġ4 2
Ġdiv as
Ġviru thu
à¯Ī -
à´¸ àµ¼
Ġthe ruv
ĠS p
Ġà´¦ à´¶
Ġenniv ayude
Ġpatt ik
199 6
Ġjeev ith
Ġaandugal il
Ġdouble u
b ook
Ġp anth
Ġp itaa
Ġa ch
Ġà¤¸ à¤ª
Ġà´¸ à´ľ
à¤· à¤¯
Ġà´Ĩ à´´
Ġex ecut
ou is
Ġclo ud
ir ik
à´³ àµ¼
Ġj im
Ġenn um
avar kal
Ġcon f
Ġkad in
aith thu
Ġà®ĵ à®¯
Ġmed ical
Ġgaan v
E Y
h aar
Ġk aiv
Ġd in
Ġr a
Ġà®¨ à®ªà®°
Ġsar asari
Ġprak riya
Ġsee ma
ar anam
Ġc ustom
od oppam
kar i
Ġso c
Ġdh a
Ġ195 8
Ġtham as
ihaas ik
g y
j e
or ado
Ġch ithram
ĠM c
arm man
pl oy
Ġjin hen
Ġà¤Ĳ à¤¤
Ġait ihaasik
7 2
I I
th ii
Ġt erm
aththirk aana
Ġiyakk unar
Ġsaan keth
4 2
5 8
Ġ Â
um aiyaana
à´² à´ķà´³
Ġd avid
ich uv
ikal kk
upp ar
Ġthud angi
199 8
9 6
Ġh ist
Ġmah il
2018 04
char ithram
path aam
Ġanub andh
Ġpunarn ir
Ġm ic
à´ª à´®
Ġà®ķ à®´
and i
ich ittundu
Ġsh ekh
itt und
ĠA ss
Ġdo es
Ġsak ati
Ġabh ee
Ġà¤ĵ à¤²
Ġnee che
Ġs om
Ġp ut
Ġb att
appad avillai
Ġoo o
Ġro ck
fer ence
Ġkadar kar
T E
à®ķ à®±
Ġnir n
Ġak ram
Ġidaiyil aana
Ġtholaik aatchi
ar ana
à¤¯ à¤¦
Ġe ach
Ġoru ngin
Ġsh h
Ġmar up
Ġà¤°à¤¹ à¤¨
eett ar
jan m
Ġthodar chch
ar ik
Ġm aheen
à´¤ à´Ļ
à¥ĭ -
Ġn idh
aan k
Ġf ut
Ġà¤¦ à¤¸
Ġav adhi
Ġpir anthaar
Ġà¤Ī à¤¸
Ġvell ai
d y
g en
in c
Ġk w
Ġn um
Ġenn ariyapp
qu e
ĠJ ohn
199 5
Ġmin ut
Ġiraan uv
9 8
W OR
à®Ł à®³
àµ» à´Ł
ĠC ity
à¤Ĩ à¤Ī
aththirku p
Ġniyam ikkappattaar
Ġreport ed
Ġventr aar
d en
Ð µ
à¤° à¤ļà¤¨
as a
Ġt at
Ġà´ª à´£
or a
Ġpr ayog
Ġf ell
Ġkh oj
pad uththuv
ĠSt ate
s ii
Ġa uthor
à®± à®µà®°
ee m
ay ar
Ġf al
Ġsaam ooh
ĠAmeric an
i ent
at ur
à®¨ à®ķà®°
iru kkum
Ġther iv
Ġmil it
Ġloc al
l ess
Ġs ide
Ġb est
Ġf ri
ikk uka
Ġy oo
Ġsw antham
oy ile
Ġezh uthth
Ġthozhil aazh
Ġm ichael
Ġb lock
Ġà®¤ à®£
Ġmar uth
Ġath esamayam
Ġkal akar
pad i
Ġ194 7
ais a
à´Ĩ à´¦
à´¯ àµ»à´¸
Ġth ag
Ġg at
var e
Ġvazh ivag
Ġsel uthth
patt i
rap aramaaya
Ġkl aas
d on
Ġr is
Ġc up
war up
Ġas al
ull avar
Ġseith u
ams warup
Ġà´ªà´¦ à´µ
Ġlikh aa
à´¨ à´ª
er ed
Ġl ik
à¤ľ à¤²
Ġà®ĩà®¤ à®´
Ġidh azh
Ġkud iya
Ġpol y
jan anam
Ġsan raksh
Ġjeevit am
w ell
Ġà®ħ à®ļà®²
Ġj ap
iv esh
Ġe pp
Ġar dh
Ġpro te
Ġchikits a
an thth
à¤² à¤¸
aas an
Ġpir iv
Ġdh aar
Ġà®ĵ à®°
Ġsn aatak
5 9
à´¤ à´¸
Ġd iye
à¤ª à¤¶
dh u
Ġà´İ à´ŀ
Ġadh in
Ġthir an
ĠE urop
Ġà´ĺ à´Łà´ķ
k ad
u f
z a
en ch
and al
Ġw omen
ag an
Ġkar m
uv in
à¥Ģà¤Ĥ ,
Ġv estt
um p
avum aayi
Ġkur itthu
Ġà®ı à®´
Ġ194 9
Ġag r
Ġchar les
ĠTh ey
Ġbachch on
Ġme mb
aal ayil
Ġprath irodh
Ġsoo ththiram
Ġchild ren
Ġodu vil
al at
Ġa ezh
il aanu
il aip
Ġth ese
Ġv amsh
aal ay
athth aik
Ġ5 2
Ġrec e
A C
Ġs ag
à´¨ à´°
à®µ à®³
Ġl ive
Ġà®Ĵ à®Ł
Ġcl ark
aadh een
Ġperump aalaana
Ġsthith ich
à®® à®ķ
à®ļ à®ķà®°
Ġà´ļ à´²
ta on
à´·à´£ à´¤
Ġparin amswarup
Ġvidy aarth
Ġdv eep
Ġp ag
Ġv aakk
Ġath ikar
amaan athu
Ġapp ro
Ġvyavas aay
p ol
Ġs abh
Ġp ash
Ġv aid
à´³ à´®
Ġw ar
iv ed
Ġy atra
ro ad
Ġam aippugal
ĠM ay
Ġà´¶ à´¬
Ġkal ai
Ġcoun cil
Ġscor ed
Ġvend i
p ok
Ġp aththir
as ya
Ġl itt
Ġpar aj
Ġpo ss
Ġam b
est ed
Ġvarsh athe
Ġ195 1
Ġazhaikk appadukirathu
Ġagal e
B ut
Ġm av
Ġa du
à´° àµ½
ey in
Ġan up
Ġsanchaal an
gin ia
Ġthoal viy
Ġbhoor ibh
j o
m ark
y aar
Ġ ool
Ġth ae
à¤¹ à¤®
Ġ5 9
Ġseith athu
Ġmus ic
Ġyun aittad
Ġth omas
Ġr ang
Ġg old
Ġf er
Ġkoo pp
Ġar g
Ġsur ang
Ġkr isth
Ġparish ad
ĠCo un
Ġthodarp ud
Ġanuk ool
d ee
à´³ à´ķ
or o
Ġg a
Ġpar iyo
Ġà®ī à®Łà®²
Ġà´¡ à´¯à´±
Ġkur aindha
Ġ196 1
uj ood
Ġnor w
Ġpurath ir
Ġpathil aaka
Ġs aer
Ġl ater
à´¯à´¤ à´¯
Ġso athan
Ġdh yaan
Ġazhaikk appadum
Ġje ane
7 1
k iraar
Ġà®ª à®Łà®¤
Ġc ak
Ġpar v
Ġsh odh
Ġan ug
Ġenniv ayil
Ġà®ķà®© à®Ł
Ġolipar app
4 9
v ir
y asth
Ġth aav
ay ed
Ġb it
Ġh old
Ġà¤® à¤¸
Ġy ude
Ġchh ah
Ġà¤Ľ à¤¹
Ġraaj neetik
Ġabh ipr
Ġmuzhuv an
l ant
à¥ĭ "
Ġj erman
aiy aip
ain t
thth ir
Ġà®ľ à®ª
ĠD emocrat
Ġban ey
Ġsudh aar
l ic
p athu
v ennu
àµģ "
Ġs ug
Ġs eek
Ġh en
Ġh app
tha iya
uv er
ku tt
Ġpir paguthiyil
st on
Ġbad aa
Ġfamil y
Ġp itch
à®¯ à®µà®°
Ġpr om
iya g
akk aaran
à¥Īà¥¤ "
ter n
Ġà®ĩà®© à®Ļ
Ġsamaj ik
Ġtechn ology
Ġm akan
Ġch art
à®ªà®Ł à®²
ich ath
Ġà´ħà´µ à´¨
Ġkad aisi
Ġpravartth anangal
Ġcak oothar
d le
àµģ -
ad ami
Ġen chin
Ġsh ally
Ġma ujood
aj i
ĠB usiness
aash aal
unnathin um
Ġdekh aa
Ġninn um
b s
t en
angal ile
ip t
Ġ4 3
Ġas p
Ġfr ance
Ġthal am
Ġ195 4
Ġbas ketball
and u
Ġtho att
Ġro ll
Ġkaal agh
Ġpakuth ikal
Ġsamvid aanam
Ġge org
Ġsthithich eyy
7 9
a ult
Ġv ers
Ġf ail
à´°à´® à´£
Ġkatt am
Ġviv aham
idam irunthu
Ġbaj aay
EY WOR
EYWOR D
5 1
Ġg ot
Ġà®¨ à®µ
iv al
us arichu
Ġsw aadheen
ta ur
Ġathikaar app
Ġchel av
4 6
Ġm ukalil
àµ» à´ªà´¤
à´¦ à´°
Ġan upp
Ġenn am
Ġ5 3
Ġaar og
Ġmaan ej
iz ed
à¤Ĺ à¤®
Ġpar am
Ġull ekh
Ġabh iyaan
Ġjuun iyar
Ġvyaap aar
Ġlekh ak
Ġsav ishesh
Ġprast aav
à´³ à´¯
Ġl uc
Ġe j
Ġse x
ug indrana
Ġso ur
Ġ193 5
Ġkil om
Ġkir aam
Ġroopakal ppana
k o
à®¤ à®ķà®¤
Ġk itt
Ġp ipravari
Ġb aat
ikk umbol
Ġbh aash
Ġà´² à´£
ĠM ar
ff ic
Ġko du
Ġ193 8
ont o
Ġac ross
Ġnaa dugal
eeksh a
is ipp
Ġkar uv
Ġkaal aththil
ĠG ames
Ġs itt
à´¸ à´µ
Ġen j
us esham
Ġse ver
all as
esh anam
Ġà´Ĺ à´£
arn th
Ġtho antr
Ġvid yalaya
Ġaal p
Ġkuzhandh aigal
Ġam s
ĠF or
Ġ195 6
Ġant atah
Ġpras id
kkur ich
Ġkadar pad
j h
y atha
Ġr ank
Ġch r
Ġaa tt
appatt ullana
udan eel
ĠB r
Ġniruv anangal
Ġpayir chi
Ġfeb ruvari
Ġth upp
ru pp
à´³ à´µà´°
Ġj app
Ġc entral
Ġsam e
à¤ī à¤Ł
Ġpoor nn
etr o
Ġsoo chi
Ġsaamb ath
Ġmemb ers
à®© à®Ł
Ġh itt
gal ukku
Ġ( <
Ġch ang
athth iya
Ġà¤°à¤ĸ à¤¨
Ġhav aai
Ġparin am
Ġhog a
Ġweb s
Ġhastaksh ar
b a
n te
at ic
Ġh ol
Ġd arsh
Ġw ind
irun ththu
ev ar
end ing
Ġenniv id
Ġrah ane
à´¨ àµ¼
Ġn aav
Ġà®® à®ķà®³
Ġd aav
Ġt aaki
Ġà´µ à´ķ
Ġch it
Ġsh esh
Ġto urn
Ġned ukayum
à®² à®¯à®¤
ap att
à´ħ à´¤
Ġpaschim i
Ġadisthaanam aakk
6 3
l orida
à®ª à®µ
ang iy
Ġpar ich
à¤ĩ à¤¯
aikk um
Ġnil av
à®ķà®µ à®²
Ġ195 9
Ġvag aiyil
Ġs itti
à´Ł àµ¼à´ļ
Ġj armman
Ġà¤Ķ à¤¸à¤¤
em an
Ġsw eekar
Ġex press
adi um
Ġkudumb a
Ġà®ªà®¯ à®£
Ġkall oor
Ġaus at
Ġsthanant arit
i ev
al ab
Ġs ram
am aayum
Ġv aath
Ġà¤ı à¤ľ
Ġsh ail
Ġ5 7
inth ur
Ġshak ti
Ġprog raam
al ukal
ath al
ad ing
Ġà¤ª à¤¢
ed uth
Ġc orn
Ġmo tham
Ġul aga
Ġsu ttr
Ġ195 3
sk aar
Ġacc ording
Ġuruppinar aaga
Ġkizh akk
u y
Ġan other
akk amaana
ĠB oston
Ġith anaal
Ġsarvakal aashaal
Ġvich aar
Ġkill ed
Ġthiraipp at
Ġais aa
e ak
Ġà´ª à´´à´¯
Ġe f
ain ed
ĠS tr
S t
l um
Ġ ...
er o
à´¸ à´Ļ
Ġpir aan
Ġirun th
Ġaag rah
Ġph al
Ġthal aipp
Ġpoor e
aim ug
Ġsamay at
iz e
Ġdi ffer
Ġpazh aya
Ġsahay ak
j ii
Ġà®İ à®³
uv il
Ġper r
igal ukku
à´İ à´ļ
patt athu
Ġbiru dam
Ġprathin idheekar
Ġkondirundh adhu
Ġs iv
ud a
Ġà¤¦ à¤²
Ġmo b
Ġor ganiz
Ġpl ace
Ġà¤ĺ à¤Łà¤¨
ĠCh ina
Ġang re
Ġjaan ch
rug iya
urs day
Ġn idhi
en chu
à¤µ à¤ľ
Ġc ond
à®ªà®Ł à®Ļ
ant i
Ġnil anir
Ġviv aah
bo ard
Ġà´¦à´¶ à´²à´ķ
Ġpariyo jana
8 5
s te
v ill
Ġm aag
at ely
Ġb ook
Ġl ic
Ġu ts
Ġpo akku
aikk al
Ġor ikkal
Ġà®ĩà®¯ à®¨
Ġopp anth
Ġkudumb angal
aasth ya
Ġcommun ity
Ġrashtr apati
Ġpratinidh itva
T R
kk ukayum
ur t
Ġpar inthur
Ġir anthaar
Ġkal v
Ġcom e
Ġkatt um
Ġsak ey
Ġde al
Ġkhel a
Ġ iyan
an um
in tha
at s
Ġv it
Ġg w
à®´ à®±
ul pped
Ġà´ı à´´
ac y
Ġseiyapp ad
Ġcall ed
Ġsig ichch
aa ivu
Ġk eep
àµ¼ à´«
Ġt ook
Ġj ey
Ġch aran
Ġà¤Ĩ à¤¸à¤ª
Ġas pas
Ġso uth
196 0
ikkunnathin aayi
Ġm ile
ak aala
Ġr aashtr
aat ar
Ġsth aanam
Ġà®µà®° à®µ
Ġall a
uru thth
Ġ193 4
199 7
athark aaka
Ġsm aar
rid ge
Ġkir eed
Ġmonth s
Ġiy ark
6 1
n ess
àµĭ -
Ġt or
Ġsc ot
Ġfranc isi
Ġà´Ķ à´¦
Ġjanasamkh y
c us
y athinte
à¤ Ķ
Ġp ast
Ġh assil
ur y
Ġw est
Ġw ater
Ġan k
ra ft
eg as
arn thaar
eet i
Ġdis tr
Ġne u
ivers ity
Ġsamvid aan
Ġd am
à®£ à®°
ag es
Ġma gal
atthil ulla
avas tha
Ġannoun ced
h u
Ġk rish
ch ii
aay irunna
os ed
aik appatta
athinu shesham
Ġaak iyoar
A T
f ar
ee dugal
Ġch air
el u
à¤Ĺ à¤¦
Ġaa ll
ell er
Ġà®² à®£
Ġeurop ian
Ġonn aam
Ġà´¤à´µ à´£
Ġkolej u
Ġvist aar
6 2
Ġk im
ad ana
Ġd eer
Ġme t
Ġà´ħ àµ½
à¤· à¤®à¤¤
Ġpo ll
Ġà¤ļ à¤°à¤£
apped ut
Ġ195 7
Ġcr ed
Ġpoatt iy
Ġvilaiyaad inaar
? "
aan um
Ġh ill
Ġ19 18
ani el
Ġpad a
Ġill aath
Ġus ee
à´°à´ķ à´Łà´¨
Ġnalk ukayum
à´ĩ à´¨
ethir e
Ġk ach
à¤¿ à¥¤
à´µ à´¤à´¨
Ġl ess
ah a
dh ii
aak sh
Ġku ru
Ġ193 6
Ġpuru shan
Ġthav ana
5 7
C h
h al
Ġn iji
Ġc ase
Ġpr iv
athin t
ip le
inn esota
Ġsp asht
Ġmun m
Ġ193 3
Ġaas th
Ġspec ial
th urai
Ġs aw
Ġm unk
Ġr am
Ġt ata
Ġà®¤ à®ķà®µà®²
Ġà¤ī à¤¡
if ied
à®ħ à®¤
Ġà¤īà¤ª à¤²à¤¬
athum aaya
Ġrah ate
Ġny oo
à´°à´¶ à´¸
Ġeduththu kk
Ġmahil aaon
Ġ -
Ġth azh
sh r
ak aaran
aar d
Ġj am
ed ia
Ġà¤Ĺ à¤£
ap ad
Ġun it
Ġdh aa
ikkunn athil
Ġmud iy
Ġ193 1
Ġvan iga
Ġev ent
Ġem ploy
Ġthag aval
9 2
n j
t im
à¯į '
ar ed
Ġp le
Ġm ess
Ġà¤Ĩ à¤®à¤¤
ukal ilum
Ġà´Ĺ à´¤
Ġmar k
Ġaam taur
ĠN o
Ġethir aana
Ġmaj or
e i
v yak
y aap
Ġd enn
as an
ah aay
Ġnir dh
Ġpad aippugal
Ġmig app
Ġthiranj edupp
Ġkavund i
Ġcent er
Ġpratiyog ita
8 7
Ġd ell
à¤¶ à¤²
à¤« à¤¨
Ġ5 4
199 4
Ġthog upp
Ġexpect ed
Ġ X
in ad
Ġl aur
ent ion
à´¯à´® à´Ļ
Ġcon st
Ġsarvakalash aalayil
Ġ unn
th ik
aa kku
ai ri
à´¡ à´±
itt sbur
ĠS en
Ġkur achu
Ġkur anja
Ġvil aiv
Ġre b
198 9
Ġà®Ĭ à®ķ
Ġsadas yon
Ġà´¡à´¯à´± à´ķ
Ġkaalagh att
Ġp ool
Ġb udh
ers t
à´Ń à´¯
Ġman tri
Ġku rugiya
Ġwith out
Ġjan ath
Ġsid dh
ĠRuss ia
m at
y akal
Ġ 000
à®® à®®
à´ª à´±à´¯
Ġc ro
à¤ı à¤«
Ġsw aasthya
Ġchar ithr
Ġchal aa
Ġkanakk aakk
Ġcheyth ath
Ġontr aaka
r th
Ġs ivil
kk aar
Ġt alk
or onto
Ġe sh
Ġsh ot
Ġ195 2
Ġlaa bh
Ġdid n
Ġvelippad uthth
Ġsamsth aana
Ġparaj ay
Ġn ool
Ġj ang
Ġj orj
à¤ĸ à¤¤
he ad
Ġall eg
Ġph ill
Ġsan rach
Ġvay ass
Ġveliy eett
Ġchun aa
Ġve pp
8 6
P art
àµĨ à´Ĥ
Ġn ambar
à¤¤ à¤°à¤£
un i
Ġo pt
Ġà´Ĵ à´±
ipp ugal
oor n
Ġfor ward
Ġaal och
Ġbo x
Ġvazhangk appattathu
Ġsaern tha
Ġneen g
Ġp akk
is l
Ġl ist
Ġc rit
aiy aik
à´¶ à´®
os a
Ġit al
Ġiru kka
Ġà´ľà´¨ à´±àµ½
aadu kal
S E
Ġk in
Ġs aat
Ġp ally
Ġn ip
Ġà®µ à®Ļ
Ġg ri
àµģà´Ĥ "
Ġà®ĩ à®¸
Ġf ais
Ġw inn
aav ukku
Ġst ock
ĠP ol
Ġkalaign ar
Ġpaththir ig
Ġ |
à¯ĭ "
à¯ĭ -
à´¬ à´Ļ
Ġar iy
Ġeurop eeya
Ġlamb e
d is
an avum
Ġp aatt
Ġà¤¸ à¤²
Ġl und
ag on
Ġ19 14
Ġor aal
Ġde ath
orn ey
arkal in
Ġpayanpaduthth i
Ġla unch
americ an
Ġdoos ara
Ġpadaipp ir
ey ude
iyil um
ant ar
ĠP ro
Ġtho zh
ikar ik
Ġintern ational
4 7
l aa
Ġs aksham
Ġd ro
à´« à´·à´£àµ½
thth am
Ġmar ichu
Ġnil aiyam
Ġre ach
aikal in
Ġyo ung
ung aatch
Ġsaadh aarana
Ġdec ision
ograp h
8 3
I R
c um
c ur
j ohn
Ġv ash
Ġpr aarambhik
Ġsam yoj
Ġkar uth
esh ak
Ġbe ll
Ġsp orts
ĠD onald
Ġmun isipp
Ġnagar aththin
à®¤à®° à®°
Ġsir appu
anc er
Ġà´ĺ à´Łà´¨
Ġozh iv
Ġjah aan
attha kka
ĠAss oci
Ġd er
Ġavar e
Ġbh ej
à¯į" .
Ġor der
Ġkathaapaath r
Ġavattr in
Ġproc ess
e am
Ġb av
à´µ à´¨à´Ļ
Ġc ub
Ġà¤¹ à¤Ł
Ġà´ķ à´Łà´¨
Ġà®ĩ à®µ
Ġà¤¨ à¤Ĺà¤°
akk il
Ġvar thth
ĠT aiwan
Ġ5 6
Ġus aki
Ġprak aram
Ġreport s
Ġindustr y
T ON
Ġg ul
Ġaa bh
ol in
Ġvar aiyar
avar is
Ġmar tin
aikk a
à®ħ à®²
Ġ0 4
Ġconn ect
p aksh
à¤° à¤ļ
ath ayil
ath akal
à´ļ à´ķ
Ġf ind
Ġ19 29
aiy ana
ĠJ ersey
Ġsent ar
A n
f ee
il adelphia
ath ay
ak ad
Ġy uv
à¯ģ. "
ot o
ĠC on
Ġfr ed
Ġà®ķà®Ł à®¨
Ġà¤ªà¤¹ à¤ļ
Ġvad akkan
Ġoor j
Ġsams thaan
i ans
Ġm oor
à´¹ à´°
ĠD ec
ilekku lla
Ġsambhav ana
Ġcamp aign
Ġpaarambar iya
Ġsiddh ant
aa e
Ġd aan
Ġe qu
Ġan im
Ġà´¤ à´¤
adh an
20 23
ĠW ire
Ġksh am
Ġulpped uth
8 1
à®ª à®£
er ve
à¤¸ à¤¬
aam ath
thir a
ĠR es
Ġpur vi
Ġsu zh
Ġvaa kku
Ġol ii
Ġvip ar
Ġthalaivar aaga
Ġbachch e
Ġtourn ament
s ang
Ġà¤ķ à¤ķ
un j
as tt
ug iraar
Ġaar aa
Ġdh arm
Ġaut om
Ġaetrt rukk
Ġthoalviy ad
Ġmigapp eriya
g o
r et
à´Ĥ à´ĥ
à¥Ī ;
Ġ19 19
tr ies
à¤¾à¥¤ "
Ġnil ai
Ġameric avil
tho zhil
5 4
ar is
à¤¸ à¤¦
àµĭ "
Ġd aud
ipp ukal
Ġpo p
Ġà¤Ĩ à¤¯à¤°
und ay
ĠW orld
ĠE x
Ġà®ĵ à®µ
akar anam
akaar ya
e iii
n av
Ġs ikkal
iy aal
angal ukku
Ġy ill
Ġy aath
Ġà®Ĵ à®´
Ġvish was
Ġkad annu
Ġthozhil nut
e im
g es
iy ayil
à´Ł à´²
Ġà®ª à®µ
end ed
Ġmu tt
Ġà¤īà¤¸ à¤¨
Ġneeth rth
Ġreeth iyaaga
Ġangre ji
i od
i ally
Ġk eey
Ġà´ħ à´¬
à´¦ àµ¼à´¶
iv i
ill i
aas t
Ġkal ichu
Ġus ane
à®ĩ à®©
Ġgro upp
Ġkend rit
Ġbandh am
Ġmalsar athil
athint eyum
à¤® à¤ļ
Ġar ungaatch
à´¥ à´²à´¤
Ġsain ya
Ġlead ing
Ġgerman y
Ġshoot ing
Ġadministr ation
ee ram
Ġth onn
Ġn uk
uth up
Ġà¤µ à¤¸
ut ions
Ġvar ud
uv atharku
à´¥ à´²à´Ļ
aththil um
Ġoff ice
Ġcomp et
Ġpin varum
Ġudyog asth
Ġpiraan thiy
al o
Ġp ichh
Ġj ana
Ġw il
Ġà®¨ à®²
ĠS he
à¤ĩ à¤ľ
ĠA s
Ġpir enchu
Ġvish isht
Ġud al
à´¯à´ķ à´°à´®
Ġ193 2
Ġshar eer
Ġroo ad
Ġprathyek ichu
Ġparip aad
B A
c ons
Ð ¸
il ai
à¤® à¤Ĺ
Ġà®µ à®©
el t
ipp ikkunna
Ġkur iththa
umb us
Ġà´ľà´¨ à´ª
anc ial
Ġuyarn ilaip
Ġkamb ani
Ġdeer gh
% ,
Ġm ich
Ġà®¨ à®£
Ġe th
ith er
à´Ĺ à´£
uk aar
Ġal uval
ĠS an
Ġkur ikkirathu
ĠN ational
Ġchar cha
Ġde b
Ġà¤°à¤ĸ à¤¤
Ġear l
Ġrashtr eeya
Ġyoon ivers
M ost
r or
w e
w h
Ġs ook
Ġà¤ķ à¤¥
Ġth h
un hone
Ġt aiyar
Ġg as
Ġà´ħ à´Łà´Ļ
ith an
Ġbe te
Ġsoo tra
Ġthekk an
Ġpally il
s a
Ġs uth
aan iv
Ġt est
Ġav ail
aad am
ett am
ine thir
Ġsaath an
ithth al
à¤ħ à¤ª
Ġplay off
Ġpoal avae
Ġperum b
ĠKore a
Ġpoakku var
p i
w aas
Ġp ithaav
Ġo lympic
Ġl ed
Ġc are
re ady
co unt
Ġvah aan
Ġchar it
198 8
Ġsain e
Ġaadh ikarik
Ġtharpoo thaiya
Ġksham ata
à´ Ľ
ay er
Ġl at
angal kku
à¤§ à¤ķ
akk iya
ip athi
ĠD ep
l u
ar ing
Ġc ole
Ġà¤ı à¤°
Ġad alat
Ġpir achch
oom i
Ġamg eekar
Ġà®Ĭ à®´
Ġs idh
ch es
Ġg reat
àµ¾ à´ķ
Ġe chu
uthal il
Ġup alab
Ġthud arch
Ġ193 7
rid dhi
ikkapped unnu
Ġloss es
Ġvaag d
Part ly
à´° à´ľ
ch aath
Ġà¤¸ à¤ļ
Ġà¤¹ à¤¤
àµ» à´¹
Ġà®¤ à®ª
Ġsam aaj
à¤ļ à¤ķ
ul e
Ġà®ĩà®° à®Ł
ri e
à´·à´£ à´Ļ
à´Ĩ àµ¼
Ġplay ers
aasth ram
5 2
àµį ;
Ġ19 27
Ġun ited
appad a
Ġind ian
Ġaer pad
Ġkoott am
Ġjohn s
Ġeurop e
Ġsever al
y athil
Ġk aik
à®µ à®²à®°
en ue
oo ru
sh as
à´¡ àµ»
àµ»à´¡ à´±
udh a
Ġsev en
Ġmaath ir
Ġsen att
Ġsain t
bur g
Ġpa es
à®®à®£ à®®
Ġsamm elan
Ġjos eph
Ġsoft ware
p oorv
u ally
v ed
Ġ *
à®Ł à®¸
Ġm unna
à´Ł àµ½
id appatta
Ġg erm
Ġw he
uk izh
ani gal
aram aana
Ġsthaap ichu
aththirk um
pas chim
Ġkaath al
n ad
iy aavil
Ġà®ĩ à®±à®ķ
Ġà´® à´²
Ġà®¨ à®ķ
ich i
à´¶ à´ª
Ġpo on
aad iyon
ĠA ll
Ġso uthu
ib addh
Ġsthaan athe
Ġsur aksh
Ġprash ans
0 7
Ġk ent
er c
Ġà®¤ à®³à®®
Ġpr aksh
Ġw arn
Ġkaa fee
Ġà´ĩ à´²à´ķ
Ġup eksh
aram aayi
Ġnin gal
ok es
Ġser kk
Ġseyal pad
Ġlok a
Ġepis ode
ar chi
Ġth ul
sh ika
Ġc os
Ġf ew
ag ing
Ġse at
pad inj
Ġex pl
Ġpat ra
Ġghar elu
Ġpazh aiya
Ġontr aakum
Ġninn aan
Ġiroapp iya
m att
Ð °
à´ ı
in ent
Ġp aaya
àµ½ à´±
Ġch in
app il
à¤Ĺ à¤¹
Ġà¤ħ à¤ªà¤°
ayum aayi
Ġmar uththu
Ġko at
Ġrakh ane
ĠIs land
th udarnnu
Ġs ach
as il
Ġme x
Ġsh ort
ish ya
Ġà¤Ĩ à¤ı
ikal p
Ġmaan avargal
Ġro yal
Ġhal f
Ġpodhuv aana
Ġnoottaand inte
Ġcas es
Ġtharpoo thu
Ġlib r
Ġlitt le
' ve
g et
in eer
Ġk enn
Ġp ati
à¤Ł à¤¸
Ġf ight
à¤¡ à¤®
à´¡ àµ½
ut ed
Ġmar ab
Ġvil ay
Ġru ng
thir an
ens ive
Ġthozhil murai
Ġnj aan
Ġpadinj aaran
Ġaakram an
à® Ī
am in
um ulla
Ġb oy
Ġà¤² à¤ķ
esh th
Ġtho attr
199 1
Ġpank ed
l ament
Ġn id
Ġà®® à®°à®ª
Ġd asal
ag n
Ġin ainthu
Ġà¤Ń à¤µ
athil ulla
ull y
Ġnaam it
Ġnirm aata
Ġmilit ary
4 3
Ġm aid
Ġr en
Ġthe ru
ip ur
appad alaam
ort un
Ġul pp
à®¤à®° à®µ
Ġcoun tries
Ġà®ħà®ķ à®±
Ġear ly
Ġvaagd aanam
à®¯ à®ķà®®
à´® àµ¼
à´¸ à´¨
àµ¼ à´²à´®
à®µà®° à®Ļ
ab ility
ap s
19 50
à´¹ à´®
ett ing
Ġà´ħà´µ à´¶
ĠA fr
iyam aana
Ġil am
Ġbah um
Ġaer paduthth
Ġuruvaakk appattathu
Ġlad aai
Ġmaaru kayum
Ġthernthedukk appattaar
Ġcathol ica
etro it
4 1
j it
Ġn atch
Ġà´ª à´¨
Ġf oc
Ġthan ipatta
Ġull n
Ġre ally
Ġaad yam
Ġchh aatr
Ġmaatt i
argal in
Ġneel am
Ġkaund i
Ġdoos ari
Ġbhaarat iya
Ġchhat ron
à´ķ à´Ļ
à´¤ à´°à´£
Ġv ev
Ġv angk
Ġo x
à¤µ à¤¯
Ġme ter
Ġg athan
Ġà¤Ĺ à¤łà¤¨
Ġsam iti
Ġup a
Ġban aai
Ġangk eekar
Ġaththiy aay
8 9
Ġth r
Ġr od
Ġ19 21
Ġ19 28
athin e
Ġval akkamaana
Ġpe ruv
ac ter
Ġpol ic
Ġkan ada
Ġeng land
Ġaval ok
ĠPr ess
Ġsheersh ak
aatham ik
Ġp anam
à´¯ à´°
ath aith
Ġv asth
ad ron
Ġw alk
Ġà¤µ à¤ķ
Ġmo as
199 3
Ġsaam ane
à®°à®£ à®¤
Ġnaa ll
aththirk aaga
Ġpesh evar
Ġjah aaj
Ġennariyapp ed
e ru
Ġà´ Ĭ
at mak
Ġkar uppu
Ġà®ĩà®° à®µ
ct ober
à®¯à®° à®ļ
Ġvil yam
Ġpaath thir
à®µà®® à®©
Ġim m
Ġkudumb am
Ġnirn ay
m atra
ch aan
att i
Ġf un
el a
Ġ19 24
Ġaa e
Ġse iyum
Ġon line
à´°à´® à´¤
Ġman j
Ġcon v
Ġpl at
ĠU S
Ġno tt
àµ¼à´¬ à´¨
Ġinc re
Ġvyath yasth
Ġkl abb
Ġimp ro
Ġuddesh ya
Ġbhooribh aagavum
k aan
p orul
à®² à®¯à®®
àµĭ .
Ġd ish
Ġc ov
Ġ19 17
ent ial
ri b
à´°à´¤ à´®
Ġlag aaya
Ġpoatt i
d ish
r avar
aa ll
à®² à®±
iy aip
à¤¨ à¤¦
aar amb
Ġà®ķ à®ļ
à´Ĺ à´±
aiy aalargal
akk ar
ukal ai
Ġman ii
Ġpl an
ust in
apped uthi
ĠJ ul
Ġethir k
Ġmand al
Ġaustral ia
Ġaadhun ik
Ġmajb oot
Ġpradhaanam aayum
e chn
v aaru
Ġk ay
Ġkoo ruk
Ġà´İ à´¯àµ¼
Ġst adium
atth atta
Ġadh arit
und er
ull il
ĠB ay
Ġsw eekaar
Ġà¤¤à¤ķ à¤¨
Ġà´Ĳ à´ķ
Ġmukkiyam aana
Ġprev ious
Ġneethrth w
n y
Ġj y
Ġ19 25
Ġan ur
Ġto wn
aatt in
Ġ6 3
Ġman tr
Ġnin aiv
Ġid ent
Ġà´¸à´® à´¯
Ġsev aaniv
Ġcomm and
Ġny oos
Ġsevanamanusht ichu
Ġottr ai
Ġjaay ega
8 4
Ġv ote
Ġv aangk
Ġj il
à¥ģ à¤ģ
Ġ19 22
Ġ19 10
ol am
Ġam ong
à¤ī à¤¨à¤ķ
Ġsu cc
Ġprat ik
Ġhy ee
udd y
Ġvanth athu
" ),
r ey
Ġa kk
Ġb ul
Ġh ras
Ġd rug
Ġo aivu
Ġpr aant
iv en
itt ee
ikal kku
Ġoo zh
à´°à´ķ à´Ł
amp a
199 2
à¤ħ à¤¨
Ġkurippid atthakka
Ġaasth aanam
8 2
Ġth oo
Ġj ald
à´¡ à´²
à´¬ àµ¼à´Ł
Ġnir oop
avar athu
Ġroop eekar
ĠA P
ri z
Ġadd ed
ari an
Ġtho ark
Ġsak riya
ace book
Ġipp ozhum
Ġsams aar
à®ħà®µà®° à®¤
Ġkizh akkan
Ġprabandh an
Ġpusth ak
Ġjapan ese
Ġnear ly
Ð ¾
aa thu
Ġj ail
Ġal ready
àµº à´«
Ġor al
Ġag ency
asth iti
Ġoper ation
9 1
w ays
iy irun
Ġv riddhi
Ġn ever
Ġl ang
Ġl ock
Ġà´¨ à´¨
Ġen tr
ip al
Ġnir bandh
Ġviv as
à´ķà´® à´¹
Ġthar avaris
Ġà´Ĩà´ķ àµ¼à´·
Ġform ula
Ġà®¤à®° à®µà®°
Ġvyath yas
Ġsanchaal it
Ġraashtr eey
e thi
Ġk ruth
Ġa h
ee ga
Ġo p
Ġj aar
ard en
aiyil irunthu
Ġsaam ana
Ġmur aiyaaga
Ġchal ey
Ġpoar in
Ġà´¨à´Ĺ à´°
Ġgovern or
Ġvalangk ukirathu
Ġaat ch
Ġserv ices
d ar
er d
Ġn at
ad iyaaga
ir n
Ġse kar
à´§ à´µ
Ġà¤ıà¤ķ à¤®
Ġà´Ĩ à´Ń
Ġap r
Ġvy aav
Ġdh an
Ġre f
Ġà¤īà¤ª à¤¸
à®Ĩ à®°à®®
yl van
irk aana
Ġvaan ij
Ġlokam ahaay
a on
Ġk ae
Ġp udh
iy ilekku
à®¯ à®ķà®¤
Ġl ot
Ġall e
Ġshradh a
shr eshth
Ġwhe ther
m ir
r em
à®² à®¨
er ation
it eeya
àµĤ .
Ġst or
Ġ6 6
Ġche ck
Ġsamud ra
Ġniv esh
Ġiraan uva
Ġkurip itta
Ġnuk san
Ġavail able
0 1
9 4
r ich
in ce
Ġch all
ill aatha
Ġper iod
onn um
Ġrep res
Ġezhuth i
Ġmoo ththa
Ġaathar av
Ġlab el
Ġfeat ures
Ġdeg ree
d es
Ġm ust
Ġv aik
Ġf air
Ġw ild
à¤Ĺ à¤¸
uk aaran
àµº à´Ł
ans ank
Ġoff ees
aer a
Ġezhuth inaar
Ġvill ium
Ġdasal aksham
Ġk avar
Ġk aim
Ġj ad
à¤Ł à¤µà¤°
Ġav akaash
Ġbh aai
Ġà®¹ à®µ
ĠE ng
Ġà¤§ à¤¨
Ġek matra
aithth athu
aththirk ul
Ġkeezh ae
Ġkuzhuv in
Ġarug ilulla
Ġthozh ir
Ġp ey
à®³ à®Ļ
Ġn ation
oo se
ikk iya
ang l
Ġap eksh
Ġnad akk
Ġkud iyar
ick et
Ġvan ig
Ġne rukk
Ġbhaag amaayi
Ġsans thaan
Ġmak ing
Ġsaambiyan shipp
Ġthodakk aththil
Ġkilom eter
- à´¾
9 3
v is
Ġth eey
Ġb ik
à´® à´£
ir ed
Ġan ch
Ġar ang
ĠJ ose
Ġaad yakaala
Ġà®¨à®ķà®° à®Ļ
Ġprabhaav it
Ġulladakk iyathu
Ġmaruth uv
um poathu
Ġr av
Ġe mb
à´¹ à´ļà´°
Ġkar yalaya
Ġkaa val
Ġvar av
Ġà¤¤ à¤¤
oor va
ĠC up
Ġdh ii
Ġner am
arv u
Ġsaal ai
Ġtak n
Ġgrow th
o ath
ee shan
Ġb ed
att in
Ġà´ħ à´£
Ġà®¨ à®¤
aatt il
Ġval uv
Ġsw eed
198 6
Ġnag rik
Ġbel iev
Ġpaathuk aakk
ĠCar olina
Ġkuth ir
Ġlic ens
c ast
l an
u h
Ġs iru
Ġv ams
en ed
Ġb ay
tt a
à¤ı à¤ļ
atth aal
ow s
Ġas k
Ġporul aathaara
Ġlokamahaay udh
k ila
p ii
p aattu
Ġn yu
Ġh osp
à®ļ à®ķ
Ġà´ħ à´³à´µ
Ġsh ik
Ġà´¤ à´¯
Ġun til
Ġvar ukirathu
iyil ulla
uthth am
chch iy
Ġcomp uter
Ġstr ong
Ġkah ani
Ġpoornn amaayum
ulpped e
o f
u on
y m
à¤ Ĭ
Ġm os
ey aanu
aar anam
Ġ19 15
Ġy eye
Ġà®Ł à®µ
Ġkaal am
Ġpaar lament
Ġrec ent
Ġpat ni
ikh it
Ġadippad aiy
Ġseer ees
Ġthaar atham
Ġsentr aar
Ġsahod aran
Most ly
ylvan ia
b and
e kkum
i avin
m aer
y aat
Ġà¤ķ à¤µ
Ġv o
Ġv aikk
Ġ19 00
à¤ļ à¤²
Ġnad aim
Ġex c
anangal um
Ġ25 0
Ġvaral aaru
k ool
Ġk el
oo v
av am
Ġà´¤ à´¦
Ġpo tt
Ġman aiv
Ġà´Ń à´ķ
ĠL os
Ġsu uppar
à®ħ à®©
ettr athu
Ġvay athil
vel and
Ġnan ku
Ġpatr ika
Ġvarn it
Ġthaer thal
Ġk e
àµ¼ à´Ń
à¤µ à¤¹
à¤¹ à¤²
ing ham
à´¶ à´ķ
à´¶ à´µ
Ġun avu
Ġadh ig
Ġkur iy
ĠF ed
Ġhot el
Ġniruv appattathu
Ġthad desh
ĠTh at
Ġrecord ing
Ġvin iyo
ĠIn c
Ġà®īà®² à®ķà®ª
Ġulag ap
Ġpinthun aykk
---- ----
Ġmaheen e
Ġkitt atthatta
Ġpraksh ep
W h
Ġj ac
à´£ àµ½
ic ally
tr op
Ġà¤¯ à¤¦
arn n
Ġsoo zh
odh an
Ġà´®à´¨ à´¸
Ġkam ee
Ġge orge
Ġchaambyan shipp
udaneel am
Ġm ight
Ġà¤ķ à¤ł
Ġth ii
à´³ à´ª
Ġ" ,
Ġpr im
Ġpr aathamik
ck er
us ets
Ġan aly
Ġà´± à´·
Ġà®° à®·
Ġvish ad
Ġpoor na
Ġbett er
Ġsahaay ata
Ġpraadh am
Ġsaanketh ik
v ee
ar angal
Ġk aay
Ġs or
à´¨ àµ½à´ķ
Ġl ay
Ġà´¸ à´¸
Ġu ud
akk att
ow er
ĠM in
ĠL ouis
Ġste ttu
Ġqu est
Ġbandh appett
Ġdakshin i
ĠWh ite
à´± à´£
Ġb ra
Ġh ang
Ġd y
Ġd om
aay irikk
ikk aatt
Ġkoo l
Ġtho and
Ġmaan av
Ġkad am
Ġmud inth
Ġenb avar
Ġopp id
isth aap
Ġfir m
Ġpank edukk
Ġsm all
Ġsand arsh
oo g
Ġd risht
as y
Ġj aisa
à´¦ à´Ļ
Ġy adi
Ġsam pr
ukal ile
Ġkal in
aiv aana
à´ĸ à´ª
Ġsah yog
Ġirand aam
enk il
Ġnirv aaga
Ġavathar ippichu
Ġà´īà´Ł à´®à´¸
Ġrob bert
Ġudam asth
Ġvyathyas tha
Î ±
Ñ Ĥ
Ġn eth
ad v
Ġb art
Ġb aith
Ġb razil
tt il
Ġl ate
àµ» à´¬
Ġà´ħ à´Ļ
Ġw all
aag am
Ġan thar
Ġà´Ĩ àµ¼à´ķ
à´ħ à´²
Ġkaan aped
Ġsaambath ika
à¤Ķ à¤°
p id
à®¾ -
iy aayirunnu
Ġd aiv
Ġpr ay
Ġaa thaar
Ġenn aanu
ukk uth
Ġnil aiyaana
Ġbr ig
ali z
Ġezh u
Ġarimug appaduthth
Ġafr ican
Ġproduct s
irum anam
Ġaang kila
l im
y le
an ana
Ġh op
Ġd all
Ġd air
Ġd arr
Ġà®ķ à®µà®°
àµ½ à´¤
Ġr ain
Ġl arg
Ġsh av
ab l
aav u
Ġup ar
yam ulla
Ġpad aa
àµ»à´¸ à´¸
Ġkazh il
Ġno kk
Ġund aayirunn
Ġeng ineer
Ġnirdh aarit
ittsbur gh
F or
c u
s m
Ġ Q
Ġa ikkiya
at on
Ġn ich
Ġn eg
Ġb ir
Ġr aay
gal udan
Ġà´¨ à´Łà´ķ
apped unna
anj an
Ġsan sh
Ġpun ith
Ġfut ure
s oo
v ish
an an
al ag
Ġp ann
Ġà¤ķ à¤Ł
Ġth akar
à¤ķ à¤Ń
Ġj oo
à¤¶ à¤ª
Ġsh aahi
ap aramaaya
à¤£ à¤¯
aav ai
Ġà´ħà´µ à´²
Ġ6 00
Ġà´ĵ à´ķ
abh aav
Ġà®ħà®² à®ķ
Ġag o
ĠE n
Ġvir pan
Ġim port
Ġmunn ariy
Ġsain ika
Ġsank et
ES S
Ġsammaan it
Ġpaid a
ey o
um utt
aan thira
sh ippu
à¤¸ à¤¬à¤°
it ions
Ġch ange
Ġkar yon
ank an
Ġiru varum
ect ed
Ġro k
Ġkanakk il
Ġny aay
Ġachch i
Ġpurush on
Ġdaav aa
E C
Ġk es
sh a
Ġà®¤ à®³à®¤
Ġpr aayam
Ġà¤ı à¤¯à¤°
Ġà¤Ĩ à¤¶
Ġà¤Ĩ à¤ķà¤°
ash ville
ib i
Ġprath am
Ġadhik aari
Ġkand ethi
Ġsay ing
Ġavasaan athil
Ġtur ant
Ġaaramb agaala
Ġsamgh adan
Ġprasid dh
Ġvev vaeru
I L
Ġm ans
ay kkum
ad ed
ur aigal
Ġl agu
el f
ik rit
ag aththin
uv athu
ĠS unday
Ġill aatha
à¤°à¤® à¤£
Ġkav an
à´Ńà´µ à´Ļ
m y
ar ikk
ch ange
Ġh eld
Ġl ar
Ġl et
Ġ( ;
Ġsam ayam
Ġà¤ĳ à¤ªà¤°
ki zh
urn al
ĠTh ursday
Ġruss ie
ĠIs rael
Ġpoong aa
Ġvers ion
. >
0 5
b ased
Ġk rith
Ġs andh
and s
Ġg ay
àµ¾ à´«
athth aith
ard s
Ġmun b
Ġkav anam
Ġac adem
Ġà®ķà®µ à®©à®®
ĠTh is
Ġtur key
Ġik ai
Ġum r
Ġt it
Ġà®ĩ à®´à®ª
ing er
ut y
à´ľ à´±
Ġbh aav
ugal in
iyaa thu
à¤ħ à¤®
Ġvir am
198 7
Ġsarv shreshth
Ġnaad ak
Ġà®ªà®´ à®®
riz ona
Ġdrisht ikon
/ >
ch al
en berg
à¤µ à¤¹à¤¨
Ġch uv
Ġe ur
Ġsh o
aiy an
Ġto ur
Ġà´ĩ à´·
angkal aip
Ġnad annu
à´µàµ¼ à´Ĺ
Ġsans th
Ġwork ing
Ġchithr eekar
Ġpuratthir angi
à¤ħà¤² à¤Ĺ
n ik
th od
Ġs umm
Ġa way
Ġb ank
att athil
à¤¦ à¤µ
ol f
Ġal ong
Ġaal o
Ġuruvaakk a
Ġlok priya
Ġact iv
Ġunm aiyana
Ġgat iv
Ġa ction
at ors
Ġb re
Ġc ert
Ġpr aay
à´¶ à´¯
os is
end ru
ĠM arch
Ġà´īà´ª à´¦
Ġsarv ees
Ġopp ortun
Ġthur aimug
Ġveett il
Ġsup er
ĠDep artment
Ġadippadaiy aagak
A b
b ee
Ġm aiyam
à´¯ àµ¼à´®
ad ian
Ġh aath
Ġd ip
zh ch
Ġà®Ĩ à®³
ab ar
à´¹ à´¸
ĠC l
ond aar
Ġbin du
Ġpirachch an
' ,
Ġp atth
Ġth iy
Ġb il
Ġh or
Ġr ag
att um
à®£ à®²
Ġg aanam
Ġis ane
Ġà¤ĩà¤¸ à¤¨
Ġle ast
chch u
Ġà´Ī à´¸
Ġex t
Ġà¤īà¤ª à¤ķà¤°à¤£
Ġkend riya
Ġthav ira
Ġthiraipp ada
Ġmeet ing
pal ika
Ġpanth ay
Ġcred it
c op
Ġs os
kk aayi
Ġà´ª àµ¼à´µ
à¤µ à¤¦
ed y
à®¨ à®Łà®¤
ap ath
Ġkaa pp
ul i
Ġà¤Ĩ à¤ł
em p
ĠC an
Ġkal aach
à¥Ģ. )
Ġiru kkalaam
Ġabh im
197 7
196 7
Ġparis ar
Ġnee kkam
Ġtheer maan
Ġcons ider
Ġlev el
ĠRepublic an
Ġs aaj
Ġm ikka
il adhikam
à®µ à®´
Ġb ast
Ġt ark
Ġj eey
Ġf ield
ap ettu
Ġmar sh
à´¾à´Ĥ ,
198 4
198 5
Ġkhel e
med i
Ġbeh ind
Ġhon ah
Ġd ey
Ġ" ,"
Ġl ing
Ġà®ĩ à®´à®¨
aal ai
Ġ19 23
aiy aith
athin ulla
Ġà®µà®° à®®
Ġid amp
Ġud gh
Ġtr ade
Ġkol amb
Ġbandh apetta
Ġsk ool
Ġthaazh e
Ġhock ey
irik t
Ġupalab dh
j ood
k abhi
p iyal
s y
Ġk om
il and
Ġth and
as tr
Ġav ale
ro up
Ġ8 00
lo tt
Ġshr eni
Ġmaattr appattathu
ikkapped ukayum
Ġdikh aaya
Ġga een
Ġsanrach ana
Ġbav jood
Ġkudiyar as
P h
s l
iy ullathu
Ġg it
Ġà´ħ à´°à´Ļ
à´§ à´°
Ġar ts
à´ľ à´¯à´¤
Ġà¤ļ à¤²à¤¤
eg i
Ġjan an
ect or
ĠG erman
Ġniyam it
Ġmil aa
Ġà´ĩà´° à´Ł
ĠAmeric a
Ġfais ala
Ġsuth anth
0 8
9 7
k l
à¤° à¤¥à¤®
Ġp itt
Ġm akal
à®² à®Ł
à¤¨ à¤Ł
on i
sh i
ur ed
Ġav akash
og en
ĠB all
Ġull itta
Ġkaal ayal
à´²à´¯ à´³à´µ
Ġbl ue
Ġdevelop ment
ING TON
Ġkamm eeshan
n aan
ar il
Ġk ai
Ġm anthr
à®© à®µà®°
Ġv ikalp
Ġà¤ª à¤ķà¤¡
aal am
Ġpr achch
Ġf ur
Ġ19 12
ic le
Ġaa var
im ai
àµº à´µ
Ġso uk
Ġupayog ikkunna
Ġnav eena
Ġaaramb a
Ġvetrtr ik
Ġniyantr an
Ġm azh
à¤¨ à¤¹
Ġn aatak
pp er
Ġt ir
Ġà´Ĩ à´µ
Ġkar utthu
Ġthod akka
à®ħ à®Ł
Ġraaj aa
eett u
Ġcar rier
Ġparish eel
Ġgal l
Ġprote ct
Ġsaankethik avid
v iv
Ġd uss
Ġt ail
Ġà´® à´°à´£
aiy aagum
Ġsam achar
Ġà´¬ à´¸
Ġà¤Ĩ à¤ľ
st orm
Ġmaan yata
Ġabh yaas
Ġvan ita
Ġnag aichch
Ġà®¤à®° à®µ
Ġunm aiyil
Ġà´ŀ à´Ļ
Ġkudiy irupp
ĠÎ ±
AS H
ar ay
in ed
à´¨ à´¦
iy aik
ain thaar
ach ary
Ġap akad
Ġnad athu
Ġir eland
Ġjohn son
l or
v aar
aa iyon
Ġs aand
am aakk
à´® à´®
Ġà¤¸ à¤ľ
Ġt im
Ġme ater
Ġà®ĩ à®³à®®
el uthth
Ġà¤ľ à¤Ĺà¤¹
ith i
Ġull aar
Ġoo kkuv
à´ħ à´¨
Ġkond adhu
Ġsath amaan
Ġdiv asam
Ġchal ach
Ġmam alon
Ġjag ah
Ġà´ļà´² à´ļ
Ġpichh ale
' m
Ġk kum
Ġa ise
à´ª à´Ļ
is par
ol an
ent o
Ġmur aiyil
Ġvay ath
Ġvay assil
enc es
Ġ189 0
Ġà´Ĩàµ½à´¬ à´¤
Ġdep artment
Ġà´Ĺà´µ àµ¼à´£
Ġvipar eet
Ġcharit raparamaaya
Ġm aap
is ab
Ġr aksha
it ive
Ġà´¸ à´¬
ill er
Ġsw aam
Ġhe in
ick s
Ġut p
itty oott
Ġpirabal amaana
is ttar
Ġt irumanam
Ġj on
id ence
Ġch um
el i
à´Ĺ à´¨
ich appol
athth uv
à¤ı à¤Łà¤°
Ġar ch
ĠA t
Ġvy ap
à¤Ĩ à¤¨
à¤Ĩ à¤§
igal udan
Ġko att
Ġà´ħà´Ł à´¯
ĠCh icago
Ġamg angal
à¤¯à¤µ à¤¹
Ġpart ner
Ġoffic ial
Ġtees are
b ii
Ġs aksh
aan ulla
Ġb i
Ġh umm
à´µ àµ¼à´£
is an
àµĩ ,
Ġj aak
Ġc a
Ġw ent
Ġin angkal
ett er
ĠS te
Ġwh ite
Ġith inu
Ġà®ªà®¤ à®ķ
iyapp ol
Ġkhel on
196 9
appadug iraar
Ġson th
Ġvyakt igat
Ġdeval ay
Ġinte ll
Ġexecut ive
Ġjim med
) "
ed uppu
Ġme jar
Ġpr act
aat aa
Ġ8 5
Ġà´ı àµ¼à´ª
à´ĸ à´°
ĠG r
Ġcap ital
Ġpart ic
Ġpug azh
Ġhen ry
al g
Ġp ack
on tr
Ġn adhi
aan mai
Ġà®® à®ļ
Ġà´İ à´±
ett il
andh aan
Ġkur aykk
Ġle arn
amp arik
Ġcar olina
Ġmill ie
194 0
Ġavasaan athode
Ġadhin iyam
Ġsucc ess
f il
à¯į ).
à®Ł à®ķà®°
Ġm oney
at va
Ġà´ķ à´¯à´±
ikk aam
Ġà®ĩà®¤ à®±
shan al
Ġmaan avar
Ġbr ook
Ġaal ukal
àµ¼à´£ à´®
197 9
Ġserv ice
Ġasp atal
Ġrepres ent
v ash
Â °
Ġp ens
Ġth art
Ġb ag
Ġà¤¸ à¤¬
Ġkar p
Ġkar upp
Ġar iya
bh a
ro y
Ġnad ig
Ġgr ah
ais kool
Ġacc ess
Ġ Ï
iy as
Ġn ibh
ak aramaaya
aar yam
Ġà®İ à®µ
amb ath
Ġmar ia
ate g
Ġà´īà´ª à´ķà´°à´£à´Ļ
ph en
Ġnalk iy
Ġdr ive
erg y
Ġiruth ip
Ġkoodudhal aaga
Ġadaiyaal am
Ġsiv appu
Ġk as
Ġth enn
Ġn ayaa
Ġb aas
Ġd or
aar il
Ġaa pr
Ġsam eeksha
Ġà´Ĵ à´³
ĠT witter
Ġà´° à´ľ
Ġup akaran
Ġup asthiti
Ġcomp an
anil ai
Ġpaer aasiriyar
Ġincl ude
Ġsin im
Ġniruvan aththin
Ġcontr ib
Ġbig g
Ġexper ience
Ġsour ce
Ġà¤ ĭ
in us
iy oo
Ġ19 13
Ġis l
197 2
Ġmunn ani
Ġfin ancial
ozh ekkum
à´µà´¶ à´¤
Ġcor por
Ġmay er
Ġred u
Ġà¤¸à¤« à¤²à¤¤
Ġporut kal
p am
p ee
u x
Ġk en
Ġs ul
à¤ķ à¤®
sh t
Ġb uss
Ġw or
Ġsam patti
Ġan ton
Ġà´Ĩ à´«
Ġbh aksh
ĠM innesota
Ġkur ichu
Ġseith a
Ġkil app
Ġ190 8
Ġanus andhaan
Ġing land
Ġgav esh
nal ikhit
Ġaezh u
Ġjaar j
0 9
r ig
ir aal
Ġà¤ª à¤¸
Ġj aims
Ġà¤ľ à¤®
Ġ19 26
Ġà¤¨ à¤¯
aad yakaala
ip eg
Ġfor t
Ġid aththaip
Ġpur aane
Ġà´Ĳ à´¸
Ġà¤Ĭ à¤°
Ġmam le
Ġsook sh
Ġimm igr
C T
N I
r itti
s er
Ñ ĩ
am o
ak um
Ġà¤® à¤°
tt ukal
Ġr id
Ġc ast
itt um
itt ed
azh i
Ġpir ivugal
Ġat irikt
à´ĸ à´²
ord s
ĠJ apan
Ġkood a
orn ing
akan um
Ġmals aram
ikkunnathin um
Ġna uk
c al
v ey
aa kkuv
Ġk aksh
Ġv ot
av aath
ikk aaga
ag aththil
à®¸ à®©
aiy al
Ġan j
Ġan w
Ġthan iththuv
Ġ7 3
Ġso ll
196 4
Ġneel a
Ġpaarv aiyaalar
Ġjun ier
n th
Ġs ai
Ġth ang
aan avai
av io
as co
Ġà®ħ à®ŀ
Ġc amb
Ġpar ikk
ill y
bh ar
à´Ń à´ľ
Ġ6 8
Ġà´ı à´·
Ġ9 9
Ġser ies
à´²à´µ à´´
Ġvij ayam
tar ik
Ġsaern thaar
Ġthodarchch iyaana
oorn ament
E L
a un
e kk
k azh
Ġk yaa
à´ª à´ª
oo b
Ġà¤® à¤ķ
it ya
à¤¡ à¤¬
us am
à´¹ à´°à´£à´¤
à´¥ à´¤à´¯
ro h
ĠS w
Ġit ali
Ġvish al
Ġnin aivu
Ġsw ayam
Ġviv aad
Ġde ad
Ġvan sh
Ġins ur
Ġyog dan
Ġaaraa ichi
ar aayi
àµģ )
Ġh ir
tt s
à¤ª à¤ļ
Ġsh ah
Ġà®İ à®Ļ
Ġan nu
ap atch
et y
Ġà¤¸à¤® à¤¸
ĠJ o
Ġprat ispar
Ġkend ram
Ġthog uth
Ġair ish
Ġthiranjed uppu
Ġchelav azh
cons in
à®Ł à®£
Ġm ang
iy adhu
à¤Ĥ à¥¤
à¤¨ à¤¬
ey a
ak th
Ġl ost
Ġ19 11
ich irunna
Ġpar aval
Ġar ai
et p
ĠT echn
à¤ĩ à¤ķà¤²
Ġmo ththa
co ll
Ġchh oti
à´ħ à´¦
Ġlabh yam
Ġuruppinar kal
Ġmuth ir
Ġvalar chch
Ġsamg eeth
Ġnid eshak
ASH INGTON
c el
k aari
o en
ar thth
Ġn ame
Ġb omb
iv id
Ġsh are
ab ly
Ġpo thuv
bh aag
ro th
ĠA ustral
Ġsw akaarya
Ġill aamal
197 5
bur y
ju un
Ġinst ittyoott
Ġpolit ical
à®© à®ķ
ath aayirunnu
Ġb a
à´® à´ķà´°à´£
and ar
land s
Ġà®ªà®° à®µà®²
Ġnaam ak
Ġamainthu lla
L O
f ter
m al
Ġm ove
Ġh ong
Ġr ad
Ġch att
à´¦ à´Ĺ
Ġthe at
Ġst aand
athil aanu
Ġbe at
Ġ6 1
Ġmaan g
Ġnigazh thth
à´¤à´ķ à´Ļ
Ġkalaign argal
Ġbett y
Ġsamag ri
Ġthoark ad
e rum
iy ayude
aan trik
à´¸ à´¯
ev in
ew s
arn na
à´ĸ à´¤
Ġud yaan
Ġsaah achary
Ġjh eel
Ġlaksh yam
Ġfollow ing
Ġshekh ar
Ġthupp aakk
Ġyoonivers itti
iy att
at am
ch er
Ġn ic
àµ½ à´¨
Ġe ight
iru kk
ĠC ong
Ġoo ppar
à´İ à´²
Ġsu y
lo ud
Ġsaf ed
Ġozh ung
Ġcommun ist
ĠFr ance
Ġsaamooh ika
T ER
àµį ),
à´° à´Ł
ru n
av o
Ġj er
à´¶ à´¦
akk ukayum
Ġnir eeksh
ĠT ur
avar um
Ġaar aay
ass on
ĠD etroit
Ġvazh inad
197 6
Ġprash ikshan
Ġkaiy ezh
à´ĺà´Łà´¨ à´¯
Ġseik irathu
Ġsamar pp
Ġsamp ark
Ġinvestig ation
Ġsmaar ak
Ġaaloch ana
Ġmaruththu va
l ad
t ag
t iyon
an ivesh
oo ra
Ġb ord
Ġh aiskool
Ġl iber
gal aal
Ġà´® à´¹
à´Ĺ àµ»
im p
à´ľ àµ¼
Ġma ed
Ġà®Ĩà®ķ à®µ
Ġkatt appattathu
Ġett edukk
197 3
Ġdi ed
Ġnirv ach
Ġprem i
uf act
B I
c an
th alil
Ġk k
Ġk uv
à®¾ .
à¤¨ à¤¯
Ġ1 20
Ġl or
Ġw ood
Ġav an
Ġan al
bh aav
aatt am
ĠS ec
ess ion
Ġadd ition
Ġman ufact
art i
Ġ9 5
Ġgr aph
Ġoff er
Ġpatt an
à®ħ à®ķ
Ġmah aan
Ġpas and
Ġbat aaya
Ġkanad ai
Ġneethim andr
Ġsens us
Ġnilav ile
Ġswaam itva
I f
e ff
al ity
at land
Ġr ann
Ġt oornament
Ġf ire
Ġà¤° à¤ļà¤¨
im in
ipp icha
ĠA d
end o
ĠO T
ĠO r
gh an
Ġkondu llana
Ġpank aal
Ġvaend iya
Ġsell um
Ġdeval ayam
Ġconc ern
Ġà´ĺà´Łà´ķ à´Ļ
Ġnadathu kayum
s in
ī ¤
Ġk ind
Ġth att
ab i
ana p
ipp ai
le ment
pr aarambhik
Ġaag avum
Ġà´īà´ª à´°
à®ĩ à®°
Ġnalk unna
use um
akan aaya
Ġà¤ħà¤° à¤¬
Ġmaathram aan
Ġscr een
0 6
à®¤ à®±
Ġk aipp
à´¤ à´ķà´¤
ru ct
à¤² à¤Ĺ
Ġb ey
Ġb ern
Ġl i
it or
Ġ19 16
Ġaa j
Ġen s
ĠS e
Ġ7 1
Ġpad avi
Ġniyam ichu
Ġprash asth
Ġinv olv
Ġennivay ulppede
Ġmuthanm uthalil
Ġdiffer ent
a ugust
Ġ à§
à®ķ à®µà®°
Ġg ar
Ġà´¨ à´²
Ġin fl
eer n
ĠM an
abh a
Ġjan icha
Ġus ing
Ġuy arth
Ġkond aar
Ġthozhil thurai
unnathin ulla
org an
Ġsooch ibaddh
Ġvalangk inaar
Ġkn own
Ġdar j
Ġà¤¸à¤« à¤²
Ġimp act
Ġkaiy eluthth
Ġsambh aav
Ġgath ag
Ġpraj aat
Ġdisc uss
I ON
m ah
à®² à®µà®°
il ar
Ġà®ķ à®Łà®©
Ġr aas
Ġme j
Ġg ati
à´ľ à´¯à´ķà´°à´®
uv iyiyal
Ġath let
ĠB l
Ġviv aran
Ġmud iyaathu
Ġplay ed
Ġvag aiyaana
add eh
Ġarug il
Ġorikkal um
Ġà¤¨à¤Ĺà¤° à¤ª
- "
S O
o ugh
àµį '
à®µ à®±
Ġn ann
à´ª à´¯
Ġh ost
Ġc ancer
dh in
à¤§ à¤¤
ash a
Ġà¤ĩ à¤°
à¥Į à¤Ĥ
Ġcheyy appettu
Ġsans ad
Ġsutt ri
Ġjod aa
Ġadhikaar iyon
Ġclass ic
Ġthiranjedukk appettu
Ġaadhun ika
apo athilum
Ġthae thi
cur rier
Ġmaruthuv aman
o id
ru pt
à´¸ à´ª
aar dukal
Ġà´¨ à´¶
een i
Ġà¤¤ à¤²
yam aanu
Ġpad ak
Ġab le
ĠE d
arkal ukku
Ġ190 4
Ġnadatth iya
Ġparivart an
Ġkaik aaryam
ĠIsland ers
Ġjil aa
W ASHINGTON
m en
Ġ iyar
à´¤ à´°à´®
à¤¤ à¤ļ
Ġr add
Ġj illa
iv aar
à¤¡ à¤µ
à´¡ à´±àµ½
Ġvar amb
Ġval athu
Ġ7 6
Ġul agal
Ġkaal ak
Ġirunthth apoathilum
Ġaav an
Ġcar eer
Ġseith anar
197 1
ys is
Ġplay er
fr ed
Ġnaan k
Ġlead ers
aarth athil
Ġà®īà®² à®ķà®³
for man
N O
à®¤ à®¯à®¤
Ġp andh
en h
um o
un dugal
ll aar
it aab
Ġg op
ikk end
Ġkoo ru
Ġsam anamaaya
Ġan igal
ul ts
Ġ8 8
à®¤à®© à®®
à®ķà®´ à®ķà®®
Ġout side
Ġlok t
Ġpa ul
Ġvill iyam
Ġfoc us
Ġpratik riya
O P
O n
à®¤ à®ķà®Ļ
Ġk ap
Ġp anj
Ġm ir
à¤Ĥ ,
Ġth ings
Ġv een
Ġh uman
Ġt em
Ġà´® à´ķà´¨
Ġà¤° à¤¨
Ġà´¤ à´²à´¸
19 30
Ġpo ur
if a
Ġid athu
Ġchar itra
ĠK im
Ġisaikkuzh u
Ġfrancis co
ukizh akkan
d own
k ol
Ġk er
à´ķ à´ķ
Ġp eh
Ġd aatt
Ġt re
Ġà´ķ à´±
aay ath
Ġà¤¬ à¤¦
Ġan aithth
Ġaan n
Ġpir aanth
à´°à´¤ à´¯
aikk aala
198 2
Ġatt orney
Ġvijay akaram
Ġaagiyavattr il
Ġyah udi
m akkal
th ur
Ġp ers
Ġth reat
à¤¸ à¤«
is a
Ġr ee
Ġg aayak
Ġu g
Ġsh iv
og n
à¤ĸ à¤°
ĠT r
aipp ai
Ġthal asth
Ġuru th
Ġnagar palika
Ġvij eta
Ġaaramb aththil
Ġaat m
Ġven al
Ġinth iya
Ġumm id
iet y
Ġspr ing
anco uver
S W
Ġp aim
Ġm een
à®© à®©
Ġb oo
Ġr eyil
att ru
Ġl ain
Ġme ll
ig ence
ĠA pp
op t
à®©à®° à®²
à®ªà®¤ à®©
Ġsp okes
à¤ī à¤¤
à®ĩ à®°à®£
Ġpan kal
à¤ħ à¤ªà¤¨
Ġkazh iv
Ġethir ppu
Ġnamb ikk
Ġsakth amaaya
Ġdrish ya
Ġezhuthth aalar
d oor
Î ¹
al gal
Ġr aat
Ġr oom
and ram
dh an
im ar
ig er
Ġenn ikk
Ġnir aiv
ov ic
angkal udan
Ġkh ad
ark et
Ġtho ugh
à´ĩ à´¤
Ġthirumb inaar
Ġvarn an
Ġoth ers
Ġcustom ers
Ġ een
à¤° à¤§
à´Ł à´µ
Ġv anthaar
ay irunnu
Ġb arr
à´µ à´¨à´¤
Ġr aani
Ġl aal
Ġj ool
Ġj aw
iv aadi
Ġe thi
Ġaan tarik
Ġst eel
Ġà´« à´²à´®
tra ct
Ġkad umaiyaana
ok th
Ġà®ķà®² à®µ
à´¯à´ķ à´¨
Ġprash n
Ġfin ish
ibh aash
Ġna us
Ġpiriv in
Ġmob ile
b ad
r angal
s ey
y avum
aa kar
Ġs ann
is ing
Ġt ell
Ġg anar
Ġen dh
Ġmatt r
ro und
Ġst aff
ĠS up
Ġsth alam
Ġup any
up t
ub e
àµ»à´¸ àµº
Ġpol e
198 3
196 8
rith a
Ġaras a
Ġthodar bu
Th ere
Ġnirv aag
Ġchaambyan shippu
Ġthayaaripp aalar
Ġalavil aana
Ġprer it
Ġrac ing
atur day
g ing
j in
am aaka
à´Ł àµ¼à´®
Ġj ar
Ġf arm
ah eim
ang ers
irun thth
aana kk
akk unnu
Ġdo cum
Ġid angkalil
Ġmaar k
ĠJ une
Ġpaar amparik
aw n
Ġpro tein
Ġniru thth
Th at
ĠUn iversity
Ġà®ľà®© à®¨
Ġà¤ªà¤¦ à¤ķ
ĠRuss ian
Ġlik ely
Ġgeorg ia
m bu
Ġp utt
Ġm aine
Ġv eh
ak er
Ġr aan
Ġt ipp
Ġc ost
Ġà´¸ à´ĸ
ah i
zh uthup
à´§ à´ķ
ile kkum
Ġbh ug
Ġà´¬ à´±
ĠA rizona
akal e
Ġcon ference
Ġph oor
Ġvel in
Ġniyam am
197 8
194 5
Ġdav it
Ġparaam arsh
ograp hy
Ġarang ettam
w in
an usarichu
Ġd ush
Ġt reat
ud ar
inn ipeg
Ġadd ress
Ġà®¹ à®©
Ġsee dh
à¤ł à¤Ń
Ġsang eetha
Ġnagar il
Ġno akki
anc ed
Ġ190 6
Ġvag ai
Ġeff ect
,,,, ,,,,
Ab out
zhuthup o
E O
r ic
s aay
s ev
Ġ {
à´ķ à´°à´®
à´¤ à´¨à´¤
à´£ à´Ļ
Ġme sh
àµ» à´®
àµ» à´µ
Ġsam arp
Ġun ar
Ġfr ont
Ġud aan
Ġbr ing
Ġsthaan on
Ġsen ior
197 4
Ġkaaranam aayi
new y
Ġjanasamkh ya
Ġvictor ia
d s
Ġth aay
er ine
Ġc ut
iv ely
ith al
Ġad angiy
bh al
à´ķà´¯ à´±
avar ude
athe kkurichu
ĠB uff
Ġprath ikar
Ġner adi
Ġsaam raaj
Ġà¤ķà¤¹ à¤¤
Ġvas iththu
Ġnaad aalum
Ġstud iyo
Ġsooch ippikkunnu
Ġsamaj h
Ġlak er
Ġafr ica
Ġavash esh
Ġennivid angalil
Ġpoakkuvar aththu
ontr eal
z o
Ġs ite
à´± àµ¼à´¨
Ġv ae
er land
Ġn eett
ak amaaya
Ġr ais
Ġl aakh
Ġà®µ à®±
àµ» à´²
ap ane
Ġà®Ł à®ļ
ĠS ch
Ġjo b
Ġman itha
ĠF riday
Ġsev anangal
Ġ190 2
Ġ190 9
Ġpakuth ikalil
Ġtru ck
Ġbuild ing
Ġvaastav ik
Ġveediyo a
Ġtheat re
A s
s ur
s av
à¤° à¤«
iy aagavum
at ives
à´Ł à´£à´¤
à¯Ī )
aan du
as p
Ġc ir
id iyoo
iru kkalaam
Ġad esh
Ġap ar
Ġà®° à®©
Ġvil ambar
Ġith ine
apped utth
aadh yam
Ġdh ana
Ġned unj
Ġfl orida
Ġsans k
ju ulai
Ġham la
Ġparambar a
NE W
ĠCoun ty
r om
s n
Ġn uc
Ġr ights
att athu
Ġl al
Ġg uj
ab il
Ġvar eyulla
ĠC or
athe kkurichulla
Ġcl ose
Ġà¤ľà¤¨ à¤¸
aykk aayi
Ġnaa shanal
Ġcons um
Ġber lin
Ġpooy i
Ġariyapped unna
Ġkosh ish
Ġhist ory
Ġlibr ary
C ON
m aarude
Ġth ath
à¤ķ à¤µ
Ġn aas
Ġn ila
Ġh oom
id ae
Ġ( ,
el son
ich irikkunnu
Ġà¤Ĺ à¤¹à¤°
du l
ĠI V
anth athu
Ġph one
Ġag ree
Ġsu h
Ġpayan paduththuv
Ġkudumb aththin
Ġreg ul
Ġdw iteeya
Ġsim p
Ġsamm ath
Ġrekh a
Ġbhag id
Ġnovember il
Ġvadakk ae
Ġthodarpud aiya
Ġnaank aavathu
i ana
y wood
Ġp angku
à´¤ à´ķà´³
à´® à´ķà´³
Ġh a
tt awa
Ġl aagat
id es
kal l
us ar
Ġà´Ĩ à´ª
ĠC alifornia
Ġà®ı à®ŀ
Ġnil avar
Ġnil aiyil
Ġus ase
alk i
Ġà¤īà¤¸ à¤¸
Ġnalk ia
ict ion
Ġnirm it
Ġdav is
Ġposs ible
0 2
Ġp air
am um
iy inar
ay udeyum
à´µ à´ª
Ġr eh
Ġl in
Ġà¤¨ à¤¸
Ġse g
idh yam
Ġmar us
angkal aik
ĠN ov
ail s
Ġmur paguthiyil
arkal il
Ġvaar shik
irk aaga
Ġdel iver
Ġfour th
Ġminut es
0 3
e ans
ath aar
at ar
Ġn aera
ad or
Ġà´ħ àµ¼à´¤
el e
Ġà´İ à´®
Ġà´¤ à´²à´¤
à¤Ī à¤¸
à¤ĸ à¤Ń
se ason
Ġle gal
Ġper forman
Ġoo v
à´µà´° à´Ļ
Ġà¤ĳ à¤ķ
Ġà®ĵ à®ķ
Ġil akk
Ġpalkalaikkazh agam
Ġkhar eed
Ġchain ees
Ġpoortthiy aakk
Ġpunarnir mm
Ġth all
ru ss
Ġn ev
Ġd rum
Ġr ol
Ġc and
Ġpr ison
Ġà´µ à´ļ
Ġe ath
Ġà¤ı à¤¶
Ġà´ļ à´ķ
Ġkar ein
uv aar
Ġà´ĩ à´Łà´ª
anth tha
chch i
Ġshuru ati
à¤°à¤¹ à¤£
Ġsome thing
Ġbaj ar
Ġprov ide
Ġmozh i
Ġitaal iyan
à´¨à´¡ à´¯
htt p
Ġà¤Ĺà¤£ à¤°
Ġplat form
Ġs aav
at kar
à´µ à´³
ik s
im s
ill s
Ġà´Ĩ àµ»
à´¥ à´²
Ġath aavathu
Ġman assil
Ġel ection
Ġac count
Ġlag aatar
Ġavas aanam
Ġpayanpaduthth appadukirathu
ino is
ex as
Ġnov al
Ġes te
Ġdekh bhal
Ġsangh iya
Ġsaambiyan ship
Ġkat chi
alg ary
y o
an ia
Ġp ing
Ġr ace
id al
à®¨ à®ªà®°
aag atha
Ġy aad
Ġà´ĩ à´¨à´Ļ
Ġ8 6
Ġvy akh
pad uththa
Ġ9 1
ind er
Ġà´¸à´® àµ¼à´ª
Ġprak rith
ikkaan um
Ġinn ov
Ġther kae
Ġsal es
Ġcle ar
Ġprot est
Ġsangrah alaya
Ġmaid an
aaramb agaala
Ġk y
Ġk ed
Ġb ud
Ġà®® à®¨
Ġà¤¹ à¤²
Ġme tt
Ġch inn
Ġà¤ħ à¤¡
aak ritik
ĠC ON
Ġman ila
tra ck
Ġmaar kk
Ġchar ge
Ġsev aaon
Ġthozhil aall
Ġ190 7
mak ers
Ġpaadal kal
Ġyudh athil
americ a
Ġsr adh
Ġkavund iyil
Ġvak upp
iyull aar
Ġenglaan thu
Ġathig amaaga
Ġsevaaniv ritt
Ġs aga
Ġp ick
Ġà®® à®°à®£à®¤
Ġc ode
à¤Ł à¤«
Ġse lla
Ġis t
Ġis ase
Ġnad upp
Ġà¤ĩà¤¸ à¤¸
ĠB ar
aip ad
Ġid aiyae
Ġsp eak
Ġ12 5
Ġner ittu
Ġur av
Ġsamgh ad
Ġhtt p
Ġprakad anam
Ġsuru kk
Ġauthor ities
Ġjanath ipathi
C op
v es
Ġb or
à´® à´¦
av ul
Ġc it
aay e
Ġà¤° à¤¸
ull ah
ond a
à®İ à®ļ
Ġkatt idam
Ġcomm ission
Ġporu pp
pl ay
Ġpaal am
Ġthirakk appattathu
Ġkrish i
Ġthiy ettar
Ġpaim aane
A D
l att
Ġth in
Ġn on
ak rith
Ġj ansank
uth e
Ġthe tt
Ġen c
im an
Ġun av
Ġam aich
aj ya
ant on
Ġjan uvar
Ġtr avel
ĠF lorida
Ġel isab
Ġner angalil
Ġapp ear
Ġak adami
Ġpoatt ikalil
ikkunnathin ulla
Ġkshetr iya
Ġmudiv ad
........ ........
ĠAssoci ated
b or
f a
Ġa was
Ġà¤ª à¤Ł
Ġà¤ľ à¤µ
Ġà¤ī à¤ł
Ġpo und
adh ana
ri ed
à´°à´® à´Ļ
ĠW est
ph y
Ġed uthth
Ġpin ththaiya
Ġkondu var
Ġmin itt
Ġtak en
Ġty pe
Ġparas p
Ġchil appol
Ġà´¨à´Łà´ª à´Ł
paksh e
Ġearl ier
Ġpeh chaan
" ;
U B
h o
p in
v aath
z on
th iya
Ġk aise
à®¾ )
Ġn ib
un s
id ed
Ġme al
Ġf ig
Ġf ish
Ġpar yav
à´¥ à´¨
ip aramaaya
àµį. "
athil irunthu
Ġku ttr
abh oomi
ĠB e
Ġmu ttr
Ġkud ip
Ġbo b
Ġdaur a
our t
aithth aar
Ġem erg
Ġviru th
Ġvalangk iyathu
Ġphil ipp
Ġsaj eev
Ġaavas y
yr ight
IS C
Ġsthree kal
Ġvaluv aana
e ad
Ġp aththu
à´¯ à´§
am ayi
ay on
Ġà¤¸ à¤µ
Ġt ool
Ġme tro
Ġf ace
ag aiya
Ġen t
à´ľ àµ»à´¸
Ġath aram
pr appu
Ġph ys
aalar aaka
oc ch
Ġà¤¬à¤¨ à¤¨
asam ay
Ġthur annu
24 00
Ġthodar b
Ġny ay
Ġbec ome
Ġà®ªà®´ à®Ļ
Ġtak ing
Ġparay unnu
201804 2400
Ġwebs ite
h ol
v aad
an in
Ġp eer
en eg
Ġb ody
à´® à´Ļ
Ġr aa
aay il
Ġch i
ikk anam
app ozhekkum
uk i
Ġà´¤ à´²
Ġà´ĩ àµ»à´¡
rit ya
Ġper a
Ġprad esham
Ġva etp
Ġvir ginia
po athum
à´ªà´¨ à´¯
Ġsamooh on
Ġkanakk edupp
Ġpeyar id
Ġnet aa
Ġaagiyavattr in
Ġkhil aadiyon
' ll
C ol
Ġm orning
à®² à®³
à¤¨ à¤ļ
ch akal
à´µ à´Ń
av or
is ed
Ġg ive
aay ir
Ġf all
app al
Ġà´® à´¸
Ġav er
Ġto day
Ġkaa zhch
Ġst op
Ġman ith
Ġwith in
Ġkuzh ukkal
Ġkan uni
akkal ai
Ġschool s
Ġaer pattathu
IN D
Ġgov arn
Ġbas ed
ĠNew s
Ġweek s
Ġvilaiyaatt ukal
Ġnigazhv ugal
ĠPh iladelphia
Ġdoes n
A M
r iy
v aadi
v enkilum
à´¨ à´µà´°
am ai
ath aip
Ġà®ª à®Łà®Ļ
ed uthu
Ġe aka
angal udeyum
Ġpo th
Ġaan ey
Ġà´ī à´±à´ª
Ġnad antha
Ġ6 9
Ġkur anj
ĠâĢ ĵ
Ġcomm ander
Ġariyapp ad
Ġprodu ction
Ġpathiv ukal
Ġpathil al
Ġbish ap
Ġkank aan
vir on
c ement
n ar
w o
th anam
à´ķ à´£à´®
Ġs ud
Ġm eettar
ath aagak
ru var
on ia
Ġv esh
Ġn ick
à´ª à´ķà´°
Ġr ab
Ġt enn
Ġaa iv
Ġaa fr
Ġbh ook
Ġ9 3
Ġith il
ern and
eek e
Ġre j
196 6
anm ai
Ġash ay
Ġmer k
rav aai
Ġver thir
Ġmoonnaam athe
Ġâ ī¤
s oos
u bh
al u
Ġs atta
iy aththin
à¤ķ à¤¦à¤®
à¥ĭ à¥¤
Ġn ut
av udan
Ġr ing
and ing
Ġg ambh
Ġch od
Ġw ard
à¤Ĺ à¤£à¤¨
à´¹ à´Ļ
Ġsaath i
Ġ8 9
Ġso und
ĠD allas
Ġpan ii
Ġvig ith
Ġpaniy aatt
Ġrekh appeduth
Ġkazhinj u
Ġkadannu pok
v ennum
Ġk ong
Ġs aa
Ġs ik
kk unnu
Ġl ob
Ġc able
Ġg uru
Ġg arm
Ġà®ļ à®£
Ġav enue
ap er
Ġkar yakal
aav inte
ip e
Ġman ikk
Ġvil ikkunnu
Ġ8 3
ĠF eb
à®ħ à®ª
Ġsee mit
arkal ai
Ġvis aaran
Ġkutt ikal
olog ical
Ġariv iththathu
Ġoffic er
Ġcor ps
Ġpul is
Ġvidh ey
Ġnay ichu
Ġsaah itya
Ġcontr ol
à¤ĳ à¤«
Ġvibhaj it
ĠSen ate
Ġennariyapped unna
Ġmudinth athu
ĠBuff alo
O M
l ain
ai gh
Ġw atch
Ġà´¤ à´Łà´¯
Ġvar ii
idh ai
Ġal m
Ġ6 2
Ġ7 8
Ġjis aki
Ġpur athu
à´İ à´ķ
Ġare a
Ġuy aram
Ġulpped unna
Ġther thalil
Ġchal ata
Ġanus arichu
Ġrele ased
Ġyadh aarthathil
Ġaath h
Ġkalikk aran
ĠCol umbus
Ġmult im
Ġparajay appettu
Ġpremi ere
Ġpiraanth iya
b athu
c os
s ept
x y
à¯ģ ".
ch ai
Ġn ikal
Ġb ene
à´¸ àµ¼à´µ
Ġd uk
it ute
Ġme as
Ġin ai
Ġpar av
Ġà¤Ĺ à¤ł
Ġà®ī à®ª
Ġpo athum
Ġar ikk
et ic
Ġà®Ł à®ķ
atth ilum
Ġthan iyar
Ġas am
Ġku sh
Ġho urs
Ġtr ying
ĠG u
ac es
196 5
sk ritik
Ġvas ath
Ġ187 0
Ġmaas athil
Ġtri al
Ġfeel d
Ġjack son
Ġeedu patt
Ġvazhivag uththathu
Ġlat est
g i
in ter
à´¨ à´Ł
iy aathe
av ukku
Ġà®µ à®ļà®¤
aath ai
unn athum
Ġpo zhuthupo
esh a
itt anar
à®Łà®® à®©
à®ĥà®ª à®°
ikkunn athinu
Ġpro ble
antr ata
Ġpadh athi
Ġhy d
Ġpull igal
Ġve lla
Ġennivay aanu
à´ķà´£ à´ķ
Ġrun s
Ġitaal iya
Ġchaal s
Ġdut ch
Ġsoc ial
Ġbhug tan
b il
b el
v y
à®Ł à®ķà®¤
at o
att il
aay ar
Ġu ch
à¤¡ à¤¸
aam a
ĠS aturday
à¤ĩ à¤ª
Ġjo h
appad i
Ġvi idiyoo
Ġgr ade
Ġchh ota
Ġenb athaik
anc es
à´µà´¨ à´ķ
ĠV II
196 2
Th ey
Ġsn eh
port s
Ġnoottaand il
Ġleg isl
htt ps
Ġaabh y
Ġthaddesh eeya
b as
h ib
w ick
Ġs istt
Ġm ol
ath vam
à®¯ à®³
ad al
Ġb es
à¤® à¤¦
à¤¹ à¤¤à¤°
à¤Ł à¤µ
Ġà¤² à¤ķà¤¡
Ġoru poathum
Ġpar antha
à´¯à´® à´¤
Ġ8 4
if y
Ġdh w
àµ¼à´µ à´ļ
Ġà¤®à¤¹ à¤¸
Ġniruv apatta
Ġsarv occh
Ġsain ikon
Ġpayanpaduthth appattathu
Ġdr iver
Ġvazhangk uv
Ġprathyaksh appettu
Ġcontinu e
ĠCong ress
k ish
is il
Ġr ating
Ġg il
Ġsh asson
ett ukal
Ġenn athu
kar ta
aap th
Ġthan in
aipp in
àµ»à´¡ àµ¼
ĠN ashville
Ġpaar aatt
Ġmah soos
Ġkazh ichu
Ġstr eam
Ġmaath am
Ġim medi
Ġà¤ľà¤¨ à¤Ĺà¤£à¤¨
irk um
à´ķà´¸ à´¨
Ġaagiyavattr ai
Ġoh iyo
Ġavattr il
iff le
Ġlak adi
Ġjang anana
Ġthh eek
Ġthaniththuv amaana
à®® à®ª
Ġth app
Ġd ra
av oru
Ġg arbh
Ġpr ep
à´¦ à´°à´¨
à´· à´Ļ
Ġpar isth
Ġto tal
Ġnir as
Ġà®īà®³ à®µ
Ġmo th
ĠF acebook
Ġà®ªà®° à®¨
Ġstr aigh
Ġpoatt iyaalar
Ġprash ams
aig yaan
Ġpariv ahan
Ġpaer aras
Ġdesh on
Ġà®¤à®³ à®Ļ
Ġthanth ai
Ġuthpp ann
Ġabhipr aay
Ġjana pr
Ġpraadham ika
k ud
r oo
v im
th iru
Ġp aakk
Ġp uddy
iy aavin
Ġn ep
Ġb ow
Ġd al
Ġl ight
aay u
iya iyum
Ġch ief
Ġch eeni
Ġsam asya
Ġbh ed
à´ŀ à´¨
Ġma c
Ġnad itthaar
appad aatha
Ġsw abhaav
Ġà®ªà®Ł à®ķ
Ġaay uth
Ġvilaiy aadu
Ġà´ħà´ª à´ķ
Ġvanth anar
Ġpary aapt
Ġmish igan
Ġpros ecut
Ġathikaarapp oorva
Ġaarog ya
Ġpolic y
Ġpugazh p
oen ix
Ġganar ajya
Cop yright
) -
aa z
Ġth uru
on nu
à´ª à´ķà´®
Ġl ake
Ġà¤ħ à¤ľ
Ġà´İ à´Ļ
Ġst ory
Ġup abh
Ġaar thik
ĠP ittsburgh
ann el
oy i
Ġcurr ent
à®ķà®´ à®ķ
com p
Ġil avar
Ġpett ru
Ġeer kk
Ġà®ĩà®³ à®µà®°
Ġeduththukk aatt
Ġthaaratham y
Ġudamasth athayil
Ġmarus eeram
Ġstraigh t
> )
i ams
Î ½
Ġm eeth
Ġv idhi
Ġh ath
ed h
ed an
Ġc el
ikk appattana
à¥Ĥ -
à¤¬ à¤¹
Ġsh il
Ġà¤Ĺ à¤²à¤¤
Ġà´Ĵ àµ»à´ªà´¤
akk oodiya
et naam
Ġas t
ari o
Ġ7 4
ood eyum
Ġsar kkaar
Ġtr ip
eek aaram
Ġres ident
à¤ĺ à¤Łà¤¨
Ġvishv aas
Ġroo se
Ġoctober il
Ġgroup s
Ġadisth aan
Ġrev iew
Ġinth ap
Ġcathol ic
Ġjap ani
4 00
ath iya
er iy
Ġl am
ikk appetta
ig g
ul k
Ġst ates
ĠA pril
ĠM ex
Ġà¤ĸ à¤¡
Ġirunthth apoathu
Ġsch ed
Ġapp lic
Ġnirmm aanam
OR K
Ġstart ed
aamas iyaathe
Ġsr ot
Ġsandarbh it
Ġuthpp aad
ĠEurop ean
Ġjorj ju
Ġoorj aa
Ġulln aattu
B US
r in
Ġm im
à¤¿ "
Ġv ent
um aiyaaga
Ġb angal
Ġo ththu
is ch
Ġc art
Ġà´ħ à´«
aath aar
ĠT exas
Ġval o
ĠB rit
Ġkaar ravaai
uu u
Ġtho ond
Ġcl os
ann ing
Ġste tts
Ġfl or
iksh a
Ġsouk ary
Ġmultim edia
s en
s ir
Ġa kkaal
ch ang
Ġn ritya
ey aana
à´ª à´¸
à´® à´°
un il
Ġh aan
ur al
aar t
is ai
Ġj en
ikk aana
Ġà®¨ à®Łà®©
à´· à´ķà´¨
uk ad
du ct
ipp eans
ut tha
Ġst ore
Ġup ay
Ġà¤¸à¤® à¤ķ
Ġ7 7
Ġ8 1
Ġsp eed
amp le
Ġmud ivil
aikal ukku
Ġnaam anir
Ġang ane
Ġuth bhav
Ġanum aan
Ġ188 0
Ġpalkalaikkazh aga
Ġdet ee
Ġtheev ir
Ġyog ya
Ġsol utions
Ġsuv idha
Ġà´Ńà´°à´£ à´ķ
Ġsend ru
Ġaudyog ika
ĠÂ £
tim ore
IR E
Ġsuthanth ir
Ġs aitt
Ġm ith
à®ª à®³
àµĨ )
kk ai
Ġb os
Ġr aak
Ġt ank
Ġà®ħ à®Łà®°
Ġà´ª à´¶
Ġad ikk
od i
Ġam aith
Ġko lla
ver t
Ġchar acter
ithth ana
Ġkav ita
aang kal
Ġseyal mur
ĠY ou
Ġvin od
193 9
Ġaustral iyai
Ġparambar aagatha
chaar ik
Ġmaarch il
Ġbiru d
Ġà®¤à®³ à®ªà®¤
Ġnaat kal
Ġthiranjedupp il
Ġpratispar dha
o ctober
Ġp unk
Ġm aadhyam
Ġà¤ķ à¤µà¤°
on esh
ad u
ikk am
Ġw r
ang gal
Ġav ayude
dh aan
aag ar
Ġenn athaanu
angkal aiyum
Ġameric avin
Ġ13 0
Ġju ul
Ġlag aa
Ġaer paadu
Ġuruvaakk inaar
yl v
ĠY ORK
Ġrem ain
Ġbeh tar
Ġudh av
Ġyah aan
Ġsex ual
arnth athu
Ġlicens es
Ġmunnariy ipp
Ġperforman ce
g g
Ġs um
Ġm ukt
Ġh udd
Ġ1 000
à´µ à´°à´£
av er
à¤µ à¤Ł
Ġc ell
Ġà´ķ àµºà´¸
Ġà®¤ à®¤
ikk il
Ġà´¤ à´Ļ
all engil
Ġar ik
aav iya
ĠC ent
ĠC algary
ikal in
umb u
ac ed
à¤ħ à¤°
Ġres ults
Ġà´īà´¯ àµ¼à´¤
Ġuyarn ththa
car rier
Ġenbavar aal
I T
i ami
w adi
z er
Ð ½
en ing
ad uththa
Ġd oo
Ġch o
Ġà¤Ĺ à¤µà¤°
ro p
Ġthal aiv
ĠE l
Ġpol um
Ġà´ħà´Ł à´ļ
Ġjeev anakk
Ġseyal thiran
Ġinter est
Ġpoar il
IN ESS
laan thu
aud i
Ġkod athi
Ġbaah ari
Ġinth ath
Ġprasidheekar ichu
Ġpraj aati
Ġuthar avaad
dis ambar
Ġhein ry
Ġà¤ĭ à¤£
Ġseedh e
viron ment
M ore
m aka
p ah
Ġk ick
à¤¨ à¤¬à¤°
Ġn amm
aan m
Ġb on
Ġb utt
ll anar
Ġà´¸ à´Ļ
Ġch enn
à¥ĭà¤Ĥ "
Ġoru m
Ġpo antr
Ġbh aari
ash ion
em pt
ĠC ourt
Ġup karan
Ġà¤¡ à¤°
à¯į" )
Ġnin d
aigal ukku
ĠG en
Ġsee san
à¤ł à¤ķ
à®Łà®ķ à®Ļ
Ġvir aivil
Ġporu tth
Ġtar eeke
Ġprash iksh
Ġer atta
Ġseptambar il
yr ia
Ġstatement s
Ġthozhilaazh argal
nav ambar
inethir e
j ee
l eshan
m ein
s ch
s aah
t own
in gal
Ġm useum
Ġa j
Ġa head
à´± àµ¼à´®
Ġà´¸ à´¯àµ»à´¸
Ġà®ļ à®²
ag angal
Ġen th
Ġsh aar
Ġsh ayed
Ġst o
Ġval upp
Ġviv aath
Ġrec ently
Ġà¤¸à¤¹ à¤®à¤¤
Ġseyal paatt
Ġtha ev
Ġ190 3
thiy aaka
Ġvas thukkal
Ġiv a
Ġà´Ķ à´Ł
Ġkab ja
kkurich um
TR Y
Ġmanaiv i
Ġjanuvar iyil
A l
k sh
m uthal
à®² à®£
Ġb aan
Ġo dh
ed i
à®¨ à®Ł
Ġf ans
à¤¡ à¤ķ
Ġà´Ĩ à´¯à´ª
Ġà´ľ à´¯
à´´ à´²
ĠT oronto
Ġbe ar
Ġ8 7
Ġà®ħà®® à®°
Ġdh ar
Ġel ith
Ġkav ith
Ġvay u
Ġveliy ittaar
Ġbadh aava
Ġiv ai
Ġseiyappatt aar
Ġadippad ai
Ġpust akal
Ġvaid y
Ġchit rit
Ġkalloor iyil
Ġsach iv
Ġsuy aath
Ġnaus ena
Ġkudip ey
" ."
V iew
b ani
r ew
Ġp aat
Ġth oor
Ġb enn
Ġt ap
Ġt aamasiyaathe
à¤Ł à¤¤
Ġof ten
Ġjo urnal
Ġkh ola
Ġsw ath
Ġchh or
vi ew
Ġvarum aanam
Ġswat antrata
Ġpuratthir akki
imm y
ĠLe ague
Ġincre ase
) --
o unt
v aha
Ġp akar
à¤ľ à¤®
Ġav adh
us a
ab al
aam il
Ġbh aw
aav um
Ġam m
Ġkal ude
Ġman or
Ġcl in
Ġ9 6
Ġull anar
Ġte ji
Ġmun ch
Ġsc atland
Ġnalk aan
Ġjuun il
Ġpaguth iyaagum
Ġkuzhuv il
Ġrach ana
Ġulkkoll unna
Ġjansank hya
BUS INESS
k ins
th ukayum
Ġm aa
à´¤ à´ķàµ¾
à´¸ àµ½
Ġr ate
Ġc aliforn
Ġpr aakritik
ah oma
Ġà´® à´ŀ
Ġà¤µ à¤¨
im inal
Ġy ork
à¤· à¤ľ
unn illa
akk ood
Ġà¤ļ à¤¯à¤¨
Ġmar ik
Ġir avu
Ġmo unt
re am
Ġà®ħà®± à®ķ
ettr aar
Ġpak ad
Ġthur aiyil
ement s
-- (
Ġtou ch
Ġland anil
Ġreeth iyil
Ġvict ory
Ġkendr eekar
Ġmajb oor
Ġthozhilnut pa
Ġaaraay chch
Ġendh avoru
A G
s ent
Ġp ubl
ru no
kk ile
ad er
ad uth
à´µ à´§
ed ic
Ġà®¤ à®®
Ġà´ħ à´Ĺ
ana gal
ipp il
Ġvar ishth
ro ll
à¤Ń à¤°
Ġnad app
ĠW IRE
Ġvazh akku
Ġmool ya
Ġsah akar
Ġnagar aththil
Ġuruv aakkuv
Ġcoun t
Ġtha ernthedukk
Ġaay appozhekkum
Ġstud ents
ĠUn ion
Ġà®īà®Łà®© à®Ł
Ġbusiness es
Ġà¤ıà¤¡ à¤µà¤°
TA CT
Ġariyapped unnu
Ġpradarsh it
Ġbru n
C loud
b ol
Ġs i
Ġp it
Ġp aap
Ġm om
Ġv att
is try
ikk appattullathu
ag ed
tr al
aas at
àµº à´Ĺ
athil oode
Ġfr aans
Ġà´ĵ àµº
Ġko ch
Ġnil aim
Ġpl ans
Ġmaan ad
land ile
Ġnirmm aan
à®²à®ķ à®Ł
194 9
Ġshow er
bo x
Ġmas ter
Ġsangh arsh
Ġventr athu
US TRY
ĠDec ember
Ġsos aitt
SO UR
Ġnuc le
P UB
Ġs ithth
Ġs old
ch ester
Ġth aguth
Ġd u
or ial
ent ed
ul ation
ash aasthr
Ġas th
eg g
Ġkal av
art y
ĠR angers
Ġmaan ak
Ġuruvaakk appatta
Ġpras n
Ġ190 1
à¤ıà¤¸ à¤ıà¤¨
Ġmalsar angal
Ġà´¤à´Ł à´µ
Ġmid dle
Ġnim nalikhit
Ġprasth aan
Ġdhaar mik
Ġimport ant
CON TACT
Ġbene f
8 00
D ISC
K EYWORD
e a
h i
p uthiya
in nu
in ese
Ġm eett
à¤® à¤¹
à´³ à´¨
Ġt as
Ġj iss
uk u
Ġsh aasthr
Ġam aichch
aakk unnu
st ar
Ġ6 7
ell e
Ġkaar r
Ġsp ace
Ġpay intr
ĠK EYWORD
Ġà¤ľà¤¨ à¤°à¤²
Ġut k
Ġà´İàµ» à´ķ
Ġmand ir
Ġkaryakram on
Ġbusiness wire
Ġachch ha
Ġtheerumaan ichu
Ġeconom y
Ġshh ow
Ġcakoothar ar
Ġadisthaanamaakk iyulla
Ġmaag aan
IND USTRY
Ġpugazhp ettra
SOUR CE
à´° à´ķà´³
at il
on pathaam
Ġf ood
el o
ich irunn
Ġad ayaal
ukal aayi
Ġà¤ĩ à¤ļ
Ġkh aadi
aiyil aana
Ġho us
Ġvarsh angalil
Ġsa wari
Ġiss ue
à®ķà®© à®µ
ĠV ir
ĠV egas
Ġvishesh ag
Ġpen kutt
Ġkutt ram
Ġà®¤à®Ł à®ķà®³
Ġtheev u
Ġprati bandh
Ġpadinj aaru
Ġmann ar
Ġvaralaattr il
Ġbik ri
w ide
in padi
am ukh
sh ine
Ġch ayan
Ġan jal
Ġà¤¤ à¤¸
aak ukayum
Ġfor ce
Ġnad apad
Ġcom es
ist ic
à®ķà®² à®®
onn y
Ġdis k
Ġà¤ĳ à¤²
23 00
198 1
Ġkondu v
ĠV iew
Ġsel kirathu
unnathu vare
Ġnee kk
Ġvee dugal
Ġpor ch
Ġà´§ à´°
Ġruss ia
Ġmaanej ment
Ġjanasamkhy ayude
Ġhosp ital
Ġjimmed aar
Ġnann ayi
c ing
v eer
àµį /
à®¤ à®ªà®Ł
àµģ ".
à®Ł à®ķà®®
Ġp aint
à´ª à´¦
Ġh unt
Ġt aar
Ġme an
Ġà®ĩ à®´
aal amaana
Ġch ee
ag ath
een s
Ġvar uv
Ġma usam
Ġas w
ĠM ich
Ġà¤ĸ à¤¤à¤°
Ġid ain
Ġsar kari
eng k
Ġvaal on
Ġraj isttar
Ġol imb
Ġmath ram
ene z
Ġ189 9
Ġthodang i
Ġkaryak ari
Ġhav ing
Ġkod ath
Ġlii e
Ġbritt en
Ġpot ential
Ġdin on
angl adesh
k ash
an ya
Ġp izh
ay anam
Ġb us
aar r
àµ½ à´Ł
Ġt en
it es
à¥Ī )
Ġw ww
à¤Ĺ à¤µ
ang er
adh ikar
ov sky
à¤ĩ à¤¬
Ġkur av
Ġor ig
Ġjan ichathu
Ġchar ges
196 1
Ġezhuth thu
Ġ188 2
Ġroo dh
Ġjod y
Ġparuv aththil
Ġnadaip ettrathu
Ġmanag ement
p ura
Ġ ana
Ġs anj
Ġv aiv
ir akk
av ali
Ġpar ih
Ġà´ī à´°
Ġkh itaab
Ġbe gan
Ġà¤Ł à¤°
Ġwh iffle
Ġkur al
Ġiru mbu
Ġnil anil
Ġso u
Ġpur atch
Ġsang am
yak ram
Ġur app
196 3
Ġ189 7
Ġbadal kar
Ġà¤¬à¤¦à¤² à¤ķà¤°
EN T
oorv amaaga
Ġelectr ic
Ġeconom ic
201804 2300
Ġkaanaped unnu
Ġgambh ir
. '
c ol
v aazh
Ġk aii
at ory
Ġv achu
à¤¯ à¤ª
Ġd aar
Ġd og
à´ļ à´¸
Ġr ose
Ġà®µ à®²à®¤
Ġg aay
Ġg adan
ik an
ik irathu
ik aaram
Ġw rit
od um
Ġ18 50
Ġal bert
Ġkh et
iyil irunthu
Ġcom ment
Ġmael ae
aadh ipath
Ġchar ged
Ġabh ine
ĠO ttawa
Ġbo tt
à´µà´¸ à´¤
Ġgro und
ward s
aud yog
Ġcour se
cr ipt
Ġmak es
Ġpravarth ichu
Ġparaam ar
Ġizh app
Ġpirath ipal
Ġprasth aav
Ġresp ond
Ġjapp an
Ġsaw al
Ġpatth ar
A nd
j on
iy aya
Ġn al
ey adhikam
à´ª à´¨à´Ļ
ed d
Ġà´¸ à´¤
Ġà®ļ à®±
Ġà®¤ à®ļ
ag ai
Ġin k
Ġe thuv
te ll
Ġkar iyar
appatt apoathu
Ġà´ħà´µ àµ»
aap ak
Ġmar uththuv
ĠC EO
ank a
Ġus ka
Ġban ane
po int
Ġà´ħà´² à´ķ
Ġseyal paadugal
Ġjaan kaari
nn ay
Ġaustr ali
Ġnirv ag
Ġsn ow
Ġjud ge
Ġhar aaya
Ġsem if
mon ton
Ġsqu adron
Ġkaiv ash
Ġutp ann
m and
s al
t thi
à´¿ ;
in am
Ġs aatt
Ġm aith
iy itt
ur am
Ġl ind
Ġà®µ à®¯à®²
Ġpr int
el ess
Ġà¤¦ à¤¬
Ġà´ļ à´¤
à¤¼ à¤¾à¥¤
Ġar akkatt
athin usesham
Ġà´ĩ à´Łà´¤
ec ast
Ġà´ľ à´ª
ess y
eer e
à¤ī à¤¥
Ġed uc
Ġsa ernth
Ġsaam skaar
Ġkan is
Ġplay ing
Ġ190 5
àµ¼à´² àµ»à´¡
Ġkett idam
à´¸à´® à´¯à´¤
Ġelectr onic
Ġcover age
à§ į
Ġiyan ththir
Ġital vi
Ġsradh ey
p itaa
Ġk amaan
à´¤ à´±
à´¯ àµ¼à´¤
Ġn ett
ad ang
Ġb alki
es i
Ġc ab
Ġà¤¹ à¤¦
ik appatta
Ġthe ater
Ġall aatha
Ġvi b
Ġenniv aykku
Ġnagar atthile
odh it
Ġeng ane
Ġsm art
Ġsaadh yath
Ġsign al
Ġscot ish
Ġnatch aththir
rem e
Ġfur ther
Ġcompan iyon
Ġsansk riti
in y
in son
à®® à®Ł
at ure
Ġb ij
à´¸ à´ŀ
Ġo cc
is in
Ġr inn
aiy aad
Ġto ge
aav aaya
Ġà®Ł à®©
Ġal an
thth il
à´Ń à´°à´£
ĠC le
Ġà¤īà¤ª à¤ļ
Ġvid roh
Ġprath eeksh
Ġner id
Ġ189 4
194 8
Ġem p
ishth abhoomi
Ġvyav haar
Ġsigichch ai
padinj aaran
Ġupany aas
E x
f aan
l s
Ġs atah
à´² à´ķà´¨
Ġd af
Ġl aitt
Ġà¤¹ à¤¡
ik as
Ġin tr
aav akaash
le ag
Ġadh ika
end r
up aduthth
Ġirun da
à´¯à´® à´¨
à¤ģ à¥¤
ta ct
Ġpan b
Ġabh y
Ġyaa tra
Ġpaguth iyai
eal and
Ġà¤¸à¤¤ à¤¹
Ġthiraipp atan
Ġà´īà´Ł à´®
Ġpattiyal il
Ġudaaharan athinu
Ġsafal ata
àµ¼à´ĺ à´ķ
Ġbudh im
shas tra
Ġviniyo ag
Ġbra un
Ġjool aiyil
Ġnadupp aguthiyil
d w
l ov
gal aip
Ġg ave
Ġg etting
iya poathu
Ġà®Ĵ à®¯
Ġà´¬ à´¯
Ġà¤Ĩ à¤¸
aas ar
Ġnir am
ĠW illi
ook ing
Ġà®ļà®® à®®
Ġthur amukh
Ġà¤ħà¤µ à¤¸à¤°
Ġvalar eyadhikam
apt an
à®ı à®ª
Ġnigazhchch i
Ġje ff
Ġepril il
Ġà´ĩà´Ł à´µ
Ġprop er
Ġà¤®à¤¤ à¤¦
Ġintell igence
A m
j ha
k ir
à´ ¢
ar o
à´¤ à´²à´¤
kk an
er k
à´µ à´µ
as er
à´£ à´¨
à¤¹ à¤¸
Ġu kr
ikk att
Ġsh aas
angal udan
à¤¥ à¤µ
Ġar ppan
à´« àµ¼
Ġà´² à´¯
ug ai
Ġà¤ļ à¤Ł
aak avum
ep end
iyam aaga
Ġvi etnaam
Ġkaal a
Ġporu th
Ġthad agal
appadug irathu
Ġà®®à®£ à®¨
Ġrom anian
Ġdef ense
Ġpu ul
Ġfeb ruvar
mun bu
Ġpadaippir ivu
matt rum
Ġmoas amaana
Ġentr aalum
Ġsampr eshanam
Ġinsur ance
Ġodh ukk
Ġtoge ther
N ew
R ep
] ]
r ad
v adhu
Ġ ib
an iyil
an akal
Ġm aataa
ee g
Ġw arm
Ġsh aik
à´¬ à´²
19 20
Ġcom ing
ard o
Ġko attai
Ġva ett
Ġpol ish
Ġaandu kku
Ġprash aas
Ġmal ai
lin es
Ġaduth ulla
195 3
rist an
Ġputhth agam
Ġsus p
kan avae
reas ing
Ġà´¤à´ķ àµ¼à´¨
Ġkadarkar ai
Ġjap anian
Ġsathamaan avum
Ġlokt aantrik
Ġsamarp it
Ġhoom e
e ck
m as
o lla
ath aagavum
kk unna
Ġd ek
Ġd ub
tt i
av is
iv ision
Ġad arthth
adh ish
Ġvar aivu
à¤ĩ à¤¸à¤ķ
Ġup adesh
Ġ8 2
Ġru d
Ġus ers
à¤ī à¤²
ĠG A
ook ie
iyum aayi
Ġsthaap ikkukayum
Ġopp ukk
Ġveliy ittathu
Ġ189 8
Ġtra il
195 6
Ġsaan skritik
Ġà´¨à´Ĺ à´°à´Ļ
Ġpradesh athe
yav asth
Ġben ch
Ġumm eed
Ġthirich ar
Ġveliyid appatta
Ġcre ate
Ġaik s
lant ic
Ġsuttr iyulla
Ġcel eb
Ġpayintr aar
h ouse
k att
n ag
p ite
u ed
y in
ar aaya
il oode
ath ir
ath ayum
Ġb og
àµĩ à´Ĥ
Ġà¤¹ à¤¥
Ġg od
Ġà´¨ à´ķ
iv a
Ġà¤¨ à¤·
ich athinu
Ġsam jha
ul ed
ukal udeyum
Ġenn athil
ĠS yria
Ġup d
Ġpir ivil
ĠG P
ĠJ an
oy s
angalil onn
à®ĩ à®ª
Ġchar ithram
à®Ĩ à®ķà®¸
Ġethir paar
akh a
Ġà´µà´³ àµ¼à´¨
Ġathu pole
bandh an
Ġmem ber
Ġcam er
b urn
Ġm ins
iy irunnu
à®® à®Ļ
Ġà®ħ à®¯à®°
or ter
à´¡ àµ¼
im o
irun thaar
Ġkar uthth
Ġun g
ile kk
Ġà¤ĩ à¤¨à¤ķ
Ġal ways
inn ing
ct ions
Ġkal icha
aikk irathu
Ġpad onn
Ġà®Ĳ à®ª
Ġres ult
Ġà®ħà®´ à®ķ
Ġschool il
Ġka el
Ġrash tra
194 3
Ġvee zh
Ġsooch ana
Ġsid ney
uzh al
Ġhog i
Ġpirath aana
ĠEurop e
Ġmunm ozh
ĠRes earch
aigyaan ik
Ġorum ichu
N W
b ane
Ġk aayam
Ġm es
aan aar
Ġd one
à¤µ à¤ļ
Ġà´µ àµ¼à´ķ
Ġf ashion
Ġw ing
Ġà¤¦ à¤«à¤¨
Ġà¤° à¤ľ
os ition
Ġà´ľ à´¨à´¤
atth ilekku
àµº à´®
ram am
Ġup aadh
Ġath latt
aththin aar
Ġid aiv
à¤ľà¤¨ à¤ķ
Ġrec ogn
Ġmaatt ruv
eral d
Ġaay og
Ġpaad agar
Ġà¤¬à¤¹ à¤¨
Ġvitt iya
Ġgen er
Ġpazh am
Ġkod unk
Ġcommun ic
chaar iyon
Ġhat yaa
Ġghat ana
Ġkalaach aara
Ġkaiyeluthth ittaar
à®²à®µà®° à®ª
Ġnilavar appadi
Ġà¤Ĺà¤ł à¤¬
Ġethuv um
" ).
o ard
v it
in as
Ġh ug
av es
av ing
is er
or ed
à¥ĩà¤Ĥ )
kal udan
aal e
Ġf est
à´· à´ķà´³
Ġav sar
te ad
aiy id
Ġà´Ĩ àµ¼à´®
ipp ikkunnathu
Ġmar anam
Ġidh arku
Ġ7 9
Ġper is
Ġcl asco
Ġpur ame
shan ik
ord en
Ġkaal an
ĠG e
Ġsu jh
Ġmah al
Ġcar l
odh ana
ippad uthth
Ġà´ħà´± à´¸
Ġmaas ik
Ġmarket s
oph er
Ġneed s
Ġulag in
Ġathth agaiya
Ġthernthedukk appatta
Ġnirdesh an
Ġoon ch
ĠKore an
pro f
Ġlarg est
j aise
o athum
s id
ar ude
Ġv aikal
ai ththa
tt inte
Ġo thth
à´³ à´£
it ing
kal ilum
àµ» à´«
Ġf ram
Ġf ly
à¤ľ à¤µ
ang h
Ġà´Ĵ à´¬
ut ing
Ġad im
ro b
Ġà´« à´²à´Ļ
ian ce
Ġsak h
Ġpan ipur
Ġpayan paatt
Ġcar bon
ĠV ancouver
Ġpradh aan
Ġkoott rupp
Ġreg ion
Ġveliya er
odu lla
Ġshiksh ak
Ġpalkalaikkazhag aththin
Ġven kal
Ġbhav ishya
Ġsanraksh an
Ġchang es
ĠStr eet
Ġchall eng
Ġdip l
Ġnagaichch uvai
Ġbudhim utt
Ġkoottrupp adi
g ent
g ers
m i
m ore
à¤° à¤ĸ
Ġm ast
am aer
à¥Ģ à¤ĥ
Ġn ice
ey ae
Ġd oow
Ġà®µ à®®
Ġaa ivu
ich athaayi
à¤¥ à¤ķ
Ġbh oop
Ġvar aipad
ukal kkum
ot ic
Ġee st
iss a
ĠN BA
Ġpat thu
Ġnirmm aana
Ġpoatt ikal
ĠTh ere
Ġmon tr
Ġshar aab
Ġaandugal aaka
ikkapped unna
Ġpid ich
Ġshak th
Ġty p
Ġhat aa
Ġthel iy
Ġkhar aab
Ġaattr in
Ġnorw ey
Ġkadarpad ai
Ġarungaatch iyag
Ġmuttr ilum
asamay athu
G Y
S unny
k ood
l ay
m e
à¥ĩ )
Ġs ukh
à´¯ à´ķà´³
kk inte
um e
Ġh und
Ġt v
Ġà´ª à´¬
à¥Ī .
Ġg ur
Ġg ah
ikk appadukirathu
iv ivar
Ġy u
ĠT imes
ĠA ir
Ġkh ou
Ġkaar anangal
ĠW innipeg
Ġuy arnnu
à¤¦à¤° à¤Ĺ
Ġpun ah
Ġpak upp
Ġkhel ane
Ġev ents
Ġpinth udar
Ġmaavatt aththil
Ġkudiy ett
athaak avum
Ġrepublic an
Ġanaly st
Ġsujh aav
6 00
w ad
à´¿ à´ĥ
Ġs eena
à´° à´²
àµĨ -
Ġr ick
Ġl iv
Ġg ra
Ġ( $
Ġpr aav
Ġf o
Ġe uro
Ġsh er
Ġy aadh
à¤ļ à¤µ
Ġà´Ĩ à´µàµ¼à´¤
all athu
Ġà´ľ à´¡
ip i
ĠS y
ĠC ap
st an
Ġbe g
aipp andhu
Ġà´ĵ àµ¼à´¡
Ġkur ainthathu
Ġle on
Ġso on
Ġkatt apatta
Ġà¤®à¤¹ à¤²
Ġiss ues
Ġapp eal
ĠCh rist
Ġaer kanavae
iksh ep
Ġ189 5
Ġmuk ad
Ġpravartth anam
Ġsamud ri
Ġlamb i
Ġkazhiy unna
Ġvyav asth
Ġkarm chaariyon
Ġmudiy avillai
Ġmunisipp aal
Ġpustakal aya
S o
n tha
p ool
w orth
Î ¿
as ar
Ġt an
Ġl y
Ġw oman
Ġin f
Ġin aipp
Ġsh eet
angal kkum
ish k
ukal ulla
Ġ18 40
pr at
Ġà´ı à´ľàµ»à´¸
Ġ10 1
ĠG roup
Ġsee tt
aki zh
Ġhot al
cl ub
Ġà¤ĵ à¤ķ
ĠO n
ĠO pen
Ġmal ik
af ees
Ġvaar thth
Ġanum an
ĠIn tern
195 4
Ġvyath yaas
Ġfound ation
Ġkadh ai
à´ī à´¦
Ġpaid al
Ġbox es
m ing
m ith
ar pp
Ġm ana
Ġa inth
Ġv eel
Ġn ai
à´ª à´ļ
Ġd ow
att er
à´£ à´²
Ġe athaan
à¤ľ à¤§
Ġsh a
om er
à´« à´±
Ġup chaar
Ġnad iyude
Ġpad os
ĠL at
udh ir
Ġpath ippu
à´ħ à´µ
Ġseason ile
à®Ĩ à®ĥà®ª
ĠCh inese
Ġuruvaakk iyathu
Ġrakh ate
Ġass ist
Ġvaar shika
aasth ra
195 5
Ġroo bert
Ġven tra
Ġtrain ing
Ġvimars an
aashan al
Ġsarvakalaashaal ayile
Ġemploy ees
Ġmex ico
ĠEng land
Ġchalach ith
n ee
r il
à¯ģ ),
Ġa ul
ath olam
ay aayirunnu
Ġn eeti
à´ª à´¨à´¤
à´¸ à´²
Ġd ue
as aay
Ġsh aan
ab ama
Ġand olan
Ġis i
ov ai
Ġfor ces
Ġwh y
Ġà´ĵ àµ¼à´®
Ġru chi
umb ia
aalar aaga
Ġmill er
erm ar
Ġthad aak
Ġchun e
ER IC
Ġkarudh appadugiradhu
ethir aaya
Ġgath bandhan
Ġaattr al
TE D
Ġnadaim ur
Ġulagal aaviya
Ġjaw ab
Ġadikk adi
b en
f ort
y angalil
Ġ ii
in ulla
Ġs co
Ġs uvar
Ġa ya
Ġo re
av attru
Ġj el
à®ļ à®Ł
iya gam
Ġà¤¨ à¤ķ
Ġà¤ıà¤ķ à¤¤
ipp athu
Ġkar ega
Ġnir nnay
Ġ9 2
Ġvarsh angal
Ġsir app
Ġsev an
Ġvim an
Ġvan tha
Ġpayanpaduthth appadum
Ġqu ick
195 8
Ġbel j
Ġcons erv
Ġgraam een
Ġott umo
Ġmc d
Ġparaam ars
Ġround il
Ġrece ived
ret ary
Ġvarud aanthira
Ġmerk aththiya
y il
kk i
kk aan
Ġn ikshep
Ġh oot
ir and
Ġà¤® à¤Ľà¤²
Ġo onn
Ġr ole
Ġch am
iv an
Ġoru pakshe
Ġsh ir
aiy aaka
Ġsam anil
Ġis aiyam
Ġà´ī à´ļ
à´« à´¸à´±
Ġà´« à´¸
ukku ch
Ġmo onn
Ġà®ĩà®© à®®
Ġdee p
à¤ħ à¤¬
ti z
thuv id
Ġkand umutt
Ġsoo ththir
yan tr
Ġapp o
Ġsur r
Ġaer patta
Ġpras aran
Ġvag upp
Ġvishesh ta
à®Łà®µ à®£
Ġvalar chi
Ġlaw y
apr adesh
Ġsameep am
Ġnim id
Ġfollow ed
sel f
Ġoppanth aththil
Ġpudh upp
ĠTechn avio
ĠAustral ia
aart ment
T ES
a ustral
b rit
f ed
g ame
i ers
l ab
n eta
s arv
an agar
Ġk ell
Ġv inn
en ia
Ġh aas
Ġt ek
it er
Ġch eef
Ġin am
Ġpar idh
Ġsam y
à´¥ à´²à´®
Ġà´° à´ļ
Ġas aadh
Ġman anthaar
Ġso sh
ĠJ ust
Ġpatt ika
Ġà®ªà®¯ à®£à®¤
Ġviru pp
Ġthayaar ippu
Ġ186 0
Ġreg ister
Ġgeyim ukal
Ġamerikk ayil
Ġchak ravar
Ġpraadh aan
Ġfal amaayi
far ans
Ġphill ippeans
Ġlund en
àµºà´« à´±àµ»à´¸
Ġabhim ukh
Ġkai thu
m u
Ġp ac
à¤¨ à¤µà¤°
Ġn ash
Ġd ain
Ġd ost
Ġd omin
aar gal
Ġà´¨ à´Ł
ag rah
Ġe arn
iru th
Ġà¤ı à¤µ
à®µà®° à®µ
Ġto pp
Ġto un
Ġà´Ĵ à´²
Ġar uvai
Ġà¤ļ à¤ķ
ĠA c
ri be
end ra
Ġà®° à®¤
Ġval iy
Ġaar vam
ĠP ts
Ġvil angku
Ġsw aath
Ġ9 4
ib ility
ĠG F
Ġkood i
aththai ch
Ġvarsh athil
à®Ĩ à®©
Ġgo als
Ġsen ate
Ġà´Ĳ à´±
Ġpaal an
OR TH
sw ick
Ġpradesh athu
Ġinclud es
Ġmoo zh
Ġmukkiyam aaga
Ġthiranjed utthu
Ġvidyaabhyaas am
Ġpeed it
Ġej ans
Ġthalaipp il
Ġpanked utthu
Ġpakupp aaivu
à®Ł à®Ł
ath o
Ġà´ħ à´ļ
Ġch itra
Ġà´® à´ķàµ»
Ġà®Ĩ à®´à®®
Ġaa ivugal
ol ution
angal ilekku
uv atharkaana
aav unna
ip orul
Ġal avid
Ġjo y
op a
Ġnad an
Ġnad igar
re ad
if orn
ĠD irect
Ġtr y
à®İ à®ķ
Ġre fer
Ġseith i
Ġthad ay
Ġveliya ettr
Ġprach od
Ġlaw makers
Ġvith aranam
kaal een
Ġmaavatt am
Ġkab ristan
Ġlim ited
Ġnuzh aiv
Ġvidyaabhyaas a
Ġkattum aan
Ġkireed am
Ġchair man
Ġsumm er
Ġkaalayal avil
Ġroodh ivaadi
ar l
in du
à¤° à¤Ĺ
ee zh
Ġv adh
à¤² à¤¹
Ġj i
Ġà´µ à´§
ik ayum
ich ir
Ġy et
og an
ram aaya
ĠC omp
Ġkh at
ĠI f
Ġir attai
Ġwh ose
aikk appatta
Ġvish waas
Ġcon tract
igal aal
Ġ9 7
Ġ9 8
Ġpl aatt
eek rit
eev u
Ġbr id
ĠU NI
Ġmah as
à´ħ à´ª
Ġezhuth thukkal
Ġsain yam
Ġtha ed
Ġpram ey
ĠHe alth
Ġes p
Ġinc ar
Ġniv asi
Ġanu yoj
neet i
Ġda uth
Ġra undu
Ġthozhilaazh ar
Ġmunk oott
Ġoozh iyargal
Ġask ed
Ġisl aam
m iss
o z
à¤¾ ",
Ġa yal
Ġth ing
um a
Ġd ick
ak ers
Ġo afees
Ġl ath
Ġj ersey
Ġc ra
Ġà®ļ à®©
ich uk
aath r
kku lla
Ġà´Ĩ à´ĺ
Ġpo ala
Ġar jit
Ġon nu
Ġmo ththam
Ġà´ĵ àµ¾
à®· à®ª
à¤¸à¤® à¤°
Ġbo ll
arm aar
Ġthad ass
Ġprash aasan
Ġprav ish
Ġsl ov
Ġnirv aach
Ġaandugal ukkup
Ġà´§ à´¨à´¸
Ġà´¤à´Ł à´¸
Ġdoor i
Ġpratin idhi
Ġsystem s
Ġtoo faan
ĠCol orado
Ġsentr athu
Ġnas l
Ġuts av
Ġà®®à®°à®ª à®£
Ġanaithth um
Ġpozhuthupo akku
e qu
m ath
m or
al t
Ġa etrtr
à¥Ģ ;
Ġth aguthi
ru p
Ġb od
ir andu
ii er
à¯ĩ "
Ġch oo
Ġw at
ich ukondu
à¤¼ à¥ģ
ett irunnu
Ġbh a
àµº à´·
Ġee s
Ġsw adesh
Ġkad anthu
Ġkood aippandhu
co un
Ġind ia
Ġnirmm ichu
inj u
Ġ189 2
Ġthodar in
Ġny ayal
Ġpravartth ikkunna
Ġkall ar
Ġacc used
eetham ulla
Ġnik at
Ġthaer vu
ĠInd ia
pinn ar
Ġpayirchiyaalar aaka
Ġsoc iety
Ġiyark ai
iyirun ththathu
Ġaavar th
Ġsambhaav it
Ġshiv ir
A t
g iraar
k ul
n thth
t witter
Ġa kal
Ġd uu
à¤® à¤¶
Ġg ill
ic i
dh ani
ent al
aakk il
ans as
Ġaar v
Ġkur ikk
Ġà´ħà´¨ à´¨
à¤¶à¤¨ à¤²
à®ļà®© à®Ļ
Ġà®ĩà®¯ à®Ļ
Ġpras aarit
enc ed
Ġthodar il
aval kkar
Ġfilm on
Ġsank eern
Ġaandugal ukku
Ġpadh avi
mo uth
Ġnan b
Ġparaajay appeduthi
Ġnab ar
Ġpos ition
Ġsov iyat
Ġmont eneg
Ġalex ander
Ġpush ti
dd esham
Ġvott u
Ġthodarpud aiy
Ġkanakkaakk appedunnu
Ġmunisipp al
Ġsthaanathe thi
Ġsaaj ha
th ad
Ġk athin
Ġa id
Ġv rith
à´ª à´ķà´¨
Ġà®µ à®Łà®®
ll oo
aal aththil
Ġf ill
uth er
ig yaan
ig atha
et ers
ers e
oor d
Ġfor e
Ġsth aayi
Ġmo sham
Ġsw itch
Ġà®ı à®ķ
ayog i
Ġmu yantr
à®İ à®Ł
Ġgh aati
oc ol
Ġenniv aye
Ġvid uv
Ġavarkal ukku
Ġmad angi
ĠV iet
Ġev vaaru
enc ies
Ġ188 5
Ġvaazhkk aiyin
laan t
Ġjeet ane
Ġprach aar
Ġarasiyal vaath
Ġdesember il
Ġkalakar on
Ġvarav aer
ĠCent er
Ġabhy arth
Ġnyayal aya
l ight
m ool
n aad
r ec
à®± à®ļ
à¤¨ à¤¸à¤¨
ru d
er to
ay ik
Ġà¤® à¤¶
Ġà´¸ àµ¼
Ġu sh
app o
ag r
Ġe chch
Ġà¤ı à¤¥à¤²
à¤ı à¤Ł
à´¬ à´¸
ipp aray
ip ik
Ġnir aththil
ikal aaya
Ġà®ķà®Ł à®µ
Ġdo ing
ĠB en
Ġph astt
à´ĸ à´¯
Ġà´īà´ª à´Ń
Ġrah ata
Ġnig am
Ġcomm ittee
Ġopp uv
Ġezhuth ukaaran
Ġaer aalamaana
Ġà´µà´³ àµ¼à´¤
195 9
Ġghar on
Ġsign ific
Ġchern n
ĠAmeric ans
Ġstart ing
Ġisaikkuzh uvin
Ġkon farans
Ġvimars agar
Ġprabandh ak
Ġfeat ure
Ġpusth akam
Ġcha uthe
Ġà´ħà´¯ à´ļ
Ġpinvarum aaru
Ġlar ge
Ġgativ idh
Ġpirachchan aikal
ĠGerman y
Ġgall ery
Ġnyay adhish
3 00
W ith
h ali
i as
à®° à®´
Ġm ut
Ġb aatt
Ġà®® à®°à®Ļ
Ġc ult
Ġch annel
Ġch uzhal
ikk apatta
ich irikkunna
ab or
Ġan iyin
all aamal
Ġar ther
Ġnir odh
Ġst ad
ĠS erv
angkal um
anth ira
Ġco up
ayil ulla
Ġle ave
Ġà®² à®¤
Ġpah aadi
Ġpaar ees
Ġre ason
Ġvir k
à´Ĺà´¤ à´¯
Ġil irunththu
Ġà®ķà®µ à®©
Ġatt empt
Ġsatt ru
avas a
vel i
Ġben z
Ġviriv aakk
Ġband arg
Ġinjur ed
Ġà¤¬à¤¦ à¤²à¤¨
al avil
Ġp aa
Ġb ri
Ġh amp
à´µ àµ»à´¸
ich illa
Ġy uke
ipp i
Ġon bathu
ĠS TA
Ġir akk
Ġru g
Ġvi ew
Ġ15 5
Ġ15 9
Ġag ent
Ġà®ķà®² à®¨
Ġvazh iyil
Ġ11 0
amaan ennu
Ġcr iminal
Ġmed el
Ġ189 3
194 7
Ġbain k
akaal ik
Ġtham asam
let on
Ġtru st
Ġmach ine
Ġinjur y
Ġsov iyatt
Ġalleg ed
Ġkuranj athu
f al
i ot
n ow
p it
à´ Ķ
Ġp aae
à´¤ à´¶
oo zhal
à´¸ à´«
Ġd aa
Ġd ol
ak t
aar thi
à´³ à´Ļ
Ġt ape
à¤ª à¤¹à¤²
Ġà´® à´ķà´³
à´· àµ»à´¸
à´· à´°à´Ļ
Ġen ough
im ate
Ġon ce
Ġpir antha
Ġkur aivaana
ĠP ark
à®· à®°
ĠH is
Ġsar aasar
eng th
Ġ14 0
Ġed av
Ġabh iv
Ġvaa ch
Ġpoo ll
entr aal
Ġpaal iyal
Ġpeyar il
Ġ186 4
Ġchithr atthil
Ġsrisht ichu
Ġvyakt iyon
Ġmult iple
Ġallow ed
ĠAM ERIC
Ġaksh ar
Ġris k
Ġcrit ic
Ġkaiyezh uthth
Ġolimb ik
S h
à¥ĩ ;
Ġk ej
Ġs aab
il ton
iy athil
ee ch
Ġv aakkal
aan gal
oo f
Ġb ab
Ġd aniel
or ia
ich um
Ġà´İ à´¯
aad a
Ġst aar
uthth ar
Ġath ine
Ġnad ann
Ġà´¦ à´ķ
Ġko ayil
Ġsar iyaana
ikkaan ulla
Ġinn ings
Ġcomm on
Ġdaur e
ij ing
aiya iyum
Ġjin ake
194 4
ezh san
Ġvijay ichu
ren ch
Ġviriv aana
Ġadippadaiyil aana
Ġsamar oh
Ġpash chaath
Ġreb ound
aliz ed
Ġstaand erd
Ġummid war
Ġaver age
Ġrej iment
Ġfebruvar iyil
v aas
Ġ isht
ath aiyum
ch als
à¤ķ à¤¬
ay at
à´Ĥ -
à¤¤ à¤²
sh ala
àµ½ à´¹
Ġ( ),
Ġpr ag
Ġà®Ĩ à®ªà®¤
à´¡ à´¯
ipp in
Ġbh ram
Ġma il
ro te
Ġon t
Ġco ff
Ġche an
Ġvad akizh
ĠO b
anc y
Ġvan nu
Ġind onesh
Ġther iy
Ġmil es
194 6
Ġpadh av
Ġcap e
Ġhim self
Ġvak eel
Ġniyantr it
ĠRepublic ans
Ġepp oathum
ÑĤ Ðµ
Ġduk aan
enez uel
g l
s ing
Ġk udhir
Ġm organ
kk att
um aar
Ġd il
it an
Ġà´ħ à´ľ
à¤Ĺ à¤ľ
àµĤ ,
Ġkar uththu
Ġbh ojan
Ġas istt
anth ar
Ġval arth
Ġro j
Ġkaal aththirku
à®¹ à®©
Ġpal ar
Ġde ane
Ġnirmm ichathu
inj a
Ġpoo st
Ġdr iving
Ġlad akon
than ipatta
Ġnadaip ettra
Ġgrow ing
Ġpav undugal
ĠVir ginia
b c
b ia
j een
w aar
Ġ ich
ath ayi
ay ir
Ġn ine
sh ak
Ġh i
Ġd ail
as es
Ġt ain
Ġme ks
Ġg am
à´¦ à´µ
ukal a
Ġ18 00
Ġà´¡ à´ļ
à®ľ à®®
Ġsp ons
Ġthal ay
Ġpath yakram
iyar kal
Ġpro b
Ġkaan ikkunnu
Ġund erst
à¤ĩà¤¨ à¤°
ins ky
Ġkhel ate
angalum aayi
ukalum aayi
Ġ188 9
195 1
Ġariv ikkappattathu
Ġthol aivil
Ġlekh an
à´ĵ à´¸
Ġà´ķà´¥ à´¯
Ġruss ian
Ġabhin eta
Ġsamoog aththin
Ch icago
Ġkudiyirupp aalargal
L os
r ing
s ter
v idh
y ik
à®¤ à®¯
Ġs oph
Ġn aksh
sh ah
Ġb un
ak ud
Ġ( '
ing ik
Ġen vironment
Ġà´¤ à´£
Ġar iz
à´ľ à´µ
le te
ot y
avar aaga
ikal kkum
ĠP M
ĠW ith
Ġte ach
Ġà®ħà®Ł à®ķ
à´ħ à´ķ
Ġethir pp
Ġste in
Ġmadh a
ino du
Ġer iporul
mar g
Ġneer avi
Ġbec ame
Ġadisth aana
Ġred d
Ġwell s
ĠAr ab
Ġvaag an
Ġmuthanm ai
Ġsarvakalash aala
Ġsoathan ai
Ġanal ysis
ĠMex ico
Ġprasn angal
Ġainth aavathu
I P
b ara
f i
t ru
Ġm ater
Ġn ikk
um aaya
Ġb iano
Ġh oo
àµ½ à´ľ
as ah
Ġr aid
Ġj av
Ġj all
Ġj ose
Ġsh ell
aad ami
arn tha
Ġdo h
Ġwas n
aw at
Ġaav aas
Ġvad amaer
iyo a
Ġapp aartment
Ġmunn il
isth aan
Ġ189 1
Ġpeyar idappattathu
Ġmin or
195 7
Ġvivar angal
Ġthav ir
udd on
Ġthen kizh
Ġelectr on
Ġathin usesham
Ġsabh aa
ĠDemocrat s
Ġkaalaghatt atthil
Ġakk adami
Ġnaamanir ddesham
A ll
S an
f ace
u tr
y ayude
z i
Ġk ana
Ġm aik
il t
Ġh ur
Ġg iven
Ġpr audyog
ik aatt
Ġin thiy
Ġe ast
Ġà´İ à´µ
Ġse par
à´¶ à´ķà´²
Ġar h
Ġbh aut
ach aar
Ġà¤ĩ à¤Łà¤²
à¤ĩ à¤¡à¤°
chch oozhal
Ġbr is
Ġkatt al
Ġ14 7
Ġprat isthaap
Ġare as
Ġdes c
Ġsev aigal
Ġpravar than
Ġuruvaakk ukirathu
194 1
Ġvaend iyirunththathu
Ġcheyth ittundu
Ġpresident ial
Ġ184 8
ecut ive
Ġpug aippad
Ġbis iness
Ġenter tain
Ġthudar unnu
Ġtheruv il
Ġullekh aniya
Ġpriv ate
Ġkin are
saay ik
Ġadangiy irikkunnu
Ġapar aadh
Ġsemif inal
Ġariz ona
v aai
à¤° à¤ª
à´¸ àµ»à´¸
Ġj ayil
à´£ à´µ
Ġg aard
à¤ª à¤Ł
à¯ĩ -
Ġin iti
Ġav ayil
ipp ed
ip eyar
Ġmo ch
pr ise
ĠN ORTH
ĠG old
Ġgh an
Ġgh ante
asth al
Ġste p
Ġ189 6
Ġthay yar
rap h
ĠIn st
Ġbu ck
Ġnaal il
Ġham ale
maar ch
Ġret ail
Ġlab er
Ġgal at
EN CE
aster n
Ġmekhal ayil
Ġarr ested
Ġseen iyar
Ġkatch iyin
Ġsuzh arch
irn thu
ĠMin ister
ĠCan ada
Ġprajaat iyon
Ġagree ment
Ġchi hn
Ġaafr ikkan
Ġsched uled
Ġsignific ant
B C
r ick
Ġk un
Ġm atra
Ġt ol
à¤Ĺ à¤¡
Ġen ergy
Ġsh ikshan
ab e
Ġsam paad
Ġse arch
em a
ĠS ep
Ġ7 00
Ġsp eyin
aah it
ĠJ ong
à®ĩ à®ļ
ikkunn athum
Ġvad a
aiya eyaana
ma el
Ġà®Ĭ à®Ł
à´ķà´¸ à´¨à´¤
Ġash up
Ġthaazh nna
apr ad
Ġbal on
Ġdep uty
anu ary
Ġmaerk oal
Ġvidesh i
Ġmech an
Ġrunn ing
Ġsaamooh ik
Ġsug aathaara
Ġbhej a
Ġtakn eek
Ġshik ago
Ġaapr ikka
Ġthath w
e urop
j ant
k eey
m il
Ġp y
ath ur
Ġth ak
à¤¯ à¤§
à¤¸ à¤Ń
Ġr ap
ud on
Ġpr e
à¥Ĥ à¥¤
ill aath
ish chit
Ġà®Ł à®°
amb er
oor ti
aak unnu
Ġà´Ĺ àµ¼à´Ń
ĠA f
ant a
Ġir akkum
ĠL a
Ġkood iya
Ġprath ished
Ġraaj yathe
Ġà®Ĳ à®ļ
Ġdis p
à¤°à¤¸ à¤¨
indr anar
Ġvazhangk a
Ġjeet i
Ġdw aar
Ġscor ing
Ġthodarp aana
Ġmanag er
Ġaakarsh it
Ġaang kil
ĠDemocrat ic
appedut thiy
vyak th
Ġprashans a
Ġaasthaanam aayulla
A fter
k and
u i
y adh
à¤° à¤Ĺà¤¤
Ġp aatr
Ġm ind
à´² àµ»
Ġà®ħ à®¸
Ġà´¸ à´ŀ
Ġà®ĩ à®©à®¤
Ġf ru
Ġav aardukal
Ġà¤° à¤£à¤¨
Ġan line
à´§ à´¸à´®à´¯à´¤
aav udan
à¥Īà¤Ĥ ;
ro wn
ĠA g
Ġthan ii
Ġud yam
ann er
Ġà®ªà®² à®ķ
asth aap
Ġpun itha
Ġind ivid
Ġtar get
Ġaustr el
Ġpoorv eega
Ġroo ck
193 2
Ġprach aaran
Ġprem iier
Ġclass ical
Ġnoottraand il
Ġkosh ika
Ġaudyog ikamaayi
Ġchutt umulla
Ġnivaas iyon
vyak t
Ġjac ob
Ġsaksh atkar
Ġnibh ai
kazh il
Ġgathag atha
Ġkong ras
ĠUNI TED
ĠAMERIC A
F lorida
Ġ 00
Ġs aaksh
à¤¨ à¤«
ru ng
Ġn orm
Ġn omin
um aayulla
Ġà®ķ à®Łà®¤
à´ļ à´®
Ġr ai
Ġr eed
Ġr ange
Ġt uk
Ġj ore
Ġc ore
Ġe po
Ġà¤Ķ à¤ªà¤ļ
Ġsh akha
Ġy aun
Ġà´ļ à´°à´ķ
Ġpo pp
ett i
bh oom
ach arit
Ġal aiththu
Ġmar t
Ġval ue
Ġle ague
Ġtho us
ĠR ober
Ġpur og
eel a
ĠJ ames
Ġre ad
Ġsah ayogi
ome tr
Ġà®ªà®° à®ª
anc is
Ġapp oathu
chh a
Ġcheyy uka
Ġshahar on
Ġ188 6
Ġkutt ra
olog ies
Ġ187 9
Ġsign ed
yas ar
Ġhiss on
Ġdem and
atr tr
irundh u
Ġbach aav
Ġthann ai
Ġseik iraar
Ġghat n
avy avastha
Ġresp ons
Ġaup chaarik
Ġpattik ayil
Ġorganiz ation
Ġjoh ann
vyakt igat
Y ou
h amm
Ġk eed
Ġm ck
à®¯ à®ļà®°
à´µ à´ļà´°
Ġd ist
aar at
Ġà¤® à¤ľ
Ġr oos
Ġà¤ª à¤²
us i
Ġà®İ à®ŀ
Ġà´¤ à´°à´¤
ug ees
aat tha
Ġparr ish
Ġà´° à´¹à´¸
ber ry
Ġadd ii
ell aam
Ġpad av
Ġkad avul
Ġà®ķà®£ à®µà®°
Ġcr y
Ġkoott aatchi
ous ton
apr avar
Ġvarum anam
Ġvyakth igatha
Ġudh avi
Ġkattupp ad
Ġmadang iye
Ġkoopp ai
Ġdenn is
Ġnip unar
Ġraay al
Ġcert ain
Ġkanakkedupp inpadi
Ġmanikk oor
k oo
Ġ ic
à´° à´·
Ġh riday
Ġd raft
à´ļ à´²
Ġl oo
ud aiya
Ġà´ħ à´ķà´²
ikk ukayo
à´Ĺ à´¯
aag avae
Ġse kr
19 25
Ġkh aan
eg o
Ġkur ainth
Ġvil imb
if er
if ish
Ġcl aim
Ġex tr
ekh al
Ġmud ivugal
Ġà¤ĳ à¤Ł
Ġvir aasat
Ġsamoo gam
Ġcheyy um
Ġaak iram
Ġwork ers
Ġcap t
Ġins ide
Ġham esha
Ġjud ey
Ġsameep athiya
arat mak
Ġholl ywood
Ġwant ed
ĠJohn son
Ġkristh yan
Ġmaanej ar
Ġkodu kk
Ġenj ch
Ġadisthaanamaakk iyull
Ġkooruk iraar
maer ku
Ġdair kh
E M
I D
a epral
c or
m adh
à®ķ à®Łà®²
Ġk aptan
is es
Ġr oot
Ġt am
id s
Ġf avor
ah aar
à´· à´µ
Ġav ane
Ġpar ibhaash
angal eyum
ill ion
itt an
Ġthaa i
Ġà¤ļ à¤²à¤¨
Ġpad aththil
ĠD r
Ġpay anam
Ġmu yal
ĠF in
aw al
Ġcar le
Ġraj dhani
Ġà®ªà®¯ à®£à®®
Ġatt avan
Ġnish chit
Ġsaj j
Ġband ook
Ġint ru
Ġindi ana
Ġprovid es
jo e
Ġchr isth
Ġpunith arkal
Ġannu al
Ġparaval aaka
! !
j en
s aam
Ġ />
Ī Ĵ
ad ain
Ġr ay
à¤ª à¤®
à¥¤ "
à¤ľ à¤Ĺ
Ġsh ree
Ġà´İ à´³
ap aath
ut a
adh arit
ukal ilekku
ĠA b
Ġjo in
ĠM ontreal
ast ic
Ġwh eel
ĠP ort
Ġmaar aaga
Ġ13 9
ithth aal
Ġsir ithu
lo ad
ikkum ennu
Ġà´ħà´± à´¬
ira en
Ġ186 5
Ġkaatt ukirathu
igr ahan
Ġsanraksh it
Ġpag irnthu
ches tra
Ġanch aam
anivesh ik
aanakk ay
sept umber
Ġmeeth aana
L E
h em
m ont
s r
Ġm airi
ch ari
ru ck
à¤ķ à¤²à¤¨
um aayirunnu
um ikka
à´² àµ¼à´¤
Ġb erg
Ġh ack
av ana
Ġc ann
ikk ul
Ġthe iv
à¤¡ à¤«
im eter
Ġsam ram
ent ine
Ġad iththaar
amb a
ĠS er
ĠP al
Ġvil akku
Ġpad ipp
Ġvish akal
à¤Ĩ à¤īà¤Ł
Ġgr ettu
Ġag e
Ġsak aratmak
kh and
Ġchar l
Ġpayan paduththa
ĠO lympic
Ġpin patt
à®°à®£ à®Ļ
Ġà®Ĩà®² à®©
Ġkoott aal
anm aarude
Ġvag aippaduthth
Ġbadh aane
Ġaarambh icha
Ġvadivam aippu
Ġloc om
Ġgad ak
Ġenglaan dhin
Ġpariseel anam
Ġswaadheen am
Ġspokes man
ĠNov ember
T oronto
Ġk ash
Ġk aid
Ġp aak
Ġm uththam
ch ain
ey n
aan tham
à´ļ à´ķàµ¾
Ġc uddon
Ġch ikk
Ġw ords
Ġà´® àµ¾à´Ł
Ġin a
Ġpar eeksh
ab ad
Ġan ti
Ġà´¤ à´²à´ķ
à´¹ à´¨
Ġkar pan
Ġkar enge
Ġà´ĩ à´µà´¯
idh ar
idh ey
à´´ à´¤
aat an
Ġà´± à´¦
Ġadh igrahan
à´°à´® à´²
Ġvil ag
ann ed
ĠF BI
Ġkatt ur
Ġ14 6
Ġnagar aththirku
Ġmaatt ru
Ġcan adian
ob ile
Ġsk aat
Ġ188 8
Ġsay ans
Ġinc ident
Ġseiyappatt ana
Ġphil im
Ġathikaar ikal
Ġavattr ai
Ġparivart thanam
Ġrequ ir
Ġfun ction
Ġquest ion
Ġthoand rug
Ġbigg est
Ġkk aana
Ġoonch aai
l ish
m aiyaana
Ġ ern
Ħ ¢
Ġk ru
Ġs ugg
ay o
Ġb air
à´µ à´Ļ
Ġd aam
Ġr ih
Ġt uck
Ġl ove
Ġc reak
ent y
akk ett
ett y
et an
Ġst ay
Ġfor ecast
und ennu
Ġà®° à®ķ
Ġdo ct
ĠJ anuary
à®ħ à®¤à®©
Ġstr eett
Ġind epend
Ġne ther
Ġpas ipik
Ġvadiv aththil
Ġbu zz
Ġpu yal
Ġay ojan
Ġprabhaav i
Ġkill ing
Ġaap oorti
Ġmadhy athil
Ġpirathinithiththuv appaduthth
appaduv atharku
Ġlow er
Ġvipul eekar
Ġvazhakk arin
Ġconf ir
Ġcand id
Ġimmedi ately
b one
f ol
p oyi
y oon
in ode
Ġp eettar
Ġm aarum
Ġa ustin
Ġv erm
à¤¸ à¤¹
Ġd as
Ġr athu
à®ļ à®¸
Ġà®¤ à®´
app ura
Ġin ch
uk appatta
Ġà´¤ àµ»à´±
aam akaranam
ent ure
19 18
ett s
aav aran
à¤Ń à¤µà¤¤
Ġst aaf
Ġmar ana
ev e
est on
Ġtho ught
Ġà®ĩà®² à®µà®ļ
àµĥ à´Ĥ
ĠF C
Ġprak aashan
Ġsch w
à®Ĩ à®£
Ġvan oli
Ġil avasa
Ġazh ag
Ġvikas ippich
iyaalar kal
Ġwork s
Ġoor mm
Ġonn iladhikam
ruk irathu
Ġthaazh var
ukiraar gal
Ġvilaiyaatt il
ĠIs lam
Ġkalikk aar
Ġlook ing
Ġminn esota
Ġgad akangal
Ġkott a
Ġkank aatch
Ġmarup eyar
Ġtor r
Ġsansth aapak
Ġvayath irk
Ġamaich ar
Ġgovarn or
Ġà´§à´¨à´¸ à´¹
Ġsekr att
Ġsamram bh
T rump
b ah
c ia
h aal
k er
n ell
y e
Ġk uthth
Ġs ith
Ġs ib
Ġn isch
à¤® à¤¯
as abh
Ġl um
Ġch em
Ġu chit
Ġà¤¤ à¤¥
Ġà®ĩà®° à®¯
ash i
à´¥ à´°
Ġmar uv
ĠI ran
Ġir ayil
yam aan
Ġvish ayam
Ġà´Ń àµ¼à´¤
Ġthir am
Ġex change
Ġpatt r
Ġban aata
Ġel upp
Ġsan chaar
Ġste phen
à´ķà´°à´£ à´®
aykk ide
Ġ188 1
Ġpravartth ikkunnu
Ġdec ades
Ġay ar
Ġbadal ane
Ġdesh eey
Ġnoottaand ile
Ġennivar ude
Ġnj angal
Ġindustr ial
raj ya
Ġpae chch
Ġkach eri
Ġparasp aram
Ġhath iyar
Ġmanor anjan
Ġbrun swick
ĠOb ama
m el
p aath
p ipravari
s ab
Ġ ip
an ik
Ġk os
Ġm ike
Ġm eethamulla
ch ey
à´² à´ķàµ¾
Ġb aatch
Ġt a
à®¨ à®²
àµ» à´¬àµ¼à´Ĺ
Ġf el
el ai
Ġpar anj
Ġà´ĩ à´®
à´¥ àµ¼
ikal ai
Ġdo z
aikk ur
Ġoo ks
Ġgr ay
à®Ĩ à®²
Ġapp e
Ġak aadami
à®°à®° à®ļ
à®°à®° à®ļà®°
Ġass ault
194 2
Ġleag il
Ġ188 4
Ġeff ort
pan ish
Ġyuddh am
Ġazhaikk appattathu
Ġà´Ĩàµ½à´¬ à´®
Ġvadivam aipp
Ġmen porul
Ġkuzhandh ai
Ġpress ure
Ġvelipp ura
Ġest ate
Ġaththiy ayam
ĠQ u
Ġgavesh ana
Ġguj ar
Ġparibhaash it
Ġbaatch it
b aar
f in
g ad
m arch
s aan
u a
v ii
Ġà´ķ à´¸
Ġà¤µ à¤¯à¤¸
Ġaa kh
Ġaur tiz
Ġà¤° à¤µ
Ġà´± à´Ĺ
Ġpad aikal
Ġthir antha
ann e
Ġà´¸à´® à´¨
Ġà®ªà®² à®°
Ġprak riti
Ġbr anc
Ġirand um
yak aal
Ġkaan ad
Ġvay ask
Ġtw eet
Ġmaer par
Ġem ail
aavil irunthu
195 2
Ġ186 3
193 7
Ġpinth od
Ġsaf ety
field er
Ġmy oos
Ġpathipp il
Ġgl ass
Ġanumath ikkirathu
paar v
Ġpunarn aamakaranam
Ġavash isht
Ġfell ow
Ġprathirodh a
Ġathikaarapp oorvamaaga
Ġà¤Ĩà¤¯à¤° à¤²
Ġimmigr ation
Ġà®ĩà®³à®µà®° à®ļà®°
Ġproper ty
Ġrug by
ĠAf ghan
A pr
H L
S ome
w ing
à®° à®¨
Ġp oom
Ġa x
Ġth angalude
Ġr atri
Ġt rum
att an
Ġl os
àµ» à´·
Ġpr ed
ikk up
app an
ag en
Ġand d
ap am
Ġar ast
Ġbh arth
Ġà®ĩà®° à®¤
Ġà¤īà¤¨ à¤®
Ġst an
ov o
kar taon
Ġsth aanakkay
aj eev
ce ll
angkal aal
anth i
Ġir att
Ġà´ĵ à´¡
Ġkur aivaaga
aikk appattaar
Ġprak ash
Ġnew z
jan avari
Ġraj in
Ġvibh ajan
Ġthitt aththin
Ġnewy or
Ġ187 6
Ġveett u
ester n
Ġcle an
Ġparim ith
à®ľà®© à®µà®°
Ġarasaangk am
Ġreal ity
apatt aar
Ġcond ition
Ġtharavaris aiyil
Ġudgh aatan
TER N
Ġthaev aippad
Rep ublic
Ġchalachith ra
V egas
j or
l aand
s th
y land
al em
Ġs aik
Ġp ill
à¤¿ -
Ġv aak
Ġh arm
Ġj aisi
à¥ģ -
Ġà´µ à´¯
tr ess
ol is
Ġsh ulk
Ġà®ī à®ķ
aad ya
Ġbh inn
os lav
à´« à´²
oor e
aksh an
Ġman al
Ġpad iththaar
Ġid angkal
Ġ10 5
Ġpay anigal
à¤ĵ à¤°
Ġvazh ikaatt
iyar ing
Ġ13 7
Ġkond irunth
Ġste ve
Ġinter view
Ġfin ished
Ġaugust il
Ġhigh er
Ġlamb a
Ġlamb ai
rail ey
Ġlab or
Ġbhag angal
Ġkor ppar
Ġkans as
Ġmaiy aththil
Ġviol ence
Ġkristh yaan
Ġthoatt ram
Ġvyaav saayik
Ġprachch aar
Ġvishal amaaya
Ġliber al
Ġsuh ru
Ġpoathum aana
Ġvayathirk ut
d om
j aba
v as
àµį ).
à®ª à®¸
ath illai
à®® à®µ
Ġv ettr
um ennu
un gal
Ġd ast
Ġr ot
Ġj enal
Ġc rum
Ġà´ķ à´ł
Ġà´® à´¦
Ġen h
Ġse al
ap adi
ap attu
Ġad land
athin ullil
Ġst arr
end a
Ġcon tact
Ġiru thiyaaka
Ġà´ı à´ŀ
à´ĸ à´Ļ
ind i
Ġkad antha
Ġag attr
Ġthud ang
Ġrep l
cl ass
Ġres erve
anangal ude
Ġstr ateg
Ġraj neta
Ġak aadam
akan aayi
isi ana
Ġniruvan aththil
Ġpurath ana
Ġkaund iyile
Ġepis od
Ġathir th
Ġlund on
Ġsidh aanth
ĠJul y
Ġnich ale
Ġbord er
Ġbij li
ĠIntern ational
C H
k en
l ar
l as
l ok
n ic
t ic
y ab
Ġs eet
am aippu
on ian
Ġv all
Ġh end
Ġh ope
Ġg re
ikk avum
ah aran
19 00
Ġenn ikkai
ĠT ampa
Ġmar am
à®¤à®¤ à®±
ow rav
Ġpir ichuv
à´°à´® à´£à´¤
aikk aana
aah kaar
ĠD avid
ear s
Ġbr yan
Ġsah ee
Ġcomp lex
Ġchh aap
Ġsthaan aarth
Ġlag hu
Ġà¤²à¤Ĺ à¤¤
Ġpradh arsh
Ġqu alif
Ġkoott u
Ġpank er
Ġchal ane
Ġprabh ukk
Ġ186 8
Ġavasaan athe
Ġsambandh on
pur aththil
Ġjod ee
Ġoper ations
Ġna u
Ġsuttru chchoozhal
Ġkattid angal
Ġparip adi
Ġvaap see
Ġtees ara
Ġpirathinithiththuv appad
Ġtro phy
Ġsamag r
Ġvaah an
lant a
Ġthoantr inaar
Ġyaath ra
Ġaluval ag
Ġanur odh
Ġkaalak attathil
Ġbandarg ah
b ul
b ild
i ences
r oom
Ġ ~
à®¤ à®©à®¤
Ġp uk
Ġp ail
Ġp yaar
Ġm aikkal
à®ª à®´
ath ayude
Ġth as
Ġv ac
à´¸ à´¬à´¤
av en
Ġ" )
Ġl ift
Ġj ur
ed ral
aal iyan
à´¦ à´¯
Ġin aippu
àµ¾ à´®
Ġà¤ı à¤Ł
à´¡ à´¬
Ġan iyil
Ġar uv
Ġà´² à´³
em en
Ġkal akaaran
Ġpad an
aiyil um
Ġko on
Ġul aviyal
ĠF rench
Ġvid ag
Ġkud im
Ġmud itthaar
Ġpaath a
ens ion
Ġà¤ĳ à¤¨à¤²
Ġmaath r
Ġcr icket
Ġmunn o
ict ed
Ġ187 8
Ġmag izh
Ġash ayam
Ġoper ating
Ġinth ak
Ġà´īà´Ł àµ»
Ġaash ray
Ġprakhy ap
Ġkram eekar
Ġthamm il
Ġaazh ch
Ġjos aph
Ġmanush yan
Ġattack s
Ġmission ary
Ġsuttrupp ayan
Ġpurathir angiya
Ġrank ing
Ġgerm man
Ġprakshep anam
Ġmattr avargal
Ġsradhey amaaya
Ġfore ign
Ġghatn aaon
f e
h and
h ard
p ash
v ing
Ġk ittar
à®Ł à®²à®¤
Ġa w
iy ata
sh yan
is o
Ġt omm
Ġl ov
Ġà¤ľ à¤Ł
aath aaram
ap news
Ġà´Ĩ àµ¼à´¤
à¤¼ à¤¾,
kar anon
Ġmar r
ek shan
ev an
Ġà®° à®ļ
Ġaag iyo
Ġkaal iforn
Ġmu j
Ġmaar e
Ġmaar aa
Ġpath akkam
Ġsee m
Ġà®ħà®° à®Ļ
Ġprat id
Ġprat eek
Ġnagar atthil
Ġthud akkam
Ġà¤ĵ à¤¹
Ġres pect
Ġmur der
Ġkan avar
Ġil aign
Ġkudumb atthile
ij eev
Ġne igh
Ġeff orts
Ġsal aahkaar
Ġthun aith
Ġsathav eeth
Ġseer thiru
emb aad
Ġkondirundh aar
Ġthaal kkaal
TH ER
Ġhock er
Ġsthithicheyy unna
Ġudyogasth ar
Ġnyoos iland
Ġopportun ity
Ġthadagal a
Ġalaiththu ch
P r
a uuu
c d
p oo
s aar
Ġh art
à´µ à´Łà´ķ
à´ļ à´Ł
Ġà´ª à´ļ
Ġc ivil
aay amaaga
Ġpr ior
ag g
Ġin nu
à¤ľ à¤¸
ol ine
im ur
Ġà´ī à´¨
Ġà¤ĩ à¤µ
ip h
atth inum
à¤ĩ à¤Ĺ
ukku l
Ġsw eekarichu
Ġith in
Ġex hib
Ġsee kk
Ġvah ichu
Ġche ruk
à´°à´¦ à´®
Ġpun arv
Ġkav al
Ġopp uthal
Ġkah aan
Ġpall igal
Ġgu ard
Ġhav aa
Ġuchch a
Ġsy rian
à´ĵ à´«
Ġadv anced
Ġhelp ed
Ġkalikk aaran
Ġrayil way
Ġprathin idh
Ġnigazhv u
Ġvaralaattr aasiriyar
Ġfri ed
Ġthaav ar
Ġarungaatch iyagam
-------- --------
ĠEd monton
Ġalm ost
Ġsithth ar
Ġswadesh i
yasar idhai
I A
g aan
i que
k es
o un
p ik
p ala
v est
y ude
Î µ
in eyum
Ġk aksha
ath y
ay ak
ai z
Ġn aadu
um ur
à´® à´¡
un argal
Ġh ys
ur imai
Ġà¤® à¤²
tt ai
is k
Ġà¤ª à¤¨
Ġj atil
à¤µ à¤§
Ġch ot
el ine
ikk apettu
à´· à´ķ
Ġà¤² à¤ĺ
Ġand er
Ġun amen
akk unna
oop er
ĠS c
op ter
ĠN e
Ġsp oke
Ġte ch
à®ħ à®°à®ļ
Ġà¤Ľ à¤¤
Ġkaan aan
Ġlag aane
Ġnirmm ikkukayum
Ġà®īà®¯à®° à®®
Ġkoor appadugiradhu
Ġwork ed
Ġperu nagar
Ġ186 1
Ġà´Ĩà´¶ à´¯
Ġbhaar ya
Ġneed ed
Ġkattid akkalai
Ġanuv aad
Ġprasidheekar icha
Ġarug ae
Ġsamg eetham
aikkal ain
Ġaakiyoar aal
Ġpop ular
Ġyaath r
Ġengineer ing
Ġjoo tha
Ġrok ane
Ġthart kaal
Ġanton io
Ġnedunj aalai
m art
n aal
r ekh
y ayile
à¯ģ ",
Ġk immy
à¤¨ à¤Ĺà¤°
Ġn aash
Ġb arn
Ġh amm
ak aaram
av aatha
av oa
Ġr ates
Ġc ull
Ġà®ĩ à®¯à®²
Ġà´ħ àµ¼
Ġpr ice
Ġw rote
Ġin ipparay
ith amaayi
ang ar
ich itt
aad ana
à¤¼ ,
ett ram
idh ata
Ġkh an
aram aya
Ġthee pid
pad ai
Ġpe ater
oru kal
Ġraaj y
Ġnagar angal
Ġteam inte
Ġsa enal
Ġdis ney
Ġcar ry
Ġstr ik
Ġkah ate
Ġthitt angal
Ġes c
Ġpathipp ukal
Ġsol ution
jeev an
Ġhai way
Ġmekhal ayile
Ġgan yamaaya
Ġras ayan
Ġpetr tr
Ġoliparapp appattathu
Ġanim ation
Ġvenal kkaal
Ġist ifa
Ġhaan san
Ġsaamskaar ika
Ġrajin ama
/ .
a ep
m us
p aal
à®¤ à®³à®¤
à¤ķ à¤ķ
ak ing
Ġf ast
ikk ath
Ġw ald
ag ement
à´Ĺ à´²
à´¡ à´¤
à¤¶ à¤°
Ġà®ī à®Ļ
ipp ol
19 29
em s
Ġmar un
Ġkal andhu
aikk aaga
à´¯à´® à´¸
Ġid aiyaeyaana
ack er
Ġ10 4
Ġà®ħà®² à®Ļ
ph il
ih it
Ġraj neeti
à¤ĺ à¤¨
Ġser ious
Ġang ils
Ġaagiy avattru
Ġthitt atthai
Ġmalsar angalil
Ġjee te
Ġkans ya
Ġyoo tha
Ġabhipr ay
Ġbeliev e
Ġuud ak
Ġtreat ment
Ġnut p
ĠSTA TES
F ER
h ed
th saah
Ġk aith
à´ķ à´Łà´ķ
Ġm ikk
Ġh us
Ġr at
Ġt om
Ġch uru
ikk ukay
ol o
Ġ18 30
aak rith
Ġku rukk
akal a
aram aaka
Ġnil app
Ġtr aans
Ġed in
Ġmaatt ra
à´ķà´°à´£ à´µ
Ġsain ikar
ooth ari
br ook
Ġnigazhchch iyil
Ġgeet on
ppar ay
Ġsig ar
Ġsus pect
Ġmem orial
Ġmech appeduth
Ġjill ayile
Ġulkkoll unnu
Ġmav atta
Ġkach er
Ġgri h
Ġtakn iki
Ġdaatt a
ĠCle veland
Ġpac chai
I V
e gal
n an
Ġk ish
Ġn aaval
à¤¤ à¤ª
Ġb ai
à´® àµ¼à´¦
ak es
ed u
Ġg reak
ikk avillai
iv ai
ing h
Ġaa kk
im ari
ut thi
ec ess
aat u
ĠT V
Ġadh aith
Ġru b
Ġru les
Ġte amil
Ġ10 2
ph al
Ġbo dh
Ġkand ariyapp
Ġstr ike
arsh am
Ġopp antham
Ġaer i
à´ĩ à´ª
Ġqu eens
aykk ukayum
Ġà®ªà®± à®µ
Ġweek end
Ġoruvar aaga
Ġvast ukala
Ġmach hali
Ġà®ĵà®° à®³à®µ
Ġthudarch ayaaya
b aad
f oot
m und
m ae
t ur
w est
Ġ ilakku
Ġm ons
Ġm ix
Ġv ais
Ġb ark
à´® à´ķàµ¾
ir ak
Ġj ump
Ġw ound
Ġà¤ħ à¤µà¤°
Ġan and
anam aana
Ġal g
Ġal th
Ġmar um
angkal ukkup
ĠP ac
Ġat laant
à´¯à´® à´ªà´°à´®
ĠW ar
Ġsp ort
ib an
Ġsa un
à´ĺ àµ¼à´·
Ġil angkalai
Ġseyal paduthth
à´ķà´¤ à´¯
aga z
Ġfil ed
Ġkooduthal um
Ġamg amaayirunnu
Ġhel ik
Ġkappal kal
Ġbunn y
Ġdekh ate
Ġve rum
Ġnoottr aandu
Ġmozh iyil
irikk aam
Ġarimug amaan
Ġà®ĩà®³ à®Ļ
Ġvyavas tha
ific ation
Ġisaikkuzh uv
Ġconst ant
Ġvilaiv ugal
Ġesh yan
Ġvaraiyar ukappatta
Ġmej bani
Ġadisthaan athil
acharit ram
Ġayar laan
j ip
Ġ iyal
in il
Ġk yu
Ġp ont
Ġp uviyiyal
Ġa ek
iy aththil
ch as
Ġth oothar
Ġn aitt
Ġn elson
Ġb id
is ake
Ġc atch
gal aik
id o
Ġà®¤ à®°à®ª
Ġà´® à´°à´£à´¤
Ġsh ots
Ġsh opp
aad aatar
ec ially
ug ol
Ġnir a
aak aan
ĠA lex
igal aik
Ġpur am
Ġà®ħà®° à®ª
Ġpoor nna
Ġviv arth
àµį" .
Ġà¤ķà¤® à¤°
ait thaar
Ġol d
Ġseyal il
à¤¶à¤ķ à¤¶
ĠÃ Ĺ
ou isiana
Ġnaad ukad
Ġoor dar
Ġ185 9
Ġvict ims
Ġthrough out
Ġsaj aa
Ġnirdesh it
ĠComm ittee
Ġscot land
Ġsuzh archi
Ġvetrtrik aramaaka
Ġutk risht
. ),
O S
b ody
d akshin
m ad
m unn
Ġp akka
à´¯ à´¬
Ġv irunthth
er ry
à®µ à®©à®°
à¤¯ à¤Ł
as o
att le
Ġj aava
Ġà®ļ à®Łà®Ļ
Ġà®¤ à®°à®®
app el
Ġen for
Ġà¤Ķ à¤ªà¤¨
Ġsh ikaar
Ġsam rajya
Ġà´¤ à´²à´®
ipp oathu
Ġar angk
os ph
le ans
ff ord
ĠH igh
Ġsar r
Ġul o
Ġ15 7
Ġmu sh
à¤Łà¤° à¤¨
à®ħ à®°
Ġche ruth
Ġthur ai
Ġthiru pp
ma zon
Ġkanakk anusarichu
Ġ188 7
Ġ187 1
Ġkaatt ru
193 1
Ġsangeet kaar
Ġkul irk
Ġdel iv
avan ment
jeev ani
Ġvibhaag athil
Ġpesh kash
Ġthavar aana
à®ªà®¯ à®£à®®
Ġaup aniveshik
Ġmic ro
Ġkarm chari
Ġneeng kal
Ġkoat paatt
Ġkooruk irathu
Ġundaayirunn ittum
Ġdevalay aththin
Ġiyar piyal
Ġvelin aattu
Col orado
Ġthous ands
F L
g il
m ukh
s and
Ġ \
Ġs as
Ġs ure
ru nd
Ġà¤¸ à¤Ł
Ġh aakki
Ġo d
à´ļ àµ½à´¸
Ġt ack
Ġj as
aay o
athth a
te ch
Ġnir akk
ell i
à®· à®¯à®Ļ
Ġvish leshan
ind a
à¤ī à¤¦
aadh ikaar
ĠG OP
Ġex ample
Ġpinn aal
form ed
Ġhy dr
Ġtheer pp
Ġudan adiyaaga
Ġthalaim aiya
Ġsy m
Ġmozh ipeyar
Ġghosh it
Ġleak il
Ġdweep on
Ġmaem paduthth
Ġinjur ies
Ġcloud y
Ġvidyaarth ikal
Ġappro ach
appedut thi
Ġoral avu
Ġsaambiyanshipp il
roth ass
Ġsthaanakkay attam
I F
n or
r eg
aa fr
à¥ĩ à¤ĥ
il aand
sh vik
Ġd etta
Ġd uch
ak thi
aar thiy
av iru
as tha
Ġj up
Ġj enn
Ġg ais
à¤ª à¤¦
Ġch ance
à´¦ à´Ĺà´¤
à¤ı à¤¡
Ġy um
Ġan ikkaaga
ill ennu
Ġun arv
Ġpo d
Ġà¤Ĩ à¤¦à¤®
ot ive
Ġà¤Ń à¤µà¤¨
he im
Ġthan ikk
Ġir anththa
à®¯à®² à®®
abh aag
à´¯à´® à´µ
Ġle te
Ġsp ots
ĠR e
Ġthal apath
ĠJ ack
ĠJ ones
Ġell aay
Ġsang aththin
Ġner adiyaaga
Ġnirmm aath
Ġek atra
Ġnaal am
Ġthol il
193 8
Ġkul een
Ġà´Ĩà´¶ à´¯à´µ
à®ī à®³
Ġear pp
Ġtham son
Ġais ee
Ġob l
Ġadisthaanam aakki
Ġinte gr
Ġsuttr il
Ġopportun ities
Ġpankaal it
Ġdocum ent
Ġeath enkilum
Ġsamy uk
Ġsaab it
Ġpraudyog iki
Ġkuttra chch
Ġithin akam
t ii
w ang
th arpoo
an ah
al iyon
Ġth ark
Ġv aine
kk aran
sh ep
à´µ àµ¼à´·
ak istan
id aiyae
Ġme g
Ġme thuv
Ġch itr
ikk appadum
à´· à´¯à´Ļ
Ġto ward
Ġà´Ĩ à´¡
Ġà´Ĩ à´¶à´Ļ
all aatha
ra ct
ĠS il
ĠB razil
ĠH ow
Ġgh ayal
Ġà´¸à´® à´ķ
Ġsah mat
Ġà®ĩà®© à®ª
akar il
Ġkand u
Ġkand arin
Ġraj akum
Ġsur vey
Ġsamb ann
Ġmal ay
Ġthog uppu
Ġpoo kkal
ira ft
Ġlad y
Ġdet erm
Ġnov a
193 6
Ġozh uk
Ġkandupid ipp
Ġmug aam
Ġniruvanam aana
Ġpurush a
Ġpinthun a
Ġà®µà®ļ à®¨
Ġtees ari
Ġà¤ł à¤¹à¤°
Ġbritt an
Ġà´ħà´µàµ¾ à´ķ
Ġscott ish
Ġvirodh i
Ġmaad yam
Ġanubandh a
Ġenchin iyaring
uruthth al
Ġpurushan maar
Ġwinn ing
Ġpiraanthiy aththil
Ġvangk i
Ġjy aadaatar
Ġaalo as
Ġkolamb iya
Ġariya patta
Ġcontrib uted
Ġnaadaalum andr
Ġkurainth apatch
r aal
à¯ģ ).
à´¨ à´Ĺ
Ġp ach
on se
Ġn eb
Ġr oott
Ġc op
à®£ à®ķ
Ġg avanment
àµģà´Ĥ )
ikk ond
Ġà¤¨ à¤°
Ġav asth
ill aathe
Ġà´¤ àµ¼à´ķ
Ġà¤ĩ à¤ľ
Ġenn av
atth aith
Ġbe ck
ell o
à´¯à´® à´²
Ġà´ı à´°
Ġpe ace
Ġgr en
Ġkaal ai
Ġab use
Ġ13 5
Ġur avugal
ĠO THER
Ġkaan appadugiradhu
Ġsel av
anthr and
Ġhav us
Ġbhash ayil
Ġaathar avu
Ġà´Ĺà´µ àµºà´®
Ġshabd am
Ġter ror
Ġintern aashanal
Ġulladakk iya
Ġsitt road
Ġkim ee
Ġreach ed
Ġjanan aay
ĠTur key
Ġparyav eksh
Ġmaadhyam ik
S he
T T
c ul
h er
i ents
k av
m aarum
n ott
v ae
w et
ar ah
Ġk atha
al inte
Ġv esham
à®µ à®¨
Ġn aar
Ġn ap
Ġb ail
pp ozhum
Ġd uke
is consin
Ġr ays
Ġl if
Ġà´¸ à´Ńà´¯
à¤ª à¤¯
à®¨ à®µà®®
Ġf itz
Ġw ander
app er
ag er
ang u
Ġy atri
à´¬ à´¯
19 22
19 24
à´¹ à´µ
Ġad angk
Ġbh arti
Ġà¤Ĩ à¤ªà¤ķ
ro ck
ram an
ev a
aakk alil
ĠM ac
ond on
Ġid aikkaala
ass ar
Ġpah al
à¤°à¤ķ à¤°
Ġud aar
ord an
Ġpl ate
ikkunn illa
co ur
ver y
Ġ13 1
Ġ11 5
Ġnagar pp
Ġva ed
Ġseason inte
à¤ħ à¤§
ĠO ne
Ġsthaap ithamaaya
Ġraj marg
Ġopp ittu
amm ath
à´ĩ àµ»
Ġvishesh ippichu
Ġpeyar aal
Ġbu y
Ġreg ional
iyath aaga
Ġinclud ed
Ġaen j
Ġaath m
Ġveg athil
atr ic
Ġgraam appura
Ġà´ķà´Ł à´²
su yasaridhai
Ġarm i
Ġhist or
Ġadu kku
Ġsavishesh athakal
Ġaakiyoar udan
AT ION
ĠPol ice
Ġfred eric
Ġvyathyasth amayi
Ġvaanij ya
Ġbart on
Ġmarsh ell
à´¨à´¦ à´£
Ġkarupp orul
Ġrad ar
Ġtipp ani
Ġping am
ylv ani
Ġnucle ar
Ġshaan ti
FER ENCE
" à¥¤
j am
l oy
p uru
Ġs ap
Ġs aim
at chi
Ġv aatt
Ġb urn
Ġb raz
av amsh
Ġt ab
Ġ" [
à®ļ à®ļ
à®£ à®±
Ġg ib
aal ane
Ġw el
Ġw ick
te chn
os c
Ġis aikkalain
uv an
ov ers
Ġal ek
à¤ĩ à¤°
ĠC r
ark irathu
se x
Ġdh aatu
à´µà´° à´¯
Ġchar ter
Ġteam ukal
Ġà¤ĵ à¤Ł
ĠO lymp
gh ar
Ġmur an
Ġcr ick
ugh ter
Ġulpped eyulla
Ġnirmm ath
Ġvis ammath
Ġsit u
Ġhigh est
Ġbal timore
Ġà´ªà´ł à´¨
Ġurim aiyaalar
Ġvidesh a
Ġkettid angal
Ġchaal ak
Ġparich ay
Ġtalk s
Ġchaambyanshipp il
Ġpray ason
Ġupakaran angal
ĠCON FERENCE
Ġmathram alla
Ġgatividh iyon
Ġasistt ant
C A
[ [
b ill
k aala
t el
Ġ uththar
ar ukku
iy aith
Ġth adi
à®µ à®ļà®¤
ad ak
Ġd ak
Ġl aap
Ġl ouis
Ġà®ħ à®µà®¤
Ġch athur
àµĢ -
ith aakkal
aag h
à¤ļ à¤°à¤£
19 21
og ram
aav asth
Ġà¤Ĩ à¤¹
Ġ3 50
Ġnir antar
ull oo
Ġir anthth
Ġco al
pr ath
Ġoo du
apped aan
aalar kal
var g
amp ions
Ġed ittar
à®¹ à®µ
Ġrec or
à¤ħ à¤ķ
Ġcar rie
Ġniruv anar
Ġà®ªà®£ à®®
Ġvim arsh
ush al
com m
Ġseith iththaal
ĠCh ar
Ġbah an
Ġbhaag ath
Ġev idence
Ġaaramb ikkukayum
Ġrem ains
Ġyog yatha
Ġear pped
Ġsamm ard
Ġpravarth anangal
Ġirukkum poathu
Ġnan bar
Ġmaerk ae
Ġbharan agh
pinn ani
Ġdistr ib
nj aan
An aheim
Ġà´Ĭ àµ¼à´ľ
Ġadhig aari
Ġà´Ĺà´µàµ¼à´£ à´±
Ġpract ice
Ġcorpor ate
Ġmuthir nna
Ġmunisippaal itt
ĠJust ice
Ġalth usar
à®¿ ",
Ġs eed
il aan
Ġth ahar
à¤² à¤Ń
Ġb uddh
Ġj ode
Ġg end
Ġà´µ àµ¼à´Ĺ
Ġf ab
Ġw ear
Ġw ife
ith avum
ain iru
19 10
kar sh
ĠM AN
Ġnad uthth
Ġwh it
ark s
Ġaag h
Ġjan ichu
à®ĩ à®Ļ
Ġà®Ĳ à®¸
Ġvir ig
Ġgo th
Ġaval ai
à´®à´¸ à´ķ
Ġà®Ĩà®µ à®£à®ª
Ġsaan ta
Ġ187 2
Ġà¤ħà¤µ à¤¶
rug g
Ġsams kar
Ġay rish
Ġoro tta
Ġniyanthr anam
Ġchak oothari
à®ªà®¯ à®£à®¤
Ġperson al
Ġphal angal
Ġwarn er
ĠAfr ican
Ġpey arkal
Ġquest ions
Ġgarm iyon
c er
p ut
z ar
à´ķ àµ»à´¡
à´ķ à´Łà´¨
Ġs is
à´¤ àµ»
iy udeyum
ath it
Ġth ull
en u
ak iya
Ġo il
àµ¼ à´¹
Ġà¤ª à¤µ
Ġl ines
ll il
Ġc d
Ġg yaan
Ġf us
ik ta
à´¦ à´°àµ»
ag ak
àµ¾ à´ļ
à¤ľ à¤¯
us n
Ġenn ei
Ġidh ai
Ġfr anco
Ġval arnthu
akal ilum
ugal ukku
à¥Īà¤Ĥà¥¤ "
Ġro as
Ġ12 3
Ġ12 8
à®ħ à®µ
Ġmud don
Ġpan el
Ġkand ar
Ġpun asthaap
Ġind ic
Ġnirmm ikkaan
Ġfl ash
Ġsand esh
Ġpen al
Ġvaazhkk aiyai
Ġjust ice
Ġoffic ers
Ġsanth arpp
anir mm
Ġnish k
Ġdab aav
Ġà¤ıà¤¡ à¤®
Ġcy press
Ġvaris ai
Ġvaris aiyil
Ġvaang i
Ġvirpan ai
Ġeen dhan
Ġeduththukkaatt aaga
Ġcaliforn iavin
Ġsosh yal
Ġarasiyalvaath i
Ġchuzhal ikkaatt
Ġkudhir ai
Ġbhaut ik
Ġentertain ment
Ġarimugamaan aar
Ġnaduthth ara
k aam
y oo
Ġ eyar
in ati
à®¯ à®£
Ġd an
Ġd ark
Ġr af
Ġl es
Ġc oor
Ġu pp
Ġà¤¨ à¤®
Ġà¤ħ à¤Łà¤²
Ġà¤¦ à¤µ
Ġsh aakh
Ġy ena
Ġand erson
Ġse th
Ġse iy
anam ennu
Ġà´« à´²à´ª
Ġadd e
Ġkh ol
Ġkh ul
ĠM ichael
Ġath aayath
Ġir aaj
Ġcon fl
Ġko zhs
Ġhe art
à´ĸ à´ķà´³
à¤ī à¤¡
Ġ14 1
Ġpaath aiyil
cl us
à®Ĩ à®ķ
Ġmaath a
Ġmunn ott
Ġulpped uthi
Ġaval kk
Ġmaer i
Ġvaar th
aasth ith
Ġpaer azh
Ġhel ic
Ġchun aut
cc ording
Ġnet v
Ġvell am
Ġaarambh ichath
Ġadv ance
Ġsaah ity
Ġachch e
Ġcle veland
Ġden mark
Ġchhod ane
Ġlaksh ya
Ġthann eer
Ġnadavadikk aikal
Ġâ Ĥ
Ġiyakkunar aaka
Ġorungin aintha
Ġlaur ence
Ġalleg ations
Ġprevious ly
Ġchuv anna
LO GY
Ġeduc ation
Ġà´ľà´¨à´¤ à´¯
Ġabhipray appettu
a q
v ij
Ġv aitt
Ġh az
Ġr h
Ġr ookie
Ġl aine
and on
Ġg iraft
uth ayi
Ġin app
Ġà¤Ĺ à¤µ
19 28
Ġkar utth
Ġnir al
ĠS audi
ukk uk
eer iyal
ari z
Ġnil apar
Ġtr iple
Ġrec ru
Ġmah am
à´ħ à´Ł
Ġmunn oad
Ġcoun ter
Ġpaal ina
rah am
Ġcheyth irunnu
Ġ186 7
Ġparish kar
Ġvich aaron
Ġchaah te
Ġoop ari
Ġputh ith
Ġrach an
gen eral
Ġirunth aal
b orn
p ana
v ai
in ch
as n
as ik
Ġt ik
Ġt uu
Ġj aaya
à´£ àµ¼
es tr
Ġg ari
Ġà´ķ àµºà´Ł
aal an
ag aththai
dh ar
Ġmatt er
Ġà®ī à®¨
ill enn
Ġto wer
ipp eduth
19 27
ut on
et ch
Ġà´ĩ à´ķ
Ġaan aiy
Ġmar ks
Ġpir atham
up aadukal
Ġà´¶ à´¤
est in
àµ»à´¸ àµ¼
iss ippi
ĠH ouston
Ġthir ike
Ġmaan attu
à®ħ à®£
à¤¾à¤ģ à¥¤
Ġpall atth
lin ed
Ġaas ooth
Ġmukh yalaya
Ġadhy aay
Ġiv ide
Ġtrans port
Ġcall s
Ġkann adi
Ġpattiyal id
Ġkhar ida
Ġkanad iya
pinn eedu
rand aam
Ġunit ukal
Ġthudarch ayaayi
Ġcov id
Ġdhan asah
Ġthozhir chaal
Ġinvolv ed
Ġveh icle
Ġjanapr iyam
Ġmaanad and
Ġprashaas nik
Ġesp ecially
Ġellaay ppozhum
U N
h el
j il
à´¿ ",
al f
à´ķ à´¥
à´ķ à´ķà´ª
à®Ł à®ļ
à®Ł à®³à®µ
Ġs ikk
Ġn ars
aan ennum
un ake
Ġà®® à®´
av aas
Ġpr amaan
iya e
Ġw arr
Ġw ants
Ġà¤¬ à¤®
Ġsam skaar
Ġkaa rukal
Ġà´ħà´µ à´¤
ov an
ĠT o
aap an
ter m
ass y
Ġte j
Ġpl ant
Ġtr ends
Ġnagar angalil
Ġniyam angal
à´ĺ à´¤
Ġang lo
Ġshr eya
Ġmil akar
Ġvikas an
Ġaras u
Ġass emb
Ġdi ffic
Ġ187 7
Ġreg ular
Ġkam aand
Ġsing h
Ġchithr atthile
Ġà¤ĩà¤¨ à¤®
Ġalag ugal
Ġsamgh am
akaal athu
jeev acharitram
Ġcath edral
americ i
Ġvidy ut
Ġsahod ar
Ġvictor ian
Ġà´Ĩà´´ à´¤
Ġenchin eey
EC H
Ġvetrtrik aramaana
Ġcit iz
Ġakkaal at
Ġjel ifish
Ġnanb arkal
apravar th
c ch
l een
p azh
Ñ Ģ
à®ª à®µà®¤
à´¤ à´£
à´± à´Ł
en o
à´¸ à´ķ
Ġh an
Ġd aas
ak eeya
is inte
à´£ à´±
it ness
Ġg i
kal aik
ud am
iru kka
à®¸ à®°
à¤ı à¤¶à¤¨
angal ulla
Ġà´ľ à´¨à´Ļ
avar ai
ĠA ct
op s
end ar
Ġmo ur
Ġmo ther
ĠP aul
pr ad
Ġper f
Ġcl aims
Ġsp ot
Ġà´¦ à´®
Ġ9 00
Ġ10 6
Ġhe aring
Ġthal sam
aadh un
oru var
ph om
Ġpal am
Ġaal an
Ġmaatt ukayum
Ġà®ļà®® à®ķ
Ġbl ues
Ġfin alil
Ġer im
Ġkanakk eduppu
Ġ187 4
Ġmaattr iyathu
Ġaagiyavattr aik
Ġmathipp eett
Ġsim ilar
Ġjii m
Ġkid aikk
Ġden aa
Ġbol ees
irunth athu
Ġarab u
Ġnilavil ulla
Ġmax im
Ġchutt um
Ġvizh aavil
do uble
Ġmunna ettr
Ġimpro ve
Ġshah ari
Ġinfl u
Am eric
Ġyaadh aasthith
ĠDirect or
Ġlath een
Ġich cha
Ġsampaad ak
vyakth iparamaaya
Ġaagiyo arin
Ġmuj he
Ġpratid v
Ġiraaj j
E AL
b ian
c ept
g indrana
j ust
p at
y n
ath ya
Ġth ambath
Ġn az
oo o
à´³ à´µàµ¼
Ġc in
aay akan
Ġf inn
à¤¬ à¤ķ
à¤ı à¤°
Ġpar amp
Ġà¤Ĺ à¤²
Ġy aar
ig o
ig ger
aad anam
Ġad ach
à¤¼ à¥Ģ,
Ġà´¬ à´²
Ġjo bs
Ġman ov
Ġit ihaas
Ġdo shi
ĠB y
à®· à®¯à®°
Ġthee vil
eek ritha
à®İ à®ª
Ġnagar atthinte
Ġner kaan
Ġniyam a
Ġà¤ķà¤® à¤ľ
Ġcr ime
Ġmill e
Ġol iv
Ġvyak tham
Ġkath ir
Ġkath it
Ġthur anna
Ġlok ak
Ġlok athile
mar aiyaana
àµ¼à´Ĺ à´¨
Ġpramukh a
Ġmaas tar
à¤¸à¤² à¤®
Ġovv ond
Ġthalaivar aagavum
Ġved iv
Ġbet ch
Ġtri ed
Ġmat dan
Ġyoon itt
Ġparivart it
Ġpand aiya
à®ķà®£ à®ķ
Ġexp and
Ġleader ship
omp son
Ġkizhakk ae
Ġsaathan aiyai
Ġfight ing
Ġsweed en
Ġanw esh
Ġniraiv a
Ġaabhy anthara
Ġfest ival
Ġennav entraal
Ġaenj als
% ),
R O
m ic
r ata
y ankan
à¤° à¤¥
à´ķ à´ķàµ¾
Ġp iyar
Ġp anthrand
Ġm aatr
à´¯ à´Ń
Ġth ugal
Ġh um
Ġ1 18
Ġd aala
Ġà®ķ à®¤à®µ
is is
Ġt air
Ġl ives
Ġl etter
à¥ĩà¤Ĥ "
Ġc utt
Ġà´ķ àµºà´µ
Ġà´µ à´¶à´¤
ikk eshan
Ġw olf
à´Ĺ àµ½
dh il
Ġà´İ àµ»à´¡
19 23
Ġvar unna
ro v
aak t
ĠT om
Ġbe aut
ĠI T
Ġsaath iyamaana
ood s
Ġhu un
à´ĸ à´²à´ķà´³
ĠD e
Ġkaal e
Ġkaal nad
Ġgh att
Ġre ady
Ġed aped
Ġdes pite
Ġcar olin
Ġmaatt ram
Ġsan kal
Ġopp osition
Ġdev ices
Ġshr en
Ġjaa e
Ġpank id
Ġ186 2
Ġmaattr iyam
Ġprati b
Ġsid i
Ġob ject
Ġveerar aaga
Ġpres ent
Ġkazhinj illa
Ġhold ing
Ġnilanir th
Ġram g
Wh ile
oog le
Ph oto
Ġpens ylvania
newy ork
Ġdhw ani
Ġnind endo
Ġkudipey arnthaar
ĠMich igan
Ġpallatth aakku
C ar
à´¿ ),
à®ª à®ļ
à´¤ à´ķà´¨
ee kkam
on il
Ġb aank
Ġh ans
à´µ à´²à´ª
ir d
Ġd unn
Ġd arshan
ak o
ak oodiya
à´£ à´ļ
Ġc ause
it als
Ġg anangal
Ġf ather
Ġà®Ĩ à®Łà®®
à´¡ à´Ļ
Ġen te
om ing
Ġy ang
ish aasthram
all i
Ġar b
à´ľ à´°
Ġbh ay
Ġis n
athin eth
kar on
atth aik
aakk aan
Ġval uth
Ġaar aadh
art amaan
Ġill a
Ġho tt
Ġsp en
Ġà´Ī à´ľ
Ġkatt aththil
Ġpro thsaah
Ġdee waar
Ġres our
Ġniruv inaar
Ġind ex
ĠV enezuel
Ġmaer paarv
Ġqu ality
Ġthiru man
rith am
Ġpettr anar
avin im
Ġmuzh umaiyaana
Ġamg amaayi
Ġariv itthaar
Ġà®Ĭ à®Łà®ķà®Ļ
193 3
Ġinc reasing
Ġkuzhuv inar
Ġpathiv ayi
Ġserv ed
Ġaik yan
Ġfri end
Ġdarsh akon
Ġjana priya
Ġident ify
vee chchu
Ġmaap erum
addeh athinte
< /
j ul
l adhikam
y anth
Ġm upp
à®² à®²
iy aath
er ian
Ġn iyo
Ġh arv
Ġo var
Ġr aav
Ġà´ħ à´¯àµ¼
Ġpr ots
Ġpr ols
Ġin aikappatta
Ġin mein
à´Ĺ à´ª
ich er
Ġpar ts
à¤¶ à¤µ
Ġkaa s
Ġma iya
anam aayi
Ġst rugg
aatt ai
ĠS al
ess ions
ĠC oll
ukk irathu
ĠM al
Ġcom bin
Ġru sh
à®¯à®® à®°
ĠD o
Ġjan aadhipath
ĠG ov
Ġvazh ithth
Ġpatt anam
Ġett eduthu
Ġwe ap
Ġpen kalin
Ġkutt ikalude
Ġ187 3
Ġvaazhkk aiyil
193 4
pir appu
à´·à´¤ à´ķàµ¾
Ġspec ific
ukalkk aayi
Ġmov ed
Ġnaatt in
Ġlokam embaad
ĠSp ain
Ġparv ath
Ġpoll and
Ġthonn unnu
Ġcos ts
ĠAfr ica
Ġbaith ak
Ġpartner ship
Ġmanufact uring
NO LOGY
Ġvijayakaram aya
ĠSup er
Ġprols aah
T ampa
f c
s any
Ġ ila
th ud
Ġk aiyaal
iy aah
ru ka
Ġà¤® à¤ł
Ġl iving
Ġà®ħ à®ķà®²à®®
à¥Ī -
Ġg iving
à¯ĭ .
aay athinaal
Ġf a
Ġu j
Ġà¤¬ à¤ļà¤¨
ol k
ab eth
Ġy uk
Ġy inn
ish an
ut s
og g
à´ľ à´¨à´Ļ
em i
oop s
Ġà´¡ à´¯
thth ana
thth anar
aak oo
Ġà¤¡ à¤ļ
ĠM us
Ġaar kk
Ġle one
Ġtho ll
Ġsp ending
Ġsp eech
Ġmael aanmai
Ġpay anar
Ġninnu ll
Ġex ist
Ġ16 0
à®ħ à®±
Ġell aav
Ġà®ªà®° à®µ
Ġdis e
Ġres erv
Ġned aan
Ġvan na
Ġsarv ekshan
Ġkudumb angalum
Ġà®ªà®¯ à®©à®°
Ġpall iyin
Ġvitt uch
Ġavasaan ichu
Ġthudarnnu lla
Ġcolleg il
Ġlaw su
ĠIt aly
Ġsy mb
Ġsun shine
Ġparuv aththin
Ġà´ĩàµ» à´«
Ġà¤ķà¤ª à¤¡
Ġviriv upaduthth
Ġbis inas
Ġpunar uj
Ġlaut ane
Ġmax ican
Ġpoortthiy aakki
Ġkadarkar aiyil
Ġorganiz ations
Ġpartic ular
Ġmom ent
Ġvaikal pik
Ġkell ie
Ġdesc rib
h at
j eer
m ug
s amb
Ġ ÑĤÐµ
àµģ ).
Ġs aag
Ġs ipp
Ġs rothass
Ġp aach
Ġa chi
à´¯ àµº
iy aththai
ru ction
Ġv aii
Ġn aangkal
à¤¤ à¤Ĺ
Ġb oston
ur r
Ġà®® à®¤à®¤
Ġd ave
Ġd ambath
Ġt ask
Ġl ip
it iya
Ġme z
Ġme trop
Ġpr ee
Ġen ikku
dh uv
à´¨à´¤ à´¨
Ġenn athinte
Ġmar tha
uthth aar
ant age
ĠP ar
Ġpad ichu
Ġat y
art on
ass es
ĠR ed
Ġvel utha
Ġsa em
Ġpayan paadugal
lo bal
Ġsthaap icha
iyai ch
rish ya
Ġirupp athaal
Ġà´¸à´¹ à´ķà´°
Ġaras aang
unnathin aal
Ġstud i
Ġsamud ayik
à¤¨à¤¸ à¤Ń
iththu llathu
Ġthun dugal
Ġaath idhey
Ġpahunch ane
itz erland
Ġrequ est
Ġroopakal ppan
Ġresp onse
Ġtheliv ukal
Ġsaanketh ika
Ġvit aran
Ġdish a
Ġmantr alaya
Ġjald i
Ġtit le
kl ahoma
ekk aam
kud umb
Ġupd ate
Ġpadonn at
Ġbhoop r
Ġsaraasar iyaaga
fol io
c ard
g ium
i ai
Ã ©
à´ķ à´ķà´³
Ġm ort
Ġa e
ch rist
Ġth anga
Ġv at
Ġb om
aar anamaaya
Ġr an
Ġt um
Ġl ugg
Ġj aiv
or ies
Ġc row
Ġà¤¹ à¤ľ
Ġà´ķ à´¨à´¤
Ġpr aap
ikk ondu
à®ªà®Ł à®ķ
Ġà¤ħ à¤¶
Ġpar igan
om al
à´¬ àµ½
ish ing
ipp ing
Ġkar ib
uv as
itt ana
Ġon pathu
Ġst ations
Ġal t
ĠS O
ri es
Ġmo athal
Ġcom pr
Ġle aving
ugal udan
Ġpah aad
Ġgr ish
Ġtr in
Ġupayog am
Ġpaar k
Ġaad arsh
Ġpan iyam
Ġther ikirathu
Ġà®ķà®µ à®²
Ġrecord s
unnathin e
Ġmuzh umaiyaaga
Ġthar aiy
Ġair line
Ġtheer athu
Ġdekh ane
Ġvimaan ath
Ġporul aathaar
Ġlong er
Ġeer ppu
Ġepis odu
Ġputh uthayi
Ġopen ed
Ġkamban iyude
Ġanuvad ikkunnu
Ġinjan on
Ġkuru kku
Ġsidh aantham
Ġupeksh ichu
ruct ure
Ġresident s
Ġsuyaath eena
Ġukr ain
Ġtholl iyal
2 50
k umar
n et
o am
v azh
an aitthu
al ian
Ġs aikk
Ġp i
Ġm andh
à´¯ à´ķàµ¾
ath v
ru nn
ay ode
Ġd awn
Ġg er
Ġg oo
Ġpr ec
Ġf ix
àµĤ à´Ĥ
uk ar
uk iya
Ġpo athilum
Ġvar ugai
bh ed
Ġnir eekshan
àµº à´®à´ķ
Ġthan mai
st arr
ond ru
Ġval arch
ĠP l
ĠB el
if th
Ġgh er
Ġgh adana
Ġvarsh athinu
iyathu vam
aaru p
Ġban aam
Ġkan atha
Ġavas ar
Ġpii ttar
Ġne rung
Ġpoo j
àµ¼à´¬ à´±
Ġcheyth ukondu
Ġà®Ĭ à®¤
Ġmiss ed
Ġpor tt
Ġpoong aavil
Ġest abl
Ġswar n
Ġsag aapth
Ġseek ing
Ġthoantr iyathu
Ġvarthth aga
inethir aaya
Ġoozh iyar
Ġacadem ic
Ġmarik ad
Ġqueens land
U T
W hen
m oon
al an
Ġp ip
Ġm uthth
ay aya
à®µ à®²à®ķ
pp ole
à´® à´²
Ġh ay
Ġh indu
Ġc aine
it o
aal ikal
dh aar
ich athum
te x
Ġad opt
Ġnir app
aatt ra
ĠR o
aanam aayi
aanam aaya
Ġdh aara
Ġenniv ayum
Ġkatt up
Ġpatt atthai
aur i
aaru kal
Ġprath ikaran
Ġpaath ikkappatt
Ġpayan paadu
ĠO h
jan ak
Ġmaath aap
athan usarichu
ins tein
Ġà´µà´³ àµ¼à´ļ
Ġpeyar ai
Ġiyakk a
Ġsambhav atah
à¤¨à¤¤ à¤®
Ġmer ii
Ġpid iththaar
Ġtechn ologies
Ġathir thi
Ġbis inus
Ġanuvad ichu
Ġkadin amaana
ĠMc C
Ġthupp akki
yaap an
Ġmich el
Ġnatch atth
Ġjad j
Ġnerukk amaaga
Ġsweed ish
Ġneg oti
Ġurav inar
Ġlegisl ation
Ġbhaw an
S T
W ednesday
b reak
d ev
d ale
g un
l ong
l ooking
n ers
Ġà¤ķ à¤¦à¤®
iy ayi
Ġth aangk
en os
à¤® à¤ª
Ġr ow
Ġà´ª à´ŀ
es a
gal um
Ġg owrav
Ġà¤ľ à¤¸
app ing
iv ity
Ġin ii
ab les
Ġà¤ī à¤ľ
unn und
Ġun iversity
ut in
og a
et k
Ġà¤Ĩ à¤ĩà¤¸
à´¥ à´Ļ
atth i
ĠT wo
avar ti
ĠM ark
ans abha
Ġnad anthathu
Ġir aichch
aram bha
Ġmael aalar
Ġthal aippu
Ġab ility
Ġed ayilulla
à¤¾à¤ģ ,
Ġchar ch
Ġner aththai
eep er
utt u
Ġcomm it
Ġà¤ķà¤¹ à¤¨
à´ĩ à´±
Ġprash ant
Ġmal ays
Ġpoar ukkup
Ġthar avu
Ġvas antha
iyaalar aaka
Ġshar ed
ert thu
Ġnaad aga
Ġback ie
ernth ed
Ġparivaar on
eri ff
Ġpathiv a
à´®àµ¼à´¶ à´Ļ
Ġprogram s
Ġej ant
Ġpoattiy id
Ġaerpad um
Ġox ford
Ġnat pu
Ġconcern s
rupt ion
Ġpaint ing
Ġvazhakkarin yar
g u
h aav
s inte
th il
in er
Ġs ool
Ġp athth
à¤¸ à¤°à¤£
pp il
Ġà®ķ à®³à®¤
Ġt irupp
Ġl aattin
Ġj aine
Ġc ool
Ġg ear
Ġà®ĩ à®®
aal ayam
Ġw ir
Ġw ake
Ġw ays
Ġà®Ĩ à®©à®¤
Ġà¤ħ à¤Ĺà¤°
Ġaa pl
Ġsh ut
Ġà´Ĵ à´¤
akk ur
Ġar d
Ġà¤ĩ à¤¤à¤¨
Ġà´« à´£
Ġup gr
à®¯à®¤ à®±
ĠM att
ull aar
Ġkal ikkaan
Ġà®ķà®Ł à®®
Ġà´ĵ à´±
Ġsp ent
Ġmaan ana
Ġgr oss
Ġro aman
Ġag gar
Ġà¤ĺ à¤Łà¤ķ
Ġaad ami
atthil oode
Ġkuzh app
ry pt
Ġpaad ari
Ġvaar a
Ġkanakk akk
aab i
Ġtra c
Ġkoor iyadhu
Ġlabh icha
Ġshow s
eal th
Ġrem ov
Ġham aare
Ġà®ķà®© à®µ
Ġthekk ukizhakkan
akaal ika
Ġmor ris
Ġroad s
Ġaavas yam
ef a
Ġmuthanm aiyaaga
Ġkazhinj a
Ġsuttrupp ayanam
Ġcond itions
sang eet
ĠAs ia
Ġasth aayi
Ġmcd onald
Ġnuzhaiv aayil
Ġskaat laanthu
Ġta unn
Ġmaathr k
f ree
s abhi
v aa
v ell
Ġm akk
iy ad
Ġn ug
ey ile
à´ª à´Łà´¯
à´³ à´µà´¯
Ġl av
Ġme mo
Ġà´ħ à´¯à´¯
Ġf ernand
ic les
Ġsh ott
ill ennum
ipp ikkunnathin
19 17
19 26
Ġma ck
ia c
Ġroop appeduth
Ġup naam
end ath
Ġcom ic
ĠP aris
ĠB ow
pad um
Ġor chestra
Ġà´ı à´ľà´¨
Ġvi bhav
ĠD ay
à¤ĵ à¤²
Ġkad idh
Ġcurr ently
Ġcomp let
Ġà¤Ľ à¤µ
Ġaal ai
ĠO ff
Ġno ayaal
Ġvaa ipp
Ġà®ķà®µ à®©à®¤
Ġatt ention
Ġmaer patt
Ġprav aas
Ġbu ilt
Ġvazhangk appadukirathu
Ġpadh aai
Ġcap ton
Ġsing apur
Ġbaj e
Ġtur k
Ġsy n
Ġmukk iyathuvam
Ġurim aigal
ikkunnathu vare
Ġchel avu
red s
Ġrak th
à®¨à®ķà®° à®¤
Ġsthithicheyy unnu
Ġkruth ikal
Ġbrig ade
Ġconsider ed
Ġrais ed
ĠSch ool
Ġbhagid ari
Ġguru th
Ġudamasthathayil ulla
Ġupay okth
Ġprashiksh it
Ġvaiv idhyam
ĠRober t
Ġsajj eekar
Ġilaign ar
ĠOlymp ics
g ery
m ission
n aya
p il
v ard
Ġk inn
Ġs aran
Ġm ull
iy id
iy aadi
Ġth und
kk aala
ay ithaav
Ġn te
à´² à´Ĺ
à¤² à¤¬à¤°
Ġj angal
Ġc ord
Ġg or
Ġu b
Ġw ait
ic ian
ich enkilum
Ġsam sh
Ġpo y
os ept
uv athan
Ġà¤¤ à¤¨
Ġam ma
Ġfor d
ine kkaal
Ġas tr
ĠI r
Ġà´ĵ àµ¼à´ķ
man n
igal um
Ġnil am
ĠD i
va elai
Ġdh aarana
Ġaal unar
ĠK enn
Ġà¤ĵ à¤¬
Ġmur aiyae
Ġkaan uka
Ġmaatt am
Ġkan alaam
Ġà®ļà®® à®©
iz abeth
Ġfl ag
Ġà´Ĳ à´¡
Ġrel ation
aithth anar
Ġamg eekaaram
Ġpravartth ikkaan
Ġkam jor
Ġdesign ed
Ġpradesh angalil
Ġbadal aav
Ġinvest ment
Ġpust akon
Ġà´Ķ à´ªà´ļ
ikkan ulla
Ġthodangk inar
Ġjohnn y
Ġparay unn
irunth um
Ġveedu kal
Ġsamudaay on
Ġnaat kalil
Ġswar nna
Ġnar amb
Ġvai shvik
ĠComm un
Ġaup achaar
Ġpurathir ang
Ġhapp ened
Ġà´ĺà´Łà´¨ à´¯
Ġkay attum
Ġmunb ulla
Ġnadig argal
Ġfig ure
Ġthuru pp
Ġavadh arana
Ġfram e
Ġisaiyam aipp
ichir ikkunnathu
à´Ķ à´Ł
Ġkej am
Ġrebound s
Ġdiffic ult
Ġmetrop ol
; "
j ay
p un
r ev
s ai
v ak
an udan
à®¤ à®¸
à´¤ àµ¼
il y
à®µ à®ķà®¤
Ġn all
oo thi
sh ar
Ġb ang
Ġl ee
Ġch aa
Ġch umb
Ġà®¨ à®°à®®
Ġav aye
à¤¶ à¤¯
Ġsam av
Ġse tham
à´§ à´¯
à´ľ à´¯à´Ļ
Ġbh ang
itt ing
Ġal fred
ĠA mazon
op ol
ukk oruvar
und a
Ġath iv
Ġend raal
ect ions
Ġro que
Ġthal atthil
Ġnagar aatch
Ġsc ient
Ġmah atva
eett alavil
Ġvir aivaaga
gh at
Ġwill son
Ġrah as
15 0
Ġvay alin
Ġsad akon
Ġsand a
avargal in
Ġstud y
Ġdet ails
Ġprach een
Ġcont ain
Ġvidh ansabha
Ġinst itute
Ġsevanamanusht icha
Ġeduththu ch
iro am
Ġrak bi
Ġpav itra
Ġhom es
Ġadhin ivesh
Ġaalp aththai
Ġmagal ir
Ġequ ity
Ġmunna er
Ġpati ents
Ġchall enge
Ġmans ik
Ġpothuv e
Ġked upaadukal
Ġsosaitt i
cript ion
Ġprathished h
Ġthark aappu
Ġalek j
E D
E d
m ate
o ft
Ġp eett
am er
à´Ł à´¸
Ġh aj
Ġg ang
ud aah
Ġf eet
ikk aal
thu kk
all ed
19 12
à´¹ à´°à´£
Ġbh aram
Ġthaa h
Ġthan ipp
aksh it
aakk iy
ĠM ike
Ġend ed
eg am
ell ing
Ġman ithar
Ġsp ir
Ġjan uss
Ġprak adan
Ġ14 2
Ġsa x
Ġned iy
avid aai
Ġrakh ta
mak aal
Ġthar ai
Ġà´īà´¯ à´°
Ġanus aran
char ya
adhik ari
Ġsub ur
Ġshak t
Ġsim h
Ġ185 8
Ġsy nd
Ġprodu ce
edupp il
Ġnadatth aan
itham aya
Ġintern et
Ġmc cl
Ġleft inent
Ġvaek amaaka
Ġturn ed
Ġoth is
Ġphot ograph
Ġmaujood a
Ġdistr ict
Ġpartic ip
Ġpothuv aaya
Ġdush man
vim ars
Ġprachod anam
Ġbris bane
Ġbisiness es
Ġtorr ento
Ġparayunn athanusarichu
p athin
Ġà® ŀ
Ġk aer
Ġs ard
Ġp ic
Ġp iano
Ġm ap
aan anthara
Ġà®ª à®®
Ġà®® à®µ
Ġd ance
is p
Ġl ott
Ġà´ª à´¸à´«
Ġà´ķ à´ļ
Ġpr arambha
Ġch adang
Ġch appel
uth ir
ic ut
à´Ĺ à´°à´±
Ġà¤Ķ à¤¦
ol ph
Ġsh udh
aiy attra
Ġmatt ullavar
ain y
Ġpo ath
Ġaan shik
ach i
thth ira
ĠS mith
Ġà®° à®ķà®ļ
ĠM ass
ĠM arket
Ġà´¶ à´µà´ķ
Ġath ijeev
anth ram
Ġmo und
Ġà´ĵ à´µ
Ġkur ippu
ĠP akistan
Ġcon duct
Ġill egal
Ġoo h
Ġupayog ich
Ġthal avan
Ġag n
Ġag encies
Ġdh aram
qu arter
Ġpath akk
Ġviv ag
ĠE m
Ġprath y
Ġchar r
Ġà´Ĩà´¦ à´°
Ġà¤ĳ à¤¨
Ġà®ĵ à®¹
Ġsir p
Ġmig ak
Ġfl u
Ġlog o
Ġthog aiyil
rid dh
Ġsthit iyon
Ġkir ae
Ġsl ow
Ġthodang appattathu
Ġshow ed
Ġrom ani
Ġvaan ilai
Ġveett uvas
Ġthaazh ey
Ġins ights
ukiraar kal
ansh eel
Ġkattid ak
Ġhelp ing
190 6
Ġoruvar ukkoruvar
Ġevery thing
Ġport folio
Ġmadhy asth
Ġprev ent
Ġmanush ya
Ġsangathan on
Ġà´¤à´ķ àµ¼à´ķ
Ġpathav iyil
Ġthoattr aththai
Ġvams eeya
Ġshav akud
cu it
Ġrag as
Ġaavasy appettu
ĠGen eral
Ġedav ak
Ġthenkizh akku
Ġneigh bor
pparay unna
Ġwander bild
Ġdhanasah ayam
E I
P ol
] ,
c ome
p aan
r ak
t ics
v athu
y nn
Ġk undu
à®ª à®µà®®
à´° à´¡
ath maka
ch an
ch aran
er ia
à´Ĥ ),
en te
ad ition
Ġo s
Ġt able
Ġc old
Ġc rash
Ġme ans
Ġpr inc
tr it
Ġà¤° à¤Ĺ
Ġkoo pur
Ġy ooth
Ġsam kaaleen
à¤· à¤¸
aath ip
aath mak
Ġà´ļ à´Łà´Ļ
Ġà´Ĩ à´®
à´¹ à´°à´£à´Ļ
à´ľ àµ¼à´®
Ġvar ukiraar
aav ukayum
et on
Ġà´ĩ à´µà´¨
aas it
Ġnir bhar
kar a
Ġmar uu
Ġaar aavathu
eet a
Ġvy aas
ĠW il
Ġiru var
Ġho am
à´ĸ à´®
ĠD ivision
Ġupayog ikkaan
à´¯à´ķ àµ»
Ġà®ħà®µ à®ļ
à´·à´£ à´²
air s
Ġavarkal ai
Ġvan mur
izh amai
Ġac qu
Ġkath aa
Ġpank ettraar
aich on
iyaalar gal
à´Ĵ à´¨
Ġkutt akrith
Ġnaal aamathe
Ġneel amulla
atr ick
Ġà´ĩàµ» à´·
Ġmid fielder
aph ik
Ġik aaiyon
Ġmaanil aththin
Ġvadakk e
Ġamaipp in
Ġolipar appu
Ġneethim andram
Ġprovid ed
ichuv enkilum
Ġmic ros
Ġsurang app
Ġgop ur
Ġvyakh ya
Ġceleb r
Ġenfor cement
Ġarasaang ka
Ġaathidhey athvam
d aar
k ath
n ak
n ast
o an
Ġ ign
Ġk em
Ġs ood
Ġs aapp
Ġs ession
Ġp ang
à´± à´¬
ru gal
Ġv and
Ġn anm
Ġb eer
Ġh ann
Ġo ak
Ġc od
ud son
app ur
à¤Ĺ à¤¶
ic ia
à´· à´®à´¤
ol as
Ġan anthar
aath ipath
ul s
Ġad akkam
Ġà´¬ à´ľà´±
Ġà¤ļ à¤¢
oor il
ram a
Ġcom ics
Ġaar am
ĠN E
Ġnil amb
Ġoo str
Ġex tra
oy al
Ġprak riy
Ġviv arit
Ġnagar aatchi
à´ħ à´¸
Ġres tr
arkal aal
Ġvaa kkukal
Ġsen ator
Ġsath ura
Ġveliy eedugal
Ġne ur
à®³à®© à®ĥ
Ġbhaag amaayirunnu
Ġover all
Ġsamv aad
Ġnet var
Ġpart ies
Ġkappal ukal
Ġbro ught
193 5
Ġpaadal ai
Ġpravesh anam
Ġmathipp aaivu
Ġnigazhchch iyin
à®Ĳ à®°
Ġnam ankan
ĠÎ ½
uck y
Ġevery one
nil ai
Ġmood appattathu
Ġarasaangk aththin
Ġpadam aakk
Ġedward s
à´ķà´Ł à´²
Ġaudyog ik
Ġams ter
Ġmess age
Ġaetrtrukk oll
Ġraashtreey akkaaran
Ġvaanij yik
soo ththiram
Ġanj j
Ġproble ms
Ġarik ur
Ġscatland in
Ġmaith aan
Ġquick ly
Ġottumo ththa
Ġpraadhaan yam
Ġsitu ation
Ġparamp ara
T o
d or
e ast
n nu
Ġ ish
th athu
Ġs ust
Ġp aith
am ath
à®® à®¤à®®
Ġth akk
ru ary
Ġv aat
Ġn aayak
à´² à´¯à´¤
à¤² à¤ļ
Ġà®ª à®±à®ķ
ir st
ak arta
aar nna
as inte
Ġl ouisiana
àµ» à´µà´²
Ġpr ices
uth appatta
Ġsam agaala
à¤ļ à¤¤
ish il
ipp ath
et thudarnnu
Ġnir aagar
aak rit
Ġà¤¸à¤® à¤Ĺ
und ar
eg e
Ġcom edy
Ġid aththai
Ġid aththirku
Ġiru pathaam
Ġjan ata
Ġkaal aat
Ġbhee shan
Ġsu ya
Ġenniv ayumaayi
Ġoff ers
aash ay
Ġprath im
ens or
Ġniru tth
akar um
Ġvim aanam
Ġopp anthth
Ġopp eettalavil
Ġfir ed
Ġfl ip
Ġsamb addh
Ġpoatt iyin
Ġvis consin
Ġthog uthi
Ġaustr iya
Ġ185 6
Ġ185 7
Ġ184 5
Ġruss i
jeev it
Ġber k
Ġvarg eekaran
Ġà´ĩàµ» à´ķ
Ġott rum
Ġpand ri
Ġopen ing
Ġnadath unna
Ġariyapped unnathu
Ġvelipp eduth
Ġà´ĸ à´¨
Ġnirdesh ak
Ġvestt en
Ġkattum anam
Ġvarthth agam
Ġmich ikan
Ġavalok anam
Ġincre ased
Ġneethrthw am
Ġhras w
Ġgativ idhi
Ġthaarathamy appeduth
Ġintr odu
ĠSy rian
Ġspons or
Ġbraz eel
Ġputhith aaga
' )
d em
f ully
w ashington
Ġ ig
Ġk rit
à®° à®³
à´¾ -
Ġm aichon
Ġv ritt
Ġn oo
Ġn ank
à´ª à´¶
à¤² à¤«
Ġb lo
Ġh aiv
àµ½ à´·
Ġr aitt
Ġl aaya
Ġch et
iv annu
Ġe ither
Ġav oid
Ġà®İ à®²à®ķ
Ġan ivar
19 19
aad al
Ġad iththal
aav ali
Ġaan athu
ach usets
ov ery
thth amaaga
ĠA N
ri ff
ĠB rown
Ġkaar shika
ĠD ev
Ġgr eg
à¤ĵ à¤¸
Ġupayog ikkukayum
Ġre act
à´Łà´ķ à´¤
ĠE U
Ġrep orter
à´ķàµ½ à´±
Ġseyal paadu
Ġpall athth
Ġprav ach
aithth al
Ġpank h
Ġvin ash
Ġ188 3
Ġacc ept
Ġsaamb al
Ġsing les
Ġbanaa te
Ġlekh akon
och an
Ġtrans fer
Ġnish edh
Ġpran aliyon
190 9
Ġgol i
vad or
Ġsov iyath
Ġabhinay ichu
Ġkolg ai
Ñģ Ð°
Ġcloud s
Ġnaadugal il
Ġvepp a
Ġsuraksh it
,,,,,,,, ,,,,,,,,
Ġilavar asar
à´¶à´ķà´² à´¨
Ġadangk uvar
' d
0 53
c as
c ap
f ur
w all
th og
an angalil
à®ķ à®ªà®Ł
Ġk unn
Ġs unn
Ġs ki
Ġm agaz
ath od
ch ak
kk oppam
Ġb ush
àµ½ à´Ĺ
Ġr if
Ġt antra
ed utha
Ġc ents
and e
and in
Ġà´¨ à´¯à´¤
ing en
Ġaa taa
angal aal
Ġan aiv
ent on
unn avar
ipp aaga
ut ch
og o
à´ľ à´¸
Ġà´ľ à´²
Ġnir tth
Ġal agu
thth aar
thth uk
aip a
pr ishthabhoomi
Ġid aykkide
Ġà´Ń à´°à´£à´¤
ass in
ĠH ilton
Ġpur ani
àµ¼à´¡ àµ»
adi o
Ġpaar it
ĠK ur
Ġà®ĵ à®ªà®°
jan asamkh
Ġà®ªà®£ à®¤
Ġbah ir
Ġthad av
Ġvag aikal
Ġmin ister
à®µà®² à®ķà®¤
Ġ186 6
Ġprof ile
à´Ńà´µ à´¤
Ġneeth ipath
Ġgu ide
iyath aaka
Ġpravesh ichu
Ġmathipp en
Ġjud aa
Ġnam ed
Ġà®µà®³ à®Ļ
Ġvishay on
Ġsthir eekar
Ġthiranjedukk appetta
Ġmuyarch igal
Ġnadath unnu
Ġamaipp il
Ġchrist opher
kin son
Ġgram eena
Ġbhagam aanu
Ġmul yankan
ĠComm ission
Ġmav ori
Ġseek h
Ġfail ed
Ġseiyappad ugirathu
Ġsansh odhan
Ph iladelphia
Ġast itva
Ġdipl om
Ġmast ishk
Ġchoo du
Ġpadhav iyai
Ġschw adron
hed aari
Ġsantharpp angalil
, '
7 00
F ollow
U M
b ell
k iyon
n ol
p le
th aazh
ar ippu
à¤° à¤µà¤°
Ġs oney
ath ikal
en z
à´® à´ķà´®
ur im
av aayu
Ġt estt
Ġl is
Ġà´ª à´±
Ġà´ħ àµ¼à´¦
Ġch ully
Ġav any
ich ittund
uk oal
Ġan ikku
Ġavar udan
Ġkar od
Ġar an
ug iraargal
Ġst eef
Ġal ber
Ġal aippu
ku chh
Ġsth r
Ġà¤¸à¤® à¤²
ond athu
Ġru ling
à®¯à®® à®±
Ġcl ients
Ġ10 3
Ġsar chch
Ġthir aippad
Ġtr ading
Ġthal ap
eed an
Ġ13 6
Ġraaj yon
à®Ĩ à®¸
Ġpin val
Ġveliy aana
Ġà¤ľà¤¨ à¤¤
Ġbah u
Ġfl oor
Ġcheyy umbol
Ġ[ [
Ġthol aith
iyath aayi
yath ode
Ġtheev ira
Ġuttar adhikari
Ġsub ah
Ġcol umbia
Ġveg atha
190 8
Ġparim ithamaaya
Ġbharan ak
Ġjun ction
Ġvit arit
Ġethirk aala
Ġrag bi
Ġchelavazh ichu
Ġhong e
Ġemerg ency
Ġpaakk ej
Ġprasthaav ichu
Ġvadakizh akku
ĠIslam ic
Ġkaaliforn iyayile
Ġshopp ing
Ġdeliv ery
Ġjananaay aga
Ġmaathaap ithaakkal
b ine
h r
p uviyiyal
s ila
t op
u chch
Ġ ey
à®¿ ),
à®ª à®³à®µ
ch ay
Ġv aer
Ġv aigyaanik
à¤¯ à¤¡
Ġb io
un ee
à¤® à¤§
Ġà´ª à´µàµ¼
es an
Ġg yaat
Ġà´µ à´²à´¤
Ġch adh
Ġf em
Ġw ide
Ġà¤ī à¤Ĺ
Ġà´¤ à´²à´¯
Ġto d
19 15
uv inte
Ġma en
Ġnir thal
Ġà¤ļ à¤®à¤ķ
Ġal um
Ġà´° à´ļà´¯
up ad
Ġaam antr
ast ar
ĠB ank
aip ei
Ġvish udh
Ġnil akk
ĠR od
Ġ10 9
Ġhe ard
Ġoo s
Ġgr andh
Ġmun v
aigal udan
Ġag ents
ĠE ast
Ġnagar in
Ġenb athaal
Ġres ort
Ġres ign
Ġmur aiyaana
Ġka f
ob a
2018 053
uj ana
ON D
antr i
arum aayi
Ġpull i
li ament
than te
aant aran
Ġà´ªà´ł à´¨à´¤
EN E
Ġepis cop
Ġthittam id
Ġsambh ala
Ġenglaan ththil
Ġchak r
Ġmaiy amaaga
Ġcru ze
Ġthae th
Ġninaiv uk
Ġgit aar
Ġba uddh
Ġtap man
Ġcoup le
Ġepo xy
Ġextr em
Ġaty adhik
Ġaapl ikkeshan
2018053 000
G A
f ot
g ro
n es
s ad
ar ry
Ġs iz
on ial
à´ª à´°à´µ
à¤¸ à¤ļ
Ġd ill
is thuv
Ġt un
Ġt oot
Ġj aas
Ġc ad
Ġc reat
à¥Ī "
kal aip
Ġch aud
Ġch amber
Ġf aakkal
Ġw id
iru ppu
Ġun ique
ya sh
Ġà´ľ à´¸
à´¿. "
avar an
aj on
ood i
Ġdo sh
Ġpad aiy
." "
ĠR ich
Ġcur t
Ġmaan ch
Ġre fl
Ġner itt
akar ude
ĠO ctober
Ġavarkal il
Ġaval udaiya
aig irathu
Ġmil ata
à´Ĩ à´ķ
appadug iraargal
Ġek ikrit
Ġrakh ee
uththu ch
Ġaadh ipath
Ġbee j
Ġpravartth ikkukayum
Ġperu kal
Ġbar ish
Ġland ing
antr ika
ainth anar
Ġvalangk appatta
Ġcont ent
Ġ185 1
Ġà´īà´Ł à´®à´¯
Ġmaavatt aththin
Ġchik ils
Ġaavas yangal
Ġbach ane
Ġrequ ired
Ġvipul amaaya
Ġthev aiyaana
Ġcustom er
Ġterm s
Ġdy e
Ġcamb ridge
Ġkaazhch app
Ġapplic ations
Ġdaf naya
Ġchihn it
Ġmaham ari
Ġrelation ship
makaal een
aathip aththiya
b es
l ington
m oo
an atthinte
à¤¾ ),
al ak
il eyum
à´° àµº
Ġth id
à´ļ à´ķà´³
Ġr oss
Ġt amb
Ġl ig
Ġl ept
gal aiyum
Ġg upt
Ġ( ).
Ġpr asam
Ġe asy
à®´ à®Ļ
ich am
aath ir
Ġkar utha
Ġaan ennu
Ġam eer
ĠT enn
ĠT ECH
Ġà´° à´¸
Ġthan m
Ġthan im
ukk alil
Ġkh id
aikk appattullathu
à´ĸ à´ķàµ¾
Ġjan aathipath
à¤¯à¤ķ à¤°
Ġkatt aay
Ġpath r
Ġchar itr
à´ħ à´µà´°
Ġur ai
Ġ0 5
eb aji
Ġsthaan athekku
à®ĥ à®ķ
Ġvik aar
Ġuruvaakk um
Ġmed ic
Ġaay irikk
Ġaas iya
Ġsaar aa
Ġtel ep
Ġsn ider
Ġthaazh eyulla
Ġmel nott
à®®à®£ à®¤
Ġutpaad on
Ġnor man
Ġadhikaar on
Ġaash ank
Ġiy angk
Ġfranch is
Ġtharam thir
Ġuthav iyathu
Ġmish rit
Ġmadang ukayum
Ġvaithth iru
Ġfact ors
Ġcam era
Ġezhuthth aalargal
ithan aayi
Ġpraant iya
adv eep
Ġsansh odhit
Ġsaaj hedaari
ĠFeb ruary
Ġpubl ished
Ġparih ar
Ġsamjha ute
ĠLat est
Ġaagiyavattru dan
Ġtack le
Ġnagarpp ura
Ġcrick ett
Ġpalam aiyaana
ĠTECH NOLOGY
d al
l ag
l oss
r d
s ams
y aash
Ï ģ
ar aayamaaga
Ġk upp
Ġm anth
Ġa kh
ath aye
ur avu
Ġà®® à®Ļ
Ġd anish
aar kk
Ġr aise
and o
ud en
aay an
Ġch inth
zh cha
iv aa
ing ane
Ġà¤¬ à¤¯
Ġà¤µ à¤ľà¤¨
Ġan ugal
Ġan sw
ish kaar
Ġà´Ĵ à´®
Ġpo ast
ile k
Ġaan kh
Ġam ount
Ġst age
Ġadh igar
ell en
Ġman ithan
Ġall ah
ist a
Ġvy omas
Ġper kku
thir ai
Ġà®ı à®µ
Ġkaal aththin
var on
Ġgh ad
.. ."
ĠJ eff
Ġpaar pp
Ġ14 4
Ġyo asan
Ġkan ini
Ġpun idhar
à´µà´¸ à´Ļ
Ġavas aram
esham ulla
Ġveliy eedu
Ġthad ai
Ġvaar is
Ġthay yaar
Ġvin yas
Ġvin veli
à´ľà´¨ à´¸
aazh cha
Ġaat chi
Ġvilaiyaatt in
Ġmug am
Ġsameep aththil
Ġpary aavaran
Ġmaem patta
Ġprot ocol
ĠPh il
Ġsudh anthira
Ġest im
Ġgav eshanam
Ġvast uon
Ġnaatt upp
Ġlik he
Ġpash u
Ġsthithicheyy unnathu
Ġmudiy aatha
Ġbandhappett irikkunnu
Ġkrith yamaaya
Ġsai man
Ġhyd ro
Ġjuul iyan
Ġbaan dh
Ġshaik shanik
Ġkodunk aattu
Ġhoot al
Ġbun iyaadi
Ġadland ic
Ġcoal ition
ĠÎ½ Î±
I O
m ig
o is
Ġ ^
ar aan
Ġs ac
Ġp uu
Ġp andhu
il ities
at aa
Ġv oll
Ġv ajan
Ġn adh
Ġb akk
à´¸ àµ¼à´ļ
Ġd aksh
Ġd unk
àµ½ à´¸àµº
Ġr ib
Ġt unn
Ġc at
Ġg ard
à¤ª à¤Łà¤¨
nu kal
Ġpar ents
Ġad ang
itt iyil
ĠS ome
ku zh
ĠC entral
op ttar
Ġidh aep
st en
Ġman h
akal ulla
if al
ĠN assar
Ġsar al
à¤ľà¤¨ à¤¨
Ġcur nell
Ġà´ĩà´¤ à´°
Ġsu ffer
Ġraaj yam
ara f
Ġcar ter
Ġezhuth ukayum
Ġezhuth ukaar
Ġpayanpaduthth ukirathu
Ġsk ot
Ġsatt aththin
à´¯à´µ àµ½à´ķ
à®µà®² à®ķà®®
be ck
Ġsome one
Ġmiss ing
Ġpor i
Ġphil adelphia
Ġreeth i
Ġniruvan atthai
Ġvarg eekrit
Ġsahay ichu
Ġshram ikon
tho ugh
Ġpaarv aiyaalargal
Ġsett ing
Ġthaer v
ĠInd iana
Ġbhav na
Ġpariseel ana
Ġvist aarit
Ġcontinu ed
Ġproject s
Ġathig amaana
Ġfund ing
gy pt
Ġcorn er
Ġplayoff s
Ġserkk appattathu
Ġbast i
Ġkaipp attr
Ġsann adh
Ġashay avinim
Ġtheevir amaaga
Ġanalyst s
Ġà´ĵàµ¼à´¡ àµ¼
Ġaavarth ichu
Ġvadamaer ku
Ġvirunthth inar
/ "
a eyae
m attu
o ul
p art
ar ukal
ar inte
ar aayirunnu
à®° à®¯
Ġp ish
il es
Ġth aamath
aan dukal
ad in
Ġb bc
Ġh ull
Ġà®® à®Łà®Ļ
Ġr aam
Ġc ash
àµ» à´Ń
Ġf ifth
ikk appadugindrana
Ġin fr
Ġsh an
Ġy ard
kku l
Ġse b
à¤§ à¤°
akk aare
ett e
uv aal
bh uth
aak unna
à¤ĩ à¤«
Ġmar aa
Ġroop eekarichu
Ġkal pana
Ġsw aagat
ĠN FL
igal aip
ĠH ome
Ġpl ug
ĠL akers
Ġprak r
à®ĩ à®±
aaru d
ens is
Ġuy arvu
Ġmur aigal
Ġstr ength
arkal udan
Ġà®ļà®® à®°
Ġcr isis
à´ĩ à´¸
enk o
Ġmon ter
Ġaadh e
Ġaff ili
Ġvas ikkum
Ġsaar piyal
Ġfootball er
Ġsutt ikkaatt
Ġà¤ħà¤µ à¤¸
Ġdec ided
Ġvig itham
Ġpradesh angal
Ġaarambh ich
à®ī à®±
Ġurim ai
Ġcas ino
Ġvaad ak
Ġpaarkk avum
Ġthirich ariy
Ġhard ware
Ġinaikk appattathu
Ġyoo thu
Ġhill s
Ġlet aa
Ġooppar eshan
Ġaddition al
................ ................
Ġoththu l
aduth ulla
Ġmontr ial
oty pe
Ġinipparay unna
Ġnilapp ar
Ġnetv or
Ġprots aahit
Ġveettuvas athi
Ġanaiv arum
b oo
f ri
j n
m ari
p ri
Ġm athil
ath odoppam
à´Ł à´¨à´¤
ch o
Ġn unn
à´® à´µ
Ġh ov
ak ia
Ġt ul
att aar
Ġà®ħ à®¯à®©
Ġà´¸ à´Ń
Ġf ai
Ġà¤° à¤¦
ab ri
angal aik
Ġun ivers
ra c
akk aran
uv are
idh aan
à¤Ń à¤ķ
ess ing
Ġà®° à®Ł
st ation
ĠP e
ĠN et
ati bandh
Ġoo viy
ĠL eb
Ġà®ķà®² à®ª
Ġsu it
kh el
Ġel f
Ġpan im
ĠO ffic
Ġvim anangal
Ġethir vin
arm a
Ġpun aik
Ġkudumb atthinte
Ġreport ers
aykk aan
af al
ix on
aththirk aaka
Ġins tead
Ġ185 5
Ġlu x
Ġbet aa
Ġsthir ath
Ġvilayaa ttai
189 0
Ġsaern thu
Ġgol ukal
Ġvyaapak amaayi
Ġthalam aagak
Ġvelippaduthth inaar
Ġdeergh akaala
Ġpoon ji
Ġkom adi
Ġsonth amaana
Ġthenn aap
Ġthalasth aan
Ġabhine th
Ġplaatt phom
Ġoppuv achu
Ġtain aat
pash chaath
Ġconfl ict
Ġmarikad annu
ĠOh io
Ġoostr el
c are
m c
m ana
p uth
r el
Ã Ĥ
â Ħ¢
à®¤ à®¯à®®
à´ķ à´¶
à®° à®ķà®¤
Ġm itty
à´¯ à´Łà´¨
à®² à®¯à®Ļ
à´° à´¬
à¯Ī ;
Ġv ind
ay und
à´Ĥ ",
à´ª à´¨à´®
Ġà®® à®ŀ
Ġt ong
Ġ" -
it ol
Ġpr aarup
ik ari
Ġà¤ľ à¤²à¤µ
Ġsam kh
Ġand rew
ipp athil
Ġà¤Ĩ à¤īà¤Ł
ip ment
Ġmar gar
Ġmar yland
Ġas iai
Ġap artment
ĠM art
Ġsaath aarana
Ġmo dul
akal kk
abh ed
Ġiru pathu
Ġcl oss
Ġoo ppan
à®°à®¤ à®®à®°
Ġ15 00
Ġkad athth
Ġbr on
Ġbr ad
Ġpath onpathaam
Ġà®ħà®° à®£
Ġniyam aparamaaya
Ġraj aavu
Ġlag ata
Ġil aiy
anakk aana
Ġsey ark
ĠCh ief
Ġà´ħà´² à´Ļ
arp an
à®°à®ª à®ŀ
Ġprav un
Ġprav aah
Ġà®Ī à®¸
Ġvazhangk um
Ġthayaar ikkappatta
Ġsany ojan
Ġpull ivivar
Ġins pect
Ġpul art
apr akaaram
Ġreeth iyaana
Ġ184 9
irupp inum
Ġà´ĩàµ» à´µ
ikkan um
Ġpahunch e
Ġkaat chi
Ġaavas yamaanu
Ġpand ith
Ġgir ls
Ġyah ood
Ġkattupp aduthth
Ġthaal ppar
Ġsat eek
Ġpadhath ikal
rus alem
Ġnidh iy
Ġagr eed
Ġprathinidheekar ikkunnu
Ġhras v
Ġapeksh aakrit
Ġjanan ay
addeh am
Î¹ Î½
ĠVII I
Ġlam gh
Ġbenef its
Ġmukad ama
Ġhaas ya
Ġpashchaath al
Ġpratisthaap it
Ġhelik opttar
Ġitihaas kaar
Ġvat avaran
Ġvivarit thaar
R A
T uesday
g iya
j ise
l us
o akk
u z
y uddh
Â ®
Ġk athu
à´ķ àµº
Ġs aap
Ġs inth
Ġp oos
à®ª à®¯à®©
iy aatha
ee ra
Ġv iy
Ġn eet
aan ak
ak ram
Ġr ome
Ġj ut
Ġj aid
Ġà´ħ à´´
ikk appadavillai
app id
Ġà®Ĩ à®·
dh aa
Ġsh ed
eey amaaya
Ġsam akaalika
akk aarude
ug aiyil
ro id
ĠS cott
ĠC om
ev i
anth amaayi
pr as
chch inn
Ġph oenix
igal aiyum
Ġ10 8
Ġro tt
eekar ana
oy d
Ġpaar isth
à¤Ľ à¤¤
Ġpinn il
Ġpinn ani
Ġpal av
Ġpaath aiyai
Ġpaath aiyin
Ġdis trik
Ġà¤ĵ à¤ª
Ġvir aivaana
Ġett umutt
Ġkav i
Ġlag ey
Ġser ve
ung kal
Ġnav in
Ġaay ud
Ġchal aaya
Ġass ists
Ġthar atthilulla
avargal ai
Ġsank aay
Ġlad kiyon
Ġgu il
Ġve ppam
Ġveett ilekku
Ġmathipp id
Ġany thing
Ġruss ell
Ġrich mond
sc ribe
Ġvardh ich
Ġpusth akangal
ikkappatt u
ĠFr ancis
vad akku
Ġchaan al
ullathum aaya
Ġmaheen on
Ġchair maan
Ġmunk aala
Ġaerpaduthth iyathu
Ġvivas aaya
Ġvazhinad aththinaar
ĠSec urity
Ġwr ong
asaay ika
Ġnaksh athr
Ġkorppar eshan
Ġassemb ly
ghat ana
O L
T UR
b it
l iy
v ay
v ich
v artamaan
Ð »
an chu
in ullil
à´ķ à´Łà´¤
à´¾ .
Ġm eer
Ġm rug
à´¤ à´ķà´°
à¤ķ à¤¹
Ġv eeth
Ġd aal
Ġo y
av aal
as ant
Ġt ram
Ġl oow
Ġl istt
à®ļ à®³
ed o
Ġc e
Ġme tal
Ġch itty
Ġà¤¬ à¤Ł
à´¡ à´ķ
Ġpar id
Ġkoo ll
Ġy ud
Ġà´¤ à´³
du kalil
à´¹ à´¨à´Ļ
Ġkar yangal
Ġun c
Ġpo undu
ug u
ov ukku
ber ts
Ġpir ak
Ġkh ule
Ġfr eed
Ġir aakh
Ġthir aiy
Ġkatt aayam
ook s
Ġre in
Ġà¤ĺ à¤¨à¤¤
Ġprath ifal
Ġpal ag
Ġaal amaana
Ġà´ľà´¨ à´±à´²
Ġrah ati
Ġmaath avidaai
Ġsel ect
Ġbl oom
Ġdev aalay
Ġcoll abor
Ġpaan iyil
Ġleag inte
Ġà®Ĩà®µ à®£à®Ļ
à¤¯à¤¤ à¤¨
Ġstud ent
Ġ186 9
Ġvip an
Ġchithr athinu
aata on
Ġkod um
Ġshrin gal
ukay aayirunnu
Ġprog ress
Ġact ually
Ġà¤¤à¤° à¤«
Ġlikh i
Ġshabd on
à¤Ĩà¤° à¤ıà¤¨
Ġchhod kar
Ġmaanil am
Ġà´ªà´² à´°
Ġpradarsh ani
Ġcre ated
Ġfrank lin
Ġuthar av
pol is
Ġgold en
ĠCoun cil
Ġsonth amaanathu
ĠÏ ĩ
abil ities
aayir ikkum
Ġproble m
Ġchalleng es
Ġpidich edukk
Ġghan atva
ĠAfghan istan
Ġjup ittar
Ġgrish makaaleen
Ġguil ty
U E
à¤ Ĳ
ar ak
Ġa ip
à®µ à®´à®ķ
Ġn oow
en th
aan il
pp a
à´¸ àµ»
Ġh ass
Ġà®® à®°à®¤
as in
Ġt antrika
Ġà´ª à´±à´ķ
Ġc yl
gal i
and y
Ġf ra
Ġf ine
Ġf ear
Ġf eed
Ġu bh
Ġw ins
Ġw acker
ag ram
à¥Ĥ "
Ġaa ivag
tr on
à¯į, "
Ġsh el
Ġsh eshamulla
ab odh
Ġsam aiyal
Ġà´Ĩ àµ½à´ķ
Ġkaa k
Ġkaa dugal
Ġar ivu
à´ľ à´²
Ġvar uth
uv aas
Ġenn ingane
avum aanu
ĠM u
ĠM ur
Ġle ban
ĠW all
à¤Ĩ à¤²
Ġsp ect
ann y
Ġ12 1
Ġcomp l
Ġsch ol
Ġà®ļà®® à®¨
urn e
Ġseyal murai
ott eev
Ġpodh um
par ivaar
Ġà®®à®© à®ļ
Ġover time
Ġpas aphik
irk ul
be an
Ġvell i
pan ik
Ġvip lav
Ġsal ah
Ġmod d
Ġdesign er
Ġprach ar
Ġyog yath
Ġadv antage
à´°à´¹ à´Ļ
Ġkandeth ukayum
Ġkid s
Ġfed eration
ĠAr gent
tro it
Ġanumath iththathu
Ġnorth ern
uthor ities
Ġvaah ak
Ġprom ot
Ġiyan ththira
john n
ĠAssoci ation
Ġaluval agam
mir al
Ġvishad eekar
Ġmuthir nn
Ġbern ard
Ġathlet ic
Ġputt runo
Ġconsum er
Ġpeyarid appattaar
ĠBrit ain
sch ool
Ġmins aara
Ġprag ati
Ġkaruththu kkal
Ġlawsu it
Ġvaividhyam aarnna
N o
l ist
v arn
w ai
Ġ @
Ġk eel
Ġk lin
Ġs under
Ġp aadu
Ġm aay
Ġth ik
ru t
Ġv isth
ai ti
Ġn es
Ġb ond
Ġb aaki
Ġh aam
Ġt araf
Ġj aiz
es u
Ġc ass
and ala
à¤Ł à¤ľ
Ġch ala
Ġà´® à´°à´Ļ
à¤ľ à¤¹
à®¸ à®²
Ġsh utt
Ġà®İ à®ĥà®ķ
ill o
Ġse iyath
ap our
Ġà´Ĩ à´ļ
Ġà´ī à´±à´µ
ĠS am
aap aramaaya
ikal udeyum
aakk ale
Ġfr esh
Ġfr ench
ell ah
aik irathu
Ġpad agu
à®· à®²
ĠW hen
Ġnil aiyai
ĠR eg
Ġith ara
Ġhe avy
ĠG rand
Ġsu zhal
Ġpaar kka
Ġbr ew
Ġteam ine
àµį" )
Ġsab ai
Ġcomm erc
Ġseyal aalar
Ġjaan varon
Ġ22 5
Ġkath or
anm aare
ĠTh ese
Ġvis fot
Ġvag uppu
fr ont
Ġback s
az a
Ġcould n
Ġred uc
Ġmus lim
istr ict
Ġnadathth iyathu
ĠAn ton
Ġkor ia
Ġbish app
Ġrest aur
Ġreturn ed
Ġamb ass
Ġcompet ition
Ġlang u
à¤Ĭ à¤¦
Ġà´Ĺà´µàµ¼à´£ àµ¼
Ġeste ttu
Ġbud get
Ġviruth ai
Ġmoth atthil
Ġnep al
Ġlawy er
ĠComp any
Ġnirvaach an
Ġtheriy avillai
Ġneb ras
Ġpunaruj jeev
Ġthurupp ukkal
udaah aran
Ġpanim ud
e ated
h it
j os
m ain
n iyam
s uru
th thuv
al um
à´ķ àµ¼à´ķ
à´¤ à´Ł
Ġa idi
Ġà¤ķ à¤¡
am ond
à¥Ģ /
à¥Ģ ",
à¤ķ à¤¥
Ġv igh
Ġv eend
à®µ à®³à®µ
à´ª à´µ
à¤¸ à¤Ł
Ġh em
ur ement
Ġ1 19
Ġd os
Ġd und
es co
it iyon
Ġpr ime
Ġw ik
ag dh
Ġà®¨ à®²à®©
Ġà®Ĩ à®´
ith um
ang han
Ġy ee
Ġà´Ĵ à´¹
19 13
Ġà¤Ĩ à¤°à¤ķ
Ġà´ĩ à´¯àµ¼
Ġà¤ªà¤° à¤®
à´« àµ»à´¸
Ġal aiththaar
Ġjo ined
Ġà¤¡ à¤¬à¤²
Ġas amb
Ġadd ing
ĠM id
est ic
Ġat lantic
Ġee d
Ġthod aa
Ġull anghan
ĠH aw
Ġvi enna
Ġoo k
Ġ17 5
Ġtr adem
ĠF ound
à®İ à®¤
inu te
Ġpatt ern
Ġvarsh avum
Ġ14 5
Ġcomp ared
Ġraaj yangal
Ġraaj aavinte
Ġchar chakal
Ġno akk
Ġcar oll
10 1
Ġsel k
Ġà´µàµ¼à´· à´µ
Ġvis trit
Ġdr aav
Ġnag r
Ġclub b
Ġthodang ukirathu
Ġsamv idhaan
Ġov ers
Ġvimaan appad
intr anar
à¤¯à¤² à¤Ł
Ġyog yata
Ġadv oc
was i
190 5
Ġvaad ikk
Ġpatr akaar
Ġlandan ile
Ġthaar aal
Ġvayathu kku
Ġmaad al
ĠÂ ±
Ġkudiya ettr
Ġadu l
Ġder by
Ġanim ated
Ġseyalpad ugirathu
Ġninaivu chchinn
uvaar thth
Ġethirpaar kk
Ġkaruthth il
ekhal aa
Ġaek aathipaththiya
Ġnilapar appu
Ġà´ħà´¯àµ¼ à´²àµ»à´¡
ĠBow l
ĠKenn edy
Ġprasam g
P R
T ech
U L
l ake
m aran
p oor
s ah
y ayil
in aal
Ġk ille
à¤° à¤°
Ġm ys
à´¤ à´ľ
am ud
am aya
iy avar
iy aththirku
Ġth or
à¤ķ à¤¶
à´ª àµº
à´ª àµ¼à´ķ
pp ing
Ġh orn
Ġd ega
à¤® à¤Ī
av atta
Ġt on
Ġl attin
à¤ª à¤¬
kal aal
à¤Ĺ à¤¡à¤®
Ġthe h
aiy argal
Ġto ky
à´¬ àµ»
Ġà´Ĩ à´²
19 16
à¤¼ à¥ĩà¥¤
Ġfor r
Ġchey thir
Ġas ia
ani j
aakk unna
eg an
Ġsp l
Ġull ad
ĠL ondon
Ġenniv aykk
iyapp atta
Ġprat eet
Ġur aiyaad
Ġrel ations
Ġcoll in
ship t
Ġut patti
Ġla ing
Ġsaan n
bo urne
paad an
Ġà´ªà´ķ à´°à´®
Ġmand ap
Ġline up
Ġaavash yamaaya
Ġsil ar
Ġavathar ippikkunnu
adesh a
Ġkandeth aan
Ġdevelop er
Ġbur f
Ġamerikk ayile
Ġpatr ick
Ġà´Ńà´°à´£ à´ĺà´Łà´¨
Ġwal ter
Ġnadavadikk ai
Ġarth avyavastha
Ġsat ron
Ġselv aakk
Ġthamas ikkunna
atur al
Ġdhaar aalam
Ġsaer kk
Ġphal aprad
Ġpariyojana on
Ġpakk aththil
Ġvaraiyar ukk
chchiy ad
Ġkaay ika
Ġchatt an
Ġprotest ant
Ġpazham aiv
Ġhund reds
Ġchristh ava
aakrith iyilulla
Ġtharaiy ir
ĠOff ice
Ġaamantr it
Ġnilakk ari
h av
l ii
n amb
n oon
y ang
Ġp eep
Ġm it
Ġa ev
à´¯ à´¥
Ġth angkum
Ġv ey
Ġn andr
aan on
un arkal
Ġo k
Ġc ities
id ay
Ġg ull
àµ» à´·àµ»
Ġf ile
Ġf ox
Ġf iber
Ġu uth
iv appu
ck s
uk an
uk ond
im uraigal
Ġsam la
ent ially
ipp aalar
ipp ikkunn
le m
Ġma ut
aatt ram
end i
Ġà¤ĸ à¤¦
anth aram
ond er
Ġval aag
Ġval aik
à®ªà®° à®®
Ġith uvare
apped uthal
Ġupayog ichirunnu
ĠG ame
Ġgh attathil
Ġprat irodh
Ġraaj iv
Ġraaj yathinte
ĠK ing
Ġmig ap
Ġcomm itted
Ġpradh ikaran
Ġbah aal
Ġol imp
Ġmath iyaya
ild ren
Ġirupp athai
Ġmal aikal
aitt il
Ġthar kk
Ġkapp alil
Ġviru s
oh ar
Ġmaattr angkal
Ġuruppinar aagavum
Ġhy e
Ġbro ke
Ġiv id
Ġsooch ippikkunnathu
Ġoffic es
Ġonn um
Ġvill iams
Ġsecond s
Ġdep ort
Ġ184 7
à´·à´¤ à´ķà´³
Ġsthir amaaya
Ġtrain s
Ġcard s
Ġexper t
Ġexper ts
Ġfamil i
Ġking dam
Ġped h
Ġmem ory
Ġkattupp aatt
Ġjill ayil
Ġidhazh il
Ġaalp aththin
Ġvayass inu
Ġlaunch ed
Ġsikkal aana
Ġavakaash avaad
Wh at
Ġjac q
Ġchum athal
Ġvenal kkaala
sey al
Ġeduthth uk
ĠBrit ish
Ġmeett edukk
ĠWilli ams
Ġà´ĩà´Łà´µ à´ķà´¯
Ġveliyaer inaar
Ġaya chu
Ġbha uth
Ġlokak app
Ġanivar ya
1 30
f eld
k ed
l abh
o kk
u chi
y ard
Ġp iy
Ġp el
Ġp aine
Ġp ump
à®µ à®µ
Ġn ak
Ġn and
à¤¯ à¤¯
um urai
ad on
ad iyil
Ġb angladesh
Ġd ate
av iro
Ġr anch
Ġr aaf
Ġj aam
Ġj erm
es k
Ġà´¸ àµº
Ġg ym
ud ge
Ġch andr
Ġà¤ı à¤¬
Ġsh amb
us es
Ġmatt angal
od ay
Ġà´¬ à´¦
athin ide
à¥ī .
Ġà´ĩ à´Ļ
Ġmar aim
ek a
Ġkh arch
ĠM oore
Ġà´ĵ àµ¼à´²
ist on
Ġit ems
ark il
Ġle x
Ġtho araayamaaga
Ġcon cr
rit y
ĠR iver
à´İ à´¯
Ġmaan aat
Ġgr aham
Ġthal akkett
oru s
Ġmool akk
à´¤à´® à´²
à´¯à´ª à´°à´®
Ġ11 4
Ġpal uppu
ther ku
Ġbo at
Ġres in
Ġniyam on
Ġka ushal
Ġsel f
ict ions
Ġbl ood
à´®à´¸ à´®
patt avarkal
Ġvishesh taon
Ġkr anti
Ġsanth ai
Ġvalar cch
Ġthalaim aiyilaana
Ġsil ver
Ġsamgh arsh
Ġ185 3
Ġà´Ĩàµ½à´¬ à´Ļ
à´®àµ¼à´¶ à´¨
Ġsv anthamaayi
Ġmam la
Ġaavas yak
Ġcy cle
Ġnird dish
Ġperil aanu
Ġwal es
Ġda un
Ġfac es
Ġmass achusets
Ġthudar ukayum
Ġjeevith avum
Ġiraanuv aththin
Ġfer r
Ġjapp anil
hal anki
Ġcrit ical
Ġkathaapaathr athe
Ġnigazhthth inaar
Ġens ure
Ġtool s
Ġthaarathamy ena
Ġshaar irik
Ġà´ĵàµº à´²
Ġarakkatt alai
imo onnaam
Ġarh ata
Ġbharth aav
Ġà´Ĩàµ¼à´¤ àµ¼
Ġvivarth anam
ĠChar lott
Ġsaikk il
Ġkaalaat padai
. /
l ett
o ya
p attr
r aan
s ol
s et
w ill
y un
aa bhaav
an aa
à®¤ à®³
Ġk ag
Ġs ave
Ġp ith
Ġp ict
Ġm iyam
Ġn ations
Ġn ecess
ad anam
Ġd op
Ġt ied
Ġpr ith
à¤Ĺ à¤¦à¤°
Ġà´® àµ¼à´¦
ing il
à´· àµ¼
Ġà®ī à®®
Ġto ugh
Ġà¤Ĩ à¤¦à¤°
Ġà´ľ à´®
Ġroop am
angkal aaka
ĠM or
ull athaanu
ant ed
Ġsaath th
Ġmo undu
Ġman chester
ĠP u
ist ine
Ġà®² à®Ł
Ġru p
Ġru le
Ġcl ask
ĠH ill
Ġsar ise
Ġprak op
à®ħ à®ļ
ĠE N
Ġur avid
Ġsoo zhal
Ġpin var
Ġvaa ee
à¤°à¤¹ à¤µ
Ġmill iyan
Ġkol an
Ġrel ated
Ġjin ka
Ġà¤¬à¤¹ à¤¸
ĠIn ter
Ġdakshin aafr
Ġbas es
Ġpazh angk
Ġvaazhkk aiyaith
rash t
Ġaalb amaana
Ġvig yaapan
pur na
Ġkul ir
Ġpravesh ana
Ġcall ing
Ġsun ishchit
Ġvilaiyaad a
Ġimp lement
Ġmaanil aththil
Ġvadakk ukizhakkan
Ġkazhiy illa
Ġgir awat
Ġprop os
AR E
Ġoon lain
Ġrest or
Ġhastaksh ep
Ġmass usets
Ġimarat on
oad u
Ġvaid agdh
Ġwinn er
Ġlearn ing
Ġnauk ari
Ġpaarvaiyaalar kal
ĠMan agement
Ġmim ee
Ġporch ugees
Ġnimid angal
brit ish
Ġsigar att
Ġkuttrachch aatt
Ġaasooth r
Ġila iya
Ġnirddish ta
U P
b us
f ill
o att
r ain
Ï Ħ
à´ķ à´´
Ġp aper
à´° à´¹à´¤
at ayat
à´Ł à´£à´®
aan dugal
à´® àµº
ak ta
Ġl aas
Ġl ena
id el
ikk ar
à¥Ĥ ,
Ġà®¨ à®ķà®²
ith ir
Ġpar uthth
à¤¶ à¤¸
Ġsam rat
à¤¥ à¤¶
od ge
Ġbh iksh
à¤£ à¤ķà¤Ł
ip aattu
kar ar
ĠT op
ate gy
op hy
Ġap anaaya
ĠI S
Ġkal ikkunna
Ġcom ments
Ġid ea
ĠR ock
ĠH o
ĠH arr
Ġte xt
Ġud dh
var av
Ġmun vash
ĠL ee
Ġed uth
Ġchar akk
Ġde ck
Ġel imin
Ġà¤ĵ à¤ªà¤¨
Ġnaam on
Ġil anthth
Ġthad upp
Ġthur ann
Ġaay irakk
Ġpee dhi
Ġsent enced
Ġà®īà®¯à®° à®¤
Ġviru dh
Ġanum athi
Ġaduth ide
Ġmiss ile
Ġaagiyavattr aal
Ġontr in
yath ile
Ġsamm el
Ġcoach ing
Ġpirab anj
Ġbur ton
Ġmaem paduththuv
Ġthayaaripp ukal
ĠAl abama
Ġbritt anil
Ġfri ends
Ġcakoothar arkal
Ġple ase
paschim i
des eeya
ĠEng lish
fil m
Ġkooru gal
dhaan ik
Ġutharavaad itham
Ġshaar eer
Ġkonduv annu
Ġpanb ugal
Ġhug e
Ġbri ef
Ġmarupeyar idappattathu
aikkur iya
Ġcheruk ayum
Ġaikyan aadukal
Ġalekj endar
nak atibandh
Ġaran man
Ġpori iyal
Ġmaanaat il
nakatibandh iya
' .
D A
b ank
b oy
m aee
m ingham
p rash
t v
v atharku
z y
Ġk aikal
Ġp aav
Ġp ind
Ġv itr
Ġn oor
Ġb aa
Ġh aari
Ġh ins
à´µ àµ½à´ķ
Ġd anger
as ion
Ġt onny
Ġl iver
Ġà®ħ à®¯
ed ish
Ġà®ĩ à®ķ
Ġà®ĩ à®µà®°
à¤¡ à¤°à¤¸à¤¨
Ġà¤ħ à¤ĸ
uv athai
ash ra
ug iradhu
Ġam al
Ġjo sh
à®©à®° à®®
ĠM ore
Ġath inu
Ġnad anthu
ĠB ig
à®¯à®® à®Ł
ord er
Ġ15 1
Ġà®ªà®² à®µ
Ġ16 8
angalil oode
Ġpaar sh
aw as
Ġmah apour
Ġiss ued
Ġkand a
Ġraj yangalil
Ġil ainy
Ġafter noon
Ġà´ħà´ª à´ķà´Ł
Ġdur bal
Ġbadh ate
no ther
Ġair port
over ed
val avu
Ġvimaan ap
Ġozh ike
Ġsil ai
Ġsrisht icha
Ġniruvan aththirku
Ġvilaiyaatt ukalil
Ġloc ations
ĠZ W
Ġpoong k
Ġlim it
aayirunn illa
Ġbish op
Ġchil ath
Ġconn ection
Ġsattam andr
à¦ ¨
à¦ °
Ġaetrt rum
Ġavatharipp ikkunna
Ġhop es
Ġupar ithal
Ġà¤ıà¤¯à¤° à¤²
Ġkalaach aar
Ġmaruthuvaman aiyil
ĠSup reme
Ġsistt am
Ġupaadh yaksh
Ġcommunic ations
Ġadisthaanamaakkiyull athaanu
Ġverm ont
Ġexhib ition
Ġsaahity ik
sany ukt
Ġdise ase
d ig
h art
m ud
m os
n im
o ab
o ara
s ans
v ann
Ġà´ Ľ
al b
Ġs ize
Ġp ain
Ġp ap
Ġp omm
Ġm aadi
à´¤ à´µà´°
at ia
Ġà¤¸ à¤¨
un aki
à¤® à¤¡
av ad
Ġr ather
à´£ à´¸
es p
Ġc ateg
it ut
Ġg on
àµ» à´¨
Ġf ame
Ġf uel
ic ians
à´· à´ķà´°
Ġsh aam
om i
Ġy athaak
Ġand re
à´§ à´¨à´¯
ett aam
ec e
Ġà®İà®© à®ķ
Ġ18 31
Ġal p
ĠC ons
ep r
aj a
aakk um
ĠM iss
Ġbe uro
ull av
ĠW ind
à¥Ģà¥¤ "
uru tth
Ġko zh
Ġpur aav
Ġtr igger
Ġtr adition
ok yo
à®İ à®°
Ġgh attam
Ġbr ans
Ġ13 8
ĠE gypt
Ġezh aam
Ġur avu
à¤ħ à¤Ń
Ġwill iams
Ġ0 9
Ġniruv ana
po ar
Ġvan murai
com ing
Ġbah as
Ġdev ice
Ġsamb adv
Ġprabh aag
Ġsl av
Ġniy uk
Ġvell uvil
Ġà´ªà´ł à´¨à´Ļ
Ġshram ichu
Ġparim aan
Ġlev els
Ġkudiy iruppu
ĠAn aheim
à´Łà´£ à´Ļ
Ġà´ķà´µ à´±
Ġchunaav on
Ġthott up
Ġphot o
Ġpunarnir maan
Ġbatt ery
Ġakram anam
Ġpaththirig ai
Ġgit ar
Ġveh icles
Ġasw asth
Ġrap id
Ġovvond rum
Ġresour ces
Ġvivag aar
aarud eyum
pashchaath alam
Ġyathaak ramam
o athan
Ġ ,
th ol
à®¿ /
Ġk ings
am und
iy oyil
Ġv andhu
à¥ĭ )
ey ne
à¤² à¤ķà¤°
Ġb ass
à´® à´§
Ġt ies
à®ļ à®ķà®¤
es l
Ġà®¨ à®±
ith v
à¤¬ à¤¡
à¯į. ..
om o
aam sh
à´¶ à´¬
ap ani
ap aramaayi
all aath
Ġavar il
od on
Ġam id
Ġst ambh
Ġaar thar
Ġkur ay
akal kku
ort ion
Ġsw is
Ġcl ient
Ġko pp
enn am
ĠD en
à´İ à´¡
Ġpl anned
Ġtr astt
Ġthal ai
Ġbr anch
Ġsak thi
ĠU kr
Ġmah anagar
Ġkond avai
ettr ana
à´±àµ¼ à´¸
asam vidh
ej u
enk um
Ġmed al
ozh s
Ġkooduthal o
Ġnaan ay
Ġhel en
Ġparis oathan
Ġdec ade
pan ic
Ġgu ests
Ġvimaan on
Ġà´Ĩà´¶ à´¯à´Ļ
Ġhaar d
kkam aagak
Ġpoal allaamal
Ġcol orado
aly mp
Ġà®īà®²à®ķ à®ķ
Ġulag ak
sc ape
Ġparim aattr
Ġparaajay appett
Ġsamraksh ana
Ġvann ath
Ġsakth ivaa
Ġmish ran
Ġveliyae rum
Ġann athe
Ġaasiriyar aaga
ony m
Ġhapp en
Ġpurushan maarude
Ġdenn essy
Ġkaalaghatt atthile
Ġvyaav asaayika
Ġsooksh m
Ġdocum ents
Ġappear ed
Ġmim i
Ġaustrel iya
Ġnewz ealand
Ġyaathra kk
Ġhelic opter
D allas
H is
T aiwan
j ack
n on
n ingal
p lott
v ent
y angalum
Ġk shan
Ġs ill
Ġp aeru
Ġa z
à®® à®ķà®©
kk ala
ey ball
ad ai
Ġà®® à®°à®£à®®
Ġd ial
Ġo ththa
as ia
Ġl inn
Ġà´µ à´¶à´Ļ
Ġf ol
Ġw ine
ag amaana
à¤Ĺ à¤ł
à¤ľ à¤°à¤¤
Ġsh ift
Ġy atayat
Ġsam riddh
ipp id
Ġkar aaril
ul u
od a
ett ru
athin al
le kh
Ġà®Ł à®®
atth inaayi
Ġ4 50
Ġfor du
ĠA fter
Ġas thir
anth ry
Ġpad ag
Ġle b
Ġà´Ń à´µà´¨
Ġsw ach
Ġgr aant
à¤¬à¤° à¤²
Ġgh aas
Ġà¤ĳ à¤¡
Ġvir al
Ġres iment
Ġ0 8
Ġstr ing
Ġporu nth
Ġmath h
Ġtar ikh
Ġcheyy appett
Ġpayanpaduthth appadugindrana
Ġkee mat
Ġtha evai
Ġsans aadh
Ġviru dha
Ġkuripp ugal
avargal ukku
Ġmakkal in
mar anam
Ġdec l
Ġmaas am
Ġmas co
Ġaustral iyayile
à®ī à®£
Ġnigazhchch igal
Ġgoal f
Ġrev enue
Ġdig ri
Ġleak in
Ġdv d
Ġkor iyai
Ġfamil ies
Ġmoontr aam
Ġpooyint ukal
188 9
Ġbish ab
Ġbroad cast
Ġsoor iya
Ġharr is
Ġnirddesh ichu
antar rashtriya
Ġwarn ing
Ġmarab anu
Ġboy s
Ġbahum at
Ġjahaaj on
Ġneethrthw athilulla
à´°à´ķà´Ł à´¨à´¤
aayirikk aam
Ġpraayam ullavar
Ġsuccess ful
Ġelisab ath
Ġupabh okth
Cloud s
Ġeathaan du
Ġappo int
Ġindepend ent
Ġrecor dukal
Ġcrow d
Ġyahood iyon
T S
i ah
i avil
k ing
r ani
s or
w oman
Ã ¶
Ġk new
Ġs engk
Ġp acha
Ġp aaee
à´¯ à´ľ
à®² à®ķà®®
Ġà¤ķ à¤£
Ġth aam
à¤¯ à¤¬
aan ile
Ġb ick
Ġh il
Ġh alk
Ġd row
Ġd aayar
à®ļ à®£
id ing
Ġg andh
Ġch ron
Ġch irak
ik am
ikk intrana
Ġin aippugal
Ġà¤¨ à¤°à¤¸
ith ara
à´Ĺ à´¤à´®
Ġsh ath
Ġsh aak
ig ure
Ġkar sh
ile kh
à¤¼ à¥Ĥ
ane t
ug ar
ov ich
àµº à´²
Ġup anivesh
Ġas aath
Ġà¤¸à¤® à¤¨
st one
Ġath bhuth
ell y
Ġpad aarth
man ch
ern or
Ġpl ays
à¤ī à¤ļ
Ġà´¸à´® à´µ
Ġ12 6
Ġpath imoonnaam
eng er
à¤°à¤® à¤¶
amp ton
Ġ11 2
Ġhas n
Ġpan ch
Ġniyam anirmm
iz ing
Ġreport ing
Ġout l
Ġvibh ag
ace ut
ons tr
Ġvikas ana
Ġthitt aththil
Ġcheyth appol
Ġthodang iya
... ]
Ġair lines
Ġpinth udarnnu
Ġchaar on
Ġthro w
Ġsthal athu
Ġaath yanth
Ġveg u
Ġvishay athil
nam ekhalaa
tho att
Ġyoon it
Ġvardh ipp
sel ves
Ġsqu are
Ġkoad aikkaala
Ġsoor aavali
Ġsamp le
Ġkodu t
apatt ana
Ġef ku
Ġequ ipment
Ġbey ond
Ġconsum ers
Ġmett eeriyal
Ġraa chchiy
Ġsik ago
Ġsamasya on
Ġtas veer
Ġkanis amaana
Ġmonteneg ro
ĠArab ia
Ġvenalkkaal ath
Ġà´ªà´± à´¯à´ª
Ġlept inent
Ġvayathukku t
Ġmaraim aavatt
Ġaikyanaadukal ile
A ccording
O ne
i os
n ot
p os
v ag
Î ²
Ġk yap
il er
à´° à´¬à´¨
er r
er em
à´² à´¨à´¤
à¤¸ à¤¬à¤¸
à´® à´°à´£
aar kal
à¤® à¤¹à¤¤
Ġl eed
Ġà®ħ à®ķà®´
à¤µ à¤¸à¤¨
Ġme thod
Ġg arden
àµ» à´µà´¶à´¤
Ġf am
Ġf elt
Ġw arta
Ġà´® à´²à´¯
Ġ19 2
Ġthe od
tr iyon
Ġpar iksha
à¤¶ à¤¹à¤°
à¤ļ à¤®
ap at
19 14
Ġvar ikal
aav aayi
Ġal iththathu
Ġbe ch
à®¯à®° à®Ļ
Ġpad ukk
à®· à®¯à®¤
aaj e
Ġà®ħà®® à®²
angk il
Ġko h
ĠH ol
Ġpah un
à¤¤à¤° à¤°
Ġpl us
à¥ĩà¥¤ "
Ġuru kku
Ġà¤īà¤ª à¤Ń
Ġcomp lete
Ġed ap
ithth apoathu
Ġdis play
Ġà®ĵ à®¸
Ġà´ľà´¨ à´¨
Ġmig r
Ġste ju
oos ttan
Ġthur ank
par iv
Ġmon itor
Ġvaar aththil
Ġthar aiyil
Ġà´īà´¯ à´°à´¤
Ġiyakk iya
olog ist
Ġà¤¸à¤° à¤²
Ġbadh ati
Ġsaar bu
Ġ187 5
Ġcap tain
Ġpett ro
Ġsaf e
aazh ch
Ġbaj att
ruk iraar
Ġuttar av
Ġsathav eetha
Ġsecond ary
pir ivu
Ġaud io
Ġeer aan
Ġchaah ata
190 2
190 7
Ġcard inal
Ġudaah aranam
Ġpothu jan
à´¤à´µ à´£
Ġuddesh yon
Ġpark ing
Ġchrist ian
Ġoon ar
Ġthaav o
Ġbit aaya
Ġshail i
Ġgri ff
Ġkoat paadu
Ġpanked utth
Ġnadakk unna
Ġbil yan
Ġà´®à´°à´£ à´¶
Ġnagaichch uv
Ġvijayakaram aayi
Ġkalikkaran aanu
Ġà®īà®ª à®ķà®°
Ġarakkatt al
Ġvyavasth it
Ġdain ik
Ġswaath anthr
ĠServ ice
sab se
Ġsuhru thukkal
Ġkudim akkal
aviru dh
Ġbharanagh adan
Pol ice
Ġbharanak ood
Ġepiscop al
ĠArgent ina
H ow
d el
k on
k ah
r anar
r ight
u an
v ans
à®ķ à®Łà®¤
à´ķ à´¨à´Ļ
Ġs ail
am har
Ġth il
ru kalil
Ġv eyil
Ġv iyat
Ġn ait
à¤¯ à¤¶
sh aali
Ġb orn
un akaa
Ġd im
à´³ à´Łà´ķ
is lav
Ġr iyal
Ġt atv
Ġt eller
Ġt athya
Ġj a
à®ļ à®µ
ed a
Ġ2 20
ud iyinar
Ġf at
ik avum
à´¦ à´¨à´¤
Ġà¤ľ à¤¡
Ġw af
Ġw orth
aiy aanathu
Ġkar y
Ġpo sh
Ġar aikal
Ġar ikkai
ett o
adh anon
ess e
ikal ilum
Ġà´Ł àµ¼à´ķ
Ġkh een
ĠM il
ĠM iami
Ġnad aththai
Ġmo sh
Ġkur aiv
Ġat ithi
à®· à®©à®°
Ġvish udha
Ġph arm
Ġud amb
Ġpur oh
Ġpur tag
Ġkaal ath
anj ch
Ġupayog ikkaam
Ġ15 6
ĠF ly
ok a
Ġag azh
Ġmaar ne
Ġbr ance
co ck
Ġno thing
Ġpun aram
Ġmoolam um
inth uk
Ġpoar aad
yl ake
Th ursday
Ġsatt aviro
Ġhel ps
Ġmalsar ichu
Ġpart ners
Ġmod ern
Ġvimaan angkal
Ġret ir
Ġden ied
Ġsup reme
Ġpary adanam
Ġproc urement
Ġgan yamaayi
Ġkathaapaaththir am
Ġfact or
Ġpook unnu
Ġris ks
Ġrece ive
Ġappro ved
Ġparam avadhi
Ġchit ron
à´°à´ķà´Łà´¨ à´Ļ
Ġautom obile
ĠUS A
Ġroopeekar icha
Ġapeksh ichu
Ġaalo ach
ĠSte ve
Ġlabhyam aan
cel ona
Ġsurukk amaaga
Ġcart oon
Ġkanis amaaga
mu un
Ġanuyoj yamaaya
Ġmarana shesham
Ġnewyor kkile
phal amaayi
Ġgiraft ar
Ġdescrib ed
Ġnank od
Ġcharitr akaaran
fri end
U F
g om
j un
l on
m ans
s aadh
v ansh
v ishesh
th ers
an ad
ar iyon
à®¤ à®´
al ekh
à¤° à¤ľà¤¨à¤¨
à®¯ à®ķà®ķ
er ate
à´ª àµ¼à´®
aan n
Ġh air
tt orney
Ġt aay
Ġj em
Ġc oode
Ġc oow
Ġg aw
aay iru
Ġà´µ àµº
Ġch eh
Ġch illy
à´¦ à´¸à´ŀ
à¤Ĺ à¤ķà¤°
iv as
iv azhi
ic ts
tr ol
à¤ı à¤¶
us er
us ing
Ġan udan
Ġto ll
bh ugol
Ġà¤¤ à¤®
Ġaan im
Ġ3 60
Ġ18 20
up oott
ĠM on
ĠM ed
Ġà´¯ à´¨
ull ava
Ġkur aip
ĠP art
Ġpad ai
ĠF l
Ġmun gan
Ġuru thir
à´Łà´ķ à´Ļ
ph is
à´¯à´ķ à´ķ
Ġaav aran
Ġnagar aththai
Ġel izabeth
Ġsc ience
Ġac id
oon ki
Ġsath ur
Ġà®ļà®° à®ķ
Ġseyal paattu
Ġbl u
Ġaak shan
Ġvas ant
Ġclub on
Ġpen kalukku
Ġbadh aaya
Ġvazhangk ukintrana
avi or
Ġthayaar ikkappattathu
Ġreg ard
Ġrele as
Ġdef end
à´±à´¨ à´¨
Ġtak es
och akon
Ġavathar ippikkukayum
Ġany one
Ġparambar ayil
Ġprabhaav shaali
Ġsem ither
Ġpirathinith ikal
Ġpuraskar on
Ġkaund iyil
Ġtri b
Ġx i
Ġkadh aigal
Ġmain tain
Ġkram shah
Ġjal avaayu
itthu va
Ġniyanthr an
Ġvelipp ed
aaval ar
Ġporut kalai
Ġnas ipp
Ġda ughter
Ġaksh aram
Ġavatharipp icha
Ġanup r
Ġchart le
Ġroll ing
Ġopt im
Ġprashans akon
Ġmanj uri
Ġkudiyaras u
ĠGr een
Ġrepresent atives
Ġprashasth amaaya
Ġnedunj aal
Ġudhav inaar
Ġpoantr avai
Ġadarthth i
Ġunderst and
Ġpattr aakk
ĠPac ific
Ġerim alai
Ġsamla ingik
varav aer
e te
m ates
n thu
o e
r aav
s it
à®¤ à®³à®®
à´ķ àµ»à´¸
Ġp uj
Ġa iz
iy aav
iy athaal
at as
à®¯ à®ķà®ª
kk ethire
Ġn aak
à¤¤ à¤ķà¤°
Ġà¤¸ à¤ªà¤¨
à´¸ à´¹
à´µ à´Ł
ak osh
Ġl ill
id aiy
à®¨ à®µ
Ġpr ajan
Ġch aay
Ġch ry
ag amaaga
Ġà®¨ à®°
àµ¾ à´¬
Ġav enu
Ġpar eshan
ion eer
Ġto da
à´§ à´¨à´µ
à¤§ à¤µ
à¤£ à¤µà¤¤
et imes
ec o
amb erg
Ġà´± àµºà´¸
oor nna
kar t
aak yam
Ġup nagar
ikal eyum
ukk aaka
eer nn
aakk iya
Ġbe gin
à®¯à®² à®±
athe kkaal
art ers
Ġcon g
Ġsw ap
Ġho ward
enn irunnaalum
Ġjan nal
Ġpl anning
ib a
Ġpaar ai
Ġpoor thi
Ġirunthth aalum
Ġban aana
Ġel iya
Ġmah avidyalaya
ĠK n
Ġnalk unnathu
Ġsir aiyil
yal ayon
amaan avai
Ġkaan appadugindrana
Ġraj kumar
à´µà´¸ à´¨
Ġpat anam
ikh ar
aikku p
Ġirupp athaaka
àµºà´¸ àµº
Ġthiru vil
Ġaff ect
Ġdur ghatana
Ġdec lined
aach e
Ġprofess ion
aman u
Ġmoo tha
Ġvarum aan
Ġnish karsh
Ġdig iri
Ġparuv am
Ġaath ikkam
Ġhow ever
Ġfound eshan
Ġhat aane
Ġamaipp ai
Ġanuk ram
Ġpakaram aayi
Ġking d
Ġbhoor ip
Ġprathyaksh appett
Ġchain a
Ġà¤īà¤ªà¤¨ à¤Ĺà¤°
Ġmov ement
vid yaabhyaas
Ġterm inal
Ġprathinidheekar ichu
Ġcharithr atthile
Ġjang li
Ġpaththirig aiyaalar
Ġaththiyaay aththil
ĠFed eral
Ġredu ce
Ġthuppaakk ich
Ġmanufact ur
Ġennikk aiyilaana
Ġprathikar anam
IT Y
Ġsou jan
ĠWilli am
Ġleon ard
irand aam
Ġtek nol
mael um
Ġpirathinithiththuvappad uththu
Ġfinn ish
Ġadach upoott
Ġmez ban
E E
S un
b ai
c raft
h igh
n ov
p ay
p ot
r ep
u yar
v aal
v ivar
Ġk iyaah
àµģ ),
à´¨ àµ¼à´¤
à´¨ à´µàµ¼
Ġm ond
iy ullana
ath aa
à¤¨ à¤ľ
à¤ķ à¤Ī
à®µ à®£
à®µ à®Łà®ķ
Ġn un
aan ik
sh on
Ġh ab
Ġh ook
Ġt ub
Ġl it
Ġj ers
Ġj ury
Ġc ly
Ġg aar
Ġà®ĩ à®±à®ª
àµ» à´ľ
Ġw ang
ag ast
iv in
à´· à´°
angal aayi
ipp ichathu
ett inte
uv athil
Ġenn athaayirunnu
Ġma ek
ĠT al
athil adhikam
Ġmar ikkukayum
Ġà´« à´²
ĠM r
appad uththuv
Ġkur anju
ood eyaanu
Ġcl ick
ĠH R
ĠF ort
Ġmun g
Ġag yaat
ook rat
Ġ11 1
Ġner maraiyaana
Ġà´µà´° à´ļ
Ġà¤ĵ à¤¸
Ġkond anar
Ġsoo th
po dhuv
à®ķà®© à®Ļ
Ġraj akeeya
Ġavas an
Ġà´Ĳ à´²àµ»à´¡
Ġtar ikon
Ġrand um
enc ing
Ġkaary atthil
Ġiyakk am
Ġsank shipt
à®Ĵ à®©
Ġbro ther
Ġsal t
Ġz im
Ġaavash y
Ġsub s
Ġadv is
Ġnish an
Ġpratish th
ism us
eph al
Ġvidy aarthi
Ġlev is
Ġpaanch ven
aras iyal
Ġsahod ari
Ġisrael iya
Ġkoad aiyil
Ġphot os
Ñģ Ð¸
akash a
Ġtheriv itthaar
udaneel amulla
Ġthazh angal
Ġoraal aayirunnu
Ġdro pped
ograph ic
Ġsoozh nil
Ġpanthay aththil
Ġkaalayal av
Ġsaand rugal
Ġcorpor ation
Ġpasand ida
Ġstream ing
Al so
Ġvisheshag ya
Ġavashisht angal
Ġdast ave
Ġseerthiru thth
osc ow
Ġchathur ashra
Ġthalsam aya
EAL TH
Ġniraiva ettr
OND ON
Ġneritt ulla
ookrat ik
W ashington
b at
b ru
b ay
d ably
e rukk
g ate
j ames
l ang
m id
m ins
m ichael
o in
p itt
v adhikar
Ġs ed
à®ª à®ķà®¤
Ġth ed
ey er
ad en
Ġb imari
ir an
Ġd ahan
Ġl atch
à®ļ à®¨
Ġà®µ à®³à®®
Ġpr aanth
Ġà´µ à´ŀ
ikk id
Ġe athu
Ġà¤ı à¤Ĺ
Ġen chals
ol ic
Ġà´İ à´¬
ain d
ill engilum
aath th
Ġand reas
kku gal
à´§ à´®à´¤
à¤§ à¤ķà¤°
à´ľ à´®
Ġvar kk
Ġvar aiv
Ġ18 15
Ġ18 36
ess ed
ĠC y
ĠA ugust
ĠM el
eg raph
aipp il
Ġman ikku
Ġsw aabhaav
ĠD istrict
ikkunnu vennu
ĠG oogle
Ġpaar i
co uver
Ġà¤Ľ à¤ł
Ġprath is
Ġprath iv
Ġchar act
Ġà´µà´° àµ¾à´ļ
à¤ħ à¤¸
Ġpin pattr
à®ķà®© à®®
Ġapp eel
Ġkondu pok
ott u
Ġnav een
Ġinter osept
gr ade
Ġtou ur
Ġnaad odi
Ġkall u
Ġpid iththathu
à®ī à®°
Ġ184 6
Ġpakuth iyil
Ġveg ujana
AN D
Ġkadal oara
Ġaut o
Ġthodangk ina
ven shan
Ġpil ot
Ġassoci ate
Ġlim itt
ikkappatt anar
Ġmadhy abhaag
Ġà´ĸ à´¨à´¨
Ġchil ar
Ġvast ukar
Ġsqu ad
Ġkhand on
Ġshekh aram
Ġnidh iyal
Ġiraanuv am
Ġkudiya eriy
à´°à´®à´£ à´Ļ
Ġnilanir tthi
Ġesh t
Ġvepp anilai
ĠPol and
Ġdy nam
Ġpaeraasiriyar aaga
Ġprajaat iyan
Ġathlet es
Ġlal ithamaaya
Ġà´¤à´² à´µà´¨
Ġpaeraras ar
Ġprosecut ors
Ġupay ukt
Ġvaidy uth
Ġsanj ar
Ġdek hein
Ġung kal
Ġkael v
Ġkhat are
Ġroos s
Ġcry pt
Ġconfir med
Ġepisod il
Ġmaerpatt avargal
Ġub akaran
ĠLeb anon
Ġthottup inn
Ġcharact ers
L ONDON
M arket
S SW
b b
j ab
j amin
m een
s eey
Ð ¼
à´¿ /
an al
ar j
Ġk um
Ġs if
Ġp ich
à´¤ àµ¼à´²àµ»à´¡
iy avai
ch inn
ru kku
Ġv ana
Ġv ision
Ġn izh
pp o
ir aa
Ġr ench
Ġl anc
Ġj eth
it ude
Ġà´ķ à´Łà´ķ
Ġpr iyapp
ikk aatha
Ġw ord
à¤ľ à¤¦
Ġpar appal
aiy aan
aiy ari
Ġsam pad
Ġan ush
Ġà´¤ àµ½à´«
all e
Ġkar kh
ra cy
Ġà´ĩ à´¨à´¤
Ġst opp
Ġst ruck
aatt up
Ġal ang
Ġal tern
Ġmar cus
ĠA I
Ġup adveep
ev ille
aj ik
up athr
ub a
ull anar
Ġval ipp
Ġmo hamm
Ġman ja
Ġph d
ĠN CA
aah at
ĠD el
Ġthal phalamaayi
Ġuru ppu
à®ħ à®¨
Ġed avel
Ġpaath aikal
Ġuy iru
Ġvir jeen
old s
ame in
Ġavas tha
ej ian
ij a
pl ace
Ġirupp athu
Ġpodh uth
Ġdr ivers
Ġsand eh
achch aer
rap ravar
Ġbadh ane
Ġcons ult
Ġthalaim urai
apt ist
Ġchern na
Ġ184 4
Ġnigazhchch iyai
Ġrev eal
Ġnam akaranam
Ġdirect ly
Ġvetrtr ikal
Ġcontr oll
Ġputh um
à¤ĳ à¤°
aakh yaan
Ġwal ed
Ġmis auri
din and
Ġuyir iyal
Ġq oo
Ġprayog shala
Ġauthor ity
Ġmukalil ulla
Ġkaruv igal
Ġwind os
Ġennivid angalile
Ġjam een
Ġpratiyogita on
Ġchin ta
Ġklabb inte
Ġdrug s
Ġsaankethikavid ya
Ġkurichu lla
ĠJo e
Ġthoarkad iththaar
irukk irathu
ĠSec retary
Ġjar mm
Ġmeas ures
Ġaustrali avin
Ġsaernth avargal
Ġocc ur
Ġirakkum athi
haal aanki
Ġthartkaal ika
Ġmikk avarum
Ġchunaut i
Ġnaz ar
Ġrakth as
Ġtholaith oora
Ġelf man
Ġmiyam i
Ġkyap ttan
Ġà´¤àµ½à´« à´²à´®
. ).
9 00
O T
S tar
l ife
m ay
m et
o rum
t ak
y at
à´¿ '
in ai
in et
Ġk ween
à´ķ àµ»à´¡à´±
Ġm ist
ath aaya
ad ar
un innu
Ġà®ª à®Łà®ª
Ġh erman
es is
Ġc ooper
gal aaga
Ġg yaar
à¤ª à¤¥
à¤Ł à¤Ĺ
Ġà´ķ àµ¼à´·
Ġà®¤ à®°à®¤
aal it
Ġin tra
Ġà®Ĩ à®ªà®°
Ġà¤¦ à¤°à¤µ
athth adi
Ġsh ear
aam asam
irun tha
Ġkar ad
od an
os ure
Ġà¤ĩ à¤Ĺ
ov v
aak tar
Ġup aay
ri f
ĠI N
ast ructure
ank h
Ġco ast
Ġaar val
Ġku rum
Ġvil ikkunna
Ġsp ark
Ġpe j
Ġpe pper
Ġoo kk
ĠL i
Ġdh ruv
Ġvarsh angalkk
Ġ11 6
Ġà®Ĳ à®Ł
à®ļà®© à®®
Ġbo hem
Ġinn athe
Ġno akkam
Ġkan venshan
à¤¦à¤° à¤²
Ġsan ctions
Ġthis aiyan
Ġpradh an
erm aar
Ġmil an
Ġmed isin
Ġkil ai
Ġer iv
rith amaayi
Ġbadh aa
Ġshow ers
à®ªà®® à®£
Ġlad aakoo
Ġsadas yata
Ġpresident aayi
Ġpa et
az e
aach y
Ġgu ar
Ġvaan k
Ġpradesh atthinte
Ġthaazh athe
tem ber
Ġaat ank
Ġmaaru nnu
Ġ185 4
Ġkuzhuv ai
Ġoper a
ola us
Ġvibhaag am
Ġter r
Ġà´ķà´Ł àµ½
Ġnasht appettu
Ġgol f
Ġparas par
Ġfull y
Ġfac ility
Ġdut y
Ġsom ali
Ġkilom eters
Ġchang ing
Ġparinam on
Ġnilav aaram
Ġsarvakalaashaal ayude
Ġcub a
Ġperumb aguth
Ġpithaav inte
Ġsenatt ar
Ġident ified
Ġsevaaniv ritti
Ġaatch iyin
Ġaatharav aaka
Ġtheey ath
Ġsahyog iyon
Ġca used
ĠTur kish
Ġreyil v
Ġpoortthiyaakk iya
Ġtenn is
Ġkush al
Ġhyd ra
Ġparisth ithi
Ġswabhaav am
Ġtrail er
Ġchernn aanu
Ġabhiv yak
Ġnars amhar
Ġamster dam
Ġvoll eyball
Ġyud dha
varavaer pu
M ay
j ey
n eel
r ome
u ana
u als
Ñ ĥ
Ġk een
à®° à®µà®Ļ
Ġp its
Ġa ber
iy ant
ee va
ak are
Ġo m
is aal
Ġl oh
id ar
id ge
Ġme tr
Ġg ather
à¯ĩ )
aay athu
Ġpr eksh
Ġf iction
ag le
Ġin amaagum
Ġà®Ĩ à®µà®°
à´· à´ķàµ¼
Ġà¤ı à¤¥
te am
Ġkoo rug
Ġsh ip
ana on
all ing
Ġar en
Ġis aiyai
Ġà´ĩ à´³à´¯
Ġ3 40
à¤« à¤²à¤¤
Ġenn athine
Ġnir oob
ĠC onn
ĠM edic
Ġfr aan
ast u
Ġval im
Ġval arnn
Ġpad appid
Ġà®¹ à®°
Ġper ithum
Ġà¤ªà¤¹ à¤¨
ĠH EALTH
ĠD on
Ġjan j
Ġ< /
Ġag att
oru t
Ġ16 2
Ġpatt e
Ġvid wan
Ġpan mug
Ġpaath ikkappatta
àµ¼à´µ à´¤
Ġsa udi
Ġà®ĵ à®²
Ġà´ľà´¨ à´ķ
Ġkond irupp
Ġsthaap anangal
Ġkav ur
Ġuruv aag
Ġgo es
Ġschool ukal
Ġà®¤à®© à®ķ
Ġpoatt ikku
Ġmal in
ĠTh omas
Ġmon te
Ġthodar ai
Ġsec ure
Ġaas aani
uththu p
à´Ĺà´® à´¨
Ġipp aguthiyil
Ġmin im
Ġà®Ĭ à®°
Ġoor kk
rash tr
Ġavasaan ippichu
anthaar aashtra
Ġmiss issippi
Ġpaadal kalai
Ġhigh ly
Ġathil adhikam
Ġgun avatta
à®Ĳ à®ķ
190 1
Ġprem ium
ĠZ ealand
Ġgav eshan
Ġedukk a
Ġtat va
Ġseluthth um
Ġrang manch
Ġkattam aippugal
Ġparam arippu
Ġaalp aththil
Ġirunth athaal
Ġgroupp inte
Ġexpl os
Ġwalk er
Ġpack age
Ġmaruthuvaman ai
ikkend ath
Ġboo st
Ġeffect ive
Ġfish er
Ġent ire
Ġpaniyaatt riya
Ġshil p
Ġdu chu
Ġgah are
ĠGold en
Ġrai fil
Ġappe aran
Ġperf ect
Ġyaadhaasthith ika
Ġweap ons
ĠMu eller
Ġà®īà®ªà®ķà®° à®£à®Ļ
Ġathiladhikam o
I s
M innesota
b ase
k aee
s ain
v ath
v ict
in als
Ġk ept
Ġs iy
Ġp aam
à®ª à®µà®Ļ
ath aram
ch ik
on zo
Ġv ul
Ġv aikkappattathu
Ġb amb
Ġb ars
Ġà¤¸ à¤Ĭà¤¦
un hein
Ġh os
Ġh oott
Ġh its
Ġh udson
Ġd ess
Ġd ream
à´ļ à´µà´°
is ation
Ġr iver
Ġt rump
àµĩ -
Ġj oow
it ors
kal vi
app eyar
ah u
ing inte
Ġen angal
ang udi
Ġkoo p
om or
Ġsam adhan
Ġan iyai
Ġad miral
itt iyude
Ġà¤Ń à¤Ĺà¤µ
Ġal ank
ĠT im
avar il
Ġup akaranam
Ġkh aadya
ans i
Ġval ay
Ġee jip
Ġthod arnthathu
Ġper ilulla
Ġsw a
ayog am
à´ĸ à´¨à´Ļ
Ġkaal panik
anj i
aigal aiyum
Ġuru l
à¤¯à¤° à¤²
Ġbr ist
Ġab ove
Ġsak hy
Ġnagar um
Ġabh ibhaash
aand i
Ġsa uh
à¤ħ à¤Ĺà¤¸
old er
Ġstr eak
Ġgo alk
oll um
Ġà´ħà´µà´¸ à´°
Ġà¤ľà¤¨ à¤ľ
Ġaer patt
Ġjaan i
Ġpariv arik
Ġcoll ect
Ġvikas anam
Ġvag iththaar
rap aramaayi
Ġà¤Ĩà¤µ à¤°à¤£
Ġsatt ap
aval ok
Ġdur labh
Ġpazh akkam
Ġlad ki
Ġdel a
appeduth ukayum
Ġtheev ugal
Ġmik ach
Ġlu i
Ġveg as
Ġbhag wan
Ġcheyyaan um
Ġing ane
189 5
Ġagal a
Ġrandaamathe thu
Ġthoal v
Ġprop osed
Ġkendr eekarichu
Ġbaadh ichu
Ġmaiy aththin
Ġarr ived
Ġottr aiyar
Ġprovid ing
Ġlink en
vik as
Ġpitch er
Ġthiraippat amaana
Ġemb assy
Ġprim ary
Ġavakash appettu
Ġjon athan
Ġkilapp in
Ġimmigr ants
Ġlakshyam id
Ġvazhinad athth
Ġettedukk ukayum
Ġinnov ation
Ġvaetp aalar
Ġkush ti
Ġmoth atthilulla
Ġcho ond
Ġthalaiv arkal
Ġseesan ai
Ġscatland il
roll ing
Ġvenkal a
Ġcham ak
austral ian
Ġolimbik u
à´ļà´® àµ¼à´¤
Ġstrik er
Ġthahar aaya
Ġvirig ud
Americ an
Ġaadhipath yam
ĠHR s
h s
r oop
w ani
Î »
Ġ Ġ
aa u
Ġs ult
Ġp pc
Ġa iland
à®© à®ļà®°
Ġn g
Ġb ak
Ġd ib
aar ik
àµ½ à´ªà´°
as u
Ġr ey
Ġl ud
Ġl ack
Ġc ook
it ek
Ġg ain
Ġg os
à¥ģ à¥¤
aay aanu
ag i
ing le
ic it
Ġà¤ħ à¤¸à¤®à¤°
ang galil
ich id
Ġsh up
Ġà´İ àµ»à´¸
Ġmatt aththil
Ġà®ī à®©
ish ali
ut i
à¤¼ à¥ĩà¤Ĥ
Ġà´¬ à´Ł
à¤£ à¤ķ
Ġis land
ach us
atth in
war t
ow ers
ine kkurichulla
Ġidh ark
up adi
angkal ilum
Ġman jal
Ġvy aakhyaan
Ġid e
Ġsw athu
ĠN HL
Ġcl osed
Ġsp art
Ġpah ach
Ġsar kk
Ġpur ch
à¤ľà¤¨ à¤¯
Ġthir aiyar
oy er
onn ell
Ġpath rapravar
Ġpan ipp
Ġpan iyaalar
ens tein
Ġabh ibh
Ġett aam
Ġsthaap anam
atha es
Ġcr imes
Ġkav ign
Ġkondu p
per iya
ĠCh ildren
Ġatt end
Ġtw ice
Ġprash astha
par yam
Ġaak ruth
ĠY emen
à®Ĵ à®µ
Ġmaas ttar
Ġpull ed
Ġvivar anam
Ġantar al
Ġhav en
Ġsub ject
Ġyudh athinte
Ġthen maerku
Ġkattid aththin
Ġmor r
ichch al
Ġaash upathr
Ġter rit
Ġik attha
Ġà¤ĩà¤ķ à¤Ł
Ġsamaan taa
Ġpost ed
Ġthanth aiyin
Ġkamban iyaaya
Ġras ig
Ġthaal paryam
Ġpos itions
Ġjay son
Ġoopar aa
Ġjeevith athil
Ġprote ction
Ġsavishesh ath
Ġprathinidheekar ikkunna
Ġpop ulation
Ġcompet itive
Ġnirmaata on
Ġneethrthw athil
Ġoppid umpoathu
Ġactiv ities
Ġthaazhe pparayunna
ĠCor por
Ġnib un
Ġsto pped
Cloud y
Ġyu wan
Ġeathaan um
Ġsamanil ayil
ĠAc tress
Ġhamp shire
Ġnadann athu
Ġashup atri
bhoom ishaasthram
ometr es
Ġvishakal anam
Ġseet en
Ġpratidv andi
Ġexist ing
ĠKur dish
Ġsthirath aamasam
ĠÏĩ Î¹Î½
wai te
thoatt ram
" "
d desh
h arm
l os
m rit
o ct
p aana
v iru
v izh
th ro
ar ia
Ġk eb
Ġs ikh
Ġp ly
ay aar
um ent
oo ter
Ġb aach
Ġh aw
Ġh af
aar thth
Ġt iru
Ġt ang
Ġt eev
Ġt askar
Ġl aane
Ġl ung
Ġg aj
à¤Ł à¤ª
Ġpr ix
Ġà¤ħ à¤Ł
ol kiraar
Ġpar akk
Ġpar alymp
àµģ. ..
à´¬ à´¦
ish ta
Ġun if
Ġkaa ll
aad e
Ġad ii
Ġad icham
ett in
Ġbh aashan
uv el
appatt athaal
Ġal as
ine kkurichu
ew ood
Ġval arnthaar
Ġkal aap
ĠP enn
ĠB oard
Ġpad aththin
ĠW al
18 64
ĠH all
Ġhe at
Ġsar iyaaya
à¤ľà¤¨ à¤¸
Ġro am
ann on
Ġkad ikaar
udh avi
Ġbr ah
Ġpath itt
Ġmool oab
Ġre form
Ġrec omm
Ġksh at
Ġmad angku
Ġmunn y
Ġà®ªà®¯ à®Ļ
Ġol iyiyal
Ġkol apaath
à´Ĩ à´±
Ġkil ometres
Ġvis uvaas
Ġrand o
Ġaas ray
Ġsaadh aaranam
Ġvin aad
Ġnaad akam
àµ¼à´Ĺ àµ»
Ġà®®à®£ à®²
Ġpor aatt
Ġvijay ikkukayum
Ġlaw s
isht itha
Ġ184 2
Ġact ions
Ġniruvan atthaal
Ġdem onstr
Ġmug avar
Ġing ku
chit ect
Ġpublic ly
Ġthann aar
ĠPh oenix
Ġthaan iy
Ġmanush yar
Ġarr est
ritt en
Ġmov ie
Ġaakarsh ak
Ġthev aipp
Ġsaptah ik
Ġach ad
Ġnorw ejian
Ġpakuthikal ai
Ġaatt angkalil
Ġparajay appetta
Ġozhiv akkaan
Ġtheru kkal
Ġulpp aad
Ġengland ile
Ġsamsaar ikkunna
Ġnerukk amaana
ows ki
Ġadhig apatch
Ġdevalay aththil
Ġariyappad ugirathu
Ġasam arth
Ġabhipraay athil
Ġcult ure
ĠSep tember
Ġdairkh yam
Ġthaalkkaal ika
Ġkandarin dh
Ġaagh osh
double u
jul aai
Ġwir eless
Ġberk ley
Ġthaarathamyappeduth umbol
abri el
Ġshup aar
e chu
h ik
m ag
r ol
t or
v o
Ġ iya
th ott
Ġk aana
Ġk ore
Ġs ong
Ġp on
Ġp ai
à®² à®ľ
Ġv eter
à¤¯ à¤Łà¤¨
à´² à´¡
aar aa
av yavasth
Ġt ag
àµĩ "
Ġl ord
Ġà´ª à´²à´¤
Ġj inn
à´£ à´ķ
es ley
à¯ĭ )
Ġf aaktar
ik avumaaya
Ġu zh
àµ¾ à´Ĺ
à´· à´°à´®
dh eere
ich athinaal
athth aana
Ġsh am
aiy athu
Ġan onym
ap aramaya
à¤¼ à¥Ī
athin aayulla
Ġ18 32
à¤ĩ à¤®à¤¨
à´Ń à´Ļ
Ġà´« à´¯àµ¼
ev il
ant im
Ġnad ikkiraar
eg amaaga
ari es
Ġco at
ĠP ri
akal ile
Ġvil ikkappedunna
Ġtho kku
Ġnin aivaaga
Ġill in
ĠH ot
Ġso ught
à´İ à´ª
Ġpl aant
àµ¼à´¡ à´¨
Ġbhee d
Ġ15 3
ale x
à´°à´ķ à´®
Ġdh eere
Ġoff ered
ekh a
aim uka
Ġmud i
Ġprat yaksh
àµ¼à´· àµ½
à®ķà®´ à®ķà®Ļ
ĠK en
Ġà®ķà®° à®Ł
Ġsthaap ikkaan
Ġrah asya
Ġapp le
Ġsen se
Ġnot ed
Ġbaar ah
Ġka iyag
ugh al
Ġvibh agangal
__ __
Ġbhaag angalil
Ġbhaag ikamaayi
Ġpoatt iyai
ruv atharku
Ġwe ak
Ġthur aiyin
Ġher bert
Ġsaadh yatha
Ġpravartth ana
Ġla zer
Ġperu k
Ġbar abar
sil aan
Ġwould n
ER S
Ġpaadal in
Ġmer ey
ampion ship
Ġprabhaav on
udd en
Ġved iy
Ġvyakth ikal
Ġarm s
Ġparay ukayum
paar ambar
Ġkor iya
Ġprot ests
Ġown er
Ġiroapp aavil
Ġâ ĪĴ
bl ack
Ġmov ing
Ġyug oslav
Ġfac ing
Ġmul ty
Ġsaer a
Ġbook s
Ġunn at
Ġdecision s
Ġvilyam s
Ġtharavaris ai
Ġstor ies
Ġbeliev ed
Ġshav asam
thod arp
Ġtem per
Ġsammath ichu
Ġinnov ative
Ġremain ing
ichirunn athu
Ġidaiv el
Ġswaath anthry
Ġsepar ate
Ġkaanad ayile
Ġatlaant ik
Ġsym ph
aagh aath
Ġsood aana
Ġfranchis ee
Ġpuu tt
. ;
a us
c i
d usare
g ov
h ill
l is
Ġ ice
aa ft
Ġp aay
à®² à®¯
am d
ru de
on so
Ġv ees
um ai
um aanu
Ġh urt
ir t
av ani
Ġr aathr
Ġt ess
Ġt ie
Ġt ick
Ġc atar
it ation
Ġà´¸ àµ¼à´Ł
Ġà¤¦ à¤¹à¤¨
à¤ı à¤ª
Ġsh andar
Ġsam am
Ġsam aah
ig ation
à´¶ à´²
ap y
Ġà´Ĩ àµ¼à´ļ
Ġkar aiyil
à´ľ àµ»
Ġà´¬ à´£
Ġnir ash
Ġal is
Ġadh een
ek o
ĠA ut
ĠA ctor
iyil aanu
Ġà´¶ à´µà´¸
ull ile
Ġval aiv
Ġmo ath
ĠP utin
re z
Ġcl imate
Ġnil aththadi
Ġsar akku
Ġpur apped
à¤ľà¤¨ à¤µà¤°
Ġpl orida
Ġ17 2
ĠL as
Ġdh ok
Ġ12 7
Ġ14 8
Ġpoor aatt
Ġche rupp
Ġ13 3
Ġ11 3
Ġraaj avamsh
Ġel ections
Ġabh avam
cl ud
jan wari
Ġno kkamaagak
Ġvan couver
Ġmill imeter
Ġkudumb aththil
Ġkah ana
Ġther iyum
Ġirupp u
Ġpayanpaduthth appattana
Ġfin land
vi bh
Ġaay udh
org ia
Ġamg am
Ġvas anth
à¤Ĺà¤² à¤Łà¤¨
Ġsank at
Ġnaad aka
Ġkaatt um
Ġvip hal
Ġneer il
sam ud
Ġinc or
Ġprathyek ichum
Ġaavash yam
ES E
Ġreeth ikal
Ġparambar ayude
Ġshak tiyon
à¤ķà¤¤ à¤®
Ġcommun ities
Ġdep loy
Ġpakuth ikku
Ġnay ikkukayum
Ġdem ookratik
Ġmus l
Ġaash ay
Ġstat us
Ġnik aay
Ġclass es
Ġbeh avior
Ġindustr ies
Ġseiv atharkaana
Ġdrish ti
Ġallow s
Ġallow ing
Ġbroad way
Ġfact ory
Ġrac es
do ctor
Ġbatt le
Ġkhoj ane
AC TUR
Ġarg entine
Ġchang ed
Ġcharan on
Ġthoalviyad ainthaar
Ġjoo u
Ġaavan appad
Ġkhad aa
Ġeath oru
Ġelisab eth
Ġnib andh
Ġsoukary angal
Ġanumaan it
vaazh kkai
Ġabhine tri
Ġkaalan itthuva
Ġelupp athil
Ġlos ing
Ġpuk ayil
Ġkurukk ae
Ġnaattupp ura
Ġinfr astructure
Ġjananay agak
Ġpalav een
Ġaaloach akar
Ġprofession als
Ġlimitt ad
Ġgyaar ah
M ontreal
a el
b is
k ik
p aat
s ley
t u
y ay
y asam
ar iv
Ġs ash
Ġa u
il ed
il ing
am erikk
Ġn ord
ad am
Ġà®ª à®ŀ
à´µ àµ¼à´Ł
Ġr ally
Ġl ever
es ville
Ġme th
Ġch ell
Ġf lo
Ġà®¨ à®ļ
Ġthe kku
iru thi
ith aar
ang am
athth akk
ol ia
im ini
angal aip
ish am
Ġà´Ĩ à´·
unn athaayi
Ġavar um
Ġkar tav
Ġkaa p
ul in
Ġpo ppu
Ġad ikaaram
od en
Ġar ith
os il
uv um
Ġaan thar
ach war
à¤« à¤®
aas il
Ġnir aiya
Ġal ochakon
ĠT ech
Ġmar ri
op ia
Ġà®ľ à®®
Ġkur ach
Ġvil ai
Ġid amaaga
Ġaag ola
Ġà®¹ à®Ļ
ĠR yan
ĠH er
à´ĸ à´¨
Ġus er
Ġkad umaiyaaga
Ġuru thi
à¤¯à¤° à¤¸
oy e
Ġà´īà´ª à´µ
eng u
à®ĩ à®Ł
Ġvarsh athekku
Ġirand aiyum
Ġrec erve
iyo du
Ġsev vaai
eep ing
Ġcheiy unnathinaayi
Ġmill ions
Ġpat an
ĠV ice
Ġsur v
à´¤à´° à´¯
ikkum enn
Ġsain yathinte
Ġprav ishya
àµºà´¸ àµ¼
Ġsamooh am
Ġsk ills
aattr al
Ġaduth aduththa
Ġkr ikkatt
Ġoor gan
Ġà´¨à´Ĺ à´°à´®
Ġbro w
Ġmas oath
Ġdekh i
Ġbaj at
Ġkul uvaal
aant ik
Ġaat ey
Ġaat ma
Ġ185 2
Ġven is
Ġ184 3
Ġserv ing
Ġnadathth a
Ġrekh akal
Ġennivay aayirunnu
189 2
189 7
Ġà¤¬à¤ľ à¤Ł
Ġpand ub
Ġtal ash
Ġspr ings
Ġmaran aththirkup
Ġcre ating
Ġindi ayile
Ġneethim andra
Ġbaand inte
Ġà¤¢ à¤ķ
Ġenter prise
Ġaezh aavathu
jo onn
vill ium
Ġoppanth aththai
Ġconst ruction
Ġcheythath ayi
Ġdeath s
ĠEx ecutive
padinj aaru
Ġennariyapped unnu
Ġkavar ej
Ġbed e
soo tra
ĠIsrael i
ĠAustral ian
Ġhong ong
Ġneethimandr aththil
Ġaabhy anth
Ġsuyaath een
Ġsusp ended
Ġbrid ge
Ġà¤ªà¤¨ à¤¡
Ġmethuv aaka
ĠMAN UF
ĠVenezuel a
Ġshakt ishali
mig avum
Ġnavin ikaran
varn an
Ġdela ware
achus etts
ACTUR ING
ĠMANUF ACTURING
b ra
b rid
g ari
j is
j apan
j ansank
k attam
o kal
r im
x im
th yaap
an us
Ġk emb
à´¾ ,
Ġm umb
ath aagum
Ġth ap
kk idayil
à´¸ àµ¼à´²àµ»à´¡
Ġh ool
Ġh amein
Ġà®® à®¤à®®
av aatham
as aadh
Ġt ivi
Ġt aiyari
id on
Ġà´¸ à´²
Ġà®ļ à®°à®£
aal ak
Ġf ul
Ġf enk
Ġf arr
Ġf ifa
ik iyon
tr ain
Ġen appadum
ich athinushesham
Ġsh ish
Ġsh ikhar
Ġsam aya
Ġsam amaana
Ġà´Ĩ àµ¾à´Ł
unn athumaaya
een iya
adh aaga
adh ark
Ġà´¬ àµ¼à´Ł
Ġis lam
Ġà´ĩ à´¨à´®
Ġà®İà®© à®ª
Ġ18 12
Ġal ert
aksh i
op ez
Ġnad aththinaar
Ġwh ole
Ġkur ikkum
Ġper form
18 50
18 40
Ġsp end
Ġpur aval
Ġgr ad
Ġmu ur
var sh
Ġpaar aa
Ġell is
Ġviv ah
à®¹ à®°
Ġprath eksh
Ġpal arum
Ġpol ees
ther lands
Ġsev ana
Ġstr ategy
Ġpun arg
Ġuruv aanathu
ukalil onn
Ġka umaar
ve ch
Ġsel uththa
kkal ai
Ġà¤ªà¤¤ à¤¨
Ġmaer kil
Ġbhaag athulla
Ġuruvaakk i
Ġwe ather
osh i
Ġà®®à®° à®ķ
irk uth
Ġprabh ash
Ġlead s
Ġà®Ĭ à®´à®²
ikkal aam
vil ayaa
Ġneeth ipathi
Ġinc ome
uvar unna
Ġdown town
à´ĵ à´°
Ġcol onial
Ġnay ikkunna
Ġkaalp andh
Ġkandeth iya
Ġsamarth it
aarum aayi
Ġrog a
Ġoott unar
Ġkarudh appattathu
Ġlim itted
Ġmudiv ukku
nir avadhi
Ġsend ranar
Ġpuththag aththai
Ġcongress ional
Ġtholaik aatch
eef a
Ġcontinu es
Ġconf idence
Ġgat ishil
Ġthalam ur
Ġluc as
Ġmaag aana
Ġsouth ern
Ġpolic ies
Ġengland u
Ġtown ship
Ġoral aayi
aaranam aaga
Ġbank ing
Ġrann eeti
newy org
Ġà´ħà´ªà´ķ à´Łà´¤
Ġvalupp am
Ġshaas triya
now led
Ġolimbik sil
Ġont aar
ĠAg ency
Ġcharl ot
Ġax us
Ġthalaimaiya g
Ġkurainthapatch am
Ġpaniyam arth
Ġsakthivaa intha
Ġtatv on
aachy usets
7 50
> ),
A d
L A
P H
P ittsburgh
b aah
c ont
f ly
f ound
m aine
o avil
w at
w ind
Ø §
aa iyaan
à´¿ ).
Ġs ins
à´¨ à´ŀ
Ġa em
à´¯ à´¶
il ukal
iy athum
at ian
Ġth undu
Ġv est
Ġv air
ey aan
um er
um un
Ġh all
àµĭ )
ak el
Ġo aiv
à¤® à¤µ
Ġt iram
Ġl iyon
Ġj ooth
à¤ª à¤µ
ag aikku
Ġen com
Ġen cour
ang at
Ġsh aran
ana sht
ill athe
ish aasthr
Ġack nowled
Ġkar olin
Ġpo pe
adh aar
Ġ18 21
Ġ18 14
Ġst aan
ĠS and
Ġmar ubh
up er
Ġkh anan
aipp orul
Ġmuthal id
Ġman vadhikar
athe kkurichum
ist ics
à¥Ģ. -
Ġph on
Ġsw ing
ĠN ow
Ġsp in
Ġà®ı à®¤
ĠR E
ĠR ob
Ġso thukkal
Ġpay ment
Ġtr oops
adi er
à®ĩ à®Łà®®
Ġmool a
Ġpoor aad
Ġvah ikkunnu
any ik
Ġviv idhata
Ġprath eek
ayam aana
Ġaav aaj
Ġde troit
aand il
Ġenb atharkaana
Ġenb athilirunthu
ondu ct
à´ħ à´±
Ġkazh a
Ġmaatt isthaap
Ġsthaap itham
Ġsthaan athu
àµ¼à´£ àµ¼
Ġ24 0
Ġil akkiya
Ġà´µàµ¼à´· à´®
Ġfir ing
Ġsamb av
Ġmal aipp
Ġjin aki
Ġsaal aigal
mak er
Ġsank raman
Ġbar on
bur gh
Ġdef in
Ġvijay athil
Ġtheer kk
Ġmarket ing
Ġbhaar ambar
Ġsthal angalil
Ġsid es
Ġsupp ly
Ġà®īà®² à®ķà®¤
Ġdar b
Ġpran ay
Ġprasidheekar ikkukayum
189 1
Ġtechn ical
Ġtru e
Ġraksh ak
ikkiraar kal
cy cle
Ġsamg eetha
Ġvai dh
Ġpathav ikku
Ġepp adi
Ġenj in
Ġchr ismus
Ġvaath id
Ġillaath athaal
Ġtalk ing
Ġopt ion
Ġopt ions
Ġyuv aaon
ĠEx change
Ġavalok anangal
Ġhras wa
Ġupar ith
Ġjon son
Ġbrook lin
Ġpandh ayam
Ġvae gam
ĠCON S
Ġvinod as
Ġsahakar ichu
Ġmean ing
Ġthaevaippad ukirathu
Ġpankaalit tham
Ġnerkaan al
Ġkirae kka
Ġpunaik athai
ĠAnton io
Ġaasoothr anam
Ġparuthth i
l ow
p ak
t oo
w ich
an ath
ar dh
ar ach
Ġk aheen
Ġp ioneer
à®¾ ",
Ġth ondu
Ġn aay
en b
à´¸ à´°à´®
Ġà®® à®¸
Ġà®® à®¹
Ġl uke
Ġc arn
Ġpr ins
Ġpr ishth
Ġpr ishthabhoomi
Ġà´µ à´¯à´²
Ġch ris
Ġch ertthu
ing ku
ith azh
à´· à´¯à´¤
Ġen r
Ġpar idhi
thu l
Ġsam aapan
ig ai
akk ai
Ġvar a
esh i
bh oot
Ġà´ī à´ķ
aas tar
Ġà¤īà¤¨ à¤¸
oor vam
ĠS essions
ow a
eer s
angkal ukkaana
st yle
Ġnad iththa
ell s
aiv aa
Ġpad ikkukayum
àµ»à´¸ à´±
Ġcon son
ĠW ynn
Ġà®ı à®®
ĠR ec
Ġoo pp
Ġvel sh
Ġ17 3
Ġmun aiyil
ĠJ r
Ġbr oose
ikkunn und
ĠE AS
Ġel se
Ġett iyathu
Ġang a
Ġsel avugal
Ġà®ªà®¯ à®£à®Ļ
Ġeng kal
Ġezhuth iyathu
Ġatt athu
act ly
Ġinter ior
our ce
Ġits elf
Ġvaazh naal
Ġpaguth iyin
Ġà¤ħà¤ª à¤µ
Ġkall arai
Ġpazh angudi
Ġaalb amaaya
Ġiv ar
than ol
Ġthem selves
Ġaakar shan
Ġven es
Ġjod ane
Ġna gal
Ġurim aiyaalargal
Ġsaah ith
Ġkandupid ippu
Ġsem it
Ġcath erine
Ġbhag amaaya
ahat ya
Ġden ver
Ġworld wide
ippich irunnu
Ġamerikk aav
Ġnim n
Ġveerargal in
Ġbol ish
Ġmaem paattu
Ġsevanamanusht ikkukayum
Ġint ers
Ġinaikk appattullathu
Ġyun ani
Ġnab arkal
unnathil oode
Ġsattam andra
Ġkathaapaaththir aththil
Ġanubav am
Ġpool ish
Ġphill ip
SE E
Ġorder ed
à´ı à´±
Ġmarab an
Ġà´Ĭ à´¨
Ġconv ers
Ġkaanaped unna
Ġsaankethikavid y
Ġà¤®à¤ķ à¤¬à¤°
Ġgraph ics
Ġmesh een
Ġseg ment
Ġspeak er
Ġnikal ane
Ġtan aav
Ġcoff ey
Ġpirichuv id
Ġmagizh chch
Ġhys panic
ĠâĤ ¬
Ġpathiva ettil
Ġvritt ach
Ġtelep hone
Ġbakk iyulla
Ġthiraiy idappattathu
Ġpodhum akkal
ĠUkr aine
Ġprajan an
Ġpratishth it
ovv oru
Ġviphal ata
vilayaa ttu
B S
N NE
P l
a ustr
k ann
k atha
o ttar
o arkil
r aar
s unee
à¤¾ )à¥¤
à®¤ à®£
Ġk aivar
al ey
al aan
à´¤ à´¦
Ġv oy
Ġn urs
um as
oo x
Ġb ugg
Ġb ayaan
à´® à´ª
Ġd est
Ġd ard
tt en
av ish
ed ar
Ġà´¸ à´ª
Ġg us
à¤ª à¤¡
ud sav
Ġ( #
Ġà´ķ àµ½à´ķ
Ġch ap
Ġu char
ikk ur
ah ara
Ġà´® à´ķàµ¾
iv ittathu
Ġin aththin
Ġà¤µ à¤«
à¤¡ à¤Ł
ic us
uk ool
Ġkii m
us ter
à®µà®° à®®
Ġy am
Ġà´ļ à´²à´¨
ish er
du c
Ġad thyaap
een g
os ter
adh aanam
itt sar
ukal aanu
Ġ18 35
Ġ18 34
Ġam arv
Ġam az
Ġà´± à´£
Ġst ern
ĠS ystem
avar e
ĠA cc
ĠA ttorney
Ġas afal
Ġaar akshit
ĠP er
à´°à´µ à´ļ
Ġpad ata
Ġkaar ak
Ġnil aththil
Ġith inte
Ġso kes
Ġthir anai
Ġmaan ate
igh th
à¤Łà¤° à¤¸
Ġsu ur
Ġcomp uting
à¤¶à¤¨ à¤°
Ġprath ibh
Ġadhik atam
Ġsc en
Ġà¤ĵ à¤µà¤°
Ġniyam ikkapatta
Ġpin pura
Ġraj yangal
Ġpat ron
Ġavas iyam
Ġsur f
asam gh
Ġirupp id
Ġmil ane
àµ¼à´¶ à´¨à´®
Ġà´īà´¯ à´°à´®
Ġkoor ikk
Ġcor r
Ġmag n
els ius
Ġsupp l
à®·à®© à®²
path t
Ġkuzhandh aigalin
Ġmaavatt angkal
Ġkann aad
Ġkadh aiyai
Ġmat ri
igat ors
Ġmukkiyam aanathu
Ġpuratthir akkiya
Ġizh appu
Ġannoun cement
reas ury
Ġpirabal amaaga
Ġkurip ittaar
Ġsuttrupp ur
Ġpook ukayum
Ġvaah anon
aippaduthth al
Ġpattik appedutthiy
Ġhapp y
Ġprastaav it
Ġdarsh aata
Ġningal kk
à´ı à´ķ
Ġmunnariy ippukal
Ġmanthr aalay
Ġlor ends
ĠSe attle
Ġgathag atham
Ġuruth ippaduthth
ĠApp le
Ġcir cuit
appedutth iya
Ġprakrith i
Ġverthir ich
Ġsuvidha on
Ġnatchaththir anggal
Ġshaik shik
Ġupaadh i
Ġbeg inning
Ġvaliy uruthth
Ġthodarpudaiy athu
ĠViet nam
Ġmeks ik
Ġindivid uals
Ġrespons ible
Ġkeed is
Ġnisch ay
Ġrecru it
Ġuj agar
Ġnerung iya
ĠTenn ess
liy ans
[...]
