{
  "version": "1.0",
  "truncation": null,
  "padding": null,
  "added_tokens": [
    {
      "id": 0,
      "content": "<s>",
      "single_word": false,
      "lstrip": false,
      "rstrip": false,
      "normalized": false,
      "special": true
    },
    {
      "id": 1,
      "content": "<pad>",
      "single_word": false,
      "lstrip": false,
      "rstrip": false,
      "normalized": false,
      "special": true
    },
    {
      "id": 2,
      "content": "</s>",
      "single_word": false,
      "lstrip": false,
      "rstrip": false,
      "normalized": false,
      "special": true
    },
    {
      "id": 3,
      "content": "<unk>",
      "single_word": false,
      "lstrip": false,
      "rstrip": false,
      "normalized": false,
      "special": true
    },
    {
      "id": 4,
      "content": "<mask>",
      "single_word": false,
      "lstrip": false,
      "rstrip": false,
      "normalized": false,
      "special": true
    }
  ],
  "normalizer": {
    "type": "NFKC"
  },
  "pre_tokenizer": {
    "type": "Whitespace"
  },
  "post_processor": null,
  "decoder": null,
  "model": {
    "type": "BPE",
    "dropout": null,
    "unk_token": "<unk>",
    "continuing_subword_prefix": null,
    "end_of_word_suffix": null,
    "fuse_unk": false,
    "byte_fallback": false,
    "ignore_merges": false,
    "vocab": {
      "<s>": 0,
      "<pad>": 1,
      "</s>": 2,
      "<unk>": 3,
      "<mask>": 4,
      "!": 5,
      "\"": 6,
      "#": 7,
      "$": 8,
      "%": 9,
      "&": 10,
      "'": 11,
      "(": 12,
      ")": 13,
      "*": 14,
      "+": 15,
      ",": 16,
      "-": 17,
      ".": 18,
      "/": 19,
      "0": 20,
      "1": 21,
      "2": 22,
      "3": 23,
      "4": 24,
      "5": 25,
      "6": 26,
      "7": 27,
      "8": 28,
      "9": 29,
      ":": 30,
      ";": 31,
      "<": 32,
      "=": 33,
      ">": 34,
      "?": 35,
      "@": 36,
      "A": 37,
      "B": 38,
      "C": 39,
      "D": 40,
      "E": 41,
      "F": 42,
      "G": 43,
      "H": 44,
      "I": 45,
      "J": 46,
      "K": 47,
      "L": 48,
      "M": 49,
      "N": 50,
      "O": 51,
      "P": 52,
      "Q": 53,
      "R": 54,
      "S": 55,
      "T": 56,
      "U": 57,
      "V": 58,
      "W": 59,
      "X": 60,
      "Y": 61,
      "Z": 62,
      "[": 63,
      "\\": 64,
      "]": 65,
      "^": 66,
      "_": 67,
      "`": 68,
      "a": 69,
      "b": 70,
      "c": 71,
      "d": 72,
      "e": 73,
      "f": 74,
      "g": 75,
      "h": 76,
      "i": 77,
      "j": 78,
      "k": 79,
      "l": 80,
      "m": 81,
      "n": 82,
      "o": 83,
      "p": 84,
      "q": 85,
      "r": 86,
      "s": 87,
      "t": 88,
      "u": 89,
      "v": 90,
      "w": 91,
      "x": 92,
      "y": 93,
      "z": 94,
      "{": 95,
      "|": 96,
      "}": 97,
      "~": 98,
      "£": 99,
      "¥": 100,
      "§": 101,
      "©": 102,
      "«": 103,
      "®": 104,
      "°": 105,
      "±": 106,
      "·": 107,
      "»": 108,
      "Â": 109,
      "Ã": 110,
      "Å": 111,
      "Ç": 112,
      "È": 113,
      "É": 114,
      "Î": 115,
      "×": 116,
      "Ø": 117,
      "à": 118,
      "á": 119,
      "â": 120,
      "ã": 121,
      "ä": 122,
      "ç": 123,
      "è": 124,
      "é": 125,
      "ë": 126,
      "í": 127,
      "ï": 128,
      "ñ": 129,
      "ó": 130,
      "ô": 131,
      "ö": 132,
      "ø": 133,
      "ù": 134,
      "ú": 135,
      "ü": 136,
      "ā": 137,
      "č": 138,
      "ē": 139,
      "ğ": 140,
      "ī": 141,
      "İ": 142,
      "ı": 143,
      "ń": 144,
      "ō": 145,
      "œ": 146,
      "Š": 147,
      "š": 148,
      "ũ": 149,
      "ū": 150,
      "ɑ": 151,
      "ʼ": 152,
      "ˇ": 153,
      "ˈ": 154,
      "ː": 155,
      "̃": 156,
      "ά": 157,
      "έ": 158,
      "ί": 159,
      "α": 160,
      "β": 161,
      "γ": 162,
      "δ": 163,
      "ε": 164,
      "ζ": 165,
      "η": 166,
      "θ": 167,
      "ι": 168,
      "κ": 169,
      "λ": 170,
      "μ": 171,
      "ν": 172,
      "ο": 173,
      "π": 174,
      "ρ": 175,
      "ς": 176,
      "σ": 177,
      "τ": 178,
      "φ": 179,
      "χ": 180,
      "ω": 181,
      "ύ": 182,
      "К": 183,
      "а": 184,
      "г": 185,
      "д": 186,
      "е": 187,
      "и": 188,
      "л": 189,
      "м": 190,
      "н": 191,
      "о": 192,
      "р": 193,
      "с": 194,
      "т": 195,
      "у": 196,
      "ч": 197,
      "ы": 198,
      "я": 199,
      "أ": 200,
      "إ": 201,
      "ئ": 202,
      "ا": 203,
      "ب": 204,
      "ت": 205,
      "ج": 206,
      "ح": 207,
      "خ": 208,
      "د": 209,
      "ر": 210,
      "ز": 211,
      "س": 212,
      "ش": 213,
      "ص": 214,
      "ض": 215,
      "ط": 216,
      "ع": 217,
      "غ": 218,
      "ف": 219,
      "ق": 220,
      "ك": 221,
      "ل": 222,
      "م": 223,
      "ن": 224,
      "و": 225,
      "ى": 226,
      "ي": 227,
      "پ": 228,
      "ڊ": 229,
      "گ": 230,
      "ہ": 231,
      "ۃ": 232,
      "ی": 233,
      "ँ": 234,
      "ं": 235,
      "ः": 236,
      "अ": 237,
      "आ": 238,
      "इ": 239,
      "ई": 240,
      "उ": 241,
      "ऊ": 242,
      "ऋ": 243,
      "ए": 244,
      "ऐ": 245,
      "ऑ": 246,
      "ओ": 247,
      "औ": 248,
      "क": 249,
      "ख": 250,
      "ग": 251,
      "घ": 252,
      "ङ": 253,
      "च": 254,
      "छ": 255,
      "ज": 256,
      "झ": 257,
      "ञ": 258,
      "ट": 259,
      "ठ": 260,
      "ड": 261,
      "ढ": 262,
      "ण": 263,
      "त": 264,
      "थ": 265,
      "द": 266,
      "ध": 267,
      "न": 268,
      "प": 269,
      "फ": 270,
      "ब": 271,
      "भ": 272,
      "म": 273,
      "य": 274,
      "र": 275,
      "ल": 276,
      "ळ": 277,
      "व": 278,
      "श": 279,
      "ष": 280,
      "स": 281,
      "ह": 282,
      "़": 283,
      "ऽ": 284,
      "ा": 285,
      "ि": 286,
      "ी": 287,
      "ु": 288,
      "ू": 289,
      "ृ": 290,
      "ॅ": 291,
      "ॆ": 292,
      "े": 293,
      "ै": 294,
      "ॉ": 295,
      "ॊ": 296,
      "ो": 297,
      "ौ": 298,
      "्": 299,
      "।": 300,
      "॥": 301,
      "॰": 302,
      "ক": 303,
      "ন": 304,
      "প": 305,
      "ম": 306,
      "র": 307,
      "শ": 308,
      "স": 309,
      "়": 310,
      "ঽ": 311,
      "া": 312,
      "্": 313,
      "০": 314,
      "১": 315,
      "২": 316,
      "৩": 317,
      "৪": 318,
      "৫": 319,
      "৬": 320,
      "৭": 321,
      "৮": 322,
      "৯": 323,
      "৲": 324,
      "৳": 325,
      "৹": 326,
      "৺": 327,
      "ੰ": 328,
      "ஂ": 329,
      "ஃ": 330,
      "அ": 331,
      "ஆ": 332,
      "இ": 333,
      "ஈ": 334,
      "உ": 335,
      "ஊ": 336,
      "எ": 337,
      "ஏ": 338,
      "ஐ": 339,
      "ஒ": 340,
      "ஓ": 341,
      "ஔ": 342,
      "க": 343,
      "ங": 344,
      "ச": 345,
      "ஜ": 346,
      "ஞ": 347,
      "ட": 348,
      "ண": 349,
      "த": 350,
      "ந": 351,
      "ன": 352,
      "ப": 353,
      "ம": 354,
      "ய": 355,
      "ர": 356,
      "ற": 357,
      "ல": 358,
      "ள": 359,
      "ழ": 360,
      "வ": 361,
      "ஷ": 362,
      "ஸ": 363,
      "ஹ": 364,
      "஼": 365,
      "ா": 366,
      "ி": 367,
      "ீ": 368,
      "ு": 369,
      "ூ": 370,
      "௃": 371,
      "ெ": 372,
      "ே": 373,
      "ை": 374,
      "௉": 375,
      "ொ": 376,
      "ோ": 377,
      "ௌ": 378,
      "்": 379,
      "ം": 380,
      "ഃ": 381,
      "അ": 382,
      "ആ": 383,
      "ഇ": 384,
      "ഈ": 385,
      "ഉ": 386,
      "ഊ": 387,
      "ഋ": 388,
      "എ": 389,
      "ഏ": 390,
      "ഐ": 391,
      "ഒ": 392,
      "ഓ": 393,
      "ഔ": 394,
      "ക": 395,
      "ഖ": 396,
      "ഗ": 397,
      "ഘ": 398,
      "ങ": 399,
      "ച": 400,
      "ഛ": 401,
      "ജ": 402,
      "ഝ": 403,
      "ഞ": 404,
      "ട": 405,
      "ഠ": 406,
      "ഡ": 407,
      "ഢ": 408,
      "ണ": 409,
      "ത": 410,
      "ഥ": 411,
      "ദ": 412,
      "ധ": 413,
      "ന": 414,
      "പ": 415,
      "ഫ": 416,
      "ബ": 417,
      "ഭ": 418,
      "മ": 419,
      "യ": 420,
      "ര": 421,
      "റ": 422,
      "ല": 423,
      "ള": 424,
      "ഴ": 425,
      "വ": 426,
      "ശ": 427,
      "ഷ": 428,
      "സ": 429,
      "ഹ": 430,
      "഼": 431,
      "ാ": 432,
      "ി": 433,
      "ീ": 434,
      "ു": 435,
      "ൂ": 436,
      "ൃ": 437,
      "െ": 438,
      "േ": 439,
      "ൈ": 440,
      "ൊ": 441,
      "ോ": 442,
      "ൌ": 443,
      "്": 444,
      "ൺ": 445,
      "ൻ": 446,
      "ർ": 447,
      "ൽ": 448,
      "ൾ": 449,
      "ỳ": 450,
      "ἀ": 451,
      "​": 452,
      "‌": 453,
      "‍": 454,
      "‏": 455,
      "‐": 456,
      "–": 457,
      "—": 458,
      "―": 459,
      "‘": 460,
      "’": 461,
      "“": 462,
      "”": 463,
      "‡": 464,
      "•": 465,
      "‪": 466,
      "′": 467,
      "⁄": 468,
      "€": 469,
      "₹": 470,
      "⃣": 471,
      "→": 472,
      "−": 473,
      "≤": 474,
      "≥": 475,
      "─": 476,
      "□": 477,
      "►": 478,
      "●": 479,
      "♥": 480,
      "❤": 481,
      "。": 482,
      "《": 483,
      "》": 484,
      "「": 485,
      "」": 486,
      "一": 487,
      "丁": 488,
      "三": 489,
      "上": 490,
      "下": 491,
      "不": 492,
      "世": 493,
      "並": 494,
      "中": 495,
      "主": 496,
      "之": 497,
      "乙": 498,
      "也": 499,
      "了": 500,
      "事": 501,
      "二": 502,
      "些": 503,
      "亞": 504,
      "亮": 505,
      "人": 506,
      "仁": 507,
      "今": 508,
      "他": 509,
      "付": 510,
      "令": 511,
      "以": 512,
      "仰": 513,
      "件": 514,
      "任": 515,
      "企": 516,
      "众": 517,
      "位": 518,
      "何": 519,
      "你": 520,
      "來": 521,
      "俊": 522,
      "保": 523,
      "信": 524,
      "個": 525,
      "們": 526,
      "倒": 527,
      "做": 528,
      "健": 529,
      "偽": 530,
      "傑": 531,
      "備": 532,
      "像": 533,
      "元": 534,
      "先": 535,
      "光": 536,
      "克": 537,
      "入": 538,
      "全": 539,
      "公": 540,
      "共": 541,
      "其": 542,
      "冠": 543,
      "冬": 544,
      "凈": 545,
      "凌": 546,
      "出": 547,
      "切": 548,
      "刊": 549,
      "列": 550,
      "利": 551,
      "到": 552,
      "制": 553,
      "則": 554,
      "前": 555,
      "剩": 556,
      "創": 557,
      "劉": 558,
      "力": 559,
      "功": 560,
      "努": 561,
      "勇": 562,
      "動": 563,
      "化": 564,
      "北": 565,
      "區": 566,
      "半": 567,
      "卐": 568,
      "協": 569,
      "南": 570,
      "博": 571,
      "卻": 572,
      "原": 573,
      "去": 574,
      "又": 575,
      "及": 576,
      "友": 577,
      "反": 578,
      "古": 579,
      "句": 580,
      "另": 581,
      "只": 582,
      "可": 583,
      "台": 584,
      "右": 585,
      "合": 586,
      "同": 587,
      "名": 588,
      "吳": 589,
      "呂": 590,
      "周": 591,
      "命": 592,
      "和": 593,
      "品": 594,
      "哈": 595,
      "哥": 596,
      "哲": 597,
      "商": 598,
      "問": 599,
      "啟": 600,
      "善": 601,
      "喜": 602,
      "喝": 603,
      "單": 604,
      "器": 605,
      "回": 606,
      "因": 607,
      "困": 608,
      "國": 609,
      "園": 610,
      "圖": 611,
      "團": 612,
      "在": 613,
      "地": 614,
      "圳": 615,
      "坑": 616,
      "垂": 617,
      "基": 618,
      "堅": 619,
      "報": 620,
      "場": 621,
      "境": 622,
      "士": 623,
      "外": 624,
      "多": 625,
      "夠": 626,
      "夢": 627,
      "大": 628,
      "天": 629,
      "太": 630,
      "奇": 631,
      "奮": 632,
      "女": 633,
      "好": 634,
      "如": 635,
      "威": 636,
      "婚": 637,
      "子": 638,
      "存": 639,
      "孫": 640,
      "學": 641,
      "安": 642,
      "完": 643,
      "宏": 644,
      "定": 645,
      "宮": 646,
      "害": 647,
      "家": 648,
      "實": 649,
      "審": 650,
      "寫": 651,
      "寮": 652,
      "將": 653,
      "尊": 654,
      "對": 655,
      "導": 656,
      "少": 657,
      "尖": 658,
      "就": 659,
      "山": 660,
      "島": 661,
      "崙": 662,
      "己": 663,
      "巴": 664,
      "市": 665,
      "帆": 666,
      "希": 667,
      "平": 668,
      "年": 669,
      "幾": 670,
      "度": 671,
      "康": 672,
      "廟": 673,
      "廣": 674,
      "廳": 675,
      "建": 676,
      "張": 677,
      "強": 678,
      "彥": 679,
      "彩": 680,
      "彰": 681,
      "待": 682,
      "後": 683,
      "徐": 684,
      "徑": 685,
      "得": 686,
      "從": 687,
      "徵": 688,
      "德": 689,
      "心": 690,
      "忠": 691,
      "忱": 692,
      "念": 693,
      "怕": 694,
      "思": 695,
      "怨": 696,
      "恐": 697,
      "恨": 698,
      "情": 699,
      "惠": 700,
      "想": 701,
      "感": 702,
      "憲": 703,
      "應": 704,
      "懼": 705,
      "戀": 706,
      "成": 707,
      "我": 708,
      "戴": 709,
      "所": 710,
      "手": 711,
      "才": 712,
      "打": 713,
      "投": 714,
      "抗": 715,
      "抱": 716,
      "拉": 717,
      "拍": 718,
      "拓": 719,
      "拼": 720,
      "持": 721,
      "振": 722,
      "捷": 723,
      "推": 724,
      "撐": 725,
      "收": 726,
      "改": 727,
      "故": 728,
      "敖": 729,
      "教": 730,
      "敬": 731,
      "敵": 732,
      "數": 733,
      "文": 734,
      "斌": 735,
      "斧": 736,
      "斬": 737,
      "新": 738,
      "斷": 739,
      "方": 740,
      "於": 741,
      "施": 742,
      "旅": 743,
      "旋": 744,
      "族": 745,
      "日": 746,
      "旦": 747,
      "昆": 748,
      "昌": 749,
      "明": 750,
      "是": 751,
      "昱": 752,
      "時": 753,
      "暉": 754,
      "曉": 755,
      "書": 756,
      "曹": 757,
      "曼": 758,
      "替": 759,
      "最": 760,
      "會": 761,
      "有": 762,
      "朋": 763,
      "服": 764,
      "望": 765,
      "朝": 766,
      "期": 767,
      "木": 768,
      "本": 769,
      "朱": 770,
      "李": 771,
      "村": 772,
      "杰": 773,
      "林": 774,
      "果": 775,
      "柏": 776,
      "柯": 777,
      "業": 778,
      "極": 779,
      "榕": 780,
      "榮": 781,
      "樂": 782,
      "樣": 783,
      "橋": 784,
      "橘": 785,
      "權": 786,
      "次": 787,
      "歡": 788,
      "正": 789,
      "此": 790,
      "步": 791,
      "武": 792,
      "段": 793,
      "毅": 794,
      "毒": 795,
      "民": 796,
      "氣": 797,
      "水": 798,
      "永": 799,
      "池": 800,
      "沒": 801,
      "治": 802,
      "法": 803,
      "泳": 804,
      "洲": 805,
      "活": 806,
      "浩": 807,
      "海": 808,
      "消": 809,
      "淑": 810,
      "港": 811,
      "游": 812,
      "湖": 813,
      "準": 814,
      "灘": 815,
      "灣": 816,
      "為": 817,
      "無": 818,
      "熱": 819,
      "燕": 820,
      "燦": 821,
      "爬": 822,
      "爾": 823,
      "物": 824,
      "牲": 825,
      "特": 826,
      "犧": 827,
      "狀": 828,
      "獎": 829,
      "獨": 830,
      "獲": 831,
      "獻": 832,
      "王": 833,
      "現": 834,
      "琦": 835,
      "瑜": 836,
      "瑞": 837,
      "環": 838,
      "甚": 839,
      "生": 840,
      "用": 841,
      "田": 842,
      "由": 843,
      "申": 844,
      "男": 845,
      "界": 846,
      "畏": 847,
      "痛": 848,
      "發": 849,
      "的": 850,
      "盟": 851,
      "相": 852,
      "看": 853,
      "真": 854,
      "石": 855,
      "研": 856,
      "破": 857,
      "社": 858,
      "祐": 859,
      "神": 860,
      "祥": 861,
      "福": 862,
      "禮": 863,
      "秀": 864,
      "程": 865,
      "種": 866,
      "積": 867,
      "究": 868,
      "突": 869,
      "立": 870,
      "站": 871,
      "章": 872,
      "竹": 873,
      "節": 874,
      "米": 875,
      "紀": 876,
      "純": 877,
      "紘": 878,
      "終": 879,
      "組": 880,
      "結": 881,
      "綜": 882,
      "緒": 883,
      "緯": 884,
      "總": 885,
      "繼": 886,
      "續": 887,
      "署": 888,
      "美": 889,
      "義": 890,
      "耀": 891,
      "考": 892,
      "者": 893,
      "而": 894,
      "聞": 895,
      "聯": 896,
      "育": 897,
      "背": 898,
      "能": 899,
      "腦": 900,
      "自": 901,
      "至": 902,
      "與": 903,
      "興": 904,
      "舺": 905,
      "艋": 906,
      "花": 907,
      "英": 908,
      "草": 909,
      "莊": 910,
      "華": 911,
      "萊": 912,
      "萬": 913,
      "葉": 914,
      "著": 915,
      "蓬": 916,
      "蔡": 917,
      "蕭": 918,
      "薇": 919,
      "藝": 920,
      "藥": 921,
      "號": 922,
      "蝶": 923,
      "行": 924,
      "術": 925,
      "表": 926,
      "裕": 927,
      "西": 928,
      "要": 929,
      "見": 930,
      "視": 931,
      "觀": 932,
      "角": 933,
      "言": 934,
      "試": 935,
      "詩": 936,
      "該": 937,
      "認": 938,
      "論": 939,
      "諾": 940,
      "謝": 941,
      "護": 942,
      "變": 943,
      "讓": 944,
      "豐": 945,
      "象": 946,
      "豪": 947,
      "豬": 948,
      "貌": 949,
      "貝": 950,
      "財": 951,
      "貢": 952,
      "費": 953,
      "賀": 954,
      "賣": 955,
      "走": 956,
      "起": 957,
      "足": 958,
      "跌": 959,
      "路": 960,
      "踐": 961,
      "身": 962,
      "車": 963,
      "軌": 964,
      "輕": 965,
      "轉": 966,
      "農": 967,
      "迎": 968,
      "退": 969,
      "這": 970,
      "通": 971,
      "週": 972,
      "進": 973,
      "運": 974,
      "過": 975,
      "道": 976,
      "達": 977,
      "遙": 978,
      "還": 979,
      "邊": 980,
      "邱": 981,
      "郭": 982,
      "都": 983,
      "鄭": 984,
      "重": 985,
      "釣": 986,
      "銘": 987,
      "銳": 988,
      "鋸": 989,
      "錄": 990,
      "鎖": 991,
      "鏈": 992,
      "鏡": 993,
      "開": 994,
      "間": 995,
      "閣": 996,
      "關": 997,
      "降": 998,
      "院": 999,
      "陳": 1000,
      "陵": 1001,
      "陸": 1002,
      "陽": 1003,
      "隔": 1004,
      "隨": 1005,
      "集": 1006,
      "離": 1007,
      "難": 1008,
      "雲": 1009,
      "電": 1010,
      "靈": 1011,
      "青": 1012,
      "非": 1013,
      "頂": 1014,
      "領": 1015,
      "頭": 1016,
      "題": 1017,
      "飛": 1018,
      "餐": 1019,
      "館": 1020,
      "馬": 1021,
      "駁": 1022,
      "騰": 1023,
      "驅": 1024,
      "鬥": 1025,
      "魂": 1026,
      "魚": 1027,
      "鶴": 1028,
      "鸿": 1029,
      "麗": 1030,
      "黃": 1031,
      "ꯘ": 1032,
      "ꯥ": 1033,
      "️": 1034,
      "﻿": 1035,
      "🌳": 1036,
      "💕": 1037,
      "💜": 1038,
      "📸": 1039,
      "😂": 1040,
      "😉": 1041,
      "😭": 1042,
      "😳": 1043,
      "🤔": 1044,
      "th": 1045,
      "aa": 1046,
      "an": 1047,
      "ar": 1048,
      "in": 1049,
      "al": 1050,
      "am": 1051,
      "il": 1052,
      "ath": 1053,
      "iy": 1054,
      "at": 1055,
      "்க": 1056,
      "ch": 1057,
      "ee": 1058,
      "ru": 1059,
      "on": 1060,
      "kk": 1061,
      "ai": 1062,
      "ay": 1063,
      "ad": 1064,
      "er": 1065,
      "sh": 1066,
      "ന്": 1067,
      "ക്": 1068,
      "ey": 1069,
      "en": 1070,
      "்த": 1071,
      "um": 1072,
      "ன்": 1073,
      "ல்": 1074,
      "aan": 1075,
      "ம்": 1076,
      "av": 1077,
      "oo": 1078,
      "்ட": 1079,
      "pp": 1080,
      "un": 1081,
      "ത്": 1082,
      "ur": 1083,
      "ir": 1084,
      "ak": 1085,
      "ப்": 1086,
      "aar": 1087,
      "ர்": 1088,
      "as": 1089,
      "tt": 1090,
      "के": 1091,
      "க்க": 1092,
      "ிய": 1093,
      "att": 1094,
      "me": 1095,
      "പ്": 1096,
      "or": 1097,
      "is": 1098,
      "து": 1099,
      "ப்ப": 1100,
      "ക്ക": 1101,
      "key": 1102,
      "സ്": 1103,
      "த்த": 1104,
      "kal": 1105,
      "ும்": 1106,
      "ें": 1107,
      "ll": 1108,
      "ന്ന": 1109,
      "्र": 1110,
      "pr": 1111,
      "19": 1112,
      "es": 1113,
      "തി": 1114,
      "it": 1115,
      "gal": 1116,
      "20": 1117,
      "and": 1118,
      "റ്": 1119,
      "id": 1120,
      "ed": 1121,
      "ில்": 1122,
      "ud": 1123,
      "ட்ட": 1124,
      "athu": 1125,
      "में": 1126,
      "ും": 1127,
      "ரு": 1128,
      "ii": 1129,
      "या": 1130,
      "ள்": 1131,
      "്ട": 1132,
      "mein": 1133,
      "യി": 1134,
      "aay": 1135,
      "aal": 1136,
      "ற்": 1137,
      "iya": 1138,
      "र्": 1139,
      "ag": 1140,
      "ik": 1141,
      "el": 1142,
      "uth": 1143,
      "മാ": 1144,
      "app": 1145,
      "ந்த": 1146,
      "the": 1147,
      "का": 1148,
      "ah": 1149,
      "ின்": 1150,
      "ikk": 1151,
      "ற்ற": 1152,
      "tr": 1153,
      "zh": 1154,
      "ने": 1155,
      "iv": 1156,
      "ing": 1157,
      "स्": 1158,
      "ച്": 1159,
      "oru": 1160,
      "bh": 1161,
      "ac": 1162,
      "par": 1163,
      "ic": 1164,
      "ുന്ന": 1165,
      "nu": 1166,
      "se": 1167,
      "iru": 1168,
      "te": 1169,
      "ith": 1170,
      "aur": 1171,
      "പ്പ": 1172,
      "ों": 1173,
      "രി": 1174,
      "aag": 1175,
      "है": 1176,
      "to": 1177,
      "്യ": 1178,
      "ாக": 1179,
      "ங்க": 1180,
      "से": 1181,
      "നി": 1182,
      "ങ്": 1183,
      "ുക": 1184,
      "റ്റ": 1185,
      "और": 1186,
      "ang": 1187,
      "ைய": 1188,
      "വി": 1189,
      "ull": 1190,
      "athth": 1191,
      "ol": 1192,
      "ത്തി": 1193,
      "kar": 1194,
      "koo": 1195,
      "ண்ட": 1196,
      "की": 1197,
      "ich": 1198,
      "aad": 1199,
      "avar": 1200,
      "aam": 1201,
      "kii": 1202,
      "uk": 1203,
      "ிற": 1204,
      "us": 1205,
      "कि": 1206,
      "ട്ട": 1207,
      "le": 1208,
      "rum": 1209,
      "aye": 1210,
      "ார்": 1211,
      "adh": 1212,
      "aiy": 1213,
      "sam": 1214,
      "de": 1215,
      "see": 1216,
      "को": 1217,
      "ிர": 1218,
      "ap": 1219,
      "ain": 1220,
      "ार": 1221,
      "matt": 1222,
      "ച്ച": 1223,
      "ack": 1224,
      "angal": 1225,
      "var": 1226,
      "ion": 1227,
      "क्": 1228,
      "ான": 1229,
      "രു": 1230,
      "ത്ത": 1231,
      "aath": 1232,
      "ுக": 1233,
      "ana": 1234,
      "ता": 1235,
      "co": 1236,
      "thu": 1237,
      "201": 1238,
      "लि": 1239,
      "ങ്ങ": 1240,
      "ro": 1241,
      "haye": 1242,
      "ig": 1243,
      "of": 1244,
      "ടെ": 1245,
      "ിയ": 1246,
      "im": 1247,
      "வி": 1248,
      "प्र": 1249,
      "re": 1250,
      "ab": 1251,
      "ul": 1252,
      "st": 1253,
      "ना": 1254,
      "ill": 1255,
      "റെ": 1256,
      "கு": 1257,
      "மற்ற": 1258,
      "പ്ര": 1259,
      "kku": 1260,
      "மு": 1261,
      "वि": 1262,
      "po": 1263,
      "tha": 1264,
      "ிக": 1265,
      "na": 1266,
      "സി": 1267,
      "ish": 1268,
      "ra": 1269,
      "ent": 1270,
      "ஸ்": 1271,
      "mattrum": 1272,
      "மற்றும்": 1273,
      "एक": 1274,
      "kaa": 1275,
      "irun": 1276,
      "്ര": 1277,
      "seey": 1278,
      "வர": 1279,
      "ho": 1280,
      "thaa": 1281,
      "्य": 1282,
      "ipp": 1283,
      "ட்": 1284,
      "कर": 1285,
      "ut": 1286,
      "dh": 1287,
      "ണ്ട": 1288,
      "ില": 1289,
      "all": 1290,
      "सा": 1291,
      "ப்பட்ட": 1292,
      "ன்ற": 1293,
      "ஒரு": 1294,
      "க்கு": 1295,
      "था": 1296,
      "ിൽ": 1297,
      "ett": 1298,
      "ला": 1299,
      "मा": 1300,
      "ya": 1301,
      "athin": 1302,
      "00": 1303,
      "യും": 1304,
      "ile": 1305,
      "वा": 1306,
      "aana": 1307,
      "டி": 1308,
      "up": 1309,
      "ുന്നു": 1310,
      "va": 1311,
      "ள்ள": 1312,
      "ിക്ക": 1313,
      "नि": 1314,
      "akk": 1315,
      "ka": 1316,
      "aaga": 1317,
      "தி": 1318,
      "ku": 1319,
      "18": 1320,
      "du": 1321,
      "ले": 1322,
      "്ള": 1323,
      "he": 1324,
      "ള്ള": 1325,
      "பா": 1326,
      "पर": 1327,
      "end": 1328,
      "ane": 1329,
      "ित": 1330,
      "200": 1331,
      "aav": 1332,
      "iye": 1333,
      "een": 1334,
      "ulla": 1335,
      "og": 1336,
      "ில": 1337,
      "െയ": 1338,
      "kh": 1339,
      "്ല": 1340,
      "ரி": 1341,
      "man": 1342,
      "itt": 1343,
      "കാ": 1344,
      "ma": 1345,
      "டு": 1346,
      "ഒരു": 1347,
      "idh": 1348,
      "aayi": 1349,
      "ന്റെ": 1350,
      "ക്ക്": 1351,
      "ukal": 1352,
      "than": 1353,
      "ദ്": 1354,
      "ude": 1355,
      "for": 1356,
      "appatt": 1357,
      "enn": 1358,
      "ായി": 1359,
      "செ": 1360,
      "aaya": 1361,
      "போ": 1362,
      "रा": 1363,
      "ുള്ള": 1364,
      "ர்க": 1365,
      "வா": 1366,
      "od": 1367,
      "ச்": 1368,
      "മ്": 1369,
      "பெ": 1370,
      "க்": 1371,
      "ति": 1372,
      "सं": 1373,
      "லை": 1374,
      "mar": 1375,
      "ുടെ": 1376,
      "ണ്": 1377,
      "unn": 1378,
      "ിച്ച": 1379,
      "கா": 1380,
      "തു": 1381,
      "roo": 1382,
      "न्": 1383,
      "लिए": 1384,
      "ne": 1385,
      "किया": 1386,
      "mo": 1387,
      "kiya": 1388,
      "மா": 1389,
      "പ്പെ": 1390,
      "uv": 1391,
      "जा": 1392,
      "ദേ": 1393,
      "ach": 1394,
      "liye": 1395,
      "be": 1396,
      "ளை": 1397,
      "ug": 1398,
      "thir": 1399,
      "ayaa": 1400,
      "சி": 1401,
      "nir": 1402,
      "aat": 1403,
      "ഡ്": 1404,
      "esh": 1405,
      "மே": 1406,
      "ter": 1407,
      "അവ": 1408,
      "pad": 1409,
      "ney": 1410,
      "ചെയ": 1411,
      "റ്റ്": 1412,
      "ലെ": 1413,
      "हा": 1414,
      "lo": 1415,
      "ാന": 1416,
      "amb": 1417,
      "ia": 1418,
      "ayum": 1419,
      "அவ": 1420,
      "रू": 1421,
      "ருந்த": 1422,
      "ാൻ": 1423,
      "aatt": 1424,
      "ichu": 1425,
      "aas": 1426,
      "pan": 1427,
      "வு": 1428,
      "jo": 1429,
      "द्": 1430,
      "war": 1431,
      "inn": 1432,
      "பு": 1433,
      "िक": 1434,
      "athil": 1435,
      "റി": 1436,
      "pe": 1437,
      "avum": 1438,
      "பி": 1439,
      "गया": 1440,
      "gayaa": 1441,
      "unnu": 1442,
      "എന്ന": 1443,
      "und": 1444,
      "ant": 1445,
      "क्ष": 1446,
      "ന്ന്": 1447,
      "so": 1448,
      "ash": 1449,
      "ram": 1450,
      "ுவ": 1451,
      "anam": 1452,
      "தொ": 1453,
      "नी": 1454,
      "ri": 1455,
      "വാ": 1456,
      "ber": 1457,
      "ങ്ങള": 1458,
      "வெ": 1459,
      "രാ": 1460,
      "ess": 1461,
      "do": 1462,
      "em": 1463,
      "ുകയും": 1464,
      "uthal": 1465,
      "199": 1466,
      "roop": 1467,
      "sar": 1468,
      "ph": 1469,
      "aksh": 1470,
      "ின": 1471,
      "ल्": 1472,
      "बा": 1473,
      "pir": 1474,
      "ation": 1475,
      "aththil": 1476,
      "parr": 1477,
      "ംഗ": 1478,
      "inte": 1479,
      "ടു": 1480,
      "ड़": 1481,
      "vi": 1482,
      "ye": 1483,
      "ers": 1484,
      "ली": 1485,
      "லா": 1486,
      "no": 1487,
      "san": 1488,
      "जि": 1489,
      "ിക": 1490,
      "ate": 1491,
      "ukayum": 1492,
      "atth": 1493,
      "മായി": 1494,
      "ரா": 1495,
      "vil": 1496,
      "മു": 1497,
      "val": 1498,
      "ങ്ങൾ": 1499,
      "jan": 1500,
      "िय": 1501,
      "ti": 1502,
      "oor": 1503,
      "सी": 1504,
      "ell": 1505,
      "ukk": 1506,
      "സ്ഥ": 1507,
      "रूप": 1508,
      "chey": 1509,
      "നാ": 1510,
      "த்தில்": 1511,
      "kaar": 1512,
      "hain": 1513,
      "हैं": 1514,
      "uru": 1515,
      "aand": 1516,
      "ത്ര": 1517,
      "त्": 1518,
      "യിൽ": 1519,
      "ப்பு": 1520,
      "ன்று": 1521,
      "स्ट": 1522,
      "com": 1523,
      "மை": 1524,
      "ond": 1525,
      "ikal": 1526,
      "ip": 1527,
      "ஆண்ட": 1528,
      "സ്റ്റ": 1529,
      "thth": 1530,
      "ഡി": 1531,
      "िया": 1532,
      "aanu": 1533,
      "री": 1534,
      "one": 1535,
      "sa": 1536,
      "ool": 1537,
      "ാർ": 1538,
      "മായ": 1539,
      "பிர": 1540,
      "ய்": 1541,
      "),": 1542,
      "ct": 1543,
      "று": 1544,
      "ുകള": 1545,
      "मि": 1546,
      "താ": 1547,
      "त्र": 1548,
      "உள்ள": 1549,
      "ப்பட": 1550,
      "ளு": 1551,
      "சா": 1552,
      "ine": 1553,
      "ലി": 1554,
      "ുകൾ": 1555,
      "van": 1556,
      "ham": 1557,
      "per": 1558,
      "വർ": 1559,
      "inth": 1560,
      "हो": 1561,
      "ദ്ദേ": 1562,
      "पा": 1563,
      "nad": 1564,
      "രിക്ക": 1565,
      "angkal": 1566,
      "ால்": 1567,
      "ती": 1568,
      "அவர்": 1569,
      "ukku": 1570,
      "aakk": 1571,
      "்கு": 1572,
      "ഞ്": 1573,
      "iyil": 1574,
      "ae": 1575,
      "saath": 1576,
      "ko": 1577,
      "जो": 1578,
      "ോർ": 1579,
      "ளில்": 1580,
      "ंग": 1581,
      "மான": 1582,
      "ക്ഷ": 1583,
      "ver": 1584,
      "ியா": 1585,
      "uthth": 1586,
      "eer": 1587,
      "സാ": 1588,
      "sth": 1589,
      "tho": 1590,
      "10": 1591,
      "ub": 1592,
      "സം": 1593,
      "सम": 1594,
      "198": 1595,
      "adde": 1596,
      "maan": 1597,
      "அத": 1598,
      "न्ह": 1599,
      "ஆம்": 1600,
      "டுத்த": 1601,
      "ത്തിൽ": 1602,
      "har": 1603,
      "த்": 1604,
      "ce": 1605,
      "appad": 1606,
      "േഷ": 1607,
      "ஸ்ட": 1608,
      "ast": 1609,
      "cl": 1610,
      "டன்": 1611,
      "aipp": 1612,
      "कार": 1613,
      "രണ": 1614,
      "azh": 1615,
      "അദ്ദേ": 1616,
      "അദ്ദേഹ": 1617,
      "ts": 1618,
      "muthal": 1619,
      "வே": 1620,
      "athe": 1621,
      "இது": 1622,
      "ല്ല": 1623,
      "aap": 1624,
      "idhu": 1625,
      "ते": 1626,
      "yam": 1627,
      "രുന്നു": 1628,
      "unna": 1629,
      "kur": 1630,
      "साथ": 1631,
      "udan": 1632,
      "they": 1633,
      "ani": 1634,
      "க்கப்பட்ட": 1635,
      "കള": 1636,
      "പി": 1637,
      "con": 1638,
      "ிறது": 1639,
      "वे": 1640,
      "ake": 1641,
      "197": 1642,
      "പോ": 1643,
      "hu": 1644,
      ".\"": 1645,
      "சு": 1646,
      "भी": 1647,
      "ayil": 1648,
      "17": 1649,
      "इस": 1650,
      "ലാ": 1651,
      "are": 1652,
      "ंड": 1653,
      "ണ്ട്": 1654,
      "abh": 1655,
      "മി": 1656,
      "शा": 1657,
      "अप": 1658,
      "15": 1659,
      "af": 1660,
      "டை": 1661,
      "ugal": 1662,
      "ளின்": 1663,
      "irunnu": 1664,
      "\",": 1665,
      "കോ": 1666,
      "akal": 1667,
      "that": 1668,
      "ம்ப": 1669,
      "ത്തെ": 1670,
      "கொ": 1671,
      "றி": 1672,
      "കു": 1673,
      "னர்": 1674,
      "ചെയ്": 1675,
      "திய": 1676,
      "pl": 1677,
      "वार": 1678,
      "हु": 1679,
      "வில்": 1680,
      "യാ": 1681,
      "ல்ல": 1682,
      "aikk": 1683,
      "പു": 1684,
      "उन्ह": 1685,
      "ian": 1686,
      "gr": 1687,
      "வை": 1688,
      "sw": 1689,
      "aak": 1690,
      "vel": 1691,
      "upp": 1692,
      "br": 1693,
      "அவர": 1694,
      "ही": 1695,
      "இருந்த": 1696,
      "மாக": 1697,
      "nil": 1698,
      "iss": 1699,
      "ட்டு": 1700,
      "et": 1701,
      "മെ": 1702,
      "thee": 1703,
      "bo": 1704,
      "vid": 1705,
      "vy": 1706,
      "ங்கள்": 1707,
      "irathu": 1708,
      "sham": 1709,
      "est": 1710,
      "த்தை": 1711,
      "ly": 1712,
      "லி": 1713,
      "aik": 1714,
      "pal": 1715,
      "ind": 1716,
      "നെ": 1717,
      "மூ": 1718,
      "thal": 1719,
      "pur": 1720,
      "patt": 1721,
      "லும்": 1722,
      "रे": 1723,
      "196": 1724,
      "aid": 1725,
      "இந்த": 1726,
      "ടി": 1727,
      "ther": 1728,
      "ोग": 1729,
      "joe": 1730,
      "दे": 1731,
      "ata": 1732,
      "vish": 1733,
      "യോ": 1734,
      "சிய": 1735,
      "16": 1736,
      "ve": 1737,
      "kaal": 1738,
      "த்து": 1739,
      "aiyil": 1740,
      "cur": 1741,
      "The": 1742,
      "thaar": 1743,
      "pro": 1744,
      "थे": 1745,
      "मे": 1746,
      "ika": 1747,
      "പാ": 1748,
      "maar": 1749,
      "தன": 1750,
      "aththin": 1751,
      "கி": 1752,
      "വും": 1753,
      "जी": 1754,
      "mun": 1755,
      "ച്ച്": 1756,
      "த்தின்": 1757,
      "eric": 1758,
      "ങ്ക": 1759,
      "char": 1760,
      "ിച്ചു": 1761,
      "thod": 1762,
      "टी": 1763,
      "12": 1764,
      "jee": 1765,
      "appattathu": 1766,
      "दा": 1767,
      "முத": 1768,
      "ந்து": 1769,
      "194": 1770,
      "वर्": 1771,
      "shan": 1772,
      "arn": 1773,
      "ta": 1774,
      "സെ": 1775,
      "nin": 1776,
      "kad": 1777,
      "op": 1778,
      "aaj": 1779,
      "ga": 1780,
      "ன்ப": 1781,
      "por": 1782,
      "with": 1783,
      "aip": 1784,
      "ss": 1785,
      "उन": 1786,
      "ambar": 1787,
      "tra": 1788,
      "andh": 1789,
      "jis": 1790,
      "fr": 1791,
      "tak": 1792,
      "ദ്യ": 1793,
      "தொட": 1794,
      "ton": 1795,
      "thar": 1796,
      "रि": 1797,
      "भा": 1798,
      "eng": 1799,
      "தா": 1800,
      "agar": 1801,
      "aandil": 1802,
      "றை": 1803,
      "ju": 1804,
      "utt": 1805,
      "14": 1806,
      "ष्": 1807,
      "ki": 1808,
      "்கள்": 1809,
      "ழு": 1810,
      "நா": 1811,
      "athinte": 1812,
      "യുടെ": 1813,
      "നു": 1814,
      "ஆக": 1815,
      "wh": 1816,
      "യു": 1817,
      "ளி": 1818,
      "baad": 1819,
      "ரோ": 1820,
      "ഫ്": 1821,
      "நில": 1822,
      "ex": 1823,
      "mael": 1824,
      "ck": 1825,
      "was": 1826,
      "nee": 1827,
      "വേ": 1828,
      "diy": 1829,
      "karane": 1830,
      "करने": 1831,
      "ரிய": 1832,
      "aayirunnu": 1833,
      "13": 1834,
      "ദ്ധ": 1835,
      "inththa": 1836,
      "റോ": 1837,
      "iyam": 1838,
      "pah": 1839,
      "ass": 1840,
      "go": 1841,
      "கோ": 1842,
      "chi": 1843,
      "தே": 1844,
      "uy": 1845,
      "രെ": 1846,
      "ചെയ്യ": 1847,
      "tham": 1848,
      "ഭാ": 1849,
      "if": 1850,
      "ity": 1851,
      "che": 1852,
      "செய": 1853,
      "way": 1854,
      "ayog": 1855,
      "तर": 1856,
      "വെ": 1857,
      "aya": 1858,
      "kan": 1859,
      "तक": 1860,
      "ट्र": 1861,
      "ist": 1862,
      "യൂ": 1863,
      "वी": 1864,
      "ஆண்டில்": 1865,
      "क्र": 1866,
      "pay": 1867,
      ").": 1868,
      "सि": 1869,
      "ati": 1870,
      "रो": 1871,
      "यह": 1872,
      "ban": 1873,
      "cor": 1874,
      "மெ": 1875,
      "hone": 1876,
      "നേ": 1877,
      "akar": 1878,
      "थी": 1879,
      "കൂ": 1880,
      "എന്നി": 1881,
      "21": 1882,
      "by": 1883,
      "ोंने": 1884,
      "ood": 1885,
      "ksh": 1886,
      "ையில்": 1887,
      "இல்": 1888,
      "bhee": 1889,
      "ilum": 1890,
      "യ്": 1891,
      "ிட": 1892,
      "ற்க": 1893,
      "iyon": 1894,
      "ர்கள்": 1895,
      "പ്പെട്ട": 1896,
      "प्": 1897,
      "ज़": 1898,
      "अन": 1899,
      "ard": 1900,
      "22": 1901,
      "195": 1902,
      "ண்டு": 1903,
      "eee": 1904,
      "vaa": 1905,
      "yeh": 1906,
      "டிய": 1907,
      "ner": 1908,
      "வழ": 1909,
      "बाद": 1910,
      "ila": 1911,
      "பொ": 1912,
      "30": 1913,
      "dwar": 1914,
      "americ": 1915,
      "taa": 1916,
      "द्वार": 1917,
      "पू": 1918,
      "പ്പെട": 1919,
      "gh": 1920,
      "अध": 1921,
      "ഗ്ര": 1922,
      "yo": 1923,
      "ഞ്ഞ": 1924,
      "பய": 1925,
      "ട്ട്": 1926,
      "addeham": 1927,
      "000": 1928,
      "his": 1929,
      "അദ്ദേഹം": 1930,
      "ട്": 1931,
      "ട്ര": 1932,
      "jaat": 1933,
      "ക്കാ": 1934,
      "ree": 1935,
      "path": 1936,
      "வீ": 1937,
      "son": 1938,
      "ബി": 1939,
      "io": 1940,
      "vad": 1941,
      "മ്മ": 1942,
      "igh": 1943,
      "dwara": 1944,
      "ர்ட": 1945,
      "द्वारा": 1946,
      "ത്തിന്റെ": 1947,
      "പര": 1948,
      "apped": 1949,
      "ലോ": 1950,
      "ுகள்": 1951,
      "पह": 1952,
      "റ്റി": 1953,
      "land": 1954,
      "off": 1955,
      "ithu": 1956,
      "adhik": 1957,
      "ale": 1958,
      "നിർ": 1959,
      "മേ": 1960,
      "ச்ச": 1961,
      "ninnu": 1962,
      "upayog": 1963,
      "aalar": 1964,
      "ment": 1965,
      "has": 1966,
      "இர": 1967,
      "iyal": 1968,
      "..": 1969,
      "paar": 1970,
      "बी": 1971,
      "ali": 1972,
      "bu": 1973,
      "வும்": 1974,
      "cheythu": 1975,
      "श्": 1976,
      "unhone": 1977,
      "उन्होंने": 1978,
      "aadh": 1979,
      "ചെയ്തു": 1980,
      "maelum": 1981,
      "மேலும்": 1982,
      "nagar": 1983,
      "kin": 1984,
      "னை": 1985,
      "yaa": 1986,
      "ive": 1987,
      "னி": 1988,
      "ീക": 1989,
      "முதல்": 1990,
      "ளுக்கு": 1991,
      "ikkunnu": 1992,
      "ண்": 1993,
      "endru": 1994,
      "vee": 1995,
      "ari": 1996,
      "aththir": 1997,
      "दी": 1998,
      "ുന്നതി": 1999,
      "unk": 2000,
      "मान": 2001,
      "11": 2002,
      "दिया": 2003,
      "aith": 2004,
      "ാം": 2005,
      "aigal": 2006,
      "dii": 2007,
      "diyaa": 2008,
      "േക്ക്": 2009,
      "திர": 2010,
      "hav": 2011,
      "katt": 2012,
      "पु": 2013,
      "ബ്": 2014,
      "ദേശ": 2015,
      "जिस": 2016,
      "க்கும்": 2017,
      "ுகிறது": 2018,
      "स्था": 2019,
      "தை": 2020,
      "ore": 2021,
      "ിലെ": 2022,
      "मु": 2023,
      "eyum": 2024,
      "said": 2025,
      "tar": 2026,
      "chh": 2027,
      "aaka": 2028,
      "என்று": 2029,
      "umb": 2030,
      "गा": 2031,
      "run": 2032,
      "ப்பட்டது": 2033,
      "ullathu": 2034,
      "चा": 2035,
      "टे": 2036,
      "qu": 2037,
      "നം": 2038,
      "aj": 2039,
      "athar": 2040,
      "യിലെ": 2041,
      "aanam": 2042,
      "ற்ப": 2043,
      "irunthu": 2044,
      "கூ": 2045,
      "രം": 2046,
      "23": 2047,
      "ke": 2048,
      "chch": 2049,
      "மி": 2050,
      "kond": 2051,
      "ele": 2052,
      "ge": 2053,
      "ow": 2054,
      "ത്ത്": 2055,
      "பிற": 2056,
      "25": 2057,
      "ையா": 2058,
      "ிற்கு": 2059,
      "vazh": 2060,
      "ച്ചു": 2061,
      "aash": 2062,
      "ie": 2063,
      "തെ": 2064,
      "ഉപ": 2065,
      "new": 2066,
      "பே": 2067,
      "onn": 2068,
      "ഗ്": 2069,
      "avas": 2070,
      "நிற": 2071,
      "kud": 2072,
      "angalil": 2073,
      "यु": 2074,
      "பல": 2075,
      "iyar": 2076,
      "igal": 2077,
      "aiv": 2078,
      "ത്യ": 2079,
      "फि": 2080,
      "शि": 2081,
      "റിയ": 2082,
      "കൾ": 2083,
      "ikkukayum": 2084,
      "यों": 2085,
      "मी": 2086,
      "enniv": 2087,
      "ala": 2088,
      "இரு": 2089,
      "vaal": 2090,
      "prak": 2091,
      "ൻ്": 2092,
      "ോൾ": 2093,
      "उप": 2094,
      "enna": 2095,
      "taka": 2096,
      "बे": 2097,
      "athinu": 2098,
      "्रा": 2099,
      "nal": 2100,
      "vah": 2101,
      "mur": 2102,
      "rom": 2103,
      "viv": 2104,
      "amaaya": 2105,
      "ണി": 2106,
      "mool": 2107,
      "out": 2108,
      "aer": 2109,
      "eekar": 2110,
      "icha": 2111,
      "rah": 2112,
      "car": 2113,
      "ennu": 2114,
      "ക്കി": 2115,
      "iti": 2116,
      "yu": 2117,
      "curr": 2118,
      "ഇത്": 2119,
      "pinn": 2120,
      "खा": 2121,
      "വ്യ": 2122,
      "மீ": 2123,
      "जन": 2124,
      "ாவ": 2125,
      "paad": 2126,
      "पी": 2127,
      "aheen": 2128,
      "24": 2129,
      "appett": 2130,
      "res": 2131,
      "कार्": 2132,
      "ans": 2133,
      "ezh": 2134,
      "ംഗ്": 2135,
      "mal": 2136,
      "sang": 2137,
      "ிருந்த": 2138,
      "mon": 2139,
      "mu": 2140,
      "kood": 2141,
      "ty": 2142,
      "ലും": 2143,
      "നിയ": 2144,
      "ணி": 2145,
      "sah": 2146,
      "टि": 2147,
      "ஃப்": 2148,
      "ழ்": 2149,
      "ase": 2150,
      "മോ": 2151,
      "inu": 2152,
      "aagum": 2153,
      "ong": 2154,
      "aththai": 2155,
      "thud": 2156,
      "2018": 2157,
      "pol": 2158,
      "raaj": 2159,
      "दो": 2160,
      "mud": 2161,
      "दि": 2162,
      "iyan": 2163,
      "eet": 2164,
      "ன்ன": 2165,
      "ikkunn": 2166,
      "ust": 2167,
      "രോ": 2168,
      "कु": 2169,
      "ിലും": 2170,
      "poo": 2171,
      "prad": 2172,
      "ere": 2173,
      "inaar": 2174,
      "193": 2175,
      "சே": 2176,
      "ായിരുന്നു": 2177,
      "sak": 2178,
      "ide": 2179,
      "योग": 2180,
      "பின்": 2181,
      "air": 2182,
      "ste": 2183,
      "la": 2184,
      "aandu": 2185,
      "prath": 2186,
      "ason": 2187,
      "നിന്ന്": 2188,
      "ओं": 2189,
      "கள்": 2190,
      "apane": 2191,
      "நீ": 2192,
      "ധി": 2193,
      "വ്": 2194,
      "സ്ഥാന": 2195,
      "amaana": 2196,
      "aki": 2197,
      "prat": 2198,
      "ளிய": 2199,
      "lee": 2200,
      "day": 2201,
      "ஸ்க": 2202,
      "मै": 2203,
      "நக": 2204,
      "अपने": 2205,
      "लो": 2206,
      "irand": 2207,
      "aai": 2208,
      "iyathu": 2209,
      "appatta": 2210,
      "dis": 2211,
      "anj": 2212,
      "இட": 2213,
      "vir": 2214,
      "su": 2215,
      "thi": 2216,
      "प्रति": 2217,
      "हीं": 2218,
      "ிக்": 2219,
      "अं": 2220,
      "vin": 2221,
      "ായ": 2222,
      "undu": 2223,
      "തുട": 2224,
      "adhu": 2225,
      "க்கிய": 2226,
      "ned": 2227,
      "परि": 2228,
      "போது": 2229,
      "udh": 2230,
      "iraar": 2231,
      "ven": 2232,
      "മൂ": 2233,
      "വീ": 2234,
      "മാർ": 2235,
      "kkum": 2236,
      "str": 2237,
      "ഷ്": 2238,
      "നും": 2239,
      "ില്ല": 2240,
      "हि": 2241,
      "जाता": 2242,
      "यू": 2243,
      "അതി": 2244,
      "aim": 2245,
      "jaataa": 2246,
      "from": 2247,
      "स्त": 2248,
      "kaan": 2249,
      "ब्": 2250,
      "angk": 2251,
      "ൻ്റെ": 2252,
      "ial": 2253,
      "naheen": 2254,
      "नहीं": 2255,
      "wo": 2256,
      "iyapp": 2257,
      "ചി": 2258,
      "എന്നിവ": 2259,
      "avarathu": 2260,
      "அவரது": 2261,
      "மைய": 2262,
      "ട്ടി": 2263,
      "टा": 2264,
      "aikal": 2265,
      "irunthth": 2266,
      "मिल": 2267,
      "वह": 2268,
      "തൽ": 2269,
      "ினார்": 2270,
      "രുടെ": 2271,
      "என்ற": 2272,
      "agu": 2273,
      "राज": 2274,
      "ராக": 2275,
      "soo": 2276,
      "dee": 2277,
      "ശേഷ": 2278,
      "bar": 2279,
      "opp": 2280,
      "mah": 2281,
      "puth": 2282,
      "aaru": 2283,
      "vis": 2284,
      "ayude": 2285,
      "യോഗ": 2286,
      "म्": 2287,
      "शन": 2288,
      "ணை": 2289,
      "சை": 2290,
      "nuu": 2291,
      "നൽ": 2292,
      "aah": 2293,
      "ayam": 2294,
      "ടുത്ത": 2295,
      "ബാ": 2296,
      "aran": 2297,
      "കി": 2298,
      "team": 2299,
      "बर": 2300,
      "aval": 2301,
      "paath": 2302,
      "സർ": 2303,
      "நே": 2304,
      "ാണ്": 2305,
      "sen": 2306,
      "செய்": 2307,
      "ப்பா": 2308,
      "thanathu": 2309,
      "தனது": 2310,
      "gam": 2311,
      "poor": 2312,
      "्यू": 2313,
      "ആദ്യ": 2314,
      "പ്പിക്ക": 2315,
      "ന്റ": 2316,
      "aane": 2317,
      "ork": 2318,
      "enb": 2319,
      "iyum": 2320,
      "डी": 2321,
      "ick": 2322,
      "dr": 2323,
      "கே": 2324,
      "कै": 2325,
      "ग्र": 2326,
      "min": 2327,
      "മാണ്": 2328,
      "bad": 2329,
      "നോ": 2330,
      "ബർ": 2331,
      "പരി": 2332,
      "pee": 2333,
      "நி": 2334,
      "शु": 2335,
      "ഴ്": 2336,
      "ജി": 2337,
      "bhaag": 2338,
      "പ്പ്": 2339,
      "cr": 2340,
      "விய": 2341,
      "use": 2342,
      "varsh": 2343,
      "ukh": 2344,
      "इन": 2345,
      "्या": 2346,
      "पे": 2347,
      "ற்று": 2348,
      "andru": 2349,
      "யா": 2350,
      "ഷ്ട": 2351,
      "kr": 2352,
      "र्ड": 2353,
      "endra": 2354,
      "os": 2355,
      "पूर्": 2356,
      "adi": 2357,
      "ലിയ": 2358,
      "eel": 2359,
      "med": 2360,
      "season": 2361,
      "amen": 2362,
      "டா": 2363,
      "des": 2364,
      "ரை": 2365,
      "niru": 2366,
      "sthaan": 2367,
      "ukirathu": 2368,
      "குறி": 2369,
      "வெளிய": 2370,
      "ire": 2371,
      "ilekku": 2372,
      "ंद": 2373,
      "zhil": 2374,
      "निर्": 2375,
      "ங்": 2376,
      "விள": 2377,
      "गी": 2378,
      "payan": 2379,
      "athum": 2380,
      "என்ப": 2381,
      "pt": 2382,
      "avarkal": 2383,
      "ियों": 2384,
      "fo": 2385,
      "ib": 2386,
      "നട": 2387,
      "മ്പ": 2388,
      "port": 2389,
      "avai": 2390,
      "we": 2391,
      "50": 2392,
      "अनु": 2393,
      "வரை": 2394,
      "ரிக்க": 2395,
      "oott": 2396,
      "வாக": 2397,
      "கட்ட": 2398,
      "स्थ": 2399,
      "ത്തിന്": 2400,
      "int": 2401,
      "தெ": 2402,
      "thiy": 2403,
      "ிகள்": 2404,
      "സോ": 2405,
      "sch": 2406,
      "லிய": 2407,
      "രുന്ന": 2408,
      "த்திற்கு": 2409,
      "kil": 2410,
      "aii": 2411,
      "kee": 2412,
      "टर": 2413,
      "sir": 2414,
      "द्ध": 2415,
      "mer": 2416,
      "ജ്": 2417,
      "ையை": 2418,
      "act": 2419,
      "அல்ல": 2420,
      "aguth": 2421,
      "atta": 2422,
      "गई": 2423,
      "வ்": 2424,
      "amaayi": 2425,
      "lu": 2426,
      "bhoo": 2427,
      "गए": 2428,
      "ीय": 2429,
      "ற்கு": 2430,
      "ethir": 2431,
      "gaye": 2432,
      "സ്വ": 2433,
      "rash": 2434,
      "ff": 2435,
      "அன்று": 2436,
      "aaran": 2437,
      "हर": 2438,
      "\".": 2439,
      "art": 2440,
      "ern": 2441,
      "नों": 2442,
      "ice": 2443,
      "जे": 2444,
      "vaha": 2445,
      "pett": 2446,
      "ാമ": 2447,
      "डे": 2448,
      "രിയ": 2449,
      "ീയ": 2450,
      "mig": 2451,
      "sur": 2452,
      "aattr": 2453,
      "2016": 2454,
      "saam": 2455,
      "ர்த": 2456,
      "ക്കു": 2457,
      "सु": 2458,
      "ail": 2459,
      "क्स": 2460,
      "2010": 2461,
      "nirm": 2462,
      "സമ": 2463,
      "kand": 2464,
      "pat": 2465,
      "ுள்ள": 2466,
      "iyo": 2467,
      "प्रा": 2468,
      "will": 2469,
      "जब": 2470,
      "ഭാഗ": 2471,
      "பகு": 2472,
      "ov": 2473,
      "வின்": 2474,
      "கொண்ட": 2475,
      "നായി": 2476,
      "ikkunna": 2477,
      "irupp": 2478,
      "ஆகிய": 2479,
      "moon": 2480,
      "ikkaan": 2481,
      "sthaa": 2482,
      "ies": 2483,
      "बना": 2484,
      "டெ": 2485,
      "thr": 2486,
      "ന്ത": 2487,
      "nam": 2488,
      "ையும்": 2489,
      "செய்ய": 2490,
      "ser": 2491,
      "പേ": 2492,
      "ളി": 2493,
      "hoe": 2494,
      "அமை": 2495,
      "उत्": 2496,
      "ാപ": 2497,
      "year": 2498,
      "27": 2499,
      "സീ": 2500,
      "(\"": 2501,
      "unar": 2502,
      "பெற்ற": 2503,
      "mak": 2504,
      "பதி": 2505,
      "niyam": 2506,
      "26": 2507,
      "amaaga": 2508,
      "have": 2509,
      "लै": 2510,
      "bandh": 2511,
      "iyin": 2512,
      "gaee": 2513,
      "െങ്ക": 2514,
      "oot": 2515,
      "उस": 2516,
      "28": 2517,
      "கிர": 2518,
      "നില": 2519,
      "naam": 2520,
      "29": 2521,
      "can": 2522,
      "wal": 2523,
      "vim": 2524,
      "shamil": 2525,
      "डि": 2526,
      "शामिल": 2527,
      "അവർ": 2528,
      "mad": 2529,
      "கை": 2530,
      "pravar": 2531,
      "kazh": 2532,
      "2017": 2533,
      "ഉൾ": 2534,
      "antha": 2535,
      "addeh": 2536,
      "puthiya": 2537,
      "निक": 2538,
      "ारी": 2539,
      "வர்": 2540,
      "kuzh": 2541,
      "sil": 2542,
      "ഉപയോഗ": 2543,
      "ayi": 2544,
      "சிற": 2545,
      "ങ്ങളിൽ": 2546,
      "ഡോ": 2547,
      "एस": 2548,
      "mil": 2549,
      "ബോ": 2550,
      "ക്ര": 2551,
      "mat": 2552,
      "adhan": 2553,
      "സ്റ്റ്": 2554,
      "pit": 2555,
      "yak": 2556,
      ",\"": 2557,
      "2012": 2558,
      "atthil": 2559,
      "தலை": 2560,
      "ivu": 2561,
      "allathu": 2562,
      "hein": 2563,
      "2011": 2564,
      "eend": 2565,
      "நேர": 2566,
      "varai": 2567,
      "samoo": 2568,
      "பிரி": 2569,
      "In": 2570,
      "लय": 2571,
      "ர்ந்த": 2572,
      "அல்லது": 2573,
      "பட": 2574,
      "ന്റ്": 2575,
      "cheiy": 2576,
      "ப்படுத்த": 2577,
      "yaan": 2578,
      "ங்களை": 2579,
      "ிறார்": 2580,
      "ina": 2581,
      "ight": 2582,
      "உரு": 2583,
      "கால": 2584,
      "നിര": 2585,
      "gro": 2586,
      "மிக": 2587,
      "athan": 2588,
      "ayile": 2589,
      "edukk": 2590,
      "maath": 2591,
      "அதிக": 2592,
      "pped": 2593,
      "jab": 2594,
      "நட": 2595,
      "ദി": 2596,
      "shuru": 2597,
      "aalum": 2598,
      "vik": 2599,
      "ball": 2600,
      "ജീ": 2601,
      "say": 2602,
      "നീ": 2603,
      "2014": 2604,
      "2015": 2605,
      "lag": 2606,
      "्रे": 2607,
      "പെ": 2608,
      "uld": 2609,
      "om": 2610,
      "avil": 2611,
      "ியது": 2612,
      "ധാന": 2613,
      "hn": 2614,
      "कॉ": 2615,
      "thathu": 2616,
      "தாக": 2617,
      "ഹാ": 2618,
      "ർന്ന": 2619,
      "ஆன": 2620,
      "खे": 2621,
      "atha": 2622,
      "ंध": 2623,
      "രാജ": 2624,
      "aine": 2625,
      "தோ": 2626,
      "സൈ": 2627,
      "aiyai": 2628,
      "കാല": 2629,
      "കൊ": 2630,
      "ूल": 2631,
      "aaram": 2632,
      "நகர": 2633,
      "eyar": 2634,
      "aus": 2635,
      "യില": 2636,
      "ழை": 2637,
      "ின்ற": 2638,
      "ലൈ": 2639,
      "ook": 2640,
      "yal": 2641,
      "நிறுவ": 2642,
      "sel": 2643,
      "மோ": 2644,
      "avid": 2645,
      "2013": 2646,
      "ens": 2647,
      "unake": 2648,
      "उनके": 2649,
      "yuu": 2650,
      "ശാ": 2651,
      "bhav": 2652,
      "बि": 2653,
      "aiyum": 2654,
      "2019": 2655,
      "coun": 2656,
      "चि": 2657,
      "rashtr": 2658,
      "kam": 2659,
      "odh": 2660,
      "attr": 2661,
      "don": 2662,
      "ജന": 2663,
      "ary": 2664,
      "இய": 2665,
      "ky": 2666,
      "க்கா": 2667,
      "कार्य": 2668,
      "ளர்": 2669,
      "hy": 2670,
      "uththu": 2671,
      "च्": 2672,
      "pahale": 2673,
      "पहले": 2674,
      "ബ്ര": 2675,
      "ரே": 2676,
      "ிலிருந்த": 2677,
      "ികള": 2678,
      "anu": 2679,
      "क्षे": 2680,
      "चार": 2681,
      "रु": 2682,
      "पि": 2683,
      "हे": 2684,
      "नो": 2685,
      "व्य": 2686,
      "ally": 2687,
      "vai": 2688,
      "விர": 2689,
      "சோ": 2690,
      "umm": 2691,
      "दर्": 2692,
      "raj": 2693,
      "पो": 2694,
      "வரி": 2695,
      "math": 2696,
      "arch": 2697,
      "அறி": 2698,
      "വരെ": 2699,
      "பட்ட": 2700,
      "old": 2701,
      "amp": 2702,
      "செய்த": 2703,
      "bhag": 2704,
      "தொடர்": 2705,
      "vo": 2706,
      "ident": 2707,
      "vay": 2708,
      "ആർ": 2709,
      "pras": 2710,
      "its": 2711,
      "ஷ்": 2712,
      "शे": 2713,
      "ചാ": 2714,
      "hon": 2715,
      "iyaaga": 2716,
      "illai": 2717,
      "fran": 2718,
      "sey": 2719,
      "paduthth": 2720,
      "aththirku": 2721,
      "बार": 2722,
      "मार्": 2723,
      "सक": 2724,
      "madh": 2725,
      "lic": 2726,
      "മുള്ള": 2727,
      "anar": 2728,
      "inar": 2729,
      "ष्ट्र": 2730,
      "ew": 2731,
      "vaan": 2732,
      "ல்க": 2733,
      "kon": 2734,
      "ട്ടു": 2735,
      "kshe": 2736,
      "சீ": 2737,
      "eeya": 2738,
      "rak": 2739,
      "ங்கு": 2740,
      "pak": 2741,
      "ജോ": 2742,
      "jaa": 2743,
      "്യൂ": 2744,
      "si": 2745,
      "lin": 2746,
      "தற்க": 2747,
      "190": 2748,
      "னு": 2749,
      "ங்களில்": 2750,
      "2020": 2751,
      "ttu": 2752,
      "சில": 2753,
      "haa": 2754,
      "ப்பின": 2755,
      "baar": 2756,
      "akku": 2757,
      "vaakk": 2758,
      "wn": 2759,
      "அதன்": 2760,
      "school": 2761,
      "देश": 2762,
      "ிலிருந்து": 2763,
      "tur": 2764,
      "दौ": 2765,
      "த்தார்": 2766,
      "piragu": 2767,
      "ான்": 2768,
      "poru": 2769,
      "amaipp": 2770,
      "kav": 2771,
      "ഹോ": 2772,
      "samay": 2773,
      "ുന്നത്": 2774,
      "thozhil": 2775,
      "angalum": 2776,
      "நிய": 2777,
      "amaan": 2778,
      "मो": 2779,
      "லம்": 2780,
      "nav": 2781,
      "yan": 2782,
      "mill": 2783,
      "ര്യ": 2784,
      "र्ट": 2785,
      "यर": 2786,
      "डा": 2787,
      "प्त": 2788,
      "munn": 2789,
      "not": 2790,
      "കെ": 2791,
      "unhein": 2792,
      "उन्हें": 2793,
      "லோ": 2794,
      "यो": 2795,
      "लग": 2796,
      "मुख": 2797,
      "sab": 2798,
      "thodar": 2799,
      "கட": 2800,
      "kkal": 2801,
      "thante": 2802,
      "பிறகு": 2803,
      "ക്കും": 2804,
      "vyak": 2805,
      "ulpped": 2806,
      "je": 2807,
      "iyai": 2808,
      "\")": 2809,
      "thur": 2810,
      "who": 2811,
      "क्षेत्र": 2812,
      "തിയ": 2813,
      "juun": 2814,
      "40": 2815,
      "2008": 2816,
      "2009": 2817,
      "nig": 2818,
      "this": 2819,
      "क्त": 2820,
      "ஜெ": 2821,
      "rit": 2822,
      "सर": 2823,
      "யூ": 2824,
      "apani": 2825,
      "adhi": 2826,
      "ர்க்க": 2827,
      "ശേഷം": 2828,
      "cord": 2829,
      "க்கப்பட்டது": 2830,
      "பெய": 2831,
      "akkal": 2832,
      "விளையா": 2833,
      "नाम": 2834,
      "anya": 2835,
      "2007": 2836,
      "pala": 2837,
      "தொழ": 2838,
      "அமெ": 2839,
      "time": 2840,
      "bal": 2841,
      "dha": 2842,
      "பாட": 2843,
      "anai": 2844,
      "nar": 2845,
      "ढ़": 2846,
      "aiyin": 2847,
      "ஸ்ட்": 2848,
      "sad": 2849,
      "pii": 2850,
      "100": 2851,
      "बंध": 2852,
      "லில்": 2853,
      "sp": 2854,
      "सब": 2855,
      "ions": 2856,
      "ത്ഥ": 2857,
      "jaan": 2858,
      "ththa": 2859,
      "പ്രവർ": 2860,
      "ukalil": 2861,
      "avu": 2862,
      "രണം": 2863,
      "മ്പ്": 2864,
      "avarude": 2865,
      "ட்டி": 2866,
      "எஸ்": 2867,
      "ഡെ": 2868,
      "sin": 2869,
      "ger": 2870,
      "lla": 2871,
      "vare": 2872,
      "गो": 2873,
      "desh": 2874,
      "ஃப": 2875,
      "എസ്": 2876,
      "அமெரிக்க": 2877,
      "र्म": 2878,
      "tru": 2879,
      "yog": 2880,
      "more": 2881,
      "ுகளை": 2882,
      "ണം": 2883,
      "pas": 2884,
      "किन": 2885,
      "ப்படுகிறது": 2886,
      "த்துவ": 2887,
      "aala": 2888,
      "णा": 2889,
      "ண்ட்": 2890,
      "rump": 2891,
      "chu": 2892,
      "chaar": 2893,
      "aari": 2894,
      "ozh": 2895,
      "தீ": 2896,
      "dar": 2897,
      "धार": 2898,
      "ர்ட்": 2899,
      "विश्": 2900,
      "ंप": 2901,
      "kudumb": 2902,
      "പ്പി": 2903,
      "ब्र": 2904,
      "munbu": 2905,
      "ചെ": 2906,
      "ence": 2907,
      "ward": 2908,
      "ep": 2909,
      "sath": 2910,
      "சூ": 2911,
      "ise": 2912,
      "യം": 2913,
      "li": 2914,
      "nor": 2915,
      "ியில்": 2916,
      "di": 2917,
      "ின்றன": 2918,
      "inter": 2919,
      "ல்ப": 2920,
      "പ്പെട്ടു": 2921,
      "irunththathu": 2922,
      "ബ്ല": 2923,
      "സിൽ": 2924,
      "hue": 2925,
      "had": 2926,
      "த்திர": 2927,
      "cent": 2928,
      "iyude": 2929,
      "anakk": 2930,
      "illa": 2931,
      "189": 2932,
      "mb": 2933,
      "கரு": 2934,
      "ബെ": 2935,
      "ண்டும்": 2936,
      "play": 2937,
      "പ്പെടുന്നു": 2938,
      "हुए": 2939,
      "kath": 2940,
      "veliy": 2941,
      "ഏറ്റ": 2942,
      "II": 2943,
      "ങ്ങളുടെ": 2944,
      "വർഷ": 2945,
      "age": 2946,
      "धा": 2947,
      "ahar": 2948,
      "aras": 2949,
      "ക്കുകയും": 2950,
      "tral": 2951,
      "jisamen": 2952,
      "जिसमें": 2953,
      "ത്തില": 2954,
      "ையின்": 2955,
      "ஞ்": 2956,
      "compan": 2957,
      "बै": 2958,
      "bah": 2959,
      "kol": 2960,
      "அர": 2961,
      "Th": 2962,
      "പ്രതി": 2963,
      "shak": 2964,
      "gen": 2965,
      "anum": 2966,
      "fin": 2967,
      "லக": 2968,
      "பயன்ப": 2969,
      "ாவது": 2970,
      "maer": 2971,
      "பயன்படுத்த": 2972,
      "गे": 2973,
      "mi": 2974,
      "ezhuth": 2975,
      "வழங்க": 2976,
      "shik": 2977,
      "இரண்டு": 2978,
      "കഴ": 2979,
      "चे": 2980,
      "यन": 2981,
      "aanaal": 2982,
      "irandu": 2983,
      "america": 2984,
      "अधिक": 2985,
      "kah": 2986,
      "बो": 2987,
      "னா": 2988,
      "தர": 2989,
      "vae": 2990,
      "ंत्र": 2991,
      "chal": 2992,
      "oof": 2993,
      "ni": 2994,
      "ियो": 2995,
      "യെ": 2996,
      "ഡിയ": 2997,
      "രിച്ച": 2998,
      "kartaa": 2999,
      "करता": 3000,
      "fir": 3001,
      "ിക്കുന്നു": 3002,
      "her": 3003,
      "മുതൽ": 3004,
      "दू": 3005,
      "eye": 3006,
      "ിക്കുകയും": 3007,
      "rund": 3008,
      "jin": 3009,
      "aapt": 3010,
      "ஆனால்": 3011,
      "mee": 3012,
      "വം": 3013,
      "ഫ്ര": 3014,
      "टो": 3015,
      "fe": 3016,
      "daur": 3017,
      "ikkum": 3018,
      "അവരുടെ": 3019,
      "seith": 3020,
      "െയ്": 3021,
      "den": 3022,
      "avadhi": 3023,
      "moolam": 3024,
      "kaaranam": 3025,
      "वर": 3026,
      "राज्य": 3027,
      "स्क": 3028,
      "ബന്": 3029,
      "log": 3030,
      "poathu": 3031,
      "ated": 3032,
      "ക്ട": 3033,
      "ளுடன்": 3034,
      "இருந்தது": 3035,
      "jeev": 3036,
      "sit": 3037,
      "ശ്ര": 3038,
      "2021": 3039,
      "2006": 3040,
      "மாற்ற": 3041,
      "ൂർ": 3042,
      "ല്ലാ": 3043,
      "ड़ा": 3044,
      "ical": 3045,
      "bur": 3046,
      "asam": 3047,
      "nalk": 3048,
      "ॉल": 3049,
      "െടു": 3050,
      "ace": 3051,
      "सन": 3052,
      "കേ": 3053,
      "உய": 3054,
      "AP": 3055,
      "സിയ": 3056,
      "paguth": 3057,
      "டோ": 3058,
      "pradh": 3059,
      "seyal": 3060,
      "aadi": 3061,
      "उपयोग": 3062,
      "cy": 3063,
      "முறை": 3064,
      "kaam": 3065,
      "ez": 3066,
      "लिया": 3067,
      "जै": 3068,
      "कों": 3069,
      "cha": 3070,
      "രണ്ട്": 3071,
      "വു": 3072,
      "സു": 3073,
      "da": 3074,
      "ugh": 3075,
      "स्थित": 3076,
      "fil": 3077,
      "முடி": 3078,
      "pinnar": 3079,
      "div": 3080,
      "റാ": 3081,
      "rand": 3082,
      "ann": 3083,
      "kalai": 3084,
      "ippu": 3085,
      "Ch": 3086,
      "but": 3087,
      "john": 3088,
      "மொ": 3089,
      "பின்னர்": 3090,
      "sy": 3091,
      "நிக": 3092,
      "ുകളിൽ": 3093,
      "க்கள்": 3094,
      "முன்": 3095,
      "വന": 3096,
      "line": 3097,
      "tro": 3098,
      "ड़ी": 3099,
      "pu": 3100,
      "ும்ப": 3101,
      "enbathu": 3102,
      "पै": 3103,
      "ees": 3104,
      "aatha": 3105,
      "என்பது": 3106,
      "உருவா": 3107,
      "oc": 3108,
      "aga": 3109,
      "वाले": 3110,
      "ry": 3111,
      "ரண": 3112,
      "ൻസ്": 3113,
      "aduth": 3114,
      "vaale": 3115,
      "khel": 3116,
      "ikku": 3117,
      "mand": 3118,
      "ങ്ങളും": 3119,
      "अपनी": 3120,
      "ज्": 3121,
      "ലീ": 3122,
      "lekin": 3123,
      "लेकिन": 3124,
      "ജൂ": 3125,
      "iii": 3126,
      "able": 3127,
      "ung": 3128,
      "ran": 3129,
      "एन": 3130,
      "their": 3131,
      "സേ": 3132,
      "work": 3133,
      "coll": 3134,
      "ക്സ്": 3135,
      "idam": 3136,
      "क्षा": 3137,
      "pariv": 3138,
      "vaar": 3139,
      "തീ": 3140,
      "aikku": 3141,
      "ரும்": 3142,
      "सो": 3143,
      "thiru": 3144,
      "tor": 3145,
      "ொரு": 3146,
      "തിര": 3147,
      "uyar": 3148,
      "karate": 3149,
      "pall": 3150,
      "vag": 3151,
      "खि": 3152,
      "ikka": 3153,
      "thay": 3154,
      "ாக்": 3155,
      "dou": 3156,
      "inum": 3157,
      "ign": 3158,
      "prash": 3159,
      "eek": 3160,
      "ர்வ": 3161,
      "ci": 3162,
      "our": 3163,
      "31": 3164,
      "aiyaana": 3165,
      "ington": 3166,
      "कई": 3167,
      "isht": 3168,
      "करते": 3169,
      "सू": 3170,
      "अमे": 3171,
      "ரின்": 3172,
      "फा": 3173,
      "ji": 3174,
      "കുറ": 3175,
      "அடி": 3176,
      "An": 3177,
      "हुआ": 3178,
      "sal": 3179,
      "ott": 3180,
      "ണ്ടി": 3181,
      "mas": 3182,
      "vas": 3183,
      "ന്ദ": 3184,
      "bl": 3185,
      "kaee": 3186,
      "ச்சி": 3187,
      "angku": 3188,
      "பண": 3189,
      "sesham": 3190,
      "ளா": 3191,
      "cher": 3192,
      "ஹா": 3193,
      "lik": 3194,
      "ഗോ": 3195,
      "inj": 3196,
      "ടാ": 3197,
      "aiss": 3198,
      "ிற்க": 3199,
      "aavathu": 3200,
      "bas": 3201,
      "fl": 3202,
      "naad": 3203,
      "poatt": 3204,
      "ശ്": 3205,
      "thaan": 3206,
      "shr": 3207,
      "ത്തിലെ": 3208,
      "ket": 3209,
      "வது": 3210,
      "विश्व": 3211,
      "naan": 3212,
      "pres": 3213,
      "தொடங்க": 3214,
      "ट्": 3215,
      "ரெ": 3216,
      "__": 3217,
      "जू": 3218,
      "koott": 3219,
      "க்கான": 3220,
      "ധ്യ": 3221,
      "leeii": 3222,
      "prav": 3223,
      "வரு": 3224,
      "ഹി": 3225,
      "वर्ष": 3226,
      "%;": 3227,
      "eral": 3228,
      "நோ": 3229,
      "ிட்ட": 3230,
      "ullana": 3231,
      "र्थ": 3232,
      "thad": 3233,
      "പുറ": 3234,
      "ர்க்": 3235,
      "குறிப்ப": 3236,
      "टन": 3237,
      "eendum": 3238,
      "thodang": 3239,
      "ഫി": 3240,
      "വള": 3241,
      "irunn": 3242,
      "നിന്ന": 3243,
      "kir": 3244,
      "huaa": 3245,
      "appettu": 3246,
      "गीत": 3247,
      "ഓഫ്": 3248,
      "bee": 3249,
      "ade": 3250,
      "bhi": 3251,
      "ny": 3252,
      "ഷ്യ": 3253,
      "2022": 3254,
      "aagavum": 3255,
      "188": 3256,
      "പ്രധാന": 3257,
      "thanar": 3258,
      "cheyy": 3259,
      "பொது": 3260,
      "यालय": 3261,
      "ഖ്യ": 3262,
      "ുകളും": 3263,
      "राष्ट्र": 3264,
      "நிலை": 3265,
      "nigazh": 3266,
      "podh": 3267,
      "aykk": 3268,
      "வடி": 3269,
      "ris": 3270,
      "ations": 3271,
      "அட": 3272,
      "ൂപ": 3273,
      "poar": 3274,
      "ர்த்த": 3275,
      "eed": 3276,
      ".)": 3277,
      "sain": 3278,
      "நிறுவன": 3279,
      "vikas": 3280,
      "ധാ": 3281,
      "eedu": 3282,
      "छो": 3283,
      "uruvaakk": 3284,
      "முக": 3285,
      "പ്പോൾ": 3286,
      "kutt": 3287,
      "bus": 3288,
      "மூலம்": 3289,
      "अन्य": 3290,
      "payanpaduthth": 3291,
      "பூ": 3292,
      "fi": 3293,
      "sent": 3294,
      "தில்": 3295,
      "org": 3296,
      "angalude": 3297,
      "സ്ട്ര": 3298,
      "eld": 3299,
      "समय": 3300,
      "ികൾ": 3301,
      "saar": 3302,
      "லு": 3303,
      "she": 3304,
      "ृत": 3305,
      "back": 3306,
      "ത്സ": 3307,
      "தியில்": 3308,
      "yalaya": 3309,
      "pen": 3310,
      "क्ति": 3311,
      "ship": 3312,
      "oy": 3313,
      "ida": 3314,
      "ctor": 3315,
      "സ്ഥി": 3316,
      "मार": 3317,
      "iness": 3318,
      "aff": 3319,
      "സ്ത്ര": 3320,
      "களை": 3321,
      "ttar": 3322,
      "कम": 3323,
      "ode": 3324,
      "over": 3325,
      "part": 3326,
      "எழு": 3327,
      "ippad": 3328,
      "മാന": 3329,
      "atthinte": 3330,
      "ചെയ്ത": 3331,
      "പ്രാ": 3332,
      "നൽക": 3333,
      "दान": 3334,
      "chith": 3335,
      "jaba": 3336,
      "ची": 3337,
      "भू": 3338,
      "अमेरि": 3339,
      "60": 3340,
      "ure": 3341,
      "kuchh": 3342,
      "कुछ": 3343,
      "மதி": 3344,
      "aich": 3345,
      "kalil": 3346,
      "lam": 3347,
      "சன்": 3348,
      "indr": 3349,
      "aagiy": 3350,
      "St": 3351,
      "ukt": 3352,
      "േറ്റ": 3353,
      "र्क": 3354,
      "ம்பர்": 3355,
      "thog": 3356,
      "2000": 3357,
      "rashtriya": 3358,
      "யு": 3359,
      "த்தது": 3360,
      "avattr": 3361,
      "െങ്കിൽ": 3362,
      "ഫെ": 3363,
      "முன்ன": 3364,
      "പാർ": 3365,
      "വധി": 3366,
      "arm": 3367,
      "seiyapp": 3368,
      "appadug": 3369,
      "ுகளில்": 3370,
      "னில்": 3371,
      "दौरा": 3372,
      "ഴു": 3373,
      "2005": 3374,
      "വിൽ": 3375,
      "jai": 3376,
      "ப்பை": 3377,
      "raajya": 3378,
      "emm": 3379,
      "ettavum": 3380,
      "ட்டை": 3381,
      "athark": 3382,
      "fer": 3383,
      "after": 3384,
      "ிலும்": 3385,
      "അനു": 3386,
      "oon": 3387,
      "antra": 3388,
      "alleng": 3389,
      "aeye": 3390,
      "sand": 3391,
      "कहा": 3392,
      "athi": 3393,
      "இணை": 3394,
      "विद्": 3395,
      "കട": 3396,
      "രണ്ട": 3397,
      "record": 3398,
      "काम": 3399,
      "ഏറ്റവും": 3400,
      "pettr": 3401,
      "ikar": 3402,
      "லெ": 3403,
      "pin": 3404,
      "லே": 3405,
      "வான": 3406,
      "ന്യൂ": 3407,
      "antar": 3408,
      "चु": 3409,
      "றிய": 3410,
      "shar": 3411,
      "sthaap": 3412,
      "kshetra": 3413,
      "chii": 3414,
      "riya": 3415,
      "ved": 3416,
      "സൺ": 3417,
      "galil": 3418,
      "अधि": 3419,
      "been": 3420,
      "vam": 3421,
      "ww": 3422,
      "ater": 3423,
      "eur": 3424,
      "ழி": 3425,
      "பொரு": 3426,
      "ிரு": 3427,
      "report": 3428,
      "les": 3429,
      "ukalum": 3430,
      "sii": 3431,
      "സ്ത": 3432,
      "vij": 3433,
      "ort": 3434,
      "ச்சிய": 3435,
      "arnnu": 3436,
      "जु": 3437,
      "വൈ": 3438,
      "maatt": 3439,
      "raksh": 3440,
      "paan": 3441,
      "vaazh": 3442,
      "2004": 3443,
      "ளாக": 3444,
      "നിയമ": 3445,
      "முக்கிய": 3446,
      "ചിത്ര": 3447,
      "uddh": 3448,
      "பள்ள": 3449,
      "ழ்க": 3450,
      "cre": 3451,
      "pul": 3452,
      "പൊ": 3453,
      "ais": 3454,
      "അമേ": 3455,
      "റ്റാ": 3456,
      "ழுவ": 3457,
      "ध्य": 3458,
      "க்கி": 3459,
      "vash": 3460,
      "രീ": 3461,
      "chho": 3462,
      "sabse": 3463,
      "सबसे": 3464,
      "த்திய": 3465,
      "ുകളുടെ": 3466,
      "വരി": 3467,
      "ஜூ": 3468,
      "ublic": 3469,
      "ഷി": 3470,
      "െയി": 3471,
      "ement": 3472,
      "varum": 3473,
      "187": 3474,
      "aitt": 3475,
      "vilaiy": 3476,
      "ज्ञ": 3477,
      "He": 3478,
      "gu": 3479,
      "എൻ": 3480,
      "shahar": 3481,
      "ിലേക്ക്": 3482,
      "ീകരിക്ക": 3483,
      "േഷൻ": 3484,
      "நெ": 3485,
      "aarr": 3486,
      "saal": 3487,
      "അത്": 3488,
      "അമേരിക്ക": 3489,
      "गु": 3490,
      "പ്പോ": 3491,
      "खेल": 3492,
      "kkur": 3493,
      "ടിയ": 3494,
      "au": 3495,
      "oathu": 3496,
      "ക്കുന്നു": 3497,
      "ാർത്ഥ": 3498,
      "രൂപ": 3499,
      "करण": 3500,
      "--": 3501,
      "உறு": 3502,
      "try": 3503,
      "किए": 3504,
      "समा": 3505,
      "beach": 3506,
      "esham": 3507,
      "भाग": 3508,
      "kiye": 3509,
      "തോ": 3510,
      "எல்": 3511,
      "पूर्व": 3512,
      "தன்": 3513,
      "anil": 3514,
      "വോ": 3515,
      "ember": 3516,
      "nirmm": 3517,
      "शहर": 3518,
      "धि": 3519,
      "sev": 3520,
      "ബന്ധ": 3521,
      "സൂ": 3522,
      "vic": 3523,
      "De": 3524,
      "அழை": 3525,
      "peyar": 3526,
      "கம்": 3527,
      "ஆகும்": 3528,
      "wa": 3529,
      "tal": 3530,
      "ണ്ടെ": 3531,
      "இன்": 3532,
      "वन": 3533,
      "miss": 3534,
      "ചേ": 3535,
      "फो": 3536,
      "niravadhi": 3537,
      "നിരവധി": 3538,
      "क्रम": 3539,
      "ப்ர": 3540,
      "vishesh": 3541,
      "leag": 3542,
      "കൂടു": 3543,
      "ஜி": 3544,
      "esday": 3545,
      "രിച്ചു": 3546,
      "pa": 3547,
      "thitt": 3548,
      "श्र": 3549,
      "आर": 3550,
      "addehathinte": 3551,
      "रिक": 3552,
      "argal": 3553,
      "लोग": 3554,
      "ite": 3555,
      "noott": 3556,
      "ൻഡ": 3557,
      "cus": 3558,
      "ണ്ണ": 3559,
      "iyakk": 3560,
      "எதிர": 3561,
      "സ്ഥാപ": 3562,
      "തന്റെ": 3563,
      "kooduthal": 3564,
      "lad": 3565,
      "சொ": 3566,
      "निया": 3567,
      "கொண்டு": 3568,
      "शुरू": 3569,
      "உள்ளது": 3570,
      "sc": 3571,
      "स्व": 3572,
      "paal": 3573,
      "ഫോ": 3574,
      "muzh": 3575,
      "सै": 3576,
      "ட்சி": 3577,
      "indrana": 3578,
      "ins": 3579,
      "aadya": 3580,
      "varal": 3581,
      "ിക്കുന്ന": 3582,
      "der": 3583,
      "शी": 3584,
      "ese": 3585,
      "லாம்": 3586,
      "sutt": 3587,
      "ിച്ചി": 3588,
      "aththirk": 3589,
      "company": 3590,
      "izh": 3591,
      "വര": 3592,
      "மார்": 3593,
      "അഭ": 3594,
      "mukh": 3595,
      "sho": 3596,
      "makkal": 3597,
      "reg": 3598,
      "were": 3599,
      "तु": 3600,
      "form": 3601,
      "ரம்ப": 3602,
      "star": 3603,
      "മായിരുന്നു": 3604,
      "avin": 3605,
      "दौरान": 3606,
      "dauran": 3607,
      "iyaan": 3608,
      "appu": 3609,
      "குறை": 3610,
      "ियन": 3611,
      "അംഗ": 3612,
      "kuripp": 3613,
      "ுகின்றன": 3614,
      "saadh": 3615,
      "ഫോർ": 3616,
      "anus": 3617,
      "laa": 3618,
      "लैंड": 3619,
      "pand": 3620,
      "kapp": 3621,
      "ആയി": 3622,
      "ள்ளது": 3623,
      "வில்லை": 3624,
      "ley": 3625,
      "വശ": 3626,
      "ings": 3627,
      "കർ": 3628,
      "ayan": 3629,
      "ஆர்": 3630,
      "aahar": 3631,
      "लन": 3632,
      "kai": 3633,
      "തല": 3634,
      "brit": 3635,
      "एम": 3636,
      "ड़े": 3637,
      "இசை": 3638,
      "appattaar": 3639,
      "ளால்": 3640,
      "ചരി": 3641,
      "बीच": 3642,
      "unaki": 3643,
      "ையாக": 3644,
      "ஆண்டு": 3645,
      "उनकी": 3646,
      "phir": 3647,
      "ghar": 3648,
      "கீ": 3649,
      "paris": 3650,
      "स्टे": 3651,
      "dan": 3652,
      "युक्त": 3653,
      "vitt": 3654,
      "ക്കുന്ന": 3655,
      "फिर": 3656,
      "unnathin": 3657,
      "niruv": 3658,
      "ക്കോ": 3659,
      "போட்ட": 3660,
      "शेष": 3661,
      "ഭൂ": 3662,
      "அவர்கள்": 3663,
      "ंबर": 3664,
      "எம்": 3665,
      "iththu": 3666,
      "ada": 3667,
      "about": 3668,
      "നിർമ്മ": 3669,
      "rier": 3670,
      "honey": 3671,
      "irunthaar": 3672,
      "आई": 3673,
      "men": 3674,
      "അവസ": 3675,
      "club": 3676,
      "ടീ": 3677,
      "ev": 3678,
      "ron": 3679,
      "aathe": 3680,
      "புதிய": 3681,
      "தியாக": 3682,
      "കൌ": 3683,
      "கலை": 3684,
      "aayum": 3685,
      "മത്സ": 3686,
      "അല്ല": 3687,
      "ction": 3688,
      "two": 3689,
      "एफ": 3690,
      "ந்தார்": 3691,
      "கண": 3692,
      "்களின்": 3693,
      "ics": 3694,
      "186": 3695,
      "mor": 3696,
      "ഇട": 3697,
      "പ്രത്യ": 3698,
      "rad": 3699,
      "rid": 3700,
      "avillai": 3701,
      "പറ": 3702,
      "poorv": 3703,
      "എന്ന്": 3704,
      "my": 3705,
      "स्थाप": 3706,
      "நிகழ்": 3707,
      "chil": 3708,
      "prabh": 3709,
      "malsar": 3710,
      "റേ": 3711,
      "നാൽ": 3712,
      "nan": 3713,
      "vell": 3714,
      "ഹെ": 3715,
      "kaat": 3716,
      "ps": 3717,
      "ந்தது": 3718,
      "peru": 3719,
      "migavum": 3720,
      "மிகவும்": 3721,
      "வரலா": 3722,
      "gar": 3723,
      "ப்படும்": 3724,
      "chit": 3725,
      "फे": 3726,
      "jah": 3727,
      "ക്കാൻ": 3728,
      "khil": 3729,
      "foot": 3730,
      "hel": 3731,
      "होने": 3732,
      "2002": 3733,
      "atch": 3734,
      "வெளி": 3735,
      "1990": 3736,
      "खिला": 3737,
      "ंच": 3738,
      "ha": 3739,
      "kaaran": 3740,
      "any": 3741,
      "wari": 3742,
      "daksh": 3743,
      "வார்": 3744,
      "விட": 3745,
      "திட்ட": 3746,
      "പിന്ന": 3747,
      "kanakk": 3748,
      "ld": 3749,
      "ർശ": 3750,
      "bhar": 3751,
      "तो": 3752,
      "kka": 3753,
      "र्ष": 3754,
      "bin": 3755,
      "हास": 3756,
      "tan": 3757,
      "arsh": 3758,
      "aarambh": 3759,
      "विद्यालय": 3760,
      "भि": 3761,
      "hal": 3762,
      "sila": 3763,
      "lead": 3764,
      "2003": 3765,
      "യ്ക്ക്": 3766,
      "പ്രദേശ": 3767,
      "வட": 3768,
      "uka": 3769,
      "bel": 3770,
      "maa": 3771,
      "bi": 3772,
      "ட்டா": 3773,
      "sing": 3774,
      "தல்": 3775,
      "सह": 3776,
      "லீ": 3777,
      "अंत": 3778,
      "ज्ञा": 3779,
      "aug": 3780,
      "பெரும்": 3781,
      "kaary": 3782,
      "tii": 3783,
      "ിയുടെ": 3784,
      "त्व": 3785,
      "എം": 3786,
      "koor": 3787,
      "ചെയ്യുന്നു": 3788,
      "കൃ": 3789,
      "ത്തോ": 3790,
      "இரண்ட": 3791,
      "isake": 3792,
      "paksh": 3793,
      "saan": 3794,
      "mik": 3795,
      "इसके": 3796,
      "വിത": 3797,
      "35": 3798,
      "തിരഞ്ഞ": 3799,
      "ca": 3800,
      "ks": 3801,
      "ക്കൻ": 3802,
      "ண்ண": 3803,
      "निय": 3804,
      "ചരിത്ര": 3805,
      "muk": 3806,
      "என்": 3807,
      "பர்": 3808,
      "mel": 3809,
      "கூற": 3810,
      "ലേ": 3811,
      "പതി": 3812,
      "രിൽ": 3813,
      "bro": 3814,
      "col": 3815,
      "aavil": 3816,
      "angkalil": 3817,
      "सद": 3818,
      "other": 3819,
      "களில்": 3820,
      "जहा": 3821,
      "thiranj": 3822,
      "dam": 3823,
      "फ्": 3824,
      "uthi": 3825,
      "sept": 3826,
      "सेवा": 3827,
      "sht": 3828,
      "स्ता": 3829,
      "രംഭ": 3830,
      "ezz": 3831,
      "pram": 3832,
      "ates": 3833,
      "allengil": 3834,
      "റിൽ": 3835,
      "എഫ്": 3836,
      "ടുത്തി": 3837,
      "विक": 3838,
      "ej": 3839,
      "அனு": 3840,
      "സഹ": 3841,
      "akon": 3842,
      "ita": 3843,
      "तिहास": 3844,
      "newy": 3845,
      "അല്ലെങ്കിൽ": 3846,
      "डो": 3847,
      "க்கிறது": 3848,
      "first": 3849,
      "ൂടെ": 3850,
      "under": 3851,
      "முற": 3852,
      "ors": 3853,
      "ariv": 3854,
      "says": 3855,
      "ंक": 3856,
      "एल": 3857,
      "ഉണ്ട": 3858,
      "cumm": 3859,
      "ഷൻ": 3860,
      "ंद्र": 3861,
      "naa": 3862,
      "veer": 3863,
      "pun": 3864,
      "inam": 3865,
      "adhy": 3866,
      "45": 3867,
      "க்கை": 3868,
      "dur": 3869,
      "चित": 3870,
      "லின்": 3871,
      "ppu": 3872,
      "लॉ": 3873,
      "னின்": 3874,
      "നിൽ": 3875,
      "haal": 3876,
      "also": 3877,
      "बन": 3878,
      "pravart": 3879,
      "ങ്ങി": 3880,
      "ണെ": 3881,
      "ഉയ": 3882,
      "ப்ட": 3883,
      "hii": 3884,
      "vaend": 3885,
      "2001": 3886,
      "satt": 3887,
      "പോൾ": 3888,
      "ട്ടുണ്ട്": 3889,
      "wor": 3890,
      "പൂർ": 3891,
      "galai": 3892,
      "tober": 3893,
      "gan": 3894,
      "നായ": 3895,
      "ാൽ": 3896,
      "ennum": 3897,
      "ுகிறார்": 3898,
      "जॉ": 3899,
      "sid": 3900,
      "ग्": 3901,
      "dakshin": 3902,
      "\"\"": 3903,
      "इसे": 3904,
      "alag": 3905,
      "appadum": 3906,
      "oh": 3907,
      "സ്കൂ": 3908,
      "ettu": 3909,
      "യുദ്ധ": 3910,
      "tou": 3911,
      "ara": 3912,
      "പ്പെടുത്ത": 3913,
      "naal": 3914,
      "thath": 3915,
      "unnathu": 3916,
      "vadiv": 3917,
      "paer": 3918,
      "1970": 3919,
      "march": 3920,
      "kalin": 3921,
      "വിദ്യ": 3922,
      "வாழ்க": 3923,
      "அனை": 3924,
      "now": 3925,
      "പ്പം": 3926,
      "1980": 3927,
      "ஜ்": 3928,
      "ங்கா": 3929,
      "clo": 3930,
      "റു": 3931,
      "இறு": 3932,
      "pre": 3933,
      "പുതിയ": 3934,
      "...": 3935,
      "அண": 3936,
      "ariyapp": 3937,
      "ന്നും": 3938,
      "ूह": 3939,
      "्री": 3940,
      "amg": 3941,
      "kaatt": 3942,
      "jise": 3943,
      "അവസാന": 3944,
      "sum": 3945,
      "viru": 3946,
      "लों": 3947,
      "क्षि": 3948,
      "जिसे": 3949,
      "aasth": 3950,
      "iyaalar": 3951,
      "appattana": 3952,
      "சட்ட": 3953,
      "ரீ": 3954,
      "show": 3955,
      "ഞ്ച": 3956,
      "छा": 3957,
      "பிடி": 3958,
      "सित": 3959,
      "பர": 3960,
      "aaee": 3961,
      "ட்டில்": 3962,
      "இருந்தார்": 3963,
      "பற்ற": 3964,
      "ടും": 3965,
      "arth": 3966,
      "க்கம்": 3967,
      "kend": 3968,
      "ൻഡ്": 3969,
      "ियर": 3970,
      "യാണ്": 3971,
      "ுள்ளது": 3972,
      "അദ്ദേഹത്തിന്റെ": 3973,
      "33": 3974,
      "शो": 3975,
      "റ്റർ": 3976,
      "ലഭ": 3977,
      "sha": 3978,
      "labh": 3979,
      "randaam": 3980,
      "ஸ்த": 3981,
      "sr": 3982,
      "ंत": 3983,
      "doub": 3984,
      "ലോക": 3985,
      "eiii": 3986,
      "திரு": 3987,
      "sav": 3988,
      "IN": 3989,
      "வடிவ": 3990,
      "thangal": 3991,
      "thudarnnu": 3992,
      "moo": 3993,
      "cheiyunnu": 3994,
      "മുൻ": 3995,
      "cap": 3996,
      "dw": 3997,
      "ited": 3998,
      "which": 3999,
      "திற": 4000,
      "गि": 4001,
      "ப்போ": 4002,
      "kall": 4003,
      "appadukirathu": 4004,
      "samooh": 4005,
      "विशेष": 4006,
      "நாட": 4007,
      "ford": 4008,
      "august": 4009,
      "prof": 4010,
      "athai": 4011,
      "ago": 4012,
      "உலக": 4013,
      "ജെ": 4014,
      "ൽപ്പ": 4015,
      "வேறு": 4016,
      "70": 4017,
      "65": 4018,
      "ையான": 4019,
      "vaeru": 4020,
      "ിക്കാ": 4021,
      "வய": 4022,
      "ചില": 4023,
      "நியூ": 4024,
      "ikkunnathin": 4025,
      "ரில்": 4026,
      "anth": 4027,
      "anthaar": 4028,
      "பெரிய": 4029,
      "net": 4030,
      "It": 4031,
      "हाला": 4032,
      "ech": 4033,
      "king": 4034,
      "pazh": 4035,
      "அக": 4036,
      "ியின்": 4037,
      "ational": 4038,
      "badh": 4039,
      "ിക്കാൻ": 4040,
      "ത്തു": 4041,
      "aang": 4042,
      "निर्मा": 4043,
      "ருக்கு": 4044,
      "doo": 4045,
      "व्या": 4046,
      "kalaikk": 4047,
      "स्थान": 4048,
      "मक": 4049,
      "இருந்து": 4050,
      "தம்": 4051,
      "ഇൻ": 4052,
      "ന്ത്ര": 4053,
      "पास": 4054,
      "வாழ்க்க": 4055,
      "போன்ற": 4056,
      "தற்கு": 4057,
      "home": 4058,
      "vishv": 4059,
      "vivar": 4060,
      "க்காக": 4061,
      "ந்திர": 4062,
      "some": 4063,
      "കലാ": 4064,
      "ചു": 4065,
      "party": 4066,
      "business": 4067,
      "mattu": 4068,
      "uppu": 4069,
      "bach": 4070,
      "ജാ": 4071,
      "മറ്റ്": 4072,
      "chan": 4073,
      "ியல்": 4074,
      "80": 4075,
      "படி": 4076,
      "cle": 4077,
      "ikkal": 4078,
      "haar": 4079,
      "കര": 4080,
      "athir": 4081,
      "പ്രവർത്ത": 4082,
      "ெடு": 4083,
      "juul": 4084,
      "pank": 4085,
      "million": 4086,
      "bill": 4087,
      "eep": 4088,
      "stud": 4089,
      "ल्म": 4090,
      "october": 4091,
      "maiy": 4092,
      "னார்": 4093,
      "pradhana": 4094,
      "sco": 4095,
      "alla": 4096,
      "sarv": 4097,
      "ब्रि": 4098,
      "ക്രമ": 4099,
      "യായി": 4100,
      "vill": 4101,
      "ition": 4102,
      "പ്രസി": 4103,
      "jeevan": 4104,
      "american": 4105,
      "press": 4106,
      "र्व": 4107,
      "football": 4108,
      "jal": 4109,
      "दु": 4110,
      "praapt": 4111,
      "വിജ": 4112,
      "kahaa": 4113,
      "lab": 4114,
      "ൻറെ": 4115,
      "प्राप्त": 4116,
      "முன்பு": 4117,
      "ef": 4118,
      "वरी": 4119,
      "தங்கள்": 4120,
      "தயா": 4121,
      "न्यू": 4122,
      "குட": 4123,
      "ட்சிய": 4124,
      "thalai": 4125,
      "far": 4126,
      "ating": 4127,
      "बर्": 4128,
      "പ്രോ": 4129,
      "ja": 4130,
      "vu": 4131,
      "னோ": 4132,
      "ikh": 4133,
      "അഭി": 4134,
      "ന്നു": 4135,
      "പ്പെടുത്തി": 4136,
      "തും": 4137,
      "keezh": 4138,
      "wan": 4139,
      "1999": 4140,
      "रह": 4141,
      "ർന്ന്": 4142,
      "்கா": 4143,
      "sec": 4144,
      "കൂടുതൽ": 4145,
      "दक्षि": 4146,
      "കാര": 4147,
      "दक्षिण": 4148,
      "फी": 4149,
      "ino": 4150,
      "ഫീ": 4151,
      "aazh": 4152,
      "oll": 4153,
      "ക്ഷേ": 4154,
      "ON": 4155,
      "umber": 4156,
      "kilum": 4157,
      "chaal": 4158,
      "ருந்து": 4159,
      "சிக": 4160,
      "ധാരണ": 4161,
      "aud": 4162,
      "தனி": 4163,
      "ஹோ": 4164,
      "समूह": 4165,
      "வற்ற": 4166,
      "cis": 4167,
      "அள": 4168,
      "you": 4169,
      "punar": 4170,
      "ikaar": 4171,
      "നേടി": 4172,
      "vaazhkk": 4173,
      "நூ": 4174,
      "urupp": 4175,
      "ेंट": 4176,
      "മാത്ര": 4177,
      "കാണ": 4178,
      "neer": 4179,
      "ியன்": 4180,
      "red": 4181,
      "ഡ്ര": 4182,
      "jana": 4183,
      "karna": 4184,
      "നുള്ള": 4185,
      "nay": 4186,
      "लेख": 4187,
      "tain": 4188,
      "்கலை": 4189,
      "chun": 4190,
      "ுடன்": 4191,
      "टू": 4192,
      "irunth": 4193,
      "करना": 4194,
      "32": 4195,
      "லாக": 4196,
      "laan": 4197,
      "कंप": 4198,
      "murai": 4199,
      "hot": 4200,
      "രക്ഷ": 4201,
      "ையாள": 4202,
      "kappal": 4203,
      "कारण": 4204,
      "thayaar": 4205,
      "vidh": 4206,
      "ear": 4207,
      "इं": 4208,
      "एं": 4209,
      "वै": 4210,
      "1960": 4211,
      "tthu": 4212,
      "राष्ट्रीय": 4213,
      "ikalil": 4214,
      "യായ": 4215,
      "New": 4216,
      "aarth": 4217,
      "ple": 4218,
      "ital": 4219,
      "iga": 4220,
      "mod": 4221,
      "wer": 4222,
      "ത്രി": 4223,
      "दूस": 4224,
      "வீர": 4225,
      "vadhu": 4226,
      "நு": 4227,
      "അതിന്റെ": 4228,
      "niv": 4229,
      "ிற்": 4230,
      "ാൻഡ്": 4231,
      "പ്പെടുന്ന": 4232,
      "मूल": 4233,
      "oode": 4234,
      "teen": 4235,
      "ஜோ": 4236,
      "sto": 4237,
      "angkalai": 4238,
      "athae": 4239,
      "രാഷ്ട": 4240,
      "kondu": 4241,
      "രാഷ്ട്ര": 4242,
      "படை": 4243,
      "ely": 4244,
      "ople": 4245,
      "த்தா": 4246,
      "incl": 4247,
      "केंद्र": 4248,
      "avargal": 4249,
      "എഴു": 4250,
      "padh": 4251,
      "paatt": 4252,
      "டே": 4253,
      "ங்களின்": 4254,
      "കളുടെ": 4255,
      "க்கழ": 4256,
      "udeyum": 4257,
      "palkalaikk": 4258,
      "வழி": 4259,
      "பல்கலை": 4260,
      "palkalaikkazh": 4261,
      "பல்கலைக்கழ": 4262,
      "sakata": 4263,
      "सकता": 4264,
      "भूमि": 4265,
      "ആൽ": 4266,
      "കളിൽ": 4267,
      "prach": 4268,
      "குடும்ப": 4269,
      "cal": 4270,
      "बढ़": 4271,
      "valar": 4272,
      "റിച്ച": 4273,
      "konda": 4274,
      "Trump": 4275,
      "മിക": 4276,
      "annu": 4277,
      "kul": 4278,
      "mc": 4279,
      "ക്സി": 4280,
      "தொழில்": 4281,
      "90": 4282,
      "spe": 4283,
      "തിരഞ്ഞെടു": 4284,
      "அந்த": 4285,
      "ഘട": 4286,
      "क्षण": 4287,
      "mukhya": 4288,
      "bert": 4289,
      "ontr": 4290,
      "ച്ചി": 4291,
      "न्न": 4292,
      "neraththil": 4293,
      "हिस्": 4294,
      "ளும்": 4295,
      "ft": 4296,
      "meendum": 4297,
      "अग": 4298,
      "colle": 4299,
      "மீண்டும்": 4300,
      "1996": 4301,
      "llar": 4302,
      "சந்த": 4303,
      "கெ": 4304,
      "aaramb": 4305,
      "பரி": 4306,
      "asy": 4307,
      "பிரா": 4308,
      "paas": 4309,
      "തായി": 4310,
      "திரை": 4311,
      "rith": 4312,
      "vig": 4313,
      "പിന്നീ": 4314,
      "band": 4315,
      "कारी": 4316,
      "ory": 4317,
      "च्च": 4318,
      "पाद": 4319,
      "ണിയ": 4320,
      "44": 4321,
      "jam": 4322,
      "thol": 4323,
      "செயல்": 4324,
      "ுக்": 4325,
      "வெற்ற": 4326,
      "அதே": 4327,
      "मह": 4328,
      "ents": 4329,
      "மூன்று": 4330,
      "mai": 4331,
      "maattr": 4332,
      "tri": 4333,
      "सार": 4334,
      "वल": 4335,
      "ப்பி": 4336,
      "periya": 4337,
      "niruvan": 4338,
      "nik": 4339,
      "ியாக": 4340,
      "olog": 4341,
      "pradesh": 4342,
      "yuddh": 4343,
      "पार": 4344,
      "yath": 4345,
      "film": 4346,
      "ल्ड": 4347,
      "rail": 4348,
      "185": 4349,
      "ukkaana": 4350,
      "last": 4351,
      "ன்க": 4352,
      "திக": 4353,
      "ிறா": 4354,
      "gi": 4355,
      "നഗ": 4356,
      "टीम": 4357,
      "சமூ": 4358,
      "iththathu": 4359,
      "ult": 4360,
      "ക്ല": 4361,
      "ica": 4362,
      "എൽ": 4363,
      "കാർ": 4364,
      "would": 4365,
      "ஃபோ": 4366,
      "घर": 4367,
      "karan": 4368,
      "moontru": 4369,
      "aavin": 4370,
      "aalb": 4371,
      "जारी": 4372,
      "disambar": 4373,
      "अव": 4374,
      "എല്ലാ": 4375,
      "സാധാരണ": 4376,
      "स्प": 4377,
      "oppam": 4378,
      "maaru": 4379,
      "rele": 4380,
      "agam": 4381,
      "ansh": 4382,
      "avasaan": 4383,
      "34": 4384,
      "pinneedu": 4385,
      "cro": 4386,
      "well": 4387,
      "പിന്നീട്": 4388,
      "agal": 4389,
      "इट": 4390,
      "മ്മാ": 4391,
      "സൌ": 4392,
      "enniva": 4393,
      "ER": 4394,
      "கிரா": 4395,
      "37": 4396,
      "ன்ஸ்": 4397,
      "ukalude": 4398,
      "ashington": 4399,
      "dollar": 4400,
      "ben": 4401,
      "samar": 4402,
      "aivu": 4403,
      "सदस्": 4404,
      "aiya": 4405,
      "बु": 4406,
      "മുമ്പ്": 4407,
      "when": 4408,
      "1995": 4409,
      "pus": 4410,
      "ame": 4411,
      "vibh": 4412,
      "into": 4413,
      "മ്പോൾ": 4414,
      "adhar": 4415,
      "இருப்பின": 4416,
      "மையான": 4417,
      "iruppinum": 4418,
      "मुख्य": 4419,
      "இருப்பினும்": 4420,
      "சர்": 4421,
      "കൈ": 4422,
      "र्स": 4423,
      "ங்களுக்கு": 4424,
      "பாது": 4425,
      "गै": 4426,
      "people": 4427,
      "பாதுகா": 4428,
      "ling": 4429,
      "nedi": 4430,
      "pid": 4431,
      "जाने": 4432,
      "paathuk": 4433,
      "yas": 4434,
      "വിക": 4435,
      "நேரத்தில்": 4436,
      "रुआ": 4437,
      "പ്റ്റ": 4438,
      "ബ്രി": 4439,
      "baj": 4440,
      "த்தி": 4441,
      "pi": 4442,
      "फ़": 4443,
      "ന്ദ്ര": 4444,
      "ക്കിയ": 4445,
      "ലാണ്": 4446,
      "தார": 4447,
      "49": 4448,
      "ഗു": 4449,
      "So": 4450,
      "मित": 4451,
      "liya": 4452,
      "navambar": 4453,
      "दल": 4454,
      "േറ്റ്": 4455,
      "फिल्म": 4456,
      "pramukh": 4457,
      "kod": 4458,
      "aavaar": 4459,
      "शुरुआ": 4460,
      "மக்கள்": 4461,
      "மாநில": 4462,
      "साम": 4463,
      "austral": 4464,
      "avidyalaya": 4465,
      "അടി": 4466,
      "itva": 4467,
      "eff": 4468,
      "तीन": 4469,
      "உறுப்பின": 4470,
      "just": 4471,
      "pathth": 4472,
      "aandin": 4473,
      "uruppinar": 4474,
      "വാർ": 4475,
      "inv": 4476,
      "athinaal": 4477,
      "berg": 4478,
      "താമ": 4479,
      "mag": 4480,
      "phil": 4481,
      "hotaa": 4482,
      "होता": 4483,
      "കണ": 4484,
      "field": 4485,
      "பெரும்பா": 4486,
      "நான": 4487,
      "ஹெ": 4488,
      "fore": 4489,
      "ദ്ദേശ": 4490,
      "ആരംഭ": 4491,
      "വലിയ": 4492,
      "theer": 4493,
      "ൊപ്പം": 4494,
      "लं": 4495,
      "सभी": 4496,
      "sabhi": 4497,
      "sthal": 4498,
      "പ്പോഴ": 4499,
      "ക്ത": 4500,
      "jii": 4501,
      "രിക്കുന്നു": 4502,
      "ஆவார்": 4503,
      "पूर्ण": 4504,
      "സ്ഥിതി": 4505,
      "கல்": 4506,
      "muth": 4507,
      "put": 4508,
      "very": 4509,
      "han": 4510,
      "viy": 4511,
      "cas": 4512,
      "ുമായി": 4513,
      "down": 4514,
      "്യം": 4515,
      "rav": 4516,
      "usa": 4517,
      "तिक": 4518,
      "isth": 4519,
      "ष्ट": 4520,
      "அதிகா": 4521,
      "ren": 4522,
      "युद्ध": 4523,
      "500": 4524,
      "thaes": 4525,
      "स्कूल": 4526,
      "soci": 4527,
      "vyaap": 4528,
      "ஷி": 4529,
      "குழு": 4530,
      "tele": 4531,
      "jaari": 4532,
      "asya": 4533,
      "sambandh": 4534,
      "pull": 4535,
      "களின்": 4536,
      "கட்டு": 4537,
      "னெ": 4538,
      "ഞ്ച്": 4539,
      "െങ്കിലും": 4540,
      "president": 4541,
      "கவு": 4542,
      "வட்ட": 4543,
      "rug": 4544,
      "ப்பில்": 4545,
      "sambhav": 4546,
      "மர": 4547,
      "மன்": 4548,
      "संगीत": 4549,
      "वर्त": 4550,
      "sangeet": 4551,
      "ക്തി": 4552,
      "itti": 4553,
      "தேசிய": 4554,
      "हुई": 4555,
      "may": 4556,
      "വിടെ": 4557,
      "्यु": 4558,
      "cer": 4559,
      "38": 4560,
      "ாவின்": 4561,
      "மட்டு": 4562,
      "இற": 4563,
      "kamb": 4564,
      "ியை": 4565,
      "ek": 4566,
      "ப்பட்டன": 4567,
      "ശാല": 4568,
      "ंस": 4569,
      "ക്കാർ": 4570,
      "த்திற்க": 4571,
      "yathe": 4572,
      "திர்": 4573,
      "jaane": 4574,
      "apan": 4575,
      "बहु": 4576,
      "லான": 4577,
      "ക്രി": 4578,
      "കുടും": 4579,
      "மர்": 4580,
      "மில்": 4581,
      "നങ്ങൾ": 4582,
      "യർ": 4583,
      "वाद": 4584,
      "ukkum": 4585,
      "விமான": 4586,
      "1998": 4587,
      "സ്റ്റി": 4588,
      "മീ": 4589,
      "உண": 4590,
      "ிலா": 4591,
      "aab": 4592,
      "வர்கள்": 4593,
      "നിന്നുള്ള": 4594,
      "iz": 4595,
      "vett": 4596,
      "मन": 4597,
      "ങ്ങളെ": 4598,
      "anta": 4599,
      "logon": 4600,
      "eth": 4601,
      "യ്ക്ക": 4602,
      "48": 4603,
      "tw": 4604,
      "ണൽ": 4605,
      "മൂന്ന്": 4606,
      "atra": 4607,
      "samud": 4608,
      "arin": 4609,
      "क्यों": 4610,
      "योज": 4611,
      "//": 4612,
      "യൻ": 4613,
      "amer": 4614,
      "लोगों": 4615,
      "kyon": 4616,
      "()": 4617,
      "வுக்கு": 4618,
      "hen": 4619,
      "tah": 4620,
      "umbol": 4621,
      "चै": 4622,
      "itha": 4623,
      "எஃப்": 4624,
      "யில்": 4625,
      "ल्स": 4626,
      "akkam": 4627,
      "व्यक्ति": 4628,
      "anangal": 4629,
      "hui": 4630,
      "कला": 4631,
      "ഏക": 4632,
      "भग": 4633,
      "சிர": 4634,
      "பார்": 4635,
      "vijay": 4636,
      "bhash": 4637,
      "மாற": 4638,
      "ush": 4639,
      "poantra": 4640,
      "uyarn": 4641,
      "വിധ": 4642,
      "अध्य": 4643,
      "pho": 4644,
      "aka": 4645,
      "main": 4646,
      "मत": 4647,
      "thav": 4648,
      "isai": 4649,
      "juulai": 4650,
      "sig": 4651,
      "1997": 4652,
      "arkal": 4653,
      "patta": 4654,
      "ces": 4655,
      "pinth": 4656,
      "लु": 4657,
      "jor": 4658,
      "puru": 4659,
      "அங்கு": 4660,
      "பீ": 4661,
      "டிர": 4662,
      "ബോൾ": 4663,
      "சமூக": 4664,
      "സ്കോ": 4665,
      "mattum": 4666,
      "aen": 4667,
      "ue": 4668,
      "ട്രി": 4669,
      "moonnu": 4670,
      "കുടുംബ": 4671,
      "atthai": 4672,
      "।\"": 4673,
      "news": 4674,
      "naat": 4675,
      "galin": 4676,
      "thodarn": 4677,
      "onnaam": 4678,
      "ர்களின்": 4679,
      "antr": 4680,
      "valia": 4681,
      "தயாரி": 4682,
      "ivil": 4683,
      "led": 4684,
      "currier": 4685,
      "thaesiya": 4686,
      "കൂടാ": 4687,
      "विश्वविद्यालय": 4688,
      "vishvavidyalaya": 4689,
      "jaise": 4690,
      "scor": 4691,
      "dy": 4692,
      "aiyaaga": 4693,
      "athilum": 4694,
      "ities": 4695,
      "जैसे": 4696,
      "തേ": 4697,
      "പരമായ": 4698,
      "paadal": 4699,
      "ced": 4700,
      "eyy": 4701,
      "വില": 4702,
      "സേവന": 4703,
      "शक": 4704,
      "36": 4705,
      "ous": 4706,
      "श्य": 4707,
      "chim": 4708,
      "ainth": 4709,
      "ഭാഷ": 4710,
      "्व": 4711,
      "avae": 4712,
      "संघ": 4713,
      "உள்ளன": 4714,
      "tron": 4715,
      "प्रदर्": 4716,
      "cheytha": 4717,
      "koodaathe": 4718,
      "dhaar": 4719,
      "കാര്യ": 4720,
      "क्योंकि": 4721,
      "kyonki": 4722,
      "ളം": 4723,
      "रहे": 4724,
      "ance": 4725,
      "sis": 4726,
      "വേഷ": 4727,
      "ബു": 4728,
      "ena": 4729,
      "tee": 4730,
      "vari": 4731,
      "tarah": 4732,
      "வோ": 4733,
      "വട": 4734,
      "तरह": 4735,
      "കൂടാതെ": 4736,
      "ob": 4737,
      "alb": 4738,
      "iver": 4739,
      "offic": 4740,
      "ാലും": 4741,
      "പ്രവർത്തി": 4742,
      "aakar": 4743,
      "appol": 4744,
      "kary": 4745,
      "veliya": 4746,
      "atharku": 4747,
      "vith": 4748,
      "खो": 4749,
      "சக": 4750,
      "്യാ": 4751,
      "acha": 4752,
      "வெளியே": 4753,
      "ler": 4754,
      "ंख": 4755,
      "चना": 4756,
      "ami": 4757,
      "1994": 4758,
      "azhaikk": 4759,
      "ശാസ്ത്ര": 4760,
      "ത്തിൻ്റെ": 4761,
      "ட்டர்": 4762,
      "जीवन": 4763,
      "porul": 4764,
      "கவ": 4765,
      "payir": 4766,
      "niyan": 4767,
      "கல்ல": 4768,
      "பல்கலைக்கழக": 4769,
      "public": 4770,
      "ஏற்ப": 4771,
      "group": 4772,
      "gin": 4773,
      "fed": 4774,
      "பத": 4775,
      "akkan": 4776,
      "ഡിയോ": 4777,
      "रहा": 4778,
      "ताओं": 4779,
      "75": 4780,
      "kkar": 4781,
      "ippichu": 4782,
      "game": 4783,
      "ർന്നു": 4784,
      "british": 4785,
      "irunnaalum": 4786,
      "OR": 4787,
      "പ്പിച്ചു": 4788,
      "high": 4789,
      "sm": 4790,
      "vak": 4791,
      "രുന്നാലും": 4792,
      "ennirunnaalum": 4793,
      "க்கப்பட்டார்": 4794,
      "மாகும்": 4795,
      "നൂ": 4796,
      "again": 4797,
      "ters": 4798,
      "तीय": 4799,
      "എന്നിരുന്നാലും": 4800,
      "इतिहास": 4801,
      "அனைத்து": 4802,
      "kool": 4803,
      "ങ്ങിയ": 4804,
      "iyile": 4805,
      "അമേരിക്കൻ": 4806,
      "maathram": 4807,
      "cess": 4808,
      "ஒன்ற": 4809,
      "ugalai": 4810,
      "गत": 4811,
      "ville": 4812,
      "anaitthu": 4813,
      ".,": 4814,
      "dash": 4815,
      "ഹൈ": 4816,
      "प्रमुख": 4817,
      "संबंध": 4818,
      "del": 4819,
      "avi": 4820,
      "ഞ്ഞു": 4821,
      "மன": 4822,
      "ഗത": 4823,
      "pada": 4824,
      "ഴി": 4825,
      "aind": 4826,
      "thaazh": 4827,
      "காரண": 4828,
      "rahey": 4829,
      "निर्माण": 4830,
      "ദാ": 4831,
      "ங்கும்": 4832,
      "profess": 4833,
      "sol": 4834,
      "angkum": 4835,
      "saamb": 4836,
      "://": 4837,
      "നിർമ്മാ": 4838,
      "സമയ": 4839,
      "goal": 4840,
      "muun": 4841,
      "வெளியிட": 4842,
      "him": 4843,
      "Am": 4844,
      "lekh": 4845,
      "veliyid": 4846,
      "bunn": 4847,
      "chang": 4848,
      "asth": 4849,
      "ision": 4850,
      "க்ஸ்": 4851,
      "parish": 4852,
      "போர்": 4853,
      "gover": 4854,
      "നഗര": 4855,
      "ഗി": 4856,
      "jar": 4857,
      "odu": 4858,
      "लगा": 4859,
      "ittundu": 4860,
      "sthit": 4861,
      "yakram": 4862,
      "ave": 4863,
      "குழ": 4864,
      "लू": 4865,
      "गठ": 4866,
      "வண": 4867,
      "മനു": 4868,
      "ന്മാ": 4869,
      "rhaa": 4870,
      "മാറ്റ": 4871,
      "வர்க": 4872,
      "தால்": 4873,
      "ES": 4874,
      "aae": 4875,
      "iyaana": 4876,
      "angi": 4877,
      "nirmaan": 4878,
      "eeksh": 4879,
      "ikkappattathu": 4880,
      "idheekar": 4881,
      "vimaan": 4882,
      "ichathu": 4883,
      "vaad": 4884,
      "பெற": 4885,
      "जन्": 4886,
      "sany": 4887,
      "angalkk": 4888,
      "gre": 4889,
      "ளையும்": 4890,
      "chin": 4891,
      "gy": 4892,
      "vael": 4893,
      "khar": 4894,
      "appeduth": 4895,
      "eett": 4896,
      "ikkirathu": 4897,
      "റിപ്പ": 4898,
      "years": 4899,
      "bre": 4900,
      "pahali": 4901,
      "पहली": 4902,
      "ലം": 4903,
      "perump": 4904,
      "prathye": 4905,
      "ंश": 4906,
      "iro": 4907,
      "dekh": 4908,
      "ainthu": 4909,
      "கார்": 4910,
      "தள": 4911,
      "दोनों": 4912,
      "donon": 4913,
      "പ്രത്യേ": 4914,
      "பணியா": 4915,
      "ருவ": 4916,
      "जाना": 4917,
      "Un": 4918,
      "മൊ": 4919,
      "മാൻ": 4920,
      "साल": 4921,
      "ச்சா": 4922,
      "ണ്ടു": 4923,
      "பை": 4924,
      "ടോ": 4925,
      "apur": 4926,
      "ப்பின்": 4927,
      "ംഗ്ല": 4928,
      "vision": 4929,
      "ஆகியவற்ற": 4930,
      "aagiyavattr": 4931,
      "urim": 4932,
      "केवल": 4933,
      "वास": 4934,
      "appattullathu": 4935,
      "त्मक": 4936,
      "thro": 4937,
      "praad": 4938,
      "kewal": 4939,
      "dus": 4940,
      "cour": 4941,
      "1992": 4942,
      "akaram": 4943,
      "பயிற்": 4944,
      "റിച്ച്": 4945,
      "oli": 4946,
      "ninnulla": 4947,
      "mus": 4948,
      "पत्": 4949,
      "க்கில்": 4950,
      "mukiya": 4951,
      "gaan": 4952,
      "hat": 4953,
      "sans": 4954,
      "vii": 4955,
      "மறு": 4956,
      "ellah": 4957,
      "then": 4958,
      "kizh": 4959,
      "ുന്നതിന്": 4960,
      "கட்டிட": 4961,
      "uchch": 4962,
      "umaayi": 4963,
      "ந்தை": 4964,
      "स्टर": 4965,
      "1950": 4966,
      "अलग": 4967,
      "കാശ": 4968,
      "ധിക": 4969,
      "akaa": 4970,
      "aagak": 4971,
      "ऑफ": 4972,
      "தூ": 4973,
      "भाव": 4974,
      "eshan": 4975,
      "ध्यम": 4976,
      "ഡേ": 4977,
      "arshan": 4978,
      "ുന്നതിനായി": 4979,
      "kett": 4980,
      "पश्": 4981,
      "aavash": 4982,
      "atthile": 4983,
      "डियो": 4984,
      "ஜன": 4985,
      "sell": 4986,
      "प्रका": 4987,
      "ர்களை": 4988,
      "ദേശീയ": 4989,
      "saah": 4990,
      "गर": 4991,
      "ത്തിയ": 4992,
      "board": 4993,
      "अमेरिकी": 4994,
      "mp": 4995,
      "പല": 4996,
      "ene": 4997,
      "ப்புகள்": 4998,
      "koll": 4999,
      "niy": 5000,
      "americi": 5001,
      "ക്കുറിച്ച": 5002,
      "seiyappatt": 5003,
      "ves": 5004,
      "ுகளின்": 5005,
      "സിന്റെ": 5006,
      "jaanaa": 5007,
      "oper": 5008,
      "lagbhag": 5009,
      "लगभग": 5010,
      "प्रो": 5011,
      "चर": 5012,
      "മക": 5013,
      "ങ്ങൾക്ക്": 5014,
      "செய்யப்பட்ட": 5015,
      "una": 5016,
      "iththaar": 5017,
      "கிள": 5018,
      "htt": 5019,
      "ok": 5020,
      "जिन्ह": 5021,
      "sim": 5022,
      "adippad": 5023,
      "trtr": 5024,
      "னித": 5025,
      "அடிப்பட": 5026,
      "പീ": 5027,
      "percent": 5028,
      "alil": 5029,
      "undaayirunnu": 5030,
      "താണ്": 5031,
      "പുന": 5032,
      "പൊതു": 5033,
      "bhaar": 5034,
      "pettraar": 5035,
      "ikkapped": 5036,
      "paguthiyil": 5037,
      "lor": 5038,
      "പട്ട": 5039,
      "three": 5040,
      "ष्ठ": 5041,
      "law": 5042,
      "மட்டுமே": 5043,
      "न्या": 5044,
      "பெற்றார்": 5045,
      "ிறார்கள்": 5046,
      "mattumae": 5047,
      "We": 5048,
      "ிரி": 5049,
      "குடிய": 5050,
      "संयुक्त": 5051,
      "வ்வ": 5052,
      "parivaar": 5053,
      "ണെന്ന്": 5054,
      "sanyukt": 5055,
      "ura": 5056,
      "vadakku": 5057,
      "win": 5058,
      "ഗെയി": 5059,
      "മായും": 5060,
      "ston": 5061,
      "वेश": 5062,
      "podhuv": 5063,
      "cial": 5064,
      "ஆரம்ப": 5065,
      "परिवार": 5066,
      "लब": 5067,
      "இன": 5068,
      "കോർ": 5069,
      "tech": 5070,
      "jaati": 5071,
      "യിലേക്ക്": 5072,
      "fal": 5073,
      "thiram": 5074,
      "04": 5075,
      "sl": 5076,
      "മൈ": 5077,
      "സൃ": 5078,
      "many": 5079,
      "bru": 5080,
      "அரு": 5081,
      "മത്സര": 5082,
      "wood": 5083,
      "paschim": 5084,
      "bii": 5085,
      "കീ": 5086,
      "39": 5087,
      "eph": 5088,
      "ட்ஸ்": 5089,
      "sub": 5090,
      "ौर": 5091,
      "includ": 5092,
      "കണ്ടെ": 5093,
      "akan": 5094,
      "த்துடன்": 5095,
      "ars": 5096,
      "askar": 5097,
      "paramaaya": 5098,
      "கீழ்": 5099,
      "പ്പാ": 5100,
      "ാമത്തെ": 5101,
      "mathipp": 5102,
      "aaa": 5103,
      "முய": 5104,
      "अंतर": 5105,
      "शुरुआत": 5106,
      "पश्चि": 5107,
      "shuruat": 5108,
      "ms": 5109,
      "vaali": 5110,
      "Jo": 5111,
      "ras": 5112,
      "uttar": 5113,
      "ർച്ച": 5114,
      "ട്ടോ": 5115,
      "aata": 5116,
      "சியா": 5117,
      "மாவட்ட": 5118,
      "general": 5119,
      "64": 5120,
      "சத": 5121,
      "ஆல்ப": 5122,
      "ஒப்ப": 5123,
      "perum": 5124,
      "ഇതി": 5125,
      "avee": 5126,
      "ക്കള": 5127,
      "maas": 5128,
      "road": 5129,
      "ंतर": 5130,
      "aththudan": 5131,
      "ional": 5132,
      "ஸ்கா": 5133,
      "pravesh": 5134,
      "aithth": 5135,
      "itihas": 5136,
      "kill": 5137,
      "सम्": 5138,
      "யி": 5139,
      "chana": 5140,
      "unt": 5141,
      "aippad": 5142,
      "get": 5143,
      "yar": 5144,
      "ஜான்": 5145,
      "alth": 5146,
      "iththa": 5147,
      "state": 5148,
      "സീസ": 5149,
      "vaendum": 5150,
      "vaag": 5151,
      "roman": 5152,
      "ugalil": 5153,
      "rich": 5154,
      "மல்": 5155,
      "പോർ": 5156,
      "ayaayi": 5157,
      "aiyar": 5158,
      "avan": 5159,
      "பிரதி": 5160,
      "्स": 5161,
      "athikaar": 5162,
      "ண்டி": 5163,
      "നൽകി": 5164,
      "ഴ്ച": 5165,
      "bor": 5166,
      "jh": 5167,
      "come": 5168,
      "paniy": 5169,
      "ier": 5170,
      "avathar": 5171,
      "்த்த": 5172,
      "1989": 5173,
      "മെന്ന്": 5174,
      "house": 5175,
      "वाली": 5176,
      "हम": 5177,
      "ஜா": 5178,
      "ശത": 5179,
      "track": 5180,
      "രോഗ": 5181,
      "vich": 5182,
      "രായ": 5183,
      "ഫ്ല": 5184,
      "parambar": 5185,
      "खु": 5186,
      "bha": 5187,
      "चर्": 5188,
      "दार": 5189,
      "രേ": 5190,
      "ंट": 5191,
      "ड्र": 5192,
      "வுகள்": 5193,
      "ithth": 5194,
      "பிள்": 5195,
      "जन्म": 5196,
      "kum": 5197,
      "ന്യ": 5198,
      "nae": 5199,
      "erson": 5200,
      "cont": 5201,
      "could": 5202,
      "அவை": 5203,
      "ഒന്ന": 5204,
      "abb": 5205,
      "rel": 5206,
      "ற்றா": 5207,
      "லர்": 5208,
      "ot": 5209,
      "விரு": 5210,
      "இரா": 5211,
      "1988": 5212,
      "irukkum": 5213,
      "din": 5214,
      "apoathu": 5215,
      "மின்": 5216,
      "സംഗ": 5217,
      "akki": 5218,
      "പരിശ": 5219,
      "ப்போது": 5220,
      "them": 5221,
      "வரும்": 5222,
      "how": 5223,
      "unch": 5224,
      "டியோ": 5225,
      "aaen": 5226,
      "mozh": 5227,
      "nish": 5228,
      "महा": 5229,
      "thun": 5230,
      "seva": 5231,
      "1993": 5232,
      "aph": 5233,
      "europ": 5234,
      "ild": 5235,
      "thekk": 5236,
      "കാരണം": 5237,
      "irandaavathu": 5238,
      "இரண்டாவது": 5239,
      "ഗാ": 5240,
      "enkilum": 5241,
      "prati": 5242,
      "ariy": 5243,
      "prabhaav": 5244,
      "call": 5245,
      "पुर": 5246,
      "പടി": 5247,
      "1991": 5248,
      "bhoom": 5249,
      "vilaiyaad": 5250,
      "thaakk": 5251,
      "உத": 5252,
      "ரம்": 5253,
      "ikon": 5254,
      "market": 5255,
      "சிரிய": 5256,
      "aee": 5257,
      "iruth": 5258,
      "वीं": 5259,
      "apr": 5260,
      "commun": 5261,
      "vyavas": 5262,
      "bhoomi": 5263,
      "बॉल": 5264,
      "க்கப்பட": 5265,
      "தொலை": 5266,
      "kkurich": 5267,
      "trans": 5268,
      "പിന്": 5269,
      "கிழ": 5270,
      "മ്പര": 5271,
      "thodarnthu": 5272,
      "athaal": 5273,
      "தொடர்ந்து": 5274,
      "പോയി": 5275,
      "நடை": 5276,
      "ல்கள்": 5277,
      "ജീവിത": 5278,
      "2023": 5279,
      "चुना": 5280,
      "dab": 5281,
      "nag": 5282,
      "പഠ": 5283,
      "യഥ": 5284,
      "uthu": 5285,
      "aiyaalar": 5286,
      "வென்ற": 5287,
      "janm": 5288,
      "poal": 5289,
      "കഴിയ": 5290,
      "வக": 5291,
      "champ": 5292,
      "ettr": 5293,
      "sus": 5294,
      "കമ്പ": 5295,
      "ait": 5296,
      "ഡാ": 5297,
      "മറ്റ": 5298,
      "ட்டின்": 5299,
      "कान": 5300,
      "പ്പെട്ടി": 5301,
      "சரி": 5302,
      "apatta": 5303,
      "പ്പെടെ": 5304,
      "cted": 5305,
      "bon": 5306,
      "உட்": 5307,
      "വല": 5308,
      "ams": 5309,
      "pothu": 5310,
      "திரைப்பட": 5311,
      "plo": 5312,
      "रखा": 5313,
      "ിച്ച്": 5314,
      "പ്രൊ": 5315,
      "வேண்டும்": 5316,
      "ओर": 5317,
      "பங்க": 5318,
      "def": 5319,
      "second": 5320,
      "കോള": 5321,
      "46": 5322,
      "athaanu": 5323,
      "டுவ": 5324,
      "madhyam": 5325,
      "தற்கான": 5326,
      "மன்ற": 5327,
      "അട": 5328,
      "माध्यम": 5329,
      "மேற்க": 5330,
      "deseeya": 5331,
      "Americ": 5332,
      ",,": 5333,
      "विज्ञा": 5334,
      "फु": 5335,
      "intr": 5336,
      "chila": 5337,
      "russ": 5338,
      "മാനം": 5339,
      "add": 5340,
      "ரூ": 5341,
      "ஸின்": 5342,
      "स्वा": 5343,
      "alifor": 5344,
      "ख्या": 5345,
      "kkaal": 5346,
      "വിശ": 5347,
      "വശ്യ": 5348,
      "aig": 5349,
      "ியோ": 5350,
      "രിക്കുന്ന": 5351,
      "58": 5352,
      "anna": 5353,
      "தொகு": 5354,
      "Tu": 5355,
      "യുള്ള": 5356,
      "galukku": 5357,
      "अपना": 5358,
      "khilaf": 5359,
      "റുകൾ": 5360,
      "idaiyil": 5361,
      "ട്ടീ": 5362,
      "aasir": 5363,
      "രാജ്യ": 5364,
      "pradarshan": 5365,
      "ovv": 5366,
      "खिलाफ": 5367,
      "what": 5368,
      "हिला": 5369,
      "कृ": 5370,
      "நிதி": 5371,
      "pathipp": 5372,
      "resident": 5373,
      "shrin": 5374,
      "ஒவ்வ": 5375,
      "ലക്ഷ": 5376,
      "lue": 5377,
      "gun": 5378,
      "ped": 5379,
      "ரியா": 5380,
      "chaam": 5381,
      "yadh": 5382,
      "വാദ": 5383,
      "aykku": 5384,
      "प्रे": 5385,
      "കേന്ദ്ര": 5386,
      "badal": 5387,
      "ுகளுக்கு": 5388,
      "റിന്റെ": 5389,
      "അന്": 5390,
      "ങ്കിലും": 5391,
      "தான": 5392,
      "ஞ்ச": 5393,
      "As": 5394,
      "ஜே": 5395,
      "जिन": 5396,
      "vyath": 5397,
      "நிலைய": 5398,
      "jud": 5399,
      "मौ": 5400,
      "ினர்": 5401,
      "dig": 5402,
      "ze": 5403,
      "വയ": 5404,
      "ikalude": 5405,
      "ഉൾപ്പെടുന്നു": 5406,
      "thalaivar": 5407,
      "ulppedunnu": 5408,
      "ank": 5409,
      "ayal": 5410,
      "param": 5411,
      "pira": 5412,
      "ॉर्ड": 5413,
      "കഥ": 5414,
      "1984": 5415,
      "ghad": 5416,
      "आधार": 5417,
      "काउ": 5418,
      "பணியாற்ற": 5419,
      "யம்": 5420,
      "thak": 5421,
      "karyakram": 5422,
      "charith": 5423,
      "कार्यक्रम": 5424,
      "mr": 5425,
      "oj": 5426,
      "ന്നെ": 5427,
      "ங்கி": 5428,
      "jahan": 5429,
      "जहाँ": 5430,
      "कंपनी": 5431,
      "ंकि": 5432,
      "महिला": 5433,
      "aakkal": 5434,
      "सदस्य": 5435,
      "വിള": 5436,
      "most": 5437,
      "അവത": 5438,
      "bahut": 5439,
      "hoti": 5440,
      "valare": 5441,
      "होती": 5442,
      "വളരെ": 5443,
      "aasiriyar": 5444,
      "aksham": 5445,
      "sathavee": 5446,
      "ome": 5447,
      "ജർ": 5448,
      "edn": 5449,
      "upayogichu": 5450,
      "बहुत": 5451,
      "pril": 5452,
      "சதவீ": 5453,
      "பழ": 5454,
      "்டோ": 5455,
      "division": 5456,
      "palkalaikkazhag": 5457,
      "அது": 5458,
      "urch": 5459,
      "www": 5460,
      "pil": 5461,
      "yl": 5462,
      "वृ": 5463,
      "റും": 5464,
      "ാനും": 5465,
      "लीग": 5466,
      "there": 5467,
      "വ്യാ": 5468,
      "स्थिति": 5469,
      "അവിടെ": 5470,
      "kkam": 5471,
      "സർവ": 5472,
      "കഴി": 5473,
      "week": 5474,
      "सत": 5475,
      "ആവശ്യ": 5476,
      "suttru": 5477,
      "सेना": 5478,
      "yamaayi": 5479,
      "ozhum": 5480,
      "jod": 5481,
      "supp": 5482,
      "sthith": 5483,
      "കളും": 5484,
      "produ": 5485,
      "പ്പോഴും": 5486,
      "maav": 5487,
      "ഷോ": 5488,
      "aathar": 5489,
      "മുഖ": 5490,
      "yoon": 5491,
      "gad": 5492,
      "national": 5493,
      "ീത": 5494,
      "prog": 5495,
      "നാല": 5496,
      "aakki": 5497,
      "ports": 5498,
      "ക്ടോ": 5499,
      "Wedn": 5500,
      "मृत": 5501,
      "ത്തിറ": 5502,
      "ஸ்கோ": 5503,
      "പുറത്തിറ": 5504,
      "Wednesday": 5505,
      "फल": 5506,
      "கைய": 5507,
      "ग्री": 5508,
      "itthaar": 5509,
      "क्लब": 5510,
      "kuzhuv": 5511,
      "ukiraar": 5512,
      "വൽ": 5513,
      "avide": 5514,
      "मैन": 5515,
      "sun": 5516,
      "ക്കൽ": 5517,
      "atharkaana": 5518,
      "സൃഷ്ട": 5519,
      "varg": 5520,
      "ric": 5521,
      "റൽ": 5522,
      "ക്ലാ": 5523,
      "வால்": 5524,
      "ീകരിച്ച": 5525,
      "वें": 5526,
      "aathaar": 5527,
      "khya": 5528,
      "pran": 5529,
      "ittaar": 5530,
      "innum": 5531,
      "ക്കാര": 5532,
      "lim": 5533,
      "vida": 5534,
      "kaiy": 5535,
      "बल": 5536,
      "endrum": 5537,
      "लाई": 5538,
      "55": 5539,
      "mis": 5540,
      "kadal": 5541,
      "नए": 5542,
      "idhi": 5543,
      "रख": 5544,
      "ഫാ": 5545,
      "appaduthth": 5546,
      "amaippu": 5547,
      "jer": 5548,
      "ivar": 5549,
      "नीय": 5550,
      "ஆகியோ": 5551,
      "ள்க": 5552,
      "aatch": 5553,
      "പ്പെടുകയും": 5554,
      "தற்காக": 5555,
      "47": 5556,
      "itta": 5557,
      "free": 5558,
      "chak": 5559,
      "சிறந்த": 5560,
      "release": 5561,
      "ole": 5562,
      "प्रदान": 5563,
      "khala": 5564,
      "pradaan": 5565,
      "மரு": 5566,
      "atham": 5567,
      "ட்ச": 5568,
      "வராக": 5569,
      "दृ": 5570,
      "சார்": 5571,
      "டைய": 5572,
      "1944": 5573,
      "veett": 5574,
      "against": 5575,
      "yaas": 5576,
      "அணி": 5577,
      "ou": 5578,
      "एल्": 5579,
      "chern": 5580,
      "என்றும்": 5581,
      "hai": 5582,
      "என": 5583,
      "க்ஸ": 5584,
      "loss": 5585,
      "ണിൽ": 5586,
      "angale": 5587,
      "muzhuv": 5588,
      "അവതരി": 5589,
      "സിറ്റി": 5590,
      "dashak": 5591,
      "leg": 5592,
      "idayil": 5593,
      "___": 5594,
      "வாழ்க்கை": 5595,
      "tre": 5596,
      "വൻ": 5597,
      "itra": 5598,
      "avarkalin": 5599,
      "final": 5600,
      "mug": 5601,
      "ukay": 5602,
      "rekh": 5603,
      "veen": 5604,
      "ब्रा": 5605,
      "मॉ": 5606,
      "assil": 5607,
      "स्तु": 5608,
      "ഴ്സ്": 5609,
      "க்கொ": 5610,
      "kalaa": 5611,
      "1945": 5612,
      "स्कार": 5613,
      "ster": 5614,
      "But": 5615,
      "ium": 5616,
      "തൊ": 5617,
      "ons": 5618,
      "media": 5619,
      "னியா": 5620,
      "andr": 5621,
      "समु": 5622,
      "കൃതി": 5623,
      "gey": 5624,
      "ഗാന": 5625,
      "edupp": 5626,
      "irunna": 5627,
      "1986": 5628,
      "മികച്ച": 5629,
      "oro": 5630,
      "ക്കുള്ള": 5631,
      "nilaiy": 5632,
      "rakhaa": 5633,
      "കലാശാല": 5634,
      "sarvakal": 5635,
      "swar": 5636,
      "एंड": 5637,
      "மக": 5638,
      "ജോൺ": 5639,
      "அதிகார": 5640,
      "mul": 5641,
      "नौ": 5642,
      "फ्रा": 5643,
      "உயர்": 5644,
      "த்திலிருந்து": 5645,
      "ल्प": 5646,
      "ശ്രമ": 5647,
      "तरी": 5648,
      "dukal": 5649,
      "vide": 5650,
      "உருவாக்க": 5651,
      "ഫു": 5652,
      "मान्य": 5653,
      "ண்கள்": 5654,
      "கிளா": 5655,
      "television": 5656,
      "സർവകലാശാല": 5657,
      "prakaash": 5658,
      "hotey": 5659,
      "അടിസ്ഥാന": 5660,
      "ബേ": 5661,
      "unakaa": 5662,
      "होते": 5663,
      "उनका": 5664,
      "യഥാർത്ഥ": 5665,
      "thin": 5666,
      "apana": 5667,
      "tab": 5668,
      "कता": 5669,
      "रॉ": 5670,
      "ந்தைய": 5671,
      "180": 5672,
      "nov": 5673,
      "दिखा": 5674,
      "ക്ലബ്": 5675,
      "ning": 5676,
      "spo": 5677,
      "പരാജ": 5678,
      "design": 5679,
      "फर": 5680,
      "ppar": 5681,
      "mukk": 5682,
      "naatt": 5683,
      "naanku": 5684,
      "पत्र": 5685,
      "ർത്ത": 5686,
      "ிகளை": 5687,
      "സിലെ": 5688,
      "thirumb": 5689,
      "AN": 5690,
      "ba": 5691,
      "മെയ്": 5692,
      "aapaath": 5693,
      "ூர்": 5694,
      "നയി": 5695,
      "anub": 5696,
      "ald": 5697,
      "ചെയ്യുന്ന": 5698,
      "sirantha": 5699,
      "நான்கு": 5700,
      "vathu": 5701,
      "घा": 5702,
      "त्य": 5703,
      "അതേ": 5704,
      "amil": 5705,
      "लाइन": 5706,
      "francis": 5707,
      "US": 5708,
      "ukkal": 5709,
      "kondullathu": 5710,
      "dikh": 5711,
      "നൂറ്റാ": 5712,
      "்ட்": 5713,
      "head": 5714,
      "கொண்டுள்ளது": 5715,
      "வள": 5716,
      "പേര": 5717,
      "lar": 5718,
      "தேர்ந்த": 5719,
      "യൂണി": 5720,
      "\"-": 5721,
      "neend": 5722,
      "ope": 5723,
      "पार्": 5724,
      "kathaapaath": 5725,
      "42": 5726,
      "long": 5727,
      "மண": 5728,
      "aippu": 5729,
      "issy": 5730,
      "champion": 5731,
      "geyim": 5732,
      "gir": 5733,
      "कोई": 5734,
      "four": 5735,
      "aadyathe": 5736,
      "koee": 5737,
      "shab": 5738,
      "க்கூ": 5739,
      "lock": 5740,
      "....": 5741,
      "gath": 5742,
      "oa": 5743,
      "இல": 5744,
      "pari": 5745,
      "1985": 5746,
      "kinaar": 5747,
      "விரி": 5748,
      "kae": 5749,
      "കുട്ട": 5750,
      "நடத்த": 5751,
      "टबॉल": 5752,
      "ரான": 5753,
      "விளை": 5754,
      "उत्पाद": 5755,
      "ஜெர்": 5756,
      "அடங்கும்": 5757,
      "did": 5758,
      "ளராக": 5759,
      "ariyapped": 5760,
      "ekad": 5761,
      "athaaka": 5762,
      "சிறிய": 5763,
      "pakuth": 5764,
      "hit": 5765,
      "kirathu": 5766,
      "குதியில்": 5767,
      "idhil": 5768,
      "ഞ്ഞാ": 5769,
      "ked": 5770,
      "ഭരണ": 5771,
      "ike": 5772,
      "வாய்": 5773,
      "antim": 5774,
      "பிள": 5775,
      "वादी": 5776,
      "pandhu": 5777,
      "mitt": 5778,
      "यक": 5779,
      "परी": 5780,
      "Tuesday": 5781,
      "പരാജയ": 5782,
      "एच": 5783,
      "दशक": 5784,
      "ന്നി": 5785,
      "cover": 5786,
      "வல": 5787,
      "ഇംഗ്ല": 5788,
      "mission": 5789,
      "സസ്": 5790,
      "upid": 5791,
      "புற": 5792,
      "சாம்ப": 5793,
      "அவர்களின்": 5794,
      "1940": 5795,
      "പടിഞ്ഞാ": 5796,
      "बम": 5797,
      "utpaad": 5798,
      "ennaal": 5799,
      "nadatth": 5800,
      "भाष": 5801,
      "jul": 5802,
      "namb": 5803,
      "உற்ப": 5804,
      "ജനു": 5805,
      "vazhangk": 5806,
      "വേശ": 5807,
      "अमेरिका": 5808,
      "lif": 5809,
      "உரி": 5810,
      "tin": 5811,
      "பருவ": 5812,
      "ആശ": 5813,
      "न्स": 5814,
      "இதில்": 5815,
      "ഫല": 5816,
      "ச்சு": 5817,
      "side": 5818,
      "തമായ": 5819,
      "adain": 5820,
      "पुन": 5821,
      "டர்": 5822,
      "ப்பெ": 5823,
      "ாகும்": 5824,
      "പ്രായ": 5825,
      "paathukaa": 5826,
      "कास": 5827,
      "karati": 5828,
      "करती": 5829,
      "siriya": 5830,
      "मार्ग": 5831,
      "मृत्यु": 5832,
      "Is": 5833,
      "ளர்கள்": 5834,
      "chik": 5835,
      "pary": 5836,
      "നിക": 5837,
      "धान": 5838,
      "ലൂ": 5839,
      "anir": 5840,
      "kalukku": 5841,
      "ാർഡ്": 5842,
      "തുടക്ക": 5843,
      "வியல்": 5844,
      "श्रृ": 5845,
      "card": 5846,
      "रिया": 5847,
      "वाह": 5848,
      "mae": 5849,
      "vibhaag": 5850,
      "சுற்று": 5851,
      "mrity": 5852,
      "ester": 5853,
      "ഘട്ട": 5854,
      "ക്യാ": 5855,
      "तिम": 5856,
      "ய்வு": 5857,
      "1987": 5858,
      "ंखला": 5859,
      "श्रृंखला": 5860,
      "akka": 5861,
      "മൂന്ന": 5862,
      "bol": 5863,
      "cut": 5864,
      "ീല": 5865,
      "irku": 5866,
      "മാറി": 5867,
      "नेट": 5868,
      "ഗ്രാമ": 5869,
      "pratish": 5870,
      "அழைக்க": 5871,
      "mrityu": 5872,
      "Mar": 5873,
      "इड": 5874,
      "எடுத்த": 5875,
      "saern": 5876,
      "இருக்க": 5877,
      "अप्र": 5878,
      "नव": 5879,
      "ആൽബ": 5880,
      "ിലി": 5881,
      "avak": 5882,
      "tik": 5883,
      "ttan": 5884,
      "समर्थ": 5885,
      "class": 5886,
      "अंतिम": 5887,
      "ഉയർന്ന": 5888,
      "lok": 5889,
      "puthth": 5890,
      "ോർഡ്": 5891,
      "66": 5892,
      "ட்க": 5893,
      "അടുത്ത": 5894,
      "baahar": 5895,
      "ன்ட்": 5896,
      "ினை": 5897,
      "pathiv": 5898,
      "adhikaar": 5899,
      "noottr": 5900,
      "shrinkhala": 5901,
      "ama": 5902,
      "athile": 5903,
      "பால்": 5904,
      "காண": 5905,
      "സ്ഥല": 5906,
      "चित्र": 5907,
      "ative": 5908,
      "kattid": 5909,
      "വീണ്ട": 5910,
      "haas": 5911,
      "फै": 5912,
      "പ്പിച്ച": 5913,
      "kaatchi": 5914,
      "நூற்றா": 5915,
      "ovvoru": 5916,
      "ஒவ்வொரு": 5917,
      "ij": 5918,
      "achu": 5919,
      "rakh": 5920,
      "ഫൈ": 5921,
      "theen": 5922,
      "anaa": 5923,
      "ചെയ്യുകയും": 5924,
      "pae": 5925,
      "அதை": 5926,
      "ീകരണ": 5927,
      "घो": 5928,
      "முழு": 5929,
      "கல்லூ": 5930,
      "शै": 5931,
      "நிர": 5932,
      "வகு": 5933,
      "റൻ": 5934,
      "1930": 5935,
      "ikkunnathu": 5936,
      "sadasya": 5937,
      "nth": 5938,
      "കം": 5939,
      "train": 5940,
      "samvid": 5941,
      "എന്നാൽ": 5942,
      "ഗ്രൂ": 5943,
      "kila": 5944,
      "sangh": 5945,
      "ict": 5946,
      "പ്പിൽ": 5947,
      "ிலான": 5948,
      "need": 5949,
      "gho": 5950,
      "ondu": 5951,
      "த்தால்": 5952,
      "yamaaya": 5953,
      "த்தைப்": 5954,
      "प्रकार": 5955,
      "लेज": 5956,
      "प्रदर्शन": 5957,
      "1972": 5958,
      "jim": 5959,
      "kadar": 5960,
      "cheyyukayum": 5961,
      "cause": 5962,
      "रिकॉर्ड": 5963,
      "kho": 5964,
      "नर": 5965,
      "maari": 5966,
      "बारे": 5967,
      "palli": 5968,
      "शित": 5969,
      "puraskar": 5970,
      "ട്രോ": 5971,
      "நிறு": 5972,
      "paniyaattr": 5973,
      "EN": 5974,
      "taur": 5975,
      "ലുകൾ": 5976,
      "dire": 5977,
      "samaj": 5978,
      "சேவை": 5979,
      "रोध": 5980,
      "radio": 5981,
      "बंद": 5982,
      "ആണ്": 5983,
      "சொந்த": 5984,
      "आव": 5985,
      "െടുത്ത": 5986,
      "sheer": 5987,
      "aththilirunthu": 5988,
      "prast": 5989,
      "சேர்ந்த": 5990,
      "nia": 5991,
      "சங்க": 5992,
      "അറിയ": 5993,
      "ona": 5994,
      "rael": 5995,
      "thiran": 5996,
      "Ro": 5997,
      "anthar": 5998,
      "arim": 5999,
      "padinj": 6000,
      "സംഖ്യ": 6001,
      "mahat": 6002,
      "ക്കായി": 6003,
      "അവള": 6004,
      "baare": 6005,
      "camp": 6006,
      "சம": 6007,
      "ലിൽ": 6008,
      "തിനാൽ": 6009,
      "graam": 6010,
      "where": 6011,
      "ലിയൻ": 6012,
      "kid": 6013,
      "एँ": 6014,
      "पुरस्कार": 6015,
      "തിക": 6016,
      "സംസ്ഥാന": 6017,
      "kandupid": 6018,
      "तंत्र": 6019,
      "ഇന്": 6020,
      "era": 6021,
      "asal": 6022,
      "kat": 6023,
      "rest": 6024,
      "ടൈ": 6025,
      "தேச": 6026,
      "pesh": 6027,
      "द्य": 6028,
      "ോഗ": 6029,
      "ithan": 6030,
      "ദേശം": 6031,
      "church": 6032,
      "adangkum": 6033,
      "mikacha": 6034,
      "72": 6035,
      "ജിയ": 6036,
      "paruv": 6037,
      "iyoar": 6038,
      "like": 6039,
      "vilaiyaatt": 6040,
      "pravartth": 6041,
      "gas": 6042,
      "भार": 6043,
      "before": 6044,
      "കോൺ": 6045,
      "pud": 6046,
      "எந்த": 6047,
      "யின்": 6048,
      "ശി": 6049,
      "chel": 6050,
      "newyork": 6051,
      "vaazhkkai": 6052,
      "्रो": 6053,
      "ப்பட்டார்": 6054,
      "thiraipp": 6055,
      "angkalin": 6056,
      "arasiyal": 6057,
      "அரசிய": 6058,
      "நினை": 6059,
      "ints": 6060,
      "ikalum": 6061,
      "देख": 6062,
      "ennivar": 6063,
      "ஸில்": 6064,
      "മെന്റ്": 6065,
      "penn": 6066,
      "अब": 6067,
      "atur": 6068,
      "लिक": 6069,
      "மேற்ப": 6070,
      "appetta": 6071,
      "बनाया": 6072,
      "स्थापित": 6073,
      "num": 6074,
      "ंटी": 6075,
      "ulag": 6076,
      "വ്യക്തി": 6077,
      "ഘടന": 6078,
      "எதிர்": 6079,
      "റെക്ക": 6080,
      "லிருந்து": 6081,
      "banaaya": 6082,
      "khal": 6083,
      "bra": 6084,
      "cath": 6085,
      "ker": 6086,
      "उद्": 6087,
      "let": 6088,
      "kuzhandh": 6089,
      "ആൻഡ്": 6090,
      "குறிப்பிட": 6091,
      "കമ്പനി": 6092,
      "मू": 6093,
      "anuv": 6094,
      "ന്റർ": 6095,
      "നടത്ത": 6096,
      "സ്വാ": 6097,
      "वित": 6098,
      "cheyth": 6099,
      "ക്കുറിച്ച്": 6100,
      "मार्च": 6101,
      "chithr": 6102,
      "sevanam": 6103,
      "tim": 6104,
      "முடிய": 6105,
      "appadugindrana": 6106,
      "ual": 6107,
      "कभी": 6108,
      "പ്പറ": 6109,
      "etta": 6110,
      "kabhi": 6111,
      "கால்ப": 6112,
      "janu": 6113,
      "vishva": 6114,
      "This": 6115,
      "புத்த": 6116,
      "prakaar": 6117,
      "adhikam": 6118,
      "anju": 6119,
      "വാഹ": 6120,
      "தொடக்க": 6121,
      "ക്കാല": 6122,
      "invest": 6123,
      "dro": 6124,
      "eyil": 6125,
      "യിലും": 6126,
      "idha": 6127,
      "இறுதி": 6128,
      "தற்": 6129,
      "ഖല": 6130,
      "tta": 6131,
      "top": 6132,
      "railway": 6133,
      "mit": 6134,
      "संर": 6135,
      "srisht": 6136,
      "மிட": 6137,
      "സ്തു": 6138,
      "സ്റ്റോ": 6139,
      "1976": 6140,
      "സെൻ": 6141,
      "kissy": 6142,
      "span": 6143,
      "ल्यू": 6144,
      "ഓസ്ട്ര": 6145,
      "mam": 6146,
      "yude": 6147,
      "गति": 6148,
      "alaam": 6149,
      "ator": 6150,
      "adikk": 6151,
      "किसी": 6152,
      "month": 6153,
      "இடைய": 6154,
      "nna": 6155,
      "parinam": 6156,
      "prem": 6157,
      "ருக்க": 6158,
      "பாடு": 6159,
      "nadathth": 6160,
      "கண்டு": 6161,
      "Se": 6162,
      "mid": 6163,
      "दर": 6164,
      "ாம்": 6165,
      "coach": 6166,
      "യൂറോ": 6167,
      "थीं": 6168,
      "ക്കുറിച്ചുള്ള": 6169,
      "ട്ടർ": 6170,
      "jol": 6171,
      "செல்ல": 6172,
      "സ്റ്റർ": 6173,
      "पहु": 6174,
      "ப்பிரி": 6175,
      "padaipp": 6176,
      "ീകരിച്ചു": 6177,
      "aayam": 6178,
      "ങ്ക്": 6179,
      "ளுக்கான": 6180,
      "ദേശിക": 6181,
      "പ്രാദേശിക": 6182,
      "sthir": 6183,
      "മില്ല": 6184,
      "chaan": 6185,
      "adakk": 6186,
      "aamm": 6187,
      "vishay": 6188,
      "ray": 6189,
      "vit": 6190,
      "esa": 6191,
      "aigalai": 6192,
      "kendra": 6193,
      "urpathth": 6194,
      "1975": 6195,
      "उसे": 6196,
      "റായി": 6197,
      "ிகளில்": 6198,
      "விளையாட்டு": 6199,
      "Re": 6200,
      "പങ്ക": 6201,
      "க்கே": 6202,
      "ംഗി": 6203,
      "1979": 6204,
      "jabaki": 6205,
      "praadesh": 6206,
      "41": 6207,
      "இடை": 6208,
      "usey": 6209,
      "जबकि": 6210,
      "എച്ച്": 6211,
      "1983": 6212,
      "kurippid": 6213,
      "college": 6214,
      "Rep": 6215,
      "ഉട": 6216,
      "aalo": 6217,
      "രിച്ച്": 6218,
      "ulppede": 6219,
      "कानू": 6220,
      "gnar": 6221,
      "ஒளி": 6222,
      "aanki": 6223,
      "ത്തിലും": 6224,
      "stat": 6225,
      "வால": 6226,
      "uyarnna": 6227,
      "ഡിൽ": 6228,
      "uri": 6229,
      "நீதி": 6230,
      "kalaignar": 6231,
      "मिक": 6232,
      "शीर्ष": 6233,
      "கலைஞ": 6234,
      "ँकि": 6235,
      "द्वी": 6236,
      "இல்லை": 6237,
      "suraksh": 6238,
      "ten": 6239,
      "ira": 6240,
      "വിശേഷ": 6241,
      "pahala": 6242,
      "र्ज": 6243,
      "வடிவமை": 6244,
      "हॉ": 6245,
      "പദ": 6246,
      "rukk": 6247,
      "irikkunnu": 6248,
      "aamal": 6249,
      "mber": 6250,
      "ணுவ": 6251,
      "തന്ത്ര": 6252,
      "only": 6253,
      "യിലുള്ള": 6254,
      "பல்": 6255,
      "ஆண்டின்": 6256,
      "സെപ്റ്റ": 6257,
      "पहला": 6258,
      "victor": 6259,
      "maavatt": 6260,
      "yudh": 6261,
      "வளர்": 6262,
      "ape": 6263,
      "vilayaa": 6264,
      "മൂഹ": 6265,
      "രണ്ടാം": 6266,
      "double": 6267,
      "പ്രസിദ്ധ": 6268,
      "yoo": 6269,
      "मई": 6270,
      "tex": 6271,
      "aduththa": 6272,
      "haalaanki": 6273,
      "हालाँकि": 6274,
      "51": 6275,
      "அல": 6276,
      "gl": 6277,
      "vath": 6278,
      "park": 6279,
      "വിഷ": 6280,
      "മർശ": 6281,
      "முதலில்": 6282,
      "aiyaal": 6283,
      "athinith": 6284,
      "pirathinith": 6285,
      "നാട": 6286,
      "muthalil": 6287,
      "aamas": 6288,
      "maee": 6289,
      "vilaiv": 6290,
      "hand": 6291,
      "बदल": 6292,
      "கப்ப": 6293,
      "കരിയ": 6294,
      "points": 6295,
      "uper": 6296,
      "vidy": 6297,
      "ഗ്രാ": 6298,
      "paarambar": 6299,
      "aavashyak": 6300,
      "aththaip": 6301,
      "കെട്ടി": 6302,
      "जॉन": 6303,
      "album": 6304,
      "നാല്": 6305,
      "kl": 6306,
      "udaahar": 6307,
      "aayulla": 6308,
      "adhai": 6309,
      "juuna": 6310,
      "जून": 6311,
      "akshar": 6312,
      "pooy": 6313,
      "लर": 6314,
      "ico": 6315,
      "59": 6316,
      "nment": 6317,
      "inst": 6318,
      "ത്തേ": 6319,
      "meyy": 6320,
      "ंभ": 6321,
      "elec": 6322,
      "தேர்ந்தெடு": 6323,
      "kram": 6324,
      "kiraar": 6325,
      "തൃ": 6326,
      "iska": 6327,
      "തുറ": 6328,
      "onday": 6329,
      "இள": 6330,
      "ைக்": 6331,
      "ിലുള്ള": 6332,
      "कर्": 6333,
      "பாத்திர": 6334,
      "வெள்ள": 6335,
      "1973": 6336,
      "ekadesham": 6337,
      "ior": 6338,
      "veendum": 6339,
      "பான": 6340,
      "thalaim": 6341,
      "1968": 6342,
      "nalki": 6343,
      "sitambar": 6344,
      "सितंबर": 6345,
      "വീണ്ടും": 6346,
      "wire": 6347,
      "prab": 6348,
      "കാരം": 6349,
      "மாண": 6350,
      "ഏകദേശം": 6351,
      "Monday": 6352,
      "kayum": 6353,
      "ility": 6354,
      "വിട": 6355,
      "1964": 6356,
      "pakshe": 6357,
      "including": 6358,
      "ഓസ്ട്രേ": 6359,
      "aro": 6360,
      "ആദ്യത്തെ": 6361,
      "pathin": 6362,
      "மருத்துவ": 6363,
      "Co": 6364,
      "கள": 6365,
      "പക്ഷേ": 6366,
      "த்தியா": 6367,
      "ula": 6368,
      "stand": 6369,
      "neeth": 6370,
      "muy": 6371,
      "इसका": 6372,
      "53": 6373,
      "नु": 6374,
      "പ്രി": 6375,
      "vetrtr": 6376,
      "ikkunnath": 6377,
      "परिणा": 6378,
      "President": 6379,
      "times": 6380,
      "ology": 6381,
      "குழுவ": 6382,
      "made": 6383,
      "county": 6384,
      "uber": 6385,
      "अभि": 6386,
      "புக": 6387,
      "റൂ": 6388,
      "itham": 6389,
      "kaund": 6390,
      "56": 6391,
      "bat": 6392,
      "laksh": 6393,
      "edut": 6394,
      "upad": 6395,
      "മെന്റ": 6396,
      "शिप": 6397,
      "sahay": 6398,
      "epis": 6399,
      "ഓർ": 6400,
      "ல்ட்": 6401,
      "ുകളെ": 6402,
      "നേട": 6403,
      "यूरो": 6404,
      "alifornia": 6405,
      "kor": 6406,
      "yaksh": 6407,
      "സംവി": 6408,
      "gress": 6409,
      "1969": 6410,
      "हार": 6411,
      "uss": 6412,
      "janwari": 6413,
      "जनवरी": 6414,
      "prasidheekar": 6415,
      "washington": 6416,
      "nyoo": 6417,
      "கண்டுபிடி": 6418,
      "സംവിധാന": 6419,
      "43": 6420,
      "aant": 6421,
      "aayir": 6422,
      "उत्तर": 6423,
      "big": 6424,
      "डॉ": 6425,
      "thel": 6426,
      "വിഭാഗ": 6427,
      "sathaveetham": 6428,
      "റീ": 6429,
      "start": 6430,
      "1974": 6431,
      "aakum": 6432,
      "ആയിരുന്നു": 6433,
      "पर्": 6434,
      "zhs": 6435,
      "விட்ட": 6436,
      "vyakt": 6437,
      "ത്തോടെ": 6438,
      "fa": 6439,
      "mattr": 6440,
      "सीज़": 6441,
      "contr": 6442,
      "ധികം": 6443,
      "57": 6444,
      "anki": 6445,
      "alam": 6446,
      "செப்ட": 6447,
      "badey": 6448,
      "techn": 6449,
      "Le": 6450,
      "செல்": 6451,
      "while": 6452,
      "ഷ്ഠ": 6453,
      "aikkuzh": 6454,
      "iththuv": 6455,
      "കെട്ടിട": 6456,
      "पद": 6457,
      "உண்": 6458,
      "ംസ്": 6459,
      "chchi": 6460,
      "लिय": 6461,
      "thanne": 6462,
      "സ്കൂൾ": 6463,
      "बड़े": 6464,
      "உட": 6465,
      "chaah": 6466,
      "vigyaan": 6467,
      "ராய்": 6468,
      "சின்": 6469,
      "station": 6470,
      "चर्च": 6471,
      "ജനുവരി": 6472,
      "आवश्य": 6473,
      "തന്നെ": 6474,
      "bhaav": 6475,
      "septambar": 6476,
      "For": 6477,
      "கன": 6478,
      "1967": 6479,
      "एल्बम": 6480,
      "athode": 6481,
      "ത്വ": 6482,
      "quar": 6483,
      "ग्रह": 6484,
      "ola": 6485,
      "samaan": 6486,
      "காட்ட": 6487,
      "സംഗീത": 6488,
      "உடன்": 6489,
      "thing": 6490,
      "1977": 6491,
      "தெற்கு": 6492,
      "apurna": 6493,
      "swat": 6494,
      "பள்ளி": 6495,
      "പ്രത്യേക": 6496,
      "ैल": 6497,
      "ഷണൽ": 6498,
      "kalikk": 6499,
      "sett": 6500,
      "maj": 6501,
      "ப்புற": 6502,
      "base": 6503,
      "lii": 6504,
      "ഷെ": 6505,
      "ado": 6506,
      "1978": 6507,
      "uj": 6508,
      "ஆஃப்": 6509,
      "ாள்": 6510,
      "മാര": 6511,
      "adhiga": 6512,
      "संचा": 6513,
      "നുശേഷം": 6514,
      "परिणाम": 6515,
      "ട്രാ": 6516,
      "തൻ്റെ": 6517,
      "tharpoo": 6518,
      "government": 6519,
      "विज्ञान": 6520,
      "november": 6521,
      "ix": 6522,
      "amainth": 6523,
      "ittu": 6524,
      "istan": 6525,
      "பகுதியாக": 6526,
      "ികളുടെ": 6527,
      "naalu": 6528,
      "श्रे": 6529,
      "police": 6530,
      "make": 6531,
      "right": 6532,
      "ജ്യ": 6533,
      "ullaar": 6534,
      "varsham": 6535,
      "லாத": 6536,
      "காரணமாக": 6537,
      "கால்பந்து": 6538,
      "nim": 6539,
      "वर्ण": 6540,
      "നസ്": 6541,
      "ാത്ത": 6542,
      "santh": 6543,
      "sanchaal": 6544,
      "முயற்": 6545,
      "book": 6546,
      "കരാ": 6547,
      "isi": 6548,
      "இசைக்கு": 6549,
      "kes": 6550,
      "प्रणा": 6551,
      "போல": 6552,
      "purat": 6553,
      "भिन्न": 6554,
      "Con": 6555,
      "door": 6556,
      "അദ്ദേഹത്തെ": 6557,
      "प्रार": 6558,
      "unny": 6559,
      "ethi": 6560,
      "ken": 6561,
      "னிய": 6562,
      "കരണ": 6563,
      "adisth": 6564,
      "geet": 6565,
      "akalil": 6566,
      "pathil": 6567,
      "இங்க": 6568,
      "அவற்ற": 6569,
      "மீது": 6570,
      "अभ": 6571,
      "वो": 6572,
      "ரிட": 6573,
      "kaalpandhu": 6574,
      "thogai": 6575,
      "kkurichu": 6576,
      "நியூயா": 6577,
      "businesswire": 6578,
      "குழந்தை": 6579,
      "epril": 6580,
      "स्को": 6581,
      "look": 6582,
      "uu": 6583,
      "വസ": 6584,
      "avaa": 6585,
      "addehathe": 6586,
      "munnaal": 6587,
      "महत्व": 6588,
      "ഒക്ടോ": 6589,
      "shram": 6590,
      "പോലെ": 6591,
      "நாட்டு": 6592,
      "நிர்": 6593,
      "ചാമ്പ്": 6594,
      "ഇന്ത്യ": 6595,
      "मर": 6596,
      "அடுத்த": 6597,
      "കമ്മ": 6598,
      "theru": 6599,
      "வேலை": 6600,
      "വർഷം": 6601,
      "மும்": 6602,
      "zhal": 6603,
      "विकास": 6604,
      "സംഘ": 6605,
      "world": 6606,
      "pirab": 6607,
      "ലുള്ള": 6608,
      "eena": 6609,
      "shat": 6610,
      "ദ്യോഗ": 6611,
      "அறிவி": 6612,
      "ഓരോ": 6613,
      "ന്റി": 6614,
      "tour": 6615,
      "जाती": 6616,
      "1971": 6617,
      "ventr": 6618,
      "found": 6619,
      "inteyum": 6620,
      "meethu": 6621,
      "cheria": 6622,
      "chaamby": 6623,
      "Com": 6624,
      "oct": 6625,
      "யர்": 6626,
      "നുകൾ": 6627,
      "നിർമ്മിച്ച": 6628,
      "उच्च": 6629,
      "oruvar": 6630,
      "therku": 6631,
      "ഉപയോഗിച്ച്": 6632,
      "ചെറിയ": 6633,
      "மேற்கு": 6634,
      "steshan": 6635,
      "Bo": 6636,
      "union": 6637,
      "maarch": 6638,
      "வழக்க": 6639,
      "जुलाई": 6640,
      "julaai": 6641,
      "cil": 6642,
      "cheyyaan": 6643,
      "viriv": 6644,
      "match": 6645,
      "anon": 6646,
      "1920": 6647,
      "view": 6648,
      "valangk": 6649,
      "स्टी": 6650,
      "പ്പിക്കുന്നു": 6651,
      "பதிவு": 6652,
      "வணிக": 6653,
      "CE": 6654,
      "ഹൌ": 6655,
      "alavil": 6656,
      "iradhu": 6657,
      "angalai": 6658,
      "read": 6659,
      "thudakk": 6660,
      "ime": 6661,
      "വഹ": 6662,
      "ക്കുക": 6663,
      "ivers": 6664,
      "तियों": 6665,
      "என்பதை": 6666,
      "அமைந்து": 6667,
      "பெற்றது": 6668,
      "less": 6669,
      "ங்ட": 6670,
      "ജില്ല": 6671,
      "ളുകൾ": 6672,
      "oop": 6673,
      "स्वी": 6674,
      "power": 6675,
      "कॉलेज": 6676,
      "हरा": 6677,
      "தேவால": 6678,
      "हत": 6679,
      "அல்": 6680,
      "isaikkuzh": 6681,
      "சாலை": 6682,
      "काउंटी": 6683,
      "praadeshika": 6684,
      "saa": 6685,
      "கல": 6686,
      "റ്റിൽ": 6687,
      "പ്പിക്കുകയും": 6688,
      "angiya": 6689,
      "leak": 6690,
      "वाई": 6691,
      "III": 6692,
      "ிகா": 6693,
      "ஆகியவை": 6694,
      "aagiyavai": 6695,
      "இராணுவ": 6696,
      "யோ": 6697,
      "utha": 6698,
      "vaakku": 6699,
      "தோன்ற": 6700,
      "நூற்றாண்ட": 6701,
      "फ्री": 6702,
      "ஸி": 6703,
      "appedunnu": 6704,
      "parivart": 6705,
      "sat": 6706,
      "ththu": 6707,
      "arimug": 6708,
      "Col": 6709,
      "ുമ്പോൾ": 6710,
      "ക്രോ": 6711,
      "minis": 6712,
      "நியமி": 6713,
      "kaaranamaaga": 6714,
      "ഗ്ല": 6715,
      "enil": 6716,
      "agast": 6717,
      "വിഷൻ": 6718,
      "त्रा": 6719,
      "ghat": 6720,
      "இருக்கும்": 6721,
      "വംശ": 6722,
      "ശ്രദ്ധ": 6723,
      "attra": 6724,
      "thiranjedukk": 6725,
      "during": 6726,
      "amerikk": 6727,
      "मंत्र": 6728,
      "imar": 6729,
      "നിർദ്ദേശ": 6730,
      "niruvanam": 6731,
      "छे": 6732,
      "துணை": 6733,
      "सीज़न": 6734,
      "സ്ക": 6735,
      "pattiyal": 6736,
      "ജ്ഞ": 6737,
      "அறிமுக": 6738,
      "antarrashtriya": 6739,
      "अल्": 6740,
      "ini": 6741,
      "maarg": 6742,
      "समाप्त": 6743,
      "வடக்கு": 6744,
      "kalude": 6745,
      "काल": 6746,
      "പ്രദ": 6747,
      "ினா": 6748,
      "പരമ്പര": 6749,
      "samaapt": 6750,
      "क्रि": 6751,
      "സമയം": 6752,
      "inal": 6753,
      "cts": 6754,
      "1943": 6755,
      "നീസ്": 6756,
      "കോളേ": 6757,
      "Ar": 6758,
      "gee": 6759,
      "rai": 6760,
      "ല്യ": 6761,
      "ക്കെ": 6762,
      "stor": 6763,
      "madhya": 6764,
      "வகை": 6765,
      "chris": 6766,
      "जीत": 6767,
      "ത്തിലുള്ള": 6768,
      "विष": 6769,
      "ippikkunnu": 6770,
      "சுற்ற": 6771,
      "dweep": 6772,
      "99": 6773,
      "vaas": 6774,
      "ബിയ": 6775,
      "adhyayan": 6776,
      "pravartthan": 6777,
      "पक": 6778,
      "parim": 6779,
      "rob": 6780,
      "vajan": 6781,
      "स्टेशन": 6782,
      "ക്കൾ": 6783,
      "്യു": 6784,
      "लीन": 6785,
      "1982": 6786,
      "கொண்டிருந்த": 6787,
      "छोड़": 6788,
      "டியா": 6789,
      "sarkaar": 6790,
      "leey": 6791,
      "ல்களை": 6792,
      "सरकार": 6793,
      "vittu": 6794,
      "ഓഗ": 6795,
      "പ്രഖ്യ": 6796,
      "தொகை": 6797,
      "സ്റ്റാ": 6798,
      "ப்படுகின்றன": 6799,
      "vadakk": 6800,
      "irunththana": 6801,
      "chhod": 6802,
      "through": 6803,
      "ാനുള്ള": 6804,
      "mont": 6805,
      "sthaapit": 6806,
      "ത്തിലേക്ക്": 6807,
      "മട": 6808,
      "സില": 6809,
      "ennivay": 6810,
      "jeevit": 6811,
      "പദ്ധ": 6812,
      "iyath": 6813,
      "devel": 6814,
      "क्षम": 6815,
      "गठन": 6816,
      "fact": 6817,
      "alai": 6818,
      "1942": 6819,
      "பேர்": 6820,
      "mudiv": 6821,
      "senaa": 6822,
      "kavund": 6823,
      "அக்டோ": 6824,
      "अगस्त": 6825,
      "pc": 6826,
      "റെയിൽ": 6827,
      "paarkk": 6828,
      "cast": 6829,
      "जर": 6830,
      "set": 6831,
      "चैंप": 6832,
      "കപ്പ": 6833,
      "தும்": 6834,
      "சென்ற": 6835,
      "பகுதி": 6836,
      "दूसरे": 6837,
      "tholai": 6838,
      "dusare": 6839,
      "फुटबॉल": 6840,
      "88": 6841,
      "riy": 6842,
      "tul": 6843,
      "ஃபெ": 6844,
      "னம்": 6845,
      "anga": 6846,
      "janasam": 6847,
      "இருப்ப": 6848,
      "രാഷ്ട്രീയ": 6849,
      "orth": 6850,
      "ദം": 6851,
      "paadu": 6852,
      "want": 6853,
      "ark": 6854,
      "ukkaaga": 6855,
      "jeet": 6856,
      "aanennu": 6857,
      "व्यव": 6858,
      "ജൂലൈ": 6859,
      "नवंबर": 6860,
      "Ho": 6861,
      "अक्": 6862,
      "arug": 6863,
      "aly": 6864,
      "rayil": 6865,
      "മുന്ന": 6866,
      "संख्या": 6867,
      "dene": 6868,
      "septumber": 6869,
      "official": 6870,
      "മതി": 6871,
      "രിക": 6872,
      "താഴ": 6873,
      "1981": 6874,
      "ുകാ": 6875,
      "കാൻ": 6876,
      "halanki": 6877,
      "हालांकि": 6878,
      "വിജയ": 6879,
      "aprail": 6880,
      "अप्रैल": 6881,
      "செப்டம்பர்": 6882,
      "TA": 6883,
      "चौ": 6884,
      "നിലെ": 6885,
      "वाला": 6886,
      "ஒரே": 6887,
      "ேற்ற": 6888,
      "അർ": 6889,
      "piriv": 6890,
      "yadhaar": 6891,
      "ியான": 6892,
      "oray": 6893,
      "ിക്കൽ": 6894,
      "brand": 6895,
      "घोष": 6896,
      "പ്രഖ്യാപ": 6897,
      "vart": 6898,
      "புள்ள": 6899,
      "ugalin": 6900,
      "टिश": 6901,
      "aanathu": 6902,
      "kalum": 6903,
      "நீர்": 6904,
      "ஜூன்": 6905,
      "varalaaru": 6906,
      "dav": 6907,
      "bharan": 6908,
      "பிள்யூ": 6909,
      "dun": 6910,
      "सहा": 6911,
      "லூ": 6912,
      "മ്യൂ": 6913,
      "peri": 6914,
      "pathivu": 6915,
      "ജനസംഖ്യ": 6916,
      "സെപ്റ്റം": 6917,
      "ग्रा": 6918,
      "ഫുട്": 6919,
      "kab": 6920,
      "இருந்தன": 6921,
      "jiska": 6922,
      "जिसका": 6923,
      "doosar": 6924,
      "टूबर": 6925,
      "கிழக்கு": 6926,
      "अक्टूबर": 6927,
      "घट": 6928,
      "नॉ": 6929,
      "ധന": 6930,
      "ruth": 6931,
      "ont": 6932,
      "संबर": 6933,
      "because": 6934,
      "दिसंबर": 6935,
      "மார்ச்": 6936,
      "ചരിത്രം": 6937,
      "ittar": 6938,
      "1966": 6939,
      "டபிள்யூ": 6940,
      "ഉള്ള": 6941,
      "ദ്ര": 6942,
      "arai": 6943,
      "ப்பான": 6944,
      "aakram": 6945,
      "iff": 6946,
      "म्स": 6947,
      "சதவீதம்": 6948,
      "octuber": 6949,
      "ஆல்": 6950,
      "ஏப்ர": 6951,
      "porut": 6952,
      "छोटे": 6953,
      "chhote": 6954,
      "68": 6955,
      "तों": 6956,
      "சில்": 6957,
      "amaanam": 6958,
      "prakhy": 6959,
      "கண்ட": 6960,
      "ுக்கு": 6961,
      "വിയ": 6962,
      "dhi": 6963,
      "angkalukku": 6964,
      "nagaram": 6965,
      "കിഴ": 6966,
      "மொத்த": 6967,
      "शत": 6968,
      "pral": 6969,
      "റ്റുകൾ": 6970,
      "சிக்க": 6971,
      "since": 6972,
      "മധ്യ": 6973,
      "പ്ല": 6974,
      "1965": 6975,
      "അതിൽ": 6976,
      "thii": 6977,
      "aham": 6978,
      "முன்னாள்": 6979,
      "koorinaar": 6980,
      "vilayaattu": 6981,
      "गल": 6982,
      "eyulla": 6983,
      "oothar": 6984,
      "த்தனர்": 6985,
      "പ്പർ": 6986,
      "സംഭ": 6987,
      "pole": 6988,
      "വുമായ": 6989,
      "പദ്ധതി": 6990,
      "ഉണ്ട്": 6991,
      "chain": 6992,
      "प्रत्य": 6993,
      "பாதை": 6994,
      "ஸ்டர்": 6995,
      "syste": 6996,
      "kaath": 6997,
      "ஐரோ": 6998,
      "paray": 6999,
      "holl": 7000,
      "And": 7001,
      "Car": 7002,
      "நடி": 7003,
      "paraam": 7004,
      "open": 7005,
      "podhu": 7006,
      "വിദ്യാ": 7007,
      "छात्र": 7008,
      "vers": 7009,
      "aram": 7010,
      "ippich": 7011,
      "ட்ப": 7012,
      "प्रतिशत": 7013,
      "sathamaanam": 7014,
      "johnn": 7015,
      "pratishat": 7016,
      ")।": 7017,
      "ஃபா": 7018,
      "ரங்க": 7019,
      "സും": 7020,
      "क्रिया": 7021,
      "सिद्ध": 7022,
      "help": 7023,
      "hoo": 7024,
      "समान": 7025,
      "மலை": 7026,
      "ജനി": 7027,
      "മേഖല": 7028,
      "full": 7029,
      "തട": 7030,
      "pettra": 7031,
      "सैन": 7032,
      "glo": 7033,
      "amaanu": 7034,
      "associ": 7035,
      "karudh": 7036,
      "prakad": 7037,
      "வரலாறு": 7038,
      "கிராம": 7039,
      "52": 7040,
      "hast": 7041,
      "ava": 7042,
      "ക്കൊ": 7043,
      "prote": 7044,
      "paniyaattrinaar": 7045,
      "pass": 7046,
      "நவ": 7047,
      "kkulla": 7048,
      "avaad": 7049,
      "maran": 7050,
      "തുണ": 7051,
      "देने": 7052,
      "ഗ്രഹ": 7053,
      "naatak": 7054,
      "പരിശീല": 7055,
      "ர்களுக்கு": 7056,
      "जान": 7057,
      "model": 7058,
      "பணியாற்றினார்": 7059,
      "ghosh": 7060,
      "vol": 7061,
      "തര": 7062,
      "ishya": 7063,
      "mark": 7064,
      "ரால்": 7065,
      "ஜூலை": 7066,
      "too": 7067,
      "गन": 7068,
      "tom": 7069,
      "ண்க": 7070,
      "ander": 7071,
      "joonn": 7072,
      "chernnu": 7073,
      "rang": 7074,
      "ത്തിനും": 7075,
      "वर्तमान": 7076,
      "bis": 7077,
      "ക്യൂ": 7078,
      "sammaan": 7079,
      "sooth": 7080,
      "gel": 7081,
      "तै": 7082,
      "ippikkukayum": 7083,
      "ப்பட்டுள்ளது": 7084,
      "लोक": 7085,
      "പിന്തുണ": 7086,
      "ഉണ്ടായിരുന്നു": 7087,
      "அக்டோபர்": 7088,
      "चैंपियन": 7089,
      "ऑस्ट": 7090,
      "सेंट": 7091,
      "ഡുകൾ": 7092,
      "pra": 7093,
      "பயண": 7094,
      "्राष्ट्र": 7095,
      "peed": 7096,
      "अंतर्राष्ट्र": 7097,
      "अंतर्राष्ट्रीय": 7098,
      "சூத்திர": 7099,
      "लिन": 7100,
      "പോക": 7101,
      "veerar": 7102,
      "irk": 7103,
      "വ്യവ": 7104,
      "തുടർന്ന്": 7105,
      "லியன்": 7106,
      "lamb": 7107,
      "മത": 7108,
      "േക്കും": 7109,
      "asi": 7110,
      "തിന്": 7111,
      "yon": 7112,
      "kudiy": 7113,
      "pravarth": 7114,
      "kim": 7115,
      "paa": 7116,
      "मध्य": 7117,
      "അല": 7118,
      "മിയ": 7119,
      "ilirunthu": 7120,
      "uddesh": 7121,
      "maanil": 7122,
      "jisase": 7123,
      "जिससे": 7124,
      "बैंड": 7125,
      "velipp": 7126,
      "ज़ा": 7127,
      "திகள்": 7128,
      "മാറ": 7129,
      "பாதி": 7130,
      "jinhone": 7131,
      "black": 7132,
      "शोध": 7133,
      "പൂ": 7134,
      "parapp": 7135,
      "माना": 7136,
      "banaane": 7137,
      "ுள்ளன": 7138,
      "बनाने": 7139,
      "जिन्होंने": 7140,
      "പ്രൊഫ": 7141,
      "aaye": 7142,
      "ുകൊ": 7143,
      "sankhya": 7144,
      "aepral": 7145,
      "austr": 7146,
      "പറയ": 7147,
      "கூறினார்": 7148,
      "ജർമ്മ": 7149,
      "ekal": 7150,
      "thaer": 7151,
      "शिक्षा": 7152,
      "இயக்க": 7153,
      "செய்தார்": 7154,
      "ஏப்ரல்": 7155,
      "japan": 7156,
      "வந்த": 7157,
      "bhasha": 7158,
      "bett": 7159,
      "hil": 7160,
      "ഇരു": 7161,
      "thavar": 7162,
      "moonnaam": 7163,
      "thira": 7164,
      "shiksha": 7165,
      "left": 7166,
      "ளுக்கும்": 7167,
      "76": 7168,
      "Mo": 7169,
      "നവം": 7170,
      "ത്തിനായി": 7171,
      "network": 7172,
      "taba": 7173,
      "पार्टी": 7174,
      "400": 7175,
      "சர்வ": 7176,
      "ീവ്": 7177,
      "लिंग": 7178,
      "പുസ്ത": 7179,
      "അന": 7180,
      "atthe": 7181,
      "ikkan": 7182,
      "nut": 7183,
      "വിശ്": 7184,
      "athinum": 7185,
      "प्ता": 7186,
      "desember": 7187,
      "bil": 7188,
      "nagara": 7189,
      "ശതമാനം": 7190,
      "CA": 7191,
      "रक्षा": 7192,
      "urs": 7193,
      "സ്ഥിര": 7194,
      "yadhaartha": 7195,
      "ori": 7196,
      "ടെലി": 7197,
      "एकल": 7198,
      "khy": 7199,
      "paanch": 7200,
      "https": 7201,
      "Republic": 7202,
      "ox": 7203,
      "avari": 7204,
      "लियन": 7205,
      "மாத": 7206,
      "seithaar": 7207,
      "good": 7208,
      "गण": 7209,
      "akaal": 7210,
      "prathin": 7211,
      "seiya": 7212,
      "phy": 7213,
      "சாங்க": 7214,
      "പാത": 7215,
      "ஆகஸ்ட்": 7216,
      "aadhun": 7217,
      "அனுமதி": 7218,
      "പ്രസിഡ": 7219,
      "உற்பத்தி": 7220,
      "rick": 7221,
      "ബറിൽ": 7222,
      "ட்லா": 7223,
      "ware": 7224,
      "നടന്ന": 7225,
      "जर्म": 7226,
      "arichu": 7227,
      "தொடர்பு": 7228,
      "മറ്റൊ": 7229,
      "द्वीप": 7230,
      "வுடன்": 7231,
      "tail": 7232,
      "अध्ययन": 7233,
      "vartamaan": 7234,
      "cru": 7235,
      "ம்ஸ்": 7236,
      "mattra": 7237,
      "sarkkar": 7238,
      "partment": 7239,
      "പ്രവർത്തന": 7240,
      "audyog": 7241,
      "நிர்வாக": 7242,
      "சர்வதேச": 7243,
      "mish": 7244,
      "तार": 7245,
      "ब्ल्यू": 7246,
      "அமெரிக்கா": 7247,
      "பெரும்பாலும்": 7248,
      "perumpaalum": 7249,
      "United": 7250,
      "udam": 7251,
      "bhaash": 7252,
      "ச்சை": 7253,
      "aandugal": 7254,
      "anumath": 7255,
      "thittam": 7256,
      "റ്റോ": 7257,
      "mudiyum": 7258,
      "க்கியது": 7259,
      "पति": 7260,
      "aarana": 7261,
      "saambiyan": 7262,
      "ota": 7263,
      "ൌൺ": 7264,
      "olina": 7265,
      "round": 7266,
      "nasht": 7267,
      "khand": 7268,
      "ikale": 7269,
      "दिन": 7270,
      "ेक": 7271,
      "kurain": 7272,
      "kkurichulla": 7273,
      "vaay": 7274,
      "eekaar": 7275,
      "ency": 7276,
      "ulloor": 7277,
      "ippol": 7278,
      "ഉൾപ്പെടെ": 7279,
      "सूची": 7280,
      "gol": 7281,
      "तब": 7282,
      "பில்": 7283,
      "റൈ": 7284,
      "ames": 7285,
      "തിരെ": 7286,
      "തിരിച്ച": 7287,
      "संस्": 7288,
      "thirich": 7289,
      "നേടിയ": 7290,
      "saadhaaran": 7291,
      "78": 7292,
      "eal": 7293,
      "पॉ": 7294,
      "ഡബ്ല": 7295,
      "ബാർ": 7296,
      "ക്കേ": 7297,
      "लिख": 7298,
      "nird": 7299,
      "സാനി": 7300,
      "kaala": 7301,
      "veerargal": 7302,
      "ஒப்பந்த": 7303,
      "നൈ": 7304,
      "ible": 7305,
      "കണക്കാ": 7306,
      "ഗർ": 7307,
      "ism": 7308,
      "sarvad": 7309,
      "prabandh": 7310,
      "award": 7311,
      "പക": 7312,
      "നിറ": 7313,
      "ഡിസം": 7314,
      "aigalil": 7315,
      "ഫീൽ": 7316,
      "95": 7317,
      "agaala": 7318,
      "സ്റ്റേറ്റ്": 7319,
      "hissa": 7320,
      "हिस्सा": 7321,
      "yah": 7322,
      "ery": 7323,
      "ம்பி": 7324,
      "paranju": 7325,
      "டிச": 7326,
      "green": 7327,
      "1948": 7328,
      "sarvadesa": 7329,
      "ted": 7330,
      "paarv": 7331,
      "varshon": 7332,
      "arasaang": 7333,
      "वर्षों": 7334,
      "payirch": 7335,
      "aattru": 7336,
      "बाहर": 7337,
      "அரசாங்க": 7338,
      "neenda": 7339,
      "sk": 7340,
      "മാസ": 7341,
      "peril": 7342,
      "കളെ": 7343,
      "thamaaya": 7344,
      "cheiyunna": 7345,
      "സമാ": 7346,
      "alavu": 7347,
      "unnath": 7348,
      "jay": 7349,
      "மத": 7350,
      "സെന്റ്": 7351,
      "ights": 7352,
      "ചെല": 7353,
      "feel": 7354,
      "विभिन्न": 7355,
      "सार्व": 7356,
      "grand": 7357,
      "ബെർ": 7358,
      "sumar": 7359,
      "vibhinn": 7360,
      "पन": 7361,
      "ists": 7362,
      "ത്താ": 7363,
      "குதி": 7364,
      "1962": 7365,
      "biru": 7366,
      "सर्व": 7367,
      "ആക്രമ": 7368,
      "shodh": 7369,
      "usake": 7370,
      "ബിസി": 7371,
      "उसके": 7372,
      "AM": 7373,
      "gav": 7374,
      "रंग": 7375,
      "ilaa": 7376,
      "ந்திய": 7377,
      "लित": 7378,
      "dhii": 7379,
      "1963": 7380,
      "sooch": 7381,
      "intrana": 7382,
      "secur": 7383,
      "अनुसार": 7384,
      "anusaar": 7385,
      "Russ": 7386,
      "இப்போது": 7387,
      "irukk": 7388,
      "परा": 7389,
      "சுமார்": 7390,
      "ikkappattaar": 7391,
      "enter": 7392,
      "ippoathu": 7393,
      "low": 7394,
      "அரசியல்": 7395,
      "yangal": 7396,
      "ஷன்": 7397,
      "arab": 7398,
      "vardh": 7399,
      "കാരണ": 7400,
      "abhi": 7401,
      "ichael": 7402,
      "பொதுவாக": 7403,
      "ഇപ്പോൾ": 7404,
      "செலு": 7405,
      "மேன்": 7406,
      "doctor": 7407,
      "ബിരു": 7408,
      "nas": 7409,
      "പൈ": 7410,
      "praarambh": 7411,
      "kuzhu": 7412,
      "udaaharan": 7413,
      "प्रारंभ": 7414,
      "ஏனெ": 7415,
      "അധി": 7416,
      "soochi": 7417,
      "mukkiyam": 7418,
      "sky": 7419,
      "യോർ": 7420,
      "ikkappatta": 7421,
      "ിലൂടെ": 7422,
      "kondirun": 7423,
      "ண்டர்": 7424,
      "ichch": 7425,
      "மூன்ற": 7426,
      "adel": 7427,
      "eriya": 7428,
      "दाय": 7429,
      "chunaav": 7430,
      "चुनाव": 7431,
      "fac": 7432,
      "अला": 7433,
      "कृत": 7434,
      "sweekar": 7435,
      "palvaeru": 7436,
      "புத்தக": 7437,
      "பல்வேறு": 7438,
      "hatt": 7439,
      "डब्ल्यू": 7440,
      "ത്തം": 7441,
      "ர்களில்": 7442,
      "abhin": 7443,
      "vidyaa": 7444,
      "മാർച്ച്": 7445,
      "സാധാരണയായി": 7446,
      "saadhaaranayaayi": 7447,
      "meet": 7448,
      "तहत": 7449,
      "सौ": 7450,
      "സ്സ": 7451,
      "maem": 7452,
      "pratin": 7453,
      "tahat": 7454,
      "championship": 7455,
      "quarter": 7456,
      "सत्र": 7457,
      "1939": 7458,
      "प्रतिनि": 7459,
      "முடியும்": 7460,
      "raan": 7461,
      "ചോ": 7462,
      "member": 7463,
      "த்தையும்": 7464,
      "डर": 7465,
      "ரிக்": 7466,
      "ப்பூ": 7467,
      "take": 7468,
      "vapurna": 7469,
      "फ्र": 7470,
      "150": 7471,
      "கல்வி": 7472,
      "mahatvapurna": 7473,
      "महत्वपूर्ण": 7474,
      "hi": 7475,
      "ത്തര": 7476,
      "வாக்க": 7477,
      "உள்ளட": 7478,
      "games": 7479,
      "web": 7480,
      "aalbam": 7481,
      "योजित": 7482,
      "vaelai": 7483,
      "अच्": 7484,
      "इक": 7485,
      "णी": 7486,
      "ये": 7487,
      "ഹു": 7488,
      "thik": 7489,
      "abdi": 7490,
      "माम": 7491,
      "landan": 7492,
      "പരിപാ": 7493,
      "ट्स": 7494,
      "purush": 7495,
      "வுக": 7496,
      "kkoll": 7497,
      "துறை": 7498,
      "तीस": 7499,
      "வெளியீ": 7500,
      "ഷ്യൻ": 7501,
      "ING": 7502,
      "300": 7503,
      "AS": 7504,
      "கிற": 7505,
      "ison": 7506,
      "aavas": 7507,
      "1946": 7508,
      "टिन": 7509,
      "az": 7510,
      "adal": 7511,
      "kaun": 7512,
      "pahunch": 7513,
      "reekar": 7514,
      "appadugiradhu": 7515,
      "ஸ்திர": 7516,
      "प्रकाशित": 7517,
      "prakaashit": 7518,
      "sign": 7519,
      "तृ": 7520,
      "iyaaya": 7521,
      "க்கோ": 7522,
      "akkaar": 7523,
      "വർദ്ധ": 7524,
      "1941": 7525,
      "formation": 7526,
      "स्थापना": 7527,
      "boo": 7528,
      "लौ": 7529,
      "ஃபி": 7530,
      "स्टो": 7531,
      "ंग्रे": 7532,
      "ble": 7533,
      "nab": 7534,
      "vaath": 7535,
      "खंड": 7536,
      "ima": 7537,
      "പ്രവേശ": 7538,
      "உள்ளூர்": 7539,
      "எதிராக": 7540,
      "प्रणाली": 7541,
      "ഫുട്ബോൾ": 7542,
      "இழ": 7543,
      "னே": 7544,
      "னால்": 7545,
      "ante": 7546,
      "trik": 7547,
      "ലിന്റെ": 7548,
      "പുല": 7549,
      "टिंग": 7550,
      "sthaapana": 7551,
      "podhuvaaga": 7552,
      "Al": 7553,
      "yun": 7554,
      "मों": 7555,
      "எச்": 7556,
      "ைப்": 7557,
      "moontr": 7558,
      "பிரதிநிதி": 7559,
      "vice": 7560,
      "ശരി": 7561,
      "ativ": 7562,
      "வார": 7563,
      "padam": 7564,
      "pattri": 7565,
      "udhal": 7566,
      "पोर्ट": 7567,
      "பற்றி": 7568,
      "thernth": 7569,
      "ब्दी": 7570,
      "pakuthi": 7571,
      "പറഞ്ഞു": 7572,
      "jen": 7573,
      "vaap": 7574,
      "झा": 7575,
      "മന്": 7576,
      "സ്യ": 7577,
      "ट्रे": 7578,
      "famil": 7579,
      "night": 7580,
      "फॉ": 7581,
      "लना": 7582,
      "വദ": 7583,
      "புர": 7584,
      "anusht": 7585,
      "पिता": 7586,
      ".-": 7587,
      "63": 7588,
      "rik": 7589,
      "அற": 7590,
      "தைய": 7591,
      "ട്ടിൽ": 7592,
      "प्रबंध": 7593,
      "ित्व": 7594,
      "nadath": 7595,
      "ग्रे": 7596,
      "மொழ": 7597,
      "अधिकार": 7598,
      "sevanamanusht": 7599,
      "73": 7600,
      "jun": 7601,
      "शता": 7602,
      "हित": 7603,
      "ikkappatt": 7604,
      "nadee": 7605,
      "maanila": 7606,
      "राजनी": 7607,
      "idaththil": 7608,
      "uththa": 7609,
      "स्तर": 7610,
      "uke": 7611,
      "രാള": 7612,
      "englaan": 7613,
      "நீண்ட": 7614,
      "உட்பட": 7615,
      "video": 7616,
      "dish": 7617,
      "mond": 7618,
      "iyaayi": 7619,
      "वाप": 7620,
      "कुल": 7621,
      "இங்கிலா": 7622,
      "നോർ": 7623,
      "ular": 7624,
      "ழுத்த": 7625,
      "पश्चिम": 7626,
      "संस्करण": 7627,
      "dinn": 7628,
      "every": 7629,
      "going": 7630,
      "पुरु": 7631,
      "vaang": 7632,
      "സേവനമനു": 7633,
      "வெளியிடப்பட்டது": 7634,
      "veliyidappattathu": 7635,
      "സേവനമനുഷ്ഠ": 7636,
      "vend": 7637,
      "व्": 7638,
      "கரி": 7639,
      "avy": 7640,
      "മാറ്റി": 7641,
      "poong": 7642,
      "aakkiy": 7643,
      "கூடு": 7644,
      "वृत्": 7645,
      "ഡബ്ല്യു": 7646,
      "கடை": 7647,
      "പരാ": 7648,
      "்து": 7649,
      "post": 7650,
      "ukalkk": 7651,
      "क्षित": 7652,
      "പ്രതിനി": 7653,
      "januvari": 7654,
      "पुरुष": 7655,
      "suv": 7656,
      "ukale": 7657,
      "பிரெ": 7658,
      "maanaa": 7659,
      "penkal": 7660,
      "ulladakk": 7661,
      "முதன்": 7662,
      "கூட்ட": 7663,
      "vaalaa": 7664,
      "muthan": 7665,
      "vyathyas": 7666,
      "54": 7667,
      "ക്കുകൾ": 7668,
      "र्न": 7669,
      "utth": 7670,
      "सामान्य": 7671,
      "anja": 7672,
      "miga": 7673,
      "വണ": 7674,
      "panam": 7675,
      "sthiti": 7676,
      "%)": 7677,
      "pash": 7678,
      "भव": 7679,
      "ാൻസ്": 7680,
      "ഡിന്റെ": 7681,
      "cross": 7682,
      "neen": 7683,
      "चला": 7684,
      "town": 7685,
      "1955": 7686,
      "bhaarat": 7687,
      "thudakkathil": 7688,
      "En": 7689,
      "baal": 7690,
      "came": 7691,
      "sof": 7692,
      "மக்க": 7693,
      "லியா": 7694,
      "रेल": 7695,
      "കുറഞ്ഞ": 7696,
      "mutt": 7697,
      "टल": 7698,
      "യൽ": 7699,
      "entr": 7700,
      "udpada": 7701,
      "kanad": 7702,
      "ചാമ്പ്യൻ": 7703,
      "ഹ്": 7704,
      "appedukayum": 7705,
      "country": 7706,
      "anubhav": 7707,
      "tthiy": 7708,
      "मंड": 7709,
      "கில்": 7710,
      "own": 7711,
      "franch": 7712,
      "बढ़ा": 7713,
      "gram": 7714,
      "അവസാനി": 7715,
      "piraan": 7716,
      "janavari": 7717,
      "ക്കാൾ": 7718,
      "uththuv": 7719,
      "febru": 7720,
      "randaamathe": 7721,
      "adharku": 7722,
      "dably": 7723,
      "74": 7724,
      "pug": 7725,
      "போக்கு": 7726,
      "जाते": 7727,
      "வேக": 7728,
      "expe": 7729,
      "समर्थन": 7730,
      "shatabdi": 7731,
      ",”": 7732,
      "சரா": 7733,
      "udyog": 7734,
      "aage": 7735,
      "ichirunnu": 7736,
      "വായ": 7737,
      "phal": 7738,
      "charitra": 7739,
      "ष्टि": 7740,
      "ஜனவரி": 7741,
      "lak": 7742,
      "സമ്മ": 7743,
      "pitaa": 7744,
      "samarthan": 7745,
      "iroapp": 7746,
      "भाषा": 7747,
      "ful": 7748,
      "spr": 7749,
      "thaal": 7750,
      "அவர்க": 7751,
      "ிட்டார்": 7752,
      "pustak": 7753,
      "cri": 7754,
      "rac": 7755,
      "எண்": 7756,
      "തമ്മ": 7757,
      "ഭ്യാ": 7758,
      "േയ": 7759,
      "endha": 7760,
      "itthu": 7761,
      "करियर": 7762,
      "velippad": 7763,
      "mudiy": 7764,
      "They": 7765,
      "ടീമ": 7766,
      "urpaththi": 7767,
      "വിദ്യാഭ്യാ": 7768,
      "85": 7769,
      "96": 7770,
      "जनिक": 7771,
      "िंग": 7772,
      "கிறது": 7773,
      "ீன்": 7774,
      "ദ്വീ": 7775,
      "padi": 7776,
      "पानी": 7777,
      "thammil": 7778,
      "शताब्दी": 7779,
      "பந்த": 7780,
      "aanaar": 7781,
      "aayoj": 7782,
      "ിക്കുന്നതി": 7783,
      "taon": 7784,
      "पुस्": 7785,
      "നിലയിൽ": 7786,
      "saarvajan": 7787,
      "सार्वजनिक": 7788,
      "saarvajanik": 7789,
      "baind": 7790,
      "സരിച്ച്": 7791,
      "ppan": 7792,
      "indus": 7793,
      "nament": 7794,
      "farwari": 7795,
      "South": 7796,
      "फरवरी": 7797,
      "tat": 7798,
      "ന്മാർ": 7799,
      "kooru": 7800,
      "igan": 7801,
      "ody": 7802,
      "செய்க": 7803,
      "aalargal": 7804,
      "ब्रिटिश": 7805,
      "aenenil": 7806,
      "pranali": 7807,
      "ஏனெனில்": 7808,
      "aw": 7809,
      "eey": 7810,
      "yek": 7811,
      "kazhiy": 7812,
      "பிரிவு": 7813,
      "നിർമ്മാണ": 7814,
      "நவம்பர்": 7815,
      "கிறி": 7816,
      "IS": 7817,
      "bish": 7818,
      "மண்ட": 7819,
      "ப்புகளை": 7820,
      "വിവിധ": 7821,
      "தனை": 7822,
      "ബ്രു": 7823,
      "ത്യസ്ത": 7824,
      "വ്യത്യസ്ത": 7825,
      "തുടക്കത്തിൽ": 7826,
      "தவ": 7827,
      "aall": 7828,
      "shesham": 7829,
      "those": 7830,
      "ന്തര": 7831,
      "ലീഗ്": 7832,
      "hor": 7833,
      "ipath": 7834,
      "ethiraaga": 7835,
      "niyanthr": 7836,
      "सड़": 7837,
      "നഷ്ട": 7838,
      "ത്തേക്ക്": 7839,
      "प्ले": 7840,
      "sontha": 7841,
      "ிருக்க": 7842,
      "പ്രത്യക്ഷ": 7843,
      "OT": 7844,
      "bit": 7845,
      "ുണ്ട്": 7846,
      "ikamaayi": 7847,
      "ithar": 7848,
      "detaa": 7849,
      "sthaana": 7850,
      "देता": 7851,
      "pratyek": 7852,
      "----": 7853,
      "റിപ്പോർ": 7854,
      "प्रत्येक": 7855,
      "लड़": 7856,
      "udi": 7857,
      "ജീവ": 7858,
      "ഹോദ": 7859,
      "auto": 7860,
      "pusthak": 7861,
      "चल": 7862,
      "भे": 7863,
      "യറ": 7864,
      "inaikk": 7865,
      "റ്റഡ്": 7866,
      "avarukku": 7867,
      "ுகிறார்கள்": 7868,
      "samoog": 7869,
      "மொழி": 7870,
      "ജൂൺ": 7871,
      "noottaand": 7872,
      "raam": 7873,
      "akam": 7874,
      "eduththu": 7875,
      "nuzh": 7876,
      "ങ്കാ": 7877,
      "health": 7878,
      "near": 7879,
      "vazhi": 7880,
      "പുനർ": 7881,
      "അൽ": 7882,
      "ல்ஸ்": 7883,
      "usee": 7884,
      "வில": 7885,
      "studio": 7886,
      "टिक": 7887,
      "ഡർ": 7888,
      "aaiv": 7889,
      "antham": 7890,
      "മാനി": 7891,
      "பாரம்ப": 7892,
      "being": 7893,
      "க்கப்பட்டன": 7894,
      "krit": 7895,
      "nn": 7896,
      "athinaayi": 7897,
      "മായുള്ള": 7898,
      "jaate": 7899,
      "niyantr": 7900,
      "சாம்பியன்": 7901,
      "ീക്ഷ": 7902,
      "llow": 7903,
      "प्रभाव": 7904,
      "fort": 7905,
      "vann": 7906,
      "ഡോള": 7907,
      "james": 7908,
      "vidyaabh": 7909,
      "86": 7910,
      "mic": 7911,
      "यॉ": 7912,
      "ட்டோ": 7913,
      "poakku": 7914,
      "ഭൂമി": 7915,
      "charithram": 7916,
      "bull": 7917,
      "ano": 7918,
      "புனித": 7919,
      "thoal": 7920,
      "டைந்த": 7921,
      "ജോലി": 7922,
      "வன்": 7923,
      "പഴ": 7924,
      "വായി": 7925,
      "ர்ப்ப": 7926,
      "ചെയ്തി": 7927,
      "videsh": 7928,
      "1949": 7929,
      "prathyeka": 7930,
      "nilayil": 7931,
      "vividha": 7932,
      "தலைமை": 7933,
      "രേഖ": 7934,
      "டிசம்பர்": 7935,
      "77": 7936,
      "அங்க": 7937,
      "isl": 7938,
      "ല്ലി": 7939,
      "ഫെബ്രു": 7940,
      "കരിയർ": 7941,
      "பாரம்பரிய": 7942,
      "बॉ": 7943,
      "எரி": 7944,
      "ளோ": 7945,
      "alon": 7946,
      "sex": 7947,
      "വെള്ള": 7948,
      "super": 7949,
      "prayog": 7950,
      "itaal": 7951,
      "court": 7952,
      "sanskaran": 7953,
      "pirivu": 7954,
      "akalum": 7955,
      "1958": 7956,
      "ലഭിച്ചു": 7957,
      "ैक": 7958,
      "rahee": 7959,
      "പൂർത്തി": 7960,
      "ச்சார": 7961,
      "develop": 7962,
      "ഫെബ്രുവരി": 7963,
      "ஆஸ்திர": 7964,
      "ീപ": 7965,
      "ooh": 7966,
      "റ്റു": 7967,
      "ution": 7968,
      "vyakti": 7969,
      "മീറ്റർ": 7970,
      "deval": 7971,
      "அதற்கு": 7972,
      "தேர்த": 7973,
      "ezhuthth": 7974,
      "ആദ്യകാല": 7975,
      "കൌണ്ടി": 7976,
      "thayaaripp": 7977,
      "hol": 7978,
      "sap": 7979,
      "ँच": 7980,
      "धी": 7981,
      "athine": 7982,
      "பகுதிக": 7983,
      "பிரிட்டி": 7984,
      "jag": 7985,
      "jack": 7986,
      "pool": 7987,
      "விமர்": 7988,
      "குற்ற": 7989,
      "பால": 7990,
      "സ്റ്റേ": 7991,
      "സംരക്ഷ": 7992,
      "அமைப்பு": 7993,
      "പൂർണ്ണ": 7994,
      "पुनर्": 7995,
      "thaamas": 7996,
      "uthav": 7997,
      "thirakk": 7998,
      "maerku": 7999,
      "തീരു": 8000,
      "குறிப்பாக": 8001,
      "thernthedukk": 8002,
      "98": 8003,
      "mood": 8004,
      "number": 8005,
      "कू": 8006,
      "பணி": 8007,
      "ിലാ": 8008,
      "praarambhik": 8009,
      "प्रारंभिक": 8010,
      "ഴിൽ": 8011,
      "ண்டோ": 8012,
      "aadyak": 8013,
      "विचार": 8014,
      "அவருக்கு": 8015,
      "rese": 8016,
      "അനുവദ": 8017,
      "kurippaaga": 8018,
      "broo": 8019,
      "ഉദാ": 8020,
      "ബൈ": 8021,
      "indi": 8022,
      "pariseel": 8023,
      "सफल": 8024,
      "കല": 8025,
      "ப்படி": 8026,
      "ichath": 8027,
      "െയർ": 8028,
      "pirath": 8029,
      "poori": 8030,
      "peech": 8031,
      "cu": 8032,
      "sug": 8033,
      "சன": 8034,
      "சகோ": 8035,
      "നിമ": 8036,
      "aththiy": 8037,
      "ട്ടൺ": 8038,
      "theerum": 8039,
      "fred": 8040,
      "பிராந்திய": 8041,
      "fri": 8042,
      "vast": 8043,
      "பக்க": 8044,
      "1961": 8045,
      "पूरी": 8046,
      "spanish": 8047,
      "भर": 8048,
      "ather": 8049,
      "akram": 8050,
      "ican": 8051,
      "വിവാഹ": 8052,
      "point": 8053,
      "பிரான்": 8054,
      "सिल": 8055,
      "labhichu": 8056,
      "australian": 8057,
      "kull": 8058,
      "wing": 8059,
      "ങ്ങനെ": 8060,
      "requ": 8061,
      "aatmak": 8062,
      "ondru": 8063,
      "കൌൺ": 8064,
      "തിരഞ്ഞെടുക്ക": 8065,
      "support": 8066,
      "even": 8067,
      "nit": 8068,
      "ൌണ്ട": 8069,
      "ൾസ്": 8070,
      "alin": 8071,
      "akad": 8072,
      "avarai": 8073,
      "குறைந்த": 8074,
      "வயது": 8075,
      "professional": 8076,
      "पुस्तक": 8077,
      "San": 8078,
      "ied": 8079,
      "ping": 8080,
      "paid": 8081,
      "वॉ": 8082,
      "പിൻ": 8083,
      "kaanoon": 8084,
      "सकते": 8085,
      "ting": 8086,
      "आगे": 8087,
      "रही": 8088,
      "ஆய்": 8089,
      "மிய": 8090,
      "isaki": 8091,
      "विस्त": 8092,
      "sakate": 8093,
      "பெயர்": 8094,
      "वरण": 8095,
      "धिकार": 8096,
      "பிரிட்டிஷ்": 8097,
      "city": 8098,
      "आर्": 8099,
      "एड": 8100,
      "बद्ध": 8101,
      "मेंट": 8102,
      "इसकी": 8103,
      "seasonil": 8104,
      "സ്കൂള": 8105,
      "NE": 8106,
      "five": 8107,
      "ദു": 8108,
      "നാണ്": 8109,
      "ചെയ്യാൻ": 8110,
      "பெயரிட": 8111,
      "chikit": 8112,
      "Wh": 8113,
      "lum": 8114,
      "sn": 8115,
      "कना": 8116,
      "mekhal": 8117,
      "level": 8118,
      "ific": 8119,
      "ject": 8120,
      "பற்றிய": 8121,
      "gil": 8122,
      "aangal": 8123,
      "ikkiraar": 8124,
      "samghad": 8125,
      "പ്രശ": 8126,
      "manush": 8127,
      "जाए": 8128,
      "സമീപ": 8129,
      "भूमिका": 8130,
      "പട്ടിക": 8131,
      "பிரதிநிதித்துவ": 8132,
      "kadh": 8133,
      "मति": 8134,
      "ஐந்து": 8135,
      "வுகளை": 8136,
      "ചൈ": 8137,
      "aakh": 8138,
      "roll": 8139,
      "ായിരുന്ന": 8140,
      "यॉर्क": 8141,
      "इल": 8142,
      "സഹോദ": 8143,
      "स्थानीय": 8144,
      "such": 8145,
      "സൂചി": 8146,
      "நுட்ப": 8147,
      "bay": 8148,
      "lan": 8149,
      "yil": 8150,
      "ത്യാ": 8151,
      "ugiraar": 8152,
      "വിജയി": 8153,
      "teesar": 8154,
      "ஆதர": 8155,
      "ளிலிருந்து": 8156,
      "स्त्र": 8157,
      "പ്പു": 8158,
      "used": 8159,
      "box": 8160,
      "மூல": 8161,
      "eekshan": 8162,
      "sandar": 8163,
      "mpic": 8164,
      "iruthiyil": 8165,
      "RE": 8166,
      "idhan": 8167,
      "രോധ": 8168,
      "தொலைக்கா": 8169,
      "எடுத்து": 8170,
      "घोषणा": 8171,
      "उंड": 8172,
      "മർ": 8173,
      "former": 8174,
      "மாறு": 8175,
      "innes": 8176,
      "1947": 8177,
      "digital": 8178,
      "cathol": 8179,
      "adhig": 8180,
      "പാര": 8181,
      "prathyaksh": 8182,
      "தோல்": 8183,
      "ത്തുട": 8184,
      "North": 8185,
      "nj": 8186,
      "naav": 8187,
      "sbur": 8188,
      "आम": 8189,
      "नदी": 8190,
      "ஹ்": 8191,
      "samraksh": 8192,
      "முந்தைய": 8193,
      "sangrah": 8194,
      "சக்த": 8195,
      "மேற்பட்ட": 8196,
      "ered": 8197,
      "अधिका": 8198,
      "pooyint": 8199,
      "evai": 8200,
      "ஒலி": 8201,
      "aviyal": 8202,
      "അവകാശ": 8203,
      "adhikansh": 8204,
      "வெற்றி": 8205,
      "താമസി": 8206,
      "अधिकांश": 8207,
      "ഗണ": 8208,
      "െയുള്ള": 8209,
      "anton": 8210,
      "वर्ग": 8211,
      "വെന്ന്": 8212,
      "follow": 8213,
      "irunththanar": 8214,
      "सला": 8215,
      "aali": 8216,
      "aathu": 8217,
      "സിന്": 8218,
      "koodudhal": 8219,
      "இடம்": 8220,
      "thiraippat": 8221,
      "ഒക്ടോബർ": 8222,
      "പകരം": 8223,
      "sai": 8224,
      "उल्": 8225,
      "क्षक": 8226,
      "aayojit": 8227,
      "rain": 8228,
      "रों": 8229,
      "சல்": 8230,
      "താര": 8231,
      "ല്ലെ": 8232,
      "baddh": 8233,
      "ജോർ": 8234,
      "വിവ": 8235,
      "ished": 8236,
      "பிரபல": 8237,
      "ious": 8238,
      ");": 8239,
      "அறிய": 8240,
      "ഉൽപ്പ": 8241,
      "athaaga": 8242,
      "aththaiyum": 8243,
      "thaav": 8244,
      "mahila": 8245,
      "should": 8246,
      "तः": 8247,
      "കൽപ്പ": 8248,
      "amulla": 8249,
      "paraaj": 8250,
      "sthaaniya": 8251,
      "adhyaksh": 8252,
      "kilakku": 8253,
      "director": 8254,
      ".”": 8255,
      "सर्": 8256,
      "குற": 8257,
      "ersey": 8258,
      "ஸ்டோ": 8259,
      "kettid": 8260,
      "ஷா": 8261,
      "स्ना": 8262,
      "1954": 8263,
      "igalil": 8264,
      "kazhiyum": 8265,
      "தோற்ற": 8266,
      "ught": 8267,
      "pettrathu": 8268,
      "സമയത്ത്": 8269,
      "റെയിൽവേ": 8270,
      "paraajay": 8271,
      "लक": 8272,
      "ദൈ": 8273,
      "क्वा": 8274,
      "തുമായ": 8275,
      "aati": 8276,
      "1956": 8277,
      "federal": 8278,
      "change": 8279,
      "நியூயார்க்": 8280,
      "cel": 8281,
      "mir": 8282,
      "द्र": 8283,
      "அத்தியா": 8284,
      "ചല": 8285,
      "shipp": 8286,
      "udhav": 8287,
      "பார்க்க": 8288,
      "வைத்த": 8289,
      "site": 8290,
      "तुलना": 8291,
      "க்கூடிய": 8292,
      "kaunsil": 8293,
      "aman": 8294,
      "shas": 8295,
      "iraan": 8296,
      "ahan": 8297,
      "achar": 8298,
      "നാമ": 8299,
      "eekaran": 8300,
      "பொருளா": 8301,
      "newyorg": 8302,
      "pon": 8303,
      "anchu": 8304,
      "told": 8305,
      "igat": 8306,
      "இருந்தனர்": 8307,
      "pinthun": 8308,
      "palkalaikkazhagaththil": 8309,
      "california": 8310,
      "sudh": 8311,
      "sunny": 8312,
      "िका": 8313,
      "ஆங்க": 8314,
      "ென்": 8315,
      "വരു": 8316,
      "ാൻഡ": 8317,
      "banaa": 8318,
      "ற்பகுதியில்": 8319,
      "professor": 8320,
      "sarvakalash": 8321,
      "prakhyaap": 8322,
      "69": 8323,
      "71": 8324,
      "Washington": 8325,
      "bund": 8326,
      "fur": 8327,
      "fell": 8328,
      "हरी": 8329,
      "ttukal": 8330,
      "uthor": 8331,
      "ullathum": 8332,
      "விட்டு": 8333,
      "साय": 8334,
      "താരാഷ്ട്ര": 8335,
      "പിതാ": 8336,
      "क्रे": 8337,
      "vayathu": 8338,
      "രീതി": 8339,
      "anthaaraash": 8340,
      "kamban": 8341,
      "അന്താരാഷ്ട്ര": 8342,
      "पता": 8343,
      "ayar": 8344,
      "ിലോ": 8345,
      "itter": 8346,
      "1951": 8347,
      "പേർ": 8348,
      "break": 8349,
      "adisthaanam": 8350,
      "oom": 8351,
      "jose": 8352,
      "പോലുള്ള": 8353,
      "yuva": 8354,
      "തുടങ്ങിയ": 8355,
      "ruv": 8356,
      "manag": 8357,
      "முடிவு": 8358,
      "kuth": 8359,
      "ஆன்": 8360,
      "parip": 8361,
      "முழுவ": 8362,
      "roopakal": 8363,
      "1953": 8364,
      "samooga": 8365,
      "കൽപ്പന": 8366,
      "എക്സ്": 8367,
      "വസ്തു": 8368,
      "ிகளின்": 8369,
      "றுத்த": 8370,
      "വെങ്കിലും": 8371,
      "பயன்": 8372,
      "veliyae": 8373,
      "फ्रां": 8374,
      "89": 8375,
      "ாலும்": 8376,
      "ണൈ": 8377,
      "iyudan": 8378,
      "aaron": 8379,
      "sevan": 8380,
      "aatham": 8381,
      "mot": 8382,
      "kosh": 8383,
      "പുരു": 8384,
      "vadivam": 8385,
      "പ്രതിനിധ": 8386,
      "ர்ஸ்": 8387,
      "mattoru": 8388,
      "निवेश": 8389,
      "வேண்ட": 8390,
      "athekku": 8391,
      "ments": 8392,
      "paguthiyaaga": 8393,
      "puththag": 8394,
      "മറ്റൊരു": 8395,
      "aadyakaala": 8396,
      "israel": 8397,
      "விவரி": 8398,
      "க்குப்": 8399,
      "परे": 8400,
      "மேல்": 8401,
      "uyir": 8402,
      "हिस्से": 8403,
      "bhoomika": 8404,
      "jon": 8405,
      "test": 8406,
      "अफ्री": 8407,
      "acro": 8408,
      "apatt": 8409,
      "motor": 8410,
      "beh": 8411,
      "மானது": 8412,
      "യുമായി": 8413,
      "இறுதியில்": 8414,
      "pipravar": 8415,
      "പിയ": 8416,
      "aayirunn": 8417,
      "illaatha": 8418,
      "பிப்ர": 8419,
      "ஸ்டா": 8420,
      "chhat": 8421,
      "water": 8422,
      "xt": 8423,
      "இத": 8424,
      "urai": 8425,
      "ithamaaya": 8426,
      "പ്പുകൾ": 8427,
      "त्सा": 8428,
      "സ്വന്ത": 8429,
      "arugil": 8430,
      "पक्ष": 8431,
      "alav": 8432,
      "isal": 8433,
      "ताल": 8434,
      "ിലൊ": 8435,
      "पुरा": 8436,
      "thurai": 8437,
      "pradhaanam": 8438,
      "adutha": 8439,
      "जूद": 8440,
      "यास": 8441,
      "sem": 8442,
      "seik": 8443,
      "britt": 8444,
      "luis": 8445,
      "ஆராய்": 8446,
      "trial": 8447,
      "முடியா": 8448,
      "नित": 8449,
      "anti": 8450,
      "ghoshana": 8451,
      "ஹி": 8452,
      "aatchi": 8453,
      "pattriya": 8454,
      "igalai": 8455,
      "बनाए": 8456,
      "பல்கலைக்கழகத்தில்": 8457,
      "Tai": 8458,
      "ट्रो": 8459,
      "dablyu": 8460,
      "pav": 8461,
      "ഏപ്": 8462,
      "ுவை": 8463,
      "vilakk": 8464,
      "rung": 8465,
      "இயக்கு": 8466,
      "ththaiya": 8467,
      "Angel": 8468,
      "anuvad": 8469,
      "थो": 8470,
      "ாண": 8471,
      "mocr": 8472,
      "ants": 8473,
      "munththaiya": 8474,
      "swatantra": 8475,
      "പുരുഷ": 8476,
      "py": 8477,
      "soor": 8478,
      "உற": 8479,
      "ஹை": 8480,
      "poortthiy": 8481,
      "unnathinaayi": 8482,
      "broad": 8483,
      "statement": 8484,
      "ഏപ്രിൽ": 8485,
      "sed": 8486,
      "கதா": 8487,
      "enavae": 8488,
      "த்தன": 8489,
      "यार": 8490,
      "ഞ്ചി": 8491,
      "பட்டிய": 8492,
      "எனவே": 8493,
      "):": 8494,
      "ീസ്": 8495,
      "iyog": 8496,
      "aiti": 8497,
      "प्रयास": 8498,
      "cker": 8499,
      "தொழில": 8500,
      "രൂപകൽപ്പന": 8501,
      "വിദ്യാർത്ഥ": 8502,
      "adippadaiyil": 8503,
      "ஒளிபர": 8504,
      "hold": 8505,
      "களுக்கு": 8506,
      "amayam": 8507,
      "irodh": 8508,
      "isamen": 8509,
      "द्वि": 8510,
      "इसमें": 8511,
      "jisane": 8512,
      "வழியாக": 8513,
      "sahod": 8514,
      "இடையில்": 8515,
      "seiyappatta": 8516,
      "டம்": 8517,
      "une": 8518,
      "പ്ലാ": 8519,
      "ருடன்": 8520,
      "ends": 8521,
      "max": 8522,
      "क्षर": 8523,
      "കളിക്കാ": 8524,
      "pattam": 8525,
      "kattupp": 8526,
      "pradarsh": 8527,
      "appoor": 8528,
      "தாக்கு": 8529,
      "ചെയ്യുന്നത്": 8530,
      "1959": 8531,
      "House": 8532,
      "मद": 8533,
      "eri": 8534,
      "ooo": 8535,
      "iyae": 8536,
      "स्पे": 8537,
      "வான்": 8538,
      "command": 8539,
      "जिसने": 8540,
      "സർക്കാർ": 8541,
      "चिकि": 8542,
      "स्वतंत्र": 8543,
      "virumb": 8544,
      "anthaaraashtra": 8545,
      "AL": 8546,
      "bed": 8547,
      "pith": 8548,
      "பரா": 8549,
      "stav": 8550,
      "aasthr": 8551,
      "avasana": 8552,
      "life": 8553,
      "research": 8554,
      "baat": 8555,
      "ats": 8556,
      "appozhum": 8557,
      "avarkk": 8558,
      "കൂട്ട": 8559,
      "veediy": 8560,
      "சீச": 8561,
      "பாதுகாப்பு": 8562,
      "jolie": 8563,
      "67": 8564,
      "data": 8565,
      "raa": 8566,
      "इंग": 8567,
      "बर्ट": 8568,
      "இன்ன": 8569,
      "iving": 8570,
      "ത്തിൻറെ": 8571,
      "six": 8572,
      "vyaapak": 8573,
      "sandarbh": 8574,
      "ஆங்கில": 8575,
      "alex": 8576,
      "atah": 8577,
      "ക്കം": 8578,
      "edward": 8579,
      "seiv": 8580,
      "iruthi": 8581,
      "angalilum": 8582,
      "ender": 8583,
      "मैच": 8584,
      "വികസി": 8585,
      "जिक": 8586,
      "kalvi": 8587,
      "ിലാണ്": 8588,
      "മിനി": 8589,
      "veedu": 8590,
      "sentr": 8591,
      "ഉടമ": 8592,
      "Pr": 8593,
      "dor": 8594,
      "ged": 8595,
      "matth": 8596,
      "els": 8597,
      "ടെക്": 8598,
      "engilum": 8599,
      "leesh": 8600,
      "utpaadan": 8601,
      "bik": 8602,
      "kap": 8603,
      "ഓഫീ": 8604,
      "asari": 8605,
      "लिका": 8606,
      "പാത്ര": 8607,
      "thodakk": 8608,
      "banaae": 8609,
      "योजना": 8610,
      "उत्पादन": 8611,
      "tulanaa": 8612,
      "Kore": 8613,
      "इमार": 8614,
      "യിട്ടുണ്ട്": 8615,
      "കൊണ്ടു": 8616,
      "paani": 8617,
      "chaambyansh": 8618,
      "ചാമ്പ്യൻഷി": 8619,
      "शक्ति": 8620,
      "cho": 8621,
      "avadikk": 8622,
      "த்தைக்": 8623,
      "उत्तरी": 8624,
      "kkalaam": 8625,
      "ங்டன்": 8626,
      "83": 8627,
      "yata": 8628,
      "एक्स": 8629,
      "വഴി": 8630,
      "ullanar": 8631,
      "vizh": 8632,
      "स्टा": 8633,
      "uttari": 8634,
      "vimars": 8635,
      "സെപ്റ്റംബർ": 8636,
      "fee": 8637,
      "ണാ": 8638,
      "യാത്ര": 8639,
      "ല്ലാത്ത": 8640,
      "rat": 8641,
      "ரயில்": 8642,
      "rukal": 8643,
      "entral": 8644,
      "விட்": 8645,
      "ങ്ങളിലും": 8646,
      "your": 8647,
      "adesh": 8648,
      "uraa": 8649,
      "டுக்க": 8650,
      "sthree": 8651,
      "addehathinu": 8652,
      "நடவடி": 8653,
      "दुनिया": 8654,
      "association": 8655,
      "Pro": 8656,
      "sor": 8657,
      "tes": 8658,
      "ൻസി": 8659,
      "adang": 8660,
      "karar": 8661,
      "ஸ்டே": 8662,
      "duniya": 8663,
      "சாம்பியன்ஷி": 8664,
      "ஆஸ்திரே": 8665,
      "pipravari": 8666,
      "rn": 8667,
      "ஆசிரிய": 8668,
      "shit": 8669,
      "விழ": 8670,
      "nadavadikk": 8671,
      "சேர்க்க": 8672,
      "फोर्ड": 8673,
      "பெரும்பாலான": 8674,
      "பொருளாதார": 8675,
      "பிப்ரவரி": 8676,
      "joo": 8677,
      "மனித": 8678,
      "ഹൃ": 8679,
      "anno": 8680,
      "aththu": 8681,
      "aadhar": 8682,
      "dhu": 8683,
      "ராய": 8684,
      "nadanna": 8685,
      "kaalaththil": 8686,
      "stein": 8687,
      "billion": 8688,
      "tir": 8689,
      "zil": 8690,
      "thiya": 8691,
      "samanya": 8692,
      "സ്ഥാ": 8693,
      "പ്പിക്കുന്ന": 8694,
      "ഉപയോഗിക്കുന്നു": 8695,
      "ബ്രിട്ടീ": 8696,
      "thalaimai": 8697,
      "ബീ": 8698,
      "angalin": 8699,
      "பெண்": 8700,
      "സാഹി": 8701,
      "nilavil": 8702,
      "गोल": 8703,
      "கணக்க": 8704,
      "കണ്ടെത്ത": 8705,
      "நிறுத்த": 8706,
      "maal": 8707,
      "tic": 8708,
      "सीमा": 8709,
      "அவரை": 8710,
      "നേരി": 8711,
      "aikalai": 8712,
      "നടത്തി": 8713,
      "matra": 8714,
      "vyakth": 8715,
      "விருது": 8716,
      "No": 8717,
      "gest": 8718,
      "pend": 8719,
      "kaaka": 8720,
      "provid": 8721,
      "ബന്ധി": 8722,
      "event": 8723,
      "பார்வ": 8724,
      "കഥാ": 8725,
      "ഇംഗ്ലീ": 8726,
      "இன்னும்": 8727,
      "know": 8728,
      "ണിലെ": 8729,
      "ayaal": 8730,
      "attai": 8731,
      "वास्त": 8732,
      "vein": 8733,
      "கருத": 8734,
      "That": 8735,
      "ന്യൂയോർ": 8736,
      "91": 8737,
      "squ": 8738,
      "கதை": 8739,
      "ेंस": 8740,
      "appaduv": 8741,
      "னுக்கு": 8742,
      "பூங்கா": 8743,
      "niyukt": 8744,
      "richard": 8745,
      "कनाडा": 8746,
      "81": 8747,
      "87": 8748,
      "मजब": 8749,
      "ரல்": 8750,
      "ஹே": 8751,
      "நான்": 8752,
      "രണ്ടാമത്തെ": 8753,
      "द्योग": 8754,
      "मजबू": 8755,
      "Ex": 8756,
      "tu": 8757,
      "डल": 8758,
      "ീർ": 8759,
      "വിൻ": 8760,
      "അദ്ദേഹത്തിന്": 8761,
      "street": 8762,
      "samudaay": 8763,
      "muzhuvathum": 8764,
      "மனை": 8765,
      "மணி": 8766,
      "മിക്ക": 8767,
      "injan": 8768,
      "ப்படுவ": 8769,
      "ும்பி": 8770,
      "प्रशा": 8771,
      "thanth": 8772,
      "bell": 8773,
      "ഉൾക്കൊ": 8774,
      "vey": 8775,
      "ாத": 8776,
      "iththanar": 8777,
      "rian": 8778,
      "upayogikkunnu": 8779,
      "iyakkunar": 8780,
      "muzhu": 8781,
      "varalaattr": 8782,
      "अध्यक्ष": 8783,
      "दिखाई": 8784,
      "IT": 8785,
      "yug": 8786,
      "kari": 8787,
      "1957": 8788,
      "saha": 8789,
      "परिवर्त": 8790,
      "ഓഗസ്റ്റ്": 8791,
      "92": 8792,
      "tit": 8793,
      "tax": 8794,
      "engleesh": 8795,
      "क्सर": 8796,
      "इंजन": 8797,
      "prathyek": 8798,
      "dikhaai": 8799,
      "कप": 8800,
      "കൺ": 8801,
      "eduppu": 8802,
      "aadyam": 8803,
      "thukkal": 8804,
      "sou": 8805,
      "thott": 8806,
      "ecut": 8807,
      "आध": 8808,
      "உள்": 8809,
      "தந்திர": 8810,
      "ப்த": 8811,
      "மத்திய": 8812,
      "क्यू": 8813,
      "மற்றொரு": 8814,
      "pot": 8815,
      "rachana": 8816,
      "akkum": 8817,
      "conom": 8818,
      "thalam": 8819,
      "வரலாற்று": 8820,
      "कानून": 8821,
      "soft": 8822,
      "ക്കർ": 8823,
      "khan": 8824,
      "reethiy": 8825,
      "1938": 8826,
      "doublue": 8827,
      "शिया": 8828,
      "हस्ता": 8829,
      "aksar": 8830,
      "illaath": 8831,
      "வரைய": 8832,
      "uvai": 8833,
      "vaastav": 8834,
      "സഹായി": 8835,
      "ministr": 8836,
      "nai": 8837,
      "vist": 8838,
      "नई": 8839,
      "ഇവ": 8840,
      "നൊപ്പം": 8841,
      "acy": 8842,
      "dec": 8843,
      "avumaaya": 8844,
      "ukkup": 8845,
      "anigal": 8846,
      "avalude": 8847,
      "german": 8848,
      "nigazhchch": 8849,
      "बर्ग": 8850,
      "അവളുടെ": 8851,
      "முழுவதும்": 8852,
      "suru": 8853,
      "sahaay": 8854,
      "മാത്രമേ": 8855,
      "അടിസ്ഥാനമാ": 8856,
      "shabd": 8857,
      "mattroru": 8858,
      "York": 8859,
      "jill": 8860,
      "satra": 8861,
      "inaayi": 8862,
      "naee": 8863,
      "hisse": 8864,
      "armman": 8865,
      "varalaattru": 8866,
      "sooththiram": 8867,
      "announ": 8868,
      "sv": 8869,
      "अक्सर": 8870,
      "जल": 8871,
      "പക്ഷ": 8872,
      "ട്ടുകൾ": 8873,
      "rog": 8874,
      "க்கப்பட்டுள்ளது": 8875,
      "polulla": 8876,
      "jerman": 8877,
      "doubleu": 8878,
      "UR": 8879,
      "jarmman": 8880,
      "अर्थ": 8881,
      "ஆறு": 8882,
      "ppana": 8883,
      "iish": 8884,
      "பேர": 8885,
      "virodh": 8886,
      "அடையாள": 8887,
      "britiish": 8888,
      "चैंपियनशिप": 8889,
      "ബ്രിട്ടീഷ്": 8890,
      "ds": 8891,
      "sas": 8892,
      "ury": 8893,
      "dhan": 8894,
      "allow": 8895,
      "கார்ட": 8896,
      "ാനം": 8897,
      "safal": 8898,
      "मिला": 8899,
      "चार्": 8900,
      "poly": 8901,
      "ஆரம்பகால": 8902,
      "majb": 8903,
      "സ്ക്": 8904,
      "dell": 8905,
      "പ്രീ": 8906,
      "नियुक्त": 8907,
      "khud": 8908,
      "madang": 8909,
      "நுழை": 8910,
      "sthithi": 8911,
      "घटना": 8912,
      "சூத்திரம்": 8913,
      "ving": 8914,
      "வுன்": 8915,
      "ാർട്ട്": 8916,
      "മെഡ": 8917,
      "கோல்": 8918,
      "jinamen": 8919,
      "जिनमें": 8920,
      "आवश्यकता": 8921,
      "പുസ്തക": 8922,
      "vent": 8923,
      "iyaagum": 8924,
      "ിയെ": 8925,
      "ംഗ്ട": 8926,
      "thoar": 8927,
      "േഷ്യ": 8928,
      "conne": 8929,
      "daan": 8930,
      "इका": 8931,
      "जना": 8932,
      "ഇന്റർ": 8933,
      "1918": 8934,
      "സാങ്ക": 8935,
      "congress": 8936,
      "place": 8937,
      "हिए": 8938,
      "puuraa": 8939,
      "scott": 8940,
      "61": 8941,
      "mass": 8942,
      "जार": 8943,
      "नगर": 8944,
      "ased": 8945,
      "चाहिए": 8946,
      "thaakkuthal": 8947,
      "bai": 8948,
      "aayak": 8949,
      "त्या": 8950,
      "சான்": 8951,
      "पूरा": 8952,
      "baseball": 8953,
      "innesota": 8954,
      "கில": 8955,
      "information": 8956,
      "pray": 8957,
      "cording": 8958,
      "atharkaaga": 8959,
      "KE": 8960,
      "ஜார்": 8961,
      "ൌണ്ട്": 8962,
      "aththaal": 8963,
      "samgee": 8964,
      "नांतर": 8965,
      "साइ": 8966,
      "ണ്ണം": 8967,
      "aattu": 8968,
      "வெப்ப": 8969,
      "കുറ്റ": 8970,
      "flor": 8971,
      "மதிப்ப": 8972,
      "aarambagaala": 8973,
      "vibhaj": 8974,
      "த்திற்கான": 8975,
      "eduth": 8976,
      "प्रजा": 8977,
      "atthinu": 8978,
      "62": 8979,
      "धन": 8980,
      "ayu": 8981,
      "അവൾ": 8982,
      "വാസ": 8983,
      "dren": 8984,
      "pataa": 8985,
      "loga": 8986,
      "समाज": 8987,
      "vices": 8988,
      "ariviyal": 8989,
      "പടിഞ്ഞാറൻ": 8990,
      "padinjaaran": 8991,
      "ளிலும்": 8992,
      "മൻ": 8993,
      "aron": 8994,
      "attack": 8995,
      "prer": 8996,
      "parik": 8997,
      "resh": 8998,
      "सान": 8999,
      "டினார்": 9000,
      "netr": 9001,
      "ளுக்காக": 9002,
      "भीतर": 9003,
      "bheetar": 9004,
      "theerumaan": 9005,
      "पं": 9006,
      "പള്ള": 9007,
      "ികളെ": 9008,
      "vaithth": 9009,
      "தேவாலய": 9010,
      "cup": 9011,
      "jile": 9012,
      "kaksh": 9013,
      "ritt": 9014,
      "இச": 9015,
      "ayilekku": 9016,
      "uni": 9017,
      "ikaran": 9018,
      "പ്രസ്": 9019,
      "வாங்க": 9020,
      "yojana": 9021,
      "batt": 9022,
      "ഇല": 9023,
      "irikkunna": 9024,
      "aetr": 9025,
      "aaki": 9026,
      "smith": 9027,
      "െടുത്തു": 9028,
      "செலுத்த": 9029,
      "baand": 9030,
      "தங்க": 9031,
      "rupp": 9032,
      "ந்தின்": 9033,
      "ivag": 9034,
      "mob": 9035,
      "thudar": 9036,
      "single": 9037,
      "79": 9038,
      "michael": 9039,
      "pakaram": 9040,
      "saitt": 9041,
      "aabaad": 9042,
      "shu": 9043,
      "റിയി": 9044,
      "thoatt": 9045,
      "യുണൈ": 9046,
      "റോഡ്": 9047,
      "ഗ്ഗ": 9048,
      "mav": 9049,
      "கர்": 9050,
      "போல்": 9051,
      "patti": 9052,
      "म्प": 9053,
      "வரிச": 9054,
      "suraksha": 9055,
      "bav": 9056,
      "नेता": 9057,
      "koad": 9058,
      "விரை": 9059,
      "based": 9060,
      "திருமண": 9061,
      "तृत्व": 9062,
      "hir": 9063,
      "avash": 9064,
      "real": 9065,
      "ണ്ടായിരുന്നു": 9066,
      "hard": 9067,
      "jisake": 9068,
      "neetik": 9069,
      "oodiya": 9070,
      "1952": 9071,
      "ുന്നതിൽ": 9072,
      "जिसके": 9073,
      "aashtr": 9074,
      "மையாக": 9075,
      "turn": 9076,
      "poattiyil": 9077,
      "தொடங்கியது": 9078,
      "ിച്ചിരുന്നു": 9079,
      "clear": 9080,
      "പേര്": 9081,
      "kw": 9082,
      "बह": 9083,
      "apetta": 9084,
      "பாத": 9085,
      "ிக்ஸ்": 9086,
      "ராகவும்": 9087,
      "chaahiye": 9088,
      "ർത്ഥ": 9089,
      "പ്ലേ": 9090,
      "karke": 9091,
      "recent": 9092,
      "സിസ്റ്റ": 9093,
      "बात": 9094,
      "aigalin": 9095,
      "bhoori": 9096,
      "ഭൂരി": 9097,
      "न्यूयॉर्क": 9098,
      "neethim": 9099,
      "ത്തുടർന്ന്": 9100,
      "\"),": 9101,
      "west": 9102,
      "करके": 9103,
      "1935": 9104,
      "kilap": 9105,
      "വുമായി": 9106,
      "नियंत्र": 9107,
      "American": 9108,
      "person": 9109,
      "यी": 9110,
      "ஒற்ற": 9111,
      "த்தக்க": 9112,
      "tell": 9113,
      "irunththa": 9114,
      "soviy": 9115,
      "बादी": 9116,
      "kilome": 9117,
      "maathrame": 9118,
      "ജീവിതം": 9119,
      "security": 9120,
      "अलावा": 9121,
      "रै": 9122,
      "aaivu": 9123,
      "ikkaam": 9124,
      "प्रवेश": 9125,
      "ettar": 9126,
      "റ്റ്സ്": 9127,
      "nadaip": 9128,
      "vazhiyaaga": 9129,
      "കൾക്ക്": 9130,
      "alawa": 9131,
      "கதாபாத்திர": 9132,
      "ming": 9133,
      "भावित": 9134,
      "mudivu": 9135,
      "thodangiyathu": 9136,
      "ഇടയിൽ": 9137,
      "leader": 9138,
      "ploy": 9139,
      "multi": 9140,
      "gair": 9141,
      "nalla": 9142,
      "arg": 9143,
      "incre": 9144,
      "ந்தில்": 9145,
      "oly": 9146,
      "sangathan": 9147,
      "1931": 9148,
      "1936": 9149,
      "frank": 9150,
      "sadak": 9151,
      "ക്ടർ": 9152,
      "jeevith": 9153,
      "aathaara": 9154,
      "நீதிமன்ற": 9155,
      "texas": 9156,
      "abhinay": 9157,
      "david": 9158,
      "epp": 9159,
      "இதன்": 9160,
      "கடி": 9161,
      "ல்த": 9162,
      "ളോ": 9163,
      "ப்பர்": 9164,
      "andra": 9165,
      "ിച്ചത്": 9166,
      "next": 9167,
      "क्रा": 9168,
      "टेड": 9169,
      "രാജാ": 9170,
      "kshetron": 9171,
      "क्षेत्रों": 9172,
      "thodangkinaar": 9173,
      "നവംബർ": 9174,
      "आबादी": 9175,
      "ittathu": 9176,
      "பெண்கள்": 9177,
      "സാധ്യ": 9178,
      "வீன": 9179,
      "தொடங்கினார்": 9180,
      "നൽകുന്നു": 9181,
      "विकसित": 9182,
      "संबंधित": 9183,
      "चरण": 9184,
      "aabaadi": 9185,
      "yathil": 9186,
      "palappozhum": 9187,
      "keey": 9188,
      "nirmmaan": 9189,
      "ऑस्ट्रे": 9190,
      "ുകൊണ്ട്": 9191,
      "nte": 9192,
      "ഹരണ": 9193,
      "thag": 9194,
      "anii": 9195,
      "arikk": 9196,
      "shi": 9197,
      "ety": 9198,
      "യൂണിയ": 9199,
      "aarambhichu": 9200,
      "गैर": 9201,
      "പലപ്പോഴും": 9202,
      "aavashyakta": 9203,
      "around": 9204,
      "കഥാപാത്ര": 9205,
      "ऑस्ट्रेलिया": 9206,
      "wil": 9207,
      "படுத்த": 9208,
      "ധു": 9209,
      "ശബ്": 9210,
      "idappattathu": 9211,
      "sameep": 9212,
      "विलिय": 9213,
      "இடத்தில்": 9214,
      "ब्द": 9215,
      "தொழிலா": 9216,
      "റെക്കോർഡ്": 9217,
      "പരാമർശ": 9218,
      "hill": 9219,
      "तौर": 9220,
      "नेतृत्व": 9221,
      "പ്രകട": 9222,
      "neel": 9223,
      "पीय": 9224,
      "basket": 9225,
      "ടീം": 9226,
      ",,,,": 9227,
      "dra": 9228,
      "esamayam": 9229,
      "aagiyoar": 9230,
      "seen": 9231,
      "குடி": 9232,
      "ennee": 9233,
      "1932": 9234,
      "1934": 9235,
      "பயிற்சி": 9236,
      "നൂറ്റാണ്ട": 9237,
      "netritva": 9238,
      "May": 9239,
      "aon": 9240,
      "pich": 9241,
      "republic": 9242,
      "போட்டி": 9243,
      "എന്നീ": 9244,
      "போட்டியில்": 9245,
      "ഗെയിം": 9246,
      "\"(": 9247,
      "84": 9248,
      "zer": 9249,
      "பிய": 9250,
      "ശരാ": 9251,
      "ense": 9252,
      "ட்ரோ": 9253,
      "சுழ": 9254,
      "sattam": 9255,
      "கையெ": 9256,
      "here": 9257,
      "लड़ा": 9258,
      "ീൻ": 9259,
      "ardh": 9260,
      "alo": 9261,
      "വിന്റെ": 9262,
      "build": 9263,
      "keezhil": 9264,
      "സീസൺ": 9265,
      ";-": 9266,
      "आलो": 9267,
      "ஆற்ற": 9268,
      "ஒன்று": 9269,
      "ayaaya": 9270,
      "മാനേ": 9271,
      "സിനെ": 9272,
      "രിക്കുകയും": 9273,
      "ക്രിസ്": 9274,
      "puratthir": 9275,
      "Tech": 9276,
      "aver": 9277,
      "akaar": 9278,
      "विध": 9279,
      "ishesh": 9280,
      "वान": 9281,
      "thudangiya": 9282,
      "தெரு": 9283,
      "vikasit": 9284,
      "ജനിച്ച": 9285,
      "ப்பூர்வ": 9286,
      "Sy": 9287,
      "fund": 9288,
      "ചന": 9289,
      "ർത്തി": 9290,
      "thanip": 9291,
      "ties": 9292,
      "kurip": 9293,
      "ക്ഷേപ": 9294,
      "टॉ": 9295,
      "ikkumbol": 9296,
      "kare": 9297,
      "rock": 9298,
      "வாத": 9299,
      "nadai": 9300,
      "பகுதிய": 9301,
      "sambandhit": 9302,
      "vettri": 9303,
      "खुद": 9304,
      "continu": 9305,
      "vaapas": 9306,
      "sitt": 9307,
      "ഗവേഷ": 9308,
      "aavar": 9309,
      "andhu": 9310,
      "aped": 9311,
      "plan": 9312,
      "1933": 9313,
      "ஞ்சு": 9314,
      "kaatch": 9315,
      "viruthu": 9316,
      "்கால": 9317,
      "वापस": 9318,
      "tth": 9319,
      "athilekku": 9320,
      "1929": 9321,
      "ikkappettu": 9322,
      "clr": 9323,
      "इसलिए": 9324,
      "tharam": 9325,
      "നിയർ": 9326,
      "ഫ്രാൻ": 9327,
      "நிறுவனம்": 9328,
      "ference": 9329,
      "கல்லூரி": 9330,
      "pirabal": 9331,
      "പ്രദർശ": 9332,
      "system": 9333,
      "isaliye": 9334,
      "Don": 9335,
      "बता": 9336,
      "സമ്പ": 9337,
      "ക്രിയ": 9338,
      "aiyudan": 9339,
      "ennam": 9340,
      "betw": 9341,
      "lokam": 9342,
      "comput": 9343,
      "शादी": 9344,
      "cred": 9345,
      "ஐரோப்ப": 9346,
      "विस्तार": 9347,
      "between": 9348,
      "അഞ്ച്": 9349,
      "shah": 9350,
      "க்கின்": 9351,
      "samag": 9352,
      "തുവരെ": 9353,
      "viol": 9354,
      "கொள்க": 9355,
      "vepp": 9356,
      "ट्रा": 9357,
      "बोर्ड": 9358,
      "nalkunnu": 9359,
      "தனிப்பட்ட": 9360,
      "vistaar": 9361,
      "dut": 9362,
      "lis": 9363,
      "chon": 9364,
      "iri": 9365,
      "shradh": 9366,
      "noottraandin": 9367,
      "நூற்றாண்டின்": 9368,
      "matthiya": 9369,
      "care": 9370,
      "मं": 9371,
      "വിലെ": 9372,
      "பாரா": 9373,
      "സേന": 9374,
      "sheersh": 9375,
      "ശരാശരി": 9376,
      "aut": 9377,
      "टक": 9378,
      "பில": 9379,
      "anthu": 9380,
      "ക്കുന്നത്": 9381,
      "ത്തിനുള്ള": 9382,
      "still": 9383,
      "unnathil": 9384,
      "abhee": 9385,
      "भाई": 9386,
      "கூட்டா": 9387,
      "युवा": 9388,
      "दर्भ": 9389,
      "வரிசை": 9390,
      "கடற்க": 9391,
      "पश्चिमी": 9392,
      "மறை": 9393,
      "aagath": 9394,
      "सां": 9395,
      "संदर्भ": 9396,
      "அவள்": 9397,
      "both": 9398,
      "നിർത്ത": 9399,
      "padhath": 9400,
      "சந்தி": 9401,
      "ടെലിവിഷൻ": 9402,
      "மூன்றாவது": 9403,
      "thanipatta": 9404,
      "Fran": 9405,
      "आयु": 9406,
      "षण": 9407,
      "chutt": 9408,
      "uman": 9409,
      "यान": 9410,
      "aagiya": 9411,
      "All": 9412,
      "avare": 9413,
      "ர்களால்": 9414,
      "saevai": 9415,
      "ഓസ്ട്രേലിയ": 9416,
      "82": 9417,
      "lat": 9418,
      "loo": 9419,
      "आयोजित": 9420,
      "िन": 9421,
      "വന്ന": 9422,
      "rece": 9423,
      "பெர்": 9424,
      "जिले": 9425,
      "valarn": 9426,
      "charles": 9427,
      "தலைவராக": 9428,
      "फाइन": 9429,
      "ക്കിയുള്ള": 9430,
      "பயிற்சியா": 9431,
      "payirchiyaalar": 9432,
      "തമ്മിലുള്ള": 9433,
      "aichch": 9434,
      "ப்பாக": 9435,
      "kkukal": 9436,
      "മ്മി": 9437,
      "unnathinu": 9438,
      "graph": 9439,
      "സൈനിക": 9440,
      "adelph": 9441,
      "நடு": 9442,
      "alab": 9443,
      "kkil": 9444,
      "മ്പി": 9445,
      "sthaanam": 9446,
      "கிட்ட": 9447,
      "1937": 9448,
      "म्मी": 9449,
      "तिहासिक": 9450,
      "svayam": 9451,
      "live": 9452,
      "aagat": 9453,
      "carrier": 9454,
      "sadasy": 9455,
      "ஃபீ": 9456,
      "அணுக": 9457,
      "paschimi": 9458,
      "John": 9459,
      "விளைவாக": 9460,
      "imarat": 9461,
      "jeevitam": 9462,
      "thammilulla": 9463,
      "atheyum": 9464,
      "avam": 9465,
      "ezhuththu": 9466,
      "polit": 9467,
      "pirathinithiththuv": 9468,
      "அங்கீ": 9469,
      "pain": 9470,
      "sik": 9471,
      "analy": 9472,
      "വിമാന": 9473,
      "राब": 9474,
      "khilaadi": 9475,
      "खिलाड़ी": 9476,
      "suy": 9477,
      "won": 9478,
      "प्रस्तु": 9479,
      "aims": 9480,
      "பகுதியில்": 9481,
      "ഫ്രാ": 9482,
      "सूत्र": 9483,
      "kizhakk": 9484,
      "prastut": 9485,
      "93": 9486,
      "Mc": 9487,
      "each": 9488,
      "econom": 9489,
      "kay": 9490,
      "mm": 9491,
      "pati": 9492,
      "sthan": 9493,
      "രും": 9494,
      "adaiyaal": 9495,
      "thomas": 9496,
      "paathai": 9497,
      "nirmmicha": 9498,
      "தொலைக்காட்சி": 9499,
      "800": 9500,
      "ever": 9501,
      "face": 9502,
      "സ്വയം": 9503,
      "best": 9504,
      "athig": 9505,
      "chee": 9506,
      "shoot": 9507,
      "aalaana": 9508,
      "dete": 9509,
      "பின்ன": 9510,
      "aittad": 9511,
      "anusarichu": 9512,
      "வெளிப்படுத்த": 9513,
      "kalluri": 9514,
      "think": 9515,
      "yunaittad": 9516,
      "டும்": 9517,
      "സുകൾ": 9518,
      "shaadi": 9519,
      "ப்பது": 9520,
      "priya": 9521,
      "ട്ടില്ല": 9522,
      "phone": 9523,
      "റ്റിക്": 9524,
      "laut": 9525,
      "nediya": 9526,
      "टाइ": 9527,
      "ॉलर": 9528,
      "music": 9529,
      "पत्ति": 9530,
      "moontraavathu": 9531,
      "She": 9532,
      "bul": 9533,
      "gor": 9534,
      "आप": 9535,
      "आकार": 9536,
      "चले": 9537,
      "ள்ளன": 9538,
      "பெரு": 9539,
      "thamas": 9540,
      "sahit": 9541,
      "aandugalil": 9542,
      "डिजा": 9543,
      "பட்டம்": 9544,
      "ബ്ലി": 9545,
      "sharash": 9546,
      "pens": 9547,
      "തർ": 9548,
      "administr": 9549,
      "aven": 9550,
      "ians": 9551,
      "நாய": 9552,
      "vimaana": 9553,
      "theliv": 9554,
      "chikitsa": 9555,
      "എതി": 9556,
      "വുകൾ": 9557,
      "atmak": 9558,
      "विरोध": 9559,
      "dhaa": 9560,
      "vipul": 9561,
      "வெள்ளை": 9562,
      "ഡിസംബർ": 9563,
      "jey": 9564,
      "மாதிர": 9565,
      "theev": 9566,
      "തുടർന്നു": 9567,
      "aikalil": 9568,
      "visit": 9569,
      "விளையாட்ட": 9570,
      "photo": 9571,
      "മൂന്നാം": 9572,
      "baan": 9573,
      "non": 9574,
      "nidh": 9575,
      "pai": 9576,
      "zona": 9577,
      "ചാർ": 9578,
      "മരണ": 9579,
      "സമൂഹ": 9580,
      "ാതെ": 9581,
      "apo": 9582,
      "kadai": 9583,
      "தற்கும்": 9584,
      "maerpatta": 9585,
      "pratinidh": 9586,
      "डिजाइन": 9587,
      "AR": 9588,
      "अल": 9589,
      "eni": 9590,
      "ttil": 9591,
      "துற": 9592,
      "uthar": 9593,
      "്രാ": 9594,
      "ayilum": 9595,
      "லுக்கு": 9596,
      "thunai": 9597,
      "suttrupp": 9598,
      "बस": 9599,
      "ജേ": 9600,
      "മഹാ": 9601,
      "1925": 9602,
      "ugirathu": 9603,
      "que": 9604,
      "pratiyog": 9605,
      "प्रतियोग": 9606,
      "ആരംഭിച്ചു": 9607,
      "muyarch": 9608,
      "saptah": 9609,
      "600": 9610,
      "ங்க்": 9611,
      "hos": 9612,
      "नीचे": 9613,
      "aezh": 9614,
      "പേരിൽ": 9615,
      "cheiyunnathu": 9616,
      "நடிக": 9617,
      "present": 9618,
      "States": 9619,
      "vellai": 9620,
      "കരമായ": 9621,
      "adharit": 9622,
      "आधारित": 9623,
      "paathukaappu": 9624,
      "litt": 9625,
      "சரிய": 9626,
      "ெட்": 9627,
      "തുപോലെ": 9628,
      "anamaaya": 9629,
      "neeche": 9630,
      "score": 9631,
      "scr": 9632,
      "ഡ്യൂ": 9633,
      "േക്കുള്ള": 9634,
      "oopar": 9635,
      "uthpp": 9636,
      "much": 9637,
      "സ്ഥാനം": 9638,
      "prashik": 9639,
      "nigazhv": 9640,
      "सहित": 9641,
      "ക്യ": 9642,
      "स्कॉ": 9643,
      "விவ": 9644,
      "जीता": 9645,
      "jeetaa": 9646,
      "டியாக": 9647,
      "हरण": 9648,
      "jeane": 9649,
      "haasik": 9650,
      "CON": 9651,
      "ऐतिहासिक": 9652,
      "थि": 9653,
      "നത്തിൽ": 9654,
      "aashan": 9655,
      "aare": 9656,
      "aarop": 9657,
      "लिस": 9658,
      "प्रशि": 9659,
      "கண்கா": 9660,
      "aitihaasik": 9661,
      "eland": 9662,
      "ahe": 9663,
      "ukintrana": 9664,
      "varis": 9665,
      "வாழ்": 9666,
      "days": 9667,
      "ராக்": 9668,
      "saamooh": 9669,
      "हस्ताक्षर": 9670,
      "fut": 9671,
      "attha": 9672,
      "orge": 9673,
      "लेन": 9674,
      "സ്റ്റീ": 9675,
      "akalude": 9676,
      "vazhakk": 9677,
      "தெரி": 9678,
      "തീര": 9679,
      "ஏற்பட்ட": 9680,
      "program": 9681,
      "officials": 9682,
      "njaan": 9683,
      "அளி": 9684,
      "oron": 9685,
      "pathaam": 9686,
      "അതിനാൽ": 9687,
      "enbathai": 9688,
      "ற்றுக்கொ": 9689,
      "நிகழ்ச்சிய": 9690,
      "gaanv": 9691,
      "........": 9692,
      "आया": 9693,
      "नल": 9694,
      "ആയ": 9695,
      "ശൈ": 9696,
      "alan": 9697,
      "हाँ": 9698,
      "ാനോ": 9699,
      "கொள்ள": 9700,
      "பதவி": 9701,
      "अति": 9702,
      "आय": 9703,
      "ധീ": 9704,
      "ലാൻഡ്": 9705,
      "വഴ": 9706,
      "paras": 9707,
      "ത്തുള്ള": 9708,
      "പ്രകാരം": 9709,
      "स्टन": 9710,
      "திரும்ப": 9711,
      "paadugal": 9712,
      "raajneetik": 9713,
      "राजनीतिक": 9714,
      "siv": 9715,
      "അസോ": 9716,
      "kalakar": 9717,
      "lex": 9718,
      "विभाग": 9719,
      "ட்பா": 9720,
      "third": 9721,
      "தேவை": 9722,
      "स्कृ": 9723,
      "सहयोग": 9724,
      "வேண்டிய": 9725,
      "Los": 9726,
      "lene": 9727,
      "ரிக": 9728,
      "േഖ": 9729,
      "thoo": 9730,
      "aarog": 9731,
      "aster": 9732,
      "വിപുല": 9733,
      "लाइ": 9734,
      "medical": 9735,
      "ജീവി": 9736,
      "payirchi": 9737,
      "ariyappedunna": 9738,
      "सड़क": 9739,
      "യുണൈറ്റഡ്": 9740,
      "Eur": 9741,
      "ड्": 9742,
      "tries": 9743,
      "pareekshan": 9744,
      "roopeekar": 9745,
      "jananam": 9746,
      "சிகி": 9747,
      "शैली": 9748,
      "ready": 9749,
      "prakhyaapichu": 9750,
      "ges": 9751,
      "डॉलर": 9752,
      "ஈடு": 9753,
      "ഒഴി": 9754,
      "1927": 9755,
      "लिखा": 9756,
      "ിക്കുന്നത്": 9757,
      "State": 9758,
      "முறையாக": 9759,
      "nivaas": 9760,
      "बड़ी": 9761,
      "ayaanu": 9762,
      "ம்ப்": 9763,
      "dhadhu": 9764,
      "സ്റ്റു": 9765,
      "yoj": 9766,
      "கிரே": 9767,
      "ജനനം": 9768,
      "maarude": 9769,
      "hang": 9770,
      "மையில்": 9771,
      "ലണ്ട": 9772,
      "कालीन": 9773,
      "லாஸ்": 9774,
      "sanraksh": 9775,
      "വർത്ത": 9776,
      "ways": 9777,
      "klaas": 9778,
      "പൂർത്തിയാ": 9779,
      "apar": 9780,
      "भु": 9781,
      "ஹார்": 9782,
      "praay": 9783,
      "विद": 9784,
      "north": 9785,
      "லீக்": 9786,
      "vestt": 9787,
      "பத்திர": 9788,
      "റില": 9789,
      "oos": 9790,
      "neelam": 9791,
      "ികളും": 9792,
      "http": 9793,
      "tholaikaatchi": 9794,
      "सके": 9795,
      "க்ட": 9796,
      "ലു": 9797,
      "സഭ": 9798,
      "க்கிறார்": 9799,
      "1919": 9800,
      "ിയും": 9801,
      "ulkkoll": 9802,
      "தாகவும்": 9803,
      "perumpaalaana": 9804,
      "लौट": 9805,
      "ഉൾക്കൊള്ള": 9806,
      "bud": 9807,
      "iyayile": 9808,
      "കാലി": 9809,
      "nilai": 9810,
      "purath": 9811,
      "ായക": 9812,
      "investig": 9813,
      "adelphia": 9814,
      "പർ": 9815,
      "inc": 9816,
      "यात्रा": 9817,
      "orun": 9818,
      "റ്റിന്റെ": 9819,
      "पीछे": 9820,
      "சராசரி": 9821,
      "peechhe": 9822,
      "94": 9823,
      "Pol": 9824,
      "उदा": 9825,
      "ഡു": 9826,
      "തിനെ": 9827,
      "aadu": 9828,
      "ീകരണം": 9829,
      "ன்னா": 9830,
      "बिना": 9831,
      "பொதுவான": 9832,
      "paathukaapp": 9833,
      "പഴയ": 9834,
      "basketball": 9835,
      "TH": 9836,
      "list": 9837,
      "खरी": 9838,
      "ब्रे": 9839,
      "கலா": 9840,
      "வச": 9841,
      "ഡൻ": 9842,
      "ukondu": 9843,
      "sammel": 9844,
      "appattu": 9845,
      "uththathu": 9846,
      "boy": 9847,
      "सुधार": 9848,
      "jinhen": 9849,
      "push": 9850,
      "chithram": 9851,
      "जिन्हें": 9852,
      "amainthullathu": 9853,
      "தோல்விய": 9854,
      "वु": 9855,
      "அசல்": 9856,
      "மின": 9857,
      "attam": 9858,
      "1921": 9859,
      "varav": 9860,
      "लेने": 9861,
      "വേർ": 9862,
      "स्थानांतर": 9863,
      "சிறப்பு": 9864,
      "தீர்": 9865,
      "நிலைப்": 9866,
      "atharkum": 9867,
      "அமைந்துள்ளது": 9868,
      "പ്രഖ്യാപിച്ചു": 9869,
      "प्रतिनिध": 9870,
      "സാങ്കേ": 9871,
      "dle": 9872,
      "japani": 9873,
      "lay": 9874,
      "lang": 9875,
      "pathu": 9876,
      "अर्": 9877,
      "തവണ": 9878,
      "ഫിലി": 9879,
      "1924": 9880,
      "sour": 9881,
      "மைப்பு": 9882,
      "अनुमति": 9883,
      "anumati": 9884,
      "பொருள்": 9885,
      "സാങ്കേതിക": 9886,
      "gold": 9887,
      "prayaa": 9888,
      "galudan": 9889,
      "iki": 9890,
      "aadyamaayi": 9891,
      "ஸ்டீ": 9892,
      "वर्ड": 9893,
      "ആദ്യമായി": 9894,
      "nigazhchchi": 9895,
      "binaa": 9896,
      "cloud": 9897,
      "anubandh": 9898,
      "Angeles": 9899,
      "நப": 9900,
      "ഗിൽ": 9901,
      "ദശ": 9902,
      "iyag": 9903,
      "aagap": 9904,
      "kazhil": 9905,
      "शिका": 9906,
      "ंदन": 9907,
      "दूर": 9908,
      "வீரர்": 9909,
      "global": 9910,
      "फाइनल": 9911,
      "പതാ": 9912,
      "shesh": 9913,
      "1928": 9914,
      "ിയോ": 9915,
      "poss": 9916,
      "lot": 9917,
      "shanal": 9918,
      "Democr": 9919,
      "riday": 9920,
      "sharashari": 9921,
      "Phil": 9922,
      "aul": 9923,
      "अभी": 9924,
      "औसत": 9925,
      "വൃ": 9926,
      "ils": 9927,
      "இல்லாத": 9928,
      "teams": 9929,
      "badee": 9930,
      "ausat": 9931,
      "divas": 9932,
      "97": 9933,
      "Af": 9934,
      "इंड": 9935,
      "कर्ष": 9936,
      "amaagum": 9937,
      "1922": 9938,
      "edu": 9939,
      "appro": 9940,
      "ண்டா": 9941,
      "thuv": 9942,
      "மான்": 9943,
      "sarasari": 9944,
      "പോളി": 9945,
      "nilaip": 9946,
      "pathav": 9947,
      "வீடியோ": 9948,
      "ുന്നതിനും": 9949,
      "saanke": 9950,
      "magan": 9951,
      "टों": 9952,
      "ध्या": 9953,
      "ரமான": 9954,
      "ഉത്തര": 9955,
      "விடு": 9956,
      "സിൻ": 9957,
      "வர்த்த": 9958,
      "नियर": 9959,
      "ങ്ങളിലെ": 9960,
      "നെറ്റ്": 9961,
      "जीव": 9962,
      "companies": 9963,
      "ഗെയിമ": 9964,
      "vilaivaaga": 9965,
      "aup": 9966,
      "vaikk": 9967,
[...]
