{"<s>":0,"<pad>":1,"</s>":2,"<unk>":3,"<mask>":4,"!":5,"\"":6,"#":7,"$":8,"%":9,"&":10,"'":11,"(":12,")":13,"*":14,"+":15,",":16,"-":17,".":18,"/":19,"0":20,"1":21,"2":22,"3":23,"4":24,"5":25,"6":26,"7":27,"8":28,"9":29,":":30,";":31,"<":32,"=":33,">":34,"?":35,"@":36,"A":37,"B":38,"C":39,"D":40,"E":41,"F":42,"G":43,"H":44,"I":45,"J":46,"K":47,"L":48,"M":49,"N":50,"O":51,"P":52,"Q":53,"R":54,"S":55,"T":56,"U":57,"V":58,"W":59,"X":60,"Y":61,"Z":62,"[":63,"\\":64,"]":65,"^":66,"_":67,"`":68,"a":69,"b":70,"c":71,"d":72,"e":73,"f":74,"g":75,"h":76,"i":77,"j":78,"k":79,"l":80,"m":81,"n":82,"o":83,"p":84,"q":85,"r":86,"s":87,"t":88,"u":89,"v":90,"w":91,"x":92,"y":93,"z":94,"{":95,"|":96,"}":97,"~":98,"¡":99,"¢":100,"£":101,"¤":102,"¥":103,"¦":104,"§":105,"¨":106,"©":107,"ª":108,"«":109,"¬":110,"®":111,"¯":112,"°":113,"±":114,"²":115,"³":116,"´":117,"µ":118,"¶":119,"·":120,"¸":121,"¹":122,"º":123,"»":124,"¼":125,"½":126,"¾":127,"¿":128,"À":129,"Á":130,"Â":131,"Ã":132,"Ä":133,"Å":134,"Æ":135,"Ç":136,"È":137,"É":138,"Ê":139,"Ë":140,"Ì":141,"Í":142,"Î":143,"Ï":144,"Ð":145,"Ñ":146,"Ò":147,"Ó":148,"Ô":149,"Õ":150,"Ö":151,"×":152,"Ø":153,"Ù":154,"Ú":155,"Û":156,"Ü":157,"Ý":158,"Þ":159,"ß":160,"à":161,"á":162,"â":163,"ã":164,"ä":165,"å":166,"æ":167,"ç":168,"è":169,"é":170,"ê":171,"ë":172,"ì":173,"í":174,"î":175,"ï":176,"ð":177,"ñ":178,"ò":179,"ó":180,"ô":181,"õ":182,"ö":183,"÷":184,"ø":185,"ù":186,"ú":187,"û":188,"ü":189,"ý":190,"þ":191,"ÿ":192,"Ā":193,"ā":194,"Ă":195,"ă":196,"Ą":197,"ą":198,"Ć":199,"ć":200,"Ĉ":201,"ĉ":202,"Ċ":203,"ċ":204,"Č":205,"č":206,"Ď":207,"ď":208,"Đ":209,"đ":210,"Ē":211,"ē":212,"Ĕ":213,"ĕ":214,"Ė":215,"ė":216,"Ę":217,"ę":218,"Ě":219,"ě":220,"Ĝ":221,"ĝ":222,"Ğ":223,"ğ":224,"Ġ":225,"ġ":226,"Ģ":227,"ģ":228,"Ĥ":229,"ĥ":230,"Ħ":231,"ħ":232,"Ĩ":233,"ĩ":234,"Ī":235,"ī":236,"Ĭ":237,"ĭ":238,"Į":239,"į":240,"İ":241,"ı":242,"Ĳ":243,"ĳ":244,"Ĵ":245,"ĵ":246,"Ķ":247,"ķ":248,"ĸ":249,"Ĺ":250,"ĺ":251,"Ļ":252,"ļ":253,"Ľ":254,"ľ":255,"Ŀ":256,"ŀ":257,"Ł":258,"ł":259,"Ń":260,"à®":261,"à´":262,"à¤":263,"à¯":264,"àµ":265,"à¯į":266,"à¥":267,"Ġà¤":268,"àµį":269,"Ġà®":270,"Ġà´":271,"th":272,"aa":273,"à®¿":274,"à´¿":275,"an":276,"à¯ģ":277,"à®ķ":278,"à¤¾":279,"ar":280,"à®¤":281,"in":282,"à¥ĩ":283,"Ġk":284,"al":285,"à¤°":286,"à´ķ":287,"àµģ":288,"à®°":289,"à®Ł":290,"Ġs":291,"à´¨":292,"à¥į":293,"Ġp":294,"à®¾":295,"à´¾":296,"Ġm":297,"à¤¿":298,"à®ª":299,"à´¤":300,"Ġa":301,"à´¯":302,"à®©":303,"à®²":304,"il":305,"Ġà¤ķ":306,"am":307,"à´°":308,"iy":309,"à®±":310,"à¤Ĥ":311,"ath":312,"à®®":313,"à¤¨":314,"àµĨ":315,"at":316,"à´Ł":317,"à¥Ģ":318,"ch":319,"ee":320,"à´±":321,"à®¯":322,"Ġth":323,"ru":324,"à¤ķ":325,"on":326,"à¯Ī":327,"Ġv":328,"à®³":329,"kk":330,"er":331,"ay":332,"à®µ":333,"ai":334,"à´Ĥ":335,"à¥ĭ":336,"Ġn":337,"ey":338,"à¤¤":339,"en":340,"à¤¯":341,"à´ª":342,"um":343,"à´²":344,"aan":345,"à¤²":346,"ad":347,"oo":348,"sh":349,"à¤¸":350,"Ġb":351,"pp":352,"à´®":353,"Ġà¤¸":354,"un":355,"Ġà®ª":356,"à´¸":357,"Ġh":358,"ur":359,"Ġ1":360,"à´µ":361,"Ġà®®":362,"ir":363,"àµĭ":364,"Ġd":365,"ak":366,"aar":367,"Ġà¤®":368,"tt":369,"Ġo":370,"àµ¼":371,"à¤®":372,"av":373,"Ġà®ķ":374,"à´³":375,"àµ½":376,"as":377,"à´ļ":378,"is":379,"Ġr":380,"Ġt":381,"att":382,"àµĩ":383,"Ġà¤ª":384,"Ġ\"":385,"à®ķà®³":386,"Ġl":387,"Ġà®ħ":388,"Ġà´ª":389,"Ġj":390,"à¯Ĩ":391,"Ġkey":392,"à®ļ":393,"à¤µ":394,"or":395,"à¥ĩà¤Ĥ":396,"à´£":397,"Ġà®µ":398,"es":399,"ed":400,"Ġ2":401,"ll":402,"Ġc":403,"it":404,"gal":405,"Ġà¤¹":406,"and":407,"id":408,"à¥Ī":409,"à®£":410,"Ġme":411,"Ġà´¸":412,"Ġg":413,"à¤ª":414,"à¤¹":415,"à¯ĭ":416,"kal":417,"ud":418,"ii":419,"à´Ļ":420,"à¯ĩ":421,"à¤Ł":422,"Ġ(":423,"àµģà´Ĥ":424,"à¥¤":425,"athu":426,"Ġà´ķ":427,"Ġà®ĩ":428,"à®¨":429,"Ġà®ļ":430,"àµ»":431,"à¥ģ":432,"Ġmein":433,"Ġà®¤":434,"aay":435,"Ġà´ħ":436,"aal":437,"Ġpr":438,"iya":439,"Ġà´µ":440,"Ġch":441,"Ġf":442,"el":443,"ik":444,"à´¦":445,"uth":446,"Ġà¤ľ":447,"à¤¦":448,"Ġà´¨":449,"Ġu":450,"ikk":451,"Ġw":452,"app":453,"ag":454,"ah":455,"àµĢ":456,"à¥Ĥ":457,"à¤Ĺ":458,"Ġà´®":459,"zh":460,"Ġ19":461,"Ġà®¨":462,"Ġthe":463,"iv":464,"ing":465,"Ġin":466,"Ġà®Ĩ":467,"Ġ20":468,"àµ¾":469,"à®ªà®Ł":470,"Ġà¤¬":471,"Ġà¤µ":472,"à¤¡":473,"ic":474,"Ġe":475,"à®Ļ":476,"iru":477,"Ġà¤¨":478,"Ġà¤ħ":479,"ith":480,"Ġaa":481,"à¤ľ":482,"à¥ĭà¤Ĥ":483,"à´·":484,"Ġà¤ı":485,"tr":486,"à®¸":487,"à´Ĺ":488,"Ġà¤²":489,"nu":490,"àµĤ":491,"à¯į,":492,"Ġoru":493,"à´¡":494,"à¤¬":495,"Ġen":496,"Ġà¤Ķ":497,"à¯į.":498,"ck":499,"ang":500,"Ġaur":501,"Ġà¤Ķà¤°":502,"Ġà¤¦":503,"à®´":504,"Ġav":505,"dh":506,"ich":507,"uk":508,"athth":509,"à¯Ĭ":510,"Ġà¤°":511,"à¤ı":512,"te":513,"ol":514,"Ġkii":515,"Ġpar":516,"à¤¶":517,"Ġkoo":518,"Ġsh":519,"Ġà¤Ĺ":520,"aag":521,"om":522,"rum":523,"us":524,"im":525,"aye":526,"à¯Ĥ":527,"aiy":528,"Ġà´İ":529,"àµģ.":530,"Ġà®İ":531,"à®µà®°":532,"thu":533,"à¯Ģ":534,"ab":535,"angal":536,"Ġy":537,"eey":538,"ion":539,"Ġmatt":540,"Ġà¤ī":541,"Ġà®Ĵ":542,"Ġsam":543,"ana":544,"Ġà¤¥":545,"Ġà®ī":546,"à¤·":547,"ain":548,"Ġan":549,"ill":550,"aath":551,"Ġà´ļ":552,"Ġhaye":553,"00":554,"ig":555,"Ġà®®à®±":556,"à¤ļ":557,"Ġà´¤":558,"Ġand":559,"Ġto":560,"kku":561,"à´¬":562,"aam":563,"Ġse":564,"à´¶":565,"à´§":566,"ish":567,"à¤¥":568,"ap":569,"ent":570,"Ġmattrum":571,"à¤§":572,"Ġà¤ıà¤ķ":573,"Ġà´Ĩ":574,"all":575,"du":576,"irun":577,"Ġof":578,"unn":579,"à¯ģ.":580,"Ġseey":581,"Ġà´Ĵ":582,"ipp":583,"tha":584,"19":585,"à´¹":586,"Ġack":587,"Ġavar":588,"Ġkar":589,"Ġun":590,"lla":591,"Ġkaa":592,"ut":593,"ul":594,"Ġpo":595,"Ġà®Ĵà®°":596,"aad":597,"ile":598,"Ġad":599,"aana":600,"à¤¼":601,"og":602,"ra":603,"od":604,"akk":605,"een":606,"Ġar":607,"ett":608,"Ġà¤¶":609,"à´ľ":610,"Ġbh":611,"aaga":612,"os":613,"adh":614,"Ġvar":615,"Ġà´¬":616,"à¤£":617,"à´ķà´³":618,"Ġis":619,"Ġ201":620,"ane":621,"Ġà¤ķà¤°":622,"àµĪ":623,"iye":624,"uv":625,"aav":626,"athin":627,"esh":628,"et":629,"itt":630,"à¥ī":631,"Ġà´Ĵà´°":632,"Ġà¤Ĩ":633,"Ġà´ĩ":634,"bh":635,"à¤¾à¥¤":636,"Ġthaa":637,"idh":638,"aayi":639,"20":640,"à¤Ī":641,"Ġà¤¤":642,"Ġà®ĩà®°":643,"ya":644,"ude":645,"ukal":646,"appatt":647,"Ġaan":648,"aaya":649,"Ġà¤ªà¤°":650,"à´ķàµ¾":651,"eh":652,"Ġ3":653,"Ġà®ħà®µà®°":654,"à¯ģ,":655,"Ġà´ī":656,"ash":657,"à´¨à´¤":658,"à´¥":659,"à®Łà®¤":660,"ec":661,"le":662,"à¥Īà¤Ĥ":663,"Ġà¤¯":664,"Ġà´ľ":665,"ach":666,"Ġà¤ĩ":667,"ot":668,"à´«":669,"à¤«":670,"à´ŀ":671,"ip":672,"à®Łà®©":673,"à®ķà®ª":674,"à´´":675,"Ġenn":676,"azh":677,"Ġà´²":678,"Ġkiya":679,"à´ķà´¯":680,"Ġliye":681,"Ġà´ħà´µ":682,"Ġà´İà´¨":683,"àµį.":684,"ug":685,"Ġà®Ł":686,"ayaa":687,"aat":688,"ichu":689,"à¤ĸ":690,"Ġma":691,"anam":692,"em":693,"ro":694,"ia":695,"amb":696,"ers":697,"Ġà®İà®©":698,"oop":699,"Ġ18":700,"aas":701,"à¥Īà¥¤":702,"ayum":703,"Ġam":704,"à¤Ń":705,"Ġà´±":706,"Ġon":707,"Ġnir":708,"Ġà¤Ń":709,"àµĬ":710,"Ġà¤īà¤¨":711,"Ġ200":712,"Ġà¤ļ":713,"Ġst":714,"ov":715,"aatt":716,"Ġà´¡":717,"oor":718,"kar":719,"avum":720,"Ġà¤Ĺà¤¯":721,"Ġgayaa":722,"unnu":723,"Ġal":724,"à´¿.":725,"thth":726,"Ġney":727,"ĠS":728,"ku":729,"he":730,"ess":731,"atth":732,"inte":733,"aak":734,"ĠT":735,"àµº":736,"avar":737,"à¤ĩ":738,"Ġà¤«":739,"à´Ń":740,"Ġadh":741,"aap":742,"à´Ļà´³":743,"athil":744,"Ġà´Ĺ":745,"Ġmar":746,"Ġ4":747,"war":748,"Ġfor":749,"ram":750,"ĠC":751,"ter":752,"uthal":753,"Ġsth":754,"Ġroop":755,"ek":756,"ation":757,"aththil":758,"Ġparr":759,"Ġà´«":760,"ĠA":761,"Ġà´°":762,"à®±à®¤":763,"à®µà®¤":764,"Ġup":765,"Ġthan":766,"Ġjo":767,"aksh":768,"ukayum":769,"ulla":770,"ool":771,"ate":772,"âĢ":773,"Ġ5":774,"Ġà®Ĩà®£":775,"à´Ļàµ¾":776,"op":777,"à¤¾,":778,"Ġà®ĩà®¤":779,"ĥà®ª":780,"à®¤à®¤":781,"ikal":782,"ev":783,"ow":784,"ep":785,"à®¤à®²":786,"à¤ªà¤¨":787,"Ġà¤¡":788,"à®©à®°":789,"à¤¾à¤Ĥ":790,"à®ªà®¤":791,"Ġà®īà®³":792,"ber":793,"Ġhain":794,"ri":795,"end":796,"ine":797,"inn":798,"Ġà´Ł":799,"Ġchey":800,"ukk":801,"aj":802,"Ġà®ħà®¤":803,"Ġidh":804,"Ġas":805,"Ġpir":806,"Ġà¤¸à¤®":807,"eer":808,"Ġà®ľ":809,"),":810,"und":811,"ce":812,"à´°à´£":813,"à´°à´®":814,"Ġap":815,"ani":816,"àµ¼à´¤":817,"aakk":818,"ew":819,"up":820,"à´°à´¤":821,"Ġadd":822,"angkal":823,"ct":824,"ukku":825,"à®¯à®¤":826,"Ġkh":827,"à®ķà®°":828,"à´¯à´¤":829,"Ġà®°":830,"ae":831,"àµį,":832,"st":833,"ĠM":834,"ub":835,"iyil":836,"Ġà´¯":837,"uthth":838,"Ġà´¶":839,"Ġbe":840,"Ġà´¹":841,"Ġaam":842,"ull":843,"ant":844,"à®Łà®°":845,"ans":846,"Ġà¤ĸ":847,"Ġath":848,"à¥Į":849,"Ġnad":850,"Ġend":851,"201":852,"à®¯à®°":853,"Ġà¤Ł":854,"aanu":855,"ĠI":856,"anth":857,"ond":858,"Ġfr":859,"Ġsaath":860,"Ġà¤ĩà¤¸":861,"à®ľ":862,"ast":863,"na":864,"eg":865,"Ġ6":866,"Ġà®µà®°":867,"ththa":868,"Ġval":869,"appad":870,"'s":871,"aipp":872,"ari":873,"Ġir":874,"Ġmo":875,"Ġwh":876,"one":877,"Ġà´ħà´¦":878,"Ġkal":879,"à®ªà®°":880,"ank":881,"andh":882,"Ġà®ķà®Ł":883,"udan":884,"unna":885,"Ġthey":886,"Ġ199":887,"Ġcom":888,"Ġaddeh":889,"ell":890,"arn":891,"Ġà´ĵ":892,"Ġà®Ĩà®®":893,"Ġco":894,"est":895,"ff":896,"à®¯à®²":897,"Ġaar":898,"ake":899,"ayil":900,"Ġmuthal":901,"yam":902,"upp":903,"Ġman":904,"aik":905,"Ġidhu":906,"Ġall":907,"irunnu":908,"à´¿à´Ĥ":909,"Ġ7":910,"athe":911,"Ġirun":912,"Ġku":913,"Ġkur":914,"à¯į\"":915,"ĠP":916,"Ġthat":917,"akal":918,"ly":919,"ist":920,"eet":921,"à®ķà®¤":922,"aiv":923,"Ġà¤ķà¤°à¤¨":924,"Ġit":925,"ood":926,"àµĮ":927,"aram":928,"Ġdo":929,"irathu":930,"abh":931,"à®©à®¤":932,"ĠB":933,"aikk":934,"à´°à´µ":935,"ort":936,"ark":937,"à¥ĥ":938,"Ġvil":939,"ard":940,"ata":941,"à¤°à¤£":942,"re":943,"Ġpad":944,"se":945,"Ġkaar":946,"à®Łà®®":947,"à¤°à¤¤":948,"à®ķà®®":949,"Ġat":950,"aiyil":951,"Ġaand":952,"ian":953,"Ġee":954,"àµģ,":955,"aip":956,"Ġà´ħà´¤":957,"à´¾à´Ĥ":958,"Ġjoe":959,"à´¯à´®":960,"à®³à®°":961,"Ġle":962,"aid":963,"ika":964,"àµ¼à´ķ":965,"aththin":966,"à®¯à®©":967,"à®·":968,"Ġthee":969,"eric":970,"man":971,"art":972,"à®ĥà®ª":973,"uu":974,"Ġà®ħà®©":975,"Ġà¤ħà¤ªà¤¨":976,"Ġà®²":977,"tra":978,"Ġ8":979,"Ġ'":980,"àµ»à´¡":981,"à¥Ģ.":982,"Ġvy":983,"Ġvish":984,"appattathu":985,"à¤¿à¤Ĥ":986,"\",":987,"ugal":988,"àµ»à´¸":989,"pr":990,"200":991,"ila":992,"Ġtho":993,"Ġà®ĩà®²":994,"iss":995,"ala":996,"Ġà®Ĩà®ķ":997,"Ġthod":998,"Ġnin":999,"if":1000,"Ġwith":1001,"Ġcon":1002,"Ġid":1003,"àµ¼à´®":1004,"Ġaag":1005,"pad":1006,"Ġà´Ń":1007,"chch":1008,"rit":1009,"ĠW":1010,"aaj":1011,"Ġru":1012,"Ġph":1013,"Ġà®¹":1014,"ambar":1015,"Ġper":1016,"àµ¼à´Ł":1017,"Ġor":1018,".\"":1019,"Ġsw":1020,"à´ķà´°":1021,"à¥Ģà¤Ĥ":1022,"Ġà®ħà®®":1023,"Ġiru":1024,"à®¯à®®":1025,"à¥Ī,":1026,"ĠâĢ":1027,"Ġill":1028,"Ġ198":1029,"à¤µà¤°":1030,"à¤Ĩ":1031,"Ġho":1032,"à¥Ģà¥¤":1033,"ĠN":1034,"thir":1035,"Ġkarane":1036,"Ġà®ĩà®¨":1037,"aayirunnu":1038,"iyam":1039,"Ġcl":1040,"18":1041,"ack":1042,"igal":1043,"aran":1044,"Ġsp":1045,"Ġmael":1046,"angk":1047,"aah":1048,"ore":1049,"Ġà¤ªà¤¹":1050,"Ġà´ı":1051,"aka":1052,"Ġà´¦":1053,"Ġjis":1054,"à®³à®¤":1055,"hone":1056,"uru":1057,"Ġ9":1058,"Ġko":1059,"Ġà´ªà´°":1060,"Ġà®ı":1061,"ass":1062,"Ġull":1063,"Ġnil":1064,"à®Łà®Ļ":1065,"Ġaandil":1066,"ĠR":1067,"Ġith":1068,"ayog":1069,"ĠH":1070,"Ġso":1071,"enn":1072,"aya":1073,").":1074,"Ġvi":1075,"Ġhu":1076,"ati":1077,"ton":1078,"Ġte":1079,"Ġpah":1080,"iyon":1081,"Ġpe":1082,"Ġ10":1083,"Ġhe":1084,"à´ĸ":1085,"à¤°à¤ķ":1086,"ern":1087,"Ġsar":1088,"ilum":1089,"Ġà¤ħà¤¨":1090,"Ġoo":1091,"Ġud":1092,"à®ķà®µ":1093,"ĠD":1094,"aee":1095,"ind":1096,"à®²à®¤":1097,"Ġà®¸":1098,"Ġpur":1099,"à¤ľà¤¨":1100,"à´İ":1101,"shan":1102,"Ġ197":1103,"thaar":1104,"Ġjan":1105,"Ġcur":1106,"Ġpay":1107,"ect":1108,"ear":1109,"Ġà´ĩà´¤":1110,"à®°à®®":1111,"à¤¤à¤°":1112,"Ġà¤¯à¤¹":1113,"unk":1114,"à®Łà®ª":1115,"Ġà´Ī":1116,"Ġ<":1117,"à®°à®¤":1118,"ord":1119,"à¥Īà¤Ĥà¥¤":1120,"Ġpl":1121,"Ġthir":1122,"agar":1123,"000":1124,"wara":1125,"iyaa":1126,"à¥ĩà¤Ĥ,":1127,"Ġul":1128,"àµ¼à´¨":1129,"Ġmaan":1130,"ust":1131,"igh":1132,"Ġà®ħà®²":1133,"Ġgr":1134,"Ġulla":1135,"Ġro":1136,"àµ½à´ķ":1137,"à¤¬à¤°":1138,"aaka":1139,"Ġaddeham":1140,"àµ¼à´¡":1141,"Ġvel":1142,"Ġkaal":1143,"Ġà¤ħà¤§":1144,"Ġdwara":1145,"apped":1146,"Ġus":1147,"à¤¯à¤ķ":1148,"à¤ģ":1149,"anj":1150,"à¤ĵ":1151,"eekar":1152,"eel":1153,"à®¿.":1154,"umb":1155,"ann":1156,"à®¤à®ª":1157,"aalar":1158,"Ġà®µà®´":1159,"Ġwas":1160,"Ġninnu":1161,"Ġbhee":1162,"iyal":1163,"Ġ17":1164,"ong":1165,"àµĥ":1166,"Ġtr":1167,"Ġà¤ķà¤°à¤¤":1168,"Ġupayog":1169,"eek":1170,"Ġcheythu":1171,"Ġ15":1172,"ity":1173,"Ġmu":1174,"ib":1175,"à´¯àµ»":1176,"ere":1177,"à¤Łà¤°":1178,"var":1179,"Ġinththa":1180,"ikkunnu":1181,"Ġ194":1182,"ĠF":1183,"à¥ĩà¥¤":1184,"Ġyeh":1185,"Ġmaelum":1186,"Ġthal":1187,"aanam":1188,"Ġ196":1189,"à®ķà®²":1190,"Ġeee":1191,"Ġà¤īà¤¨à¤ķ":1192,"aththir":1193,"Ġbaad":1194,"ale":1195,"inaar":1196,"Ġmun":1197,"à¤ī":1198,"Ġkad":1199,"ok":1200,"à®İ":1201,"aigal":1202,"anar":1203,"aadh":1204,"va":1205,"ĠG":1206,"Ġdiyaa":1207,"ive":1208,"à´°à´ķ":1209,"ĠL":1210,"ta":1211,"ĠĊ":1212,"Ġgh":1213,"à¥Ģ,":1214,"athinte":1215,"Ġà´¸à´®":1216,"eyum":1217,"Ġag":1218,"Ġunhone":1219,"Ġex":1220,"Ġà®ķà®²":1221,"oc":1222,"à´Łà´¤":1223,"Ġdh":1224,"ment":1225,"Ġsaid":1226,"..":1227,"eed":1228,"Ġmaar":1229,"eev":1230,"Ġà®ħà®Ł":1231,"oru":1232,"Ġà¤¬à¤¨":1233,"Ġameric":1234,"qu":1235,"udh":1236,"Ġuru":1237,"Ġà¤¤à¤ķ":1238,"aith":1239,"Ġjaat":1240,"à¤¯à¤°":1241,"à´µà´°":1242,"ac":1243,"ide":1244,"ĠJ":1245,"oy":1246,"mm":1247,"adi":1248,"Ġà´īà´ª":1249,"Ġsu":1250,"atta":1251,"Ġà®ªà®²":1252,"Ġendru":1253,"Ġ16":1254,"angalil":1255,"are":1256,"ail":1257,"ikkukayum":1258,"Ġpaar":1259,"Ġà¤ªà¤¹à¤²":1260,"Ġà®ªà®Ł":1261,"Ġprak":1262,"Ġenniv":1263,"Ġbr":1264,"Ġkatt":1265,"ook":1266,"à¤¯à¤¨":1267,"à®¤à®©":1268,"Ġtaka":1269,"alk":1270,"à´Ĥ.":1271,"onn":1272,"Ġ12":1273,"Ġoff":1274,"icha":1275,"inu":1276,"aheen":1277,"Ġà®ªà®¤":1278,"aash":1279,"Ġvazh":1280,"Ġà¤µà¤°":1281,"Ġpatt":1282,"à¤Ľ":1283,"appett":1284,"à®ħ":1285,"ies":1286,"Ġpath":1287,"eng":1288,"à®ĩ":1289,"Ġmool":1290,"eeth":1291,"Ġre":1292,"Ġvaal":1293,"aw":1294,"Ġà¤ĺ":1295,"Ġà¤īà¤ª":1296,"Ġcurr":1297,"Ġithu":1298,"à¤°à¤®":1299,"Ġsee":1300,"à¤ł":1301,"Ġkood":1302,"Ġdii":1303,"asth":1304,"ave":1305,"iyar":1306,"aththai":1307,"Ġà®ħà®°":1308,"aai":1309,"à´Łà´ķ":1310,"ph":1311,"à´¿,":1312,"ikkunn":1313,"Ġab":1314,"co":1315,"Ġaad":1316,"à´¤à´®":1317,"à´¯à´ķ":1318,"ase":1319,"als":1320,"Ġvarsh":1321,"Ġvid":1322,"Ġ14":1323,"à´¯à´ª":1324,"Ġkud":1325,"Ġpoor":1326,"ie":1327,"ts":1328,"Ġsah":1329,"ason":1330,"Ġvah":1331,"amp":1332,"iyathu":1333,"ali":1334,"Ġà´ħà´¨":1335,"ekh":1336,"à®²à®®":1337,"aim":1338,"amil":1339,"any":1340,"athinu":1341,"Ġcomp":1342,"aki":1343,"Ġell":1344,"à¤¶à¤¨":1345,"Ġà®īà®°":1346,"Ġche":1347,"Ġà®ħà®±":1348,"Ġchh":1349,"ver":1350,"Ġà®ĥà®ª":1351,"Ġviv":1352,"appatta":1353,"Ġhis":1354,"ork":1355,"Ġ13":1356,"Ġmud":1357,"Ġpro":1358,"à´Łà´¨":1359,"à®ŀ":1360,"Ġsak":1361,"ome":1362,"Ġpinn":1363,"Ġed":1364,"à¥ĩ,":1365,"kh":1366,"ukh":1367,"iraar":1368,"aur":1369,"The":1370,"Ġby":1371,"Ġirunthth":1372,"Ġà¤Ľ":1373,"à¤¾à¤ģ":1374,"Ġ195":1375,"Ġà®ªà®ķ":1376,"à´²à´¯":1377,"Ġ11":1378,"Ġsang":1379,"21":1380,"à®¹":1381,"ilekku":1382,"à®Łà®ķ":1383,"land":1384,"aane":1385,"son":1386,"Ġjaataa":1387,"Ġà¤¨à¤¹":1388,"aaru":1389,"ĠE":1390,"Ġprath":1391,"Ġban":1392,"Ġpal":1393,"aer":1394,"Ġà¤°à¤¹":1395,"iyapp":1396,"à´¤àµ½":1397,"Ġfrom":1398,"nd":1399,"ayam":1400,"Ġaav":1401,"Ġapane":1402,"Ġnaheen":1403,"à´ķà´ª":1404,"aikal":1405,"Ġvad":1406,"Ġadhik":1407,"à´¨à´Ļ":1408,"Ġprat":1409,"ick":1410,"ayude":1411,"agu":1412,"à¤¸à¤°":1413,"à¤¹à¤°":1414,"Ġà®ķà®£":1415,"Ġraaj":1416,"Ġà®¨à®Ł":1417,"à´°à´¸":1418,"àµ¼à´·":1419,"amaana":1420,"ees":1421,"Ġirand":1422,"Ġà®ĩà®°à®£":1423,"Ġnagar":1424,"Ġchar":1425,"Ġde":1426,"ĠU":1427,"Ġenna":1428,"à®¤à®°":1429,"Ġà´°à´£":1430,"chi":1431,"dugal":1432,"Ġyo":1433,"à¯į-":1434,"amaaya":1435,"à®±à®ķ":1436,"Ġare":1437,"Ġel":1438,"Ġthud":1439,"à´¨à´®":1440,"à¤¼à¤¾":1441,"Ġhas":1442,"kkum":1443,"ithth":1444,"à´¹à´¤":1445,"Ġà®Ĳ":1446,"iyum":1447,"Ġner":1448,"Ġà¤īà¤¸":1449,"oom":1450,"Ġthanathu":1451,"bu":1452,"Ġà®¤à®©à®¤":1453,"à®ķà®´":1454,"Ġsc":1455,"à´µà´¯":1456,"Ġrec":1457,"Ġpan":1458,"amen":1459,"Ġ193":1460,"à´¯à´¯":1461,"Ġà´Ĩà´¦":1462,"Ġpaath":1463,"Ġavarathu":1464,"Ġà®ħà®µà®°à®¤":1465,"uthiya":1466,"Ġju":1467,"à´·àµ»":1468,"Ġnew":1469,"199":1470,"à¤ªà¤°":1471,"22":1472,"oot":1473,"ens":1474,"Ġuy":1475,"yak":1476,"Ġabh":1477,"ara":1478,"à¤ķà¤°":1479,"Ġhot":1480,"à®¤à®®":1481,"Ġprad":1482,"Ġaal":1483,"iyan":1484,"Ġteam":1485,"àµ¼à´µ":1486,"ukirathu":1487,"aand":1488,"io":1489,"Ġsa":1490,"à¤¸à¤®":1491,"Ġenb":1492,"Ġà´µà´°":1493,"amaayi":1494,"Ġezh":1495,"à´Ĥ,":1496,"à´Łà´Ļ":1497,"Ġà®¯":1498,"à¤²à¤¨":1499,"à¤Łà¤¨":1500,"Ġrep":1501,"Ġniru":1502,"Ġà®ªà®°":1503,"athum":1504,"ary":1505,"Ġà¤µà¤¹":1506,"à®µà®®":1507,"à®ļà®©":1508,"ondu":1509,"Ġdis":1510,"Ġmah":1511,"à´®à´¤":1512,"à¤°à¤¸":1513,"à®±à®©":1514,"Ġà¤ĳ":1515,"Ġà¤¸à¤ķ":1516,"cl":1517,"Ġva":1518,"à´ħ":1519,"ais":1520,"thi":1521,"à®¯à®ª":1522,"ty":1523,"irunthu":1524,"Ġà¤®à¤¹":1525,"oott":1526,"Ġandru":1527,"eett":1528,"ĠK":1529,"à´ķàµ»":1530,"Ġseason":1531,"Ġpol":1532,"Ġà¤Ĺà¤Ī":1533,"Ġà®ĩà®©":1534,"aguth":1535,"à®¿,":1536,"aaran":1537,"Ġà¤Ĺà¤ı":1538,"ther":1539,"Ġgaye":1540,"Ġà®ĵ":1541,"à®Łà®²":1542,"iyo":1543,"Ġur":1544,"Ġà¤ĵ":1545,"Ġpayan":1546,"Ġiss":1547,"int":1548,"Ġdee":1549,"Ġà´ľà´¨":1550,"Ġkond":1551,"à´¯àµ¼":1552,"ont":1553,"à¤ħ":1554,"ice":1555,"akar":1556,"Ġksh":1557,"amaaga":1558,"ĠO":1559,"Ġdes":1560,"àµį\"":1561,"Ġà´¨àµ½à´ķ":1562,"Ġà®ħà®µ":1563,"Ġsch":1564,"Ġnalk":1565,"inar":1566,"Ġkazh":1567,"Ġvir":1568,"Ġsir":1569,"ial":1570,"Ġà®īà®±":1571,"jan":1572,"lo":1573,"ikkunna":1574,"ikkaan":1575,"Ġà®¨à®ķà®°":1576,"Ġbo":1577,"gh":1578,"etr":1579,"Ġà®Ĩà®©":1580,"Ġà®ķà®°":1581,"à´·à´£":1582,"ĠThe":1583,"adhu":1584,"à´ķàµ¾à´ķ":1585,"ĠâĢĶ":1586,"Ġwill":1587,"Ġvaha":1588,"old":1589,"à¤²à¤¯":1590,"ays":1591,"Ġsev":1592,"yal":1593,"Ġhoe":1594,"zhil":1595,"Ġinn":1596,"Ġres":1597,"à®ļà®°":1598,"ti":1599,"Ġà´īà´ªà´¯":1600,"Ġgaee":1601,"anangal":1602,"à¤ĥ":1603,"air":1604,"à´°à´Ļ":1605,"Ġhave":1606,"à®Ĩ":1607,"Ġett":1608,"use":1609,"à¤¯à¤®":1610,"Ġno":1611,"Ġsaam":1612,"Ġyaa":1613,"Ġshamil":1614,"Ġmur":1615,"aththirku":1616,"thuv":1617,"à®¤à®µ":1618,"à´°à´¦":1619,"à¤¸à¤¨":1620,"Ġà¤īà¤¤":1621,"Ġcar":1622,"ight":1623,"ayi":1624,"Ġkand":1625,"Ġà´īàµ¾":1626,"iyaaga":1627,"undu":1628,"Ġ(\"":1629,"Ġniyam":1630,"amaan":1631,"eep":1632,"umm":1633,"Ġned":1634,"tth":1635,"atthil":1636,"ivu":1637,",\"":1638,"Ġkaan":1639,"hn":1640,"eend":1641,"Ġcheiy":1642,"ina":1643,"Ġ0":1644,"iyin":1645,"Ġway":1646,"ki":1647,"Ġ$":1648,"ka":1649,"Ġniruv":1650,"Ġmaatt":1651,"ettr":1652,"ign":1653,"Ġavarkal":1654,"à´Ĺà´¤":1655,"10":1656,"pped":1657,"Ġ25":1658,"à´¬àµ¼":1659,"Ġà´ħà´Ł":1660,"ayile":1661,"à¯Ī.":1662,"Ġà®ªà®¯à®©":1663,"Ġstr":1664,"eb":1665,"orn":1666,"Ġsthaap":1667,"uld":1668,"Ġkuzh":1669,"Ġà®¤à®²":1670,"Ġsoo":1671,"à´ļà´¤":1672,"anc":1673,"Ġrah":1674,"Ġsthaan":1675,"Ġshuru":1676,"à´ĺ":1677,"avil":1678,"aala":1679,"po":1680,"Ġkan":1681,"out":1682,"arkal":1683,"aiyai":1684,"aalum":1685,"à´±àµ¼":1686,"Ġà®ļà®®":1687,"Ġsamoo":1688,"Ġpin":1689,"Ġputhiya":1690,"ennu":1691,"Ġà®ªà®£":1692,"à®°à®£":1693,"attr":1694,"Ġallathu":1695,"àµ¼à´£":1696,"ustr":1697,"eeya":1698,"Ġvim":1699,"ubl":1700,"ost":1701,"23":1702,"Ġund":1703,"Ġà´ķà´£":1704,"taa":1705,"à®±à®ª":1706,"Ġmig":1707,"avid":1708,"aiyum":1709,"Ġà´®à´±":1710,"Ġà®Ĩà®°":1711,"Ġvaa":1712,"yaan":1713,"à¤¦à¤°":1714,"ush":1715,"à´ªà´¤":1716,"17":1717,"utt":1718,"aari":1719,"Ġjeev":1720,"yan":1721,"Ġbad":1722,"atha":1723,"ally":1724,"à´ªà´¨":1725,"Ġethir":1726,"ode":1727,"arm":1728,"day":1729,"odh":1730,"ree":1731,"Ġmaath":1732,"Ġvan":1733,"hein":1734,"Ġsan":1735,"Ġpun":1736,"com":1737,"Ġà´¤à´¨":1738,"Ġunake":1739,"Ġpahale":1740,"paduthth":1741,"Ġim":1742,"Ġà¤ħà¤²":1743,"à¤ĩà¤¨":1744,"Ġà®İà®¤":1745,"maan":1746,"Ġà´ħà´µà´°":1747,"Ġà´·":1748,"ame":1749,"ure":1750,"Ġant":1751,"à´¯à´Ļ":1752,"Ġà®ħà®£":1753,"Ġaf":1754,"atch":1755,"Ġà¤ķà¤®":1756,"Ġjab":1757,"15":1758,"Ġvarai":1759,"Ġà¤ĩà¤¸à¤ķ":1760,"198":1761,"akku":1762,"iyai":1763,"akh":1764,"izh":1765,"ih":1766,"Ġ30":1767,"à®±à®¨":1768,"à´°à´µàµ¼à´¤":1769,"Ġcr":1770,"Ġendra":1771,"Ġkav":1772,"aadi":1773,"à¤¢":1774,"Ġac":1775,"à´¤à´¤":1776,"à´µà´¨":1777,"Ġseith":1778,"arsh":1779,"oss":1780,"à®ķà®©":1781,"Ġnuu":1782,"Ġà®ħà®¤à®©":1783,"à¤®à¤¨":1784,"à´¯à´±":1785,"à¤°à¤¹":1786,"Ġraj":1787,"Ġ2018":1788,"Ġapp":1789,"ge":1790,"Ġnaam":1791,"à´ĥ":1792,"à´ķà´®":1793,"akkal":1794,"à®¯à®µ":1795,"iyude":1796,"Ġà®ħà®´":1797,"Ġlag":1798,"Ġpak":1799,"athan":1800,"à´µà´¸":1801,"Ġà¤ľà¤¬":1802,"Ġuruv":1803,"Ġà¤§":1804,"ball":1805,"Ġmad":1806,"Ġpiragu":1807,"Ġmill":1808,"Ġste":1809,"eth":1810,"pt":1811,"Ġà´ħà´µàµ¼":1812,"Ġsamay":1813,"ire":1814,"eyar":1815,"aagum":1816,"Ġ24":1817,"àµ¼à´ļ":1818,"Ġgo":1819,"Ġpat":1820,"à´¯à´¨":1821,"Ġsen":1822,"arth":1823,"Ġschool":1824,"à¤¼à¥Ģ":1825,"Ġil":1826,"adhi":1827,"à´±à´µ":1828,"à®ĥ":1829,"à¤ĺ":1830,"ision":1831,"Ġà®ĩà®¯":1832,"aiyin":1833,"Ġadhan":1834,"Ġkondu":1835,"àµģà´Ĥ,":1836,"ukalil":1837,"197":1838,"Ġà¤Ĩà¤°":1839,"rish":1840,"Ġunhein":1841,"Ġà´ĵà´«":1842,"way":1843,"à´ķàµ½":1844,"à¤µà¤¨":1845,"avai":1846,"à¤·à¤£":1847,"oll":1848,"à´ķà´°à´£":1849,"à´·à´¨":1850,"Ġvay":1851,"Ġmunn":1852,"Ġmadh":1853,"chh":1854,"aavathu":1855,"Ġà´ķà´³":1856,"Ġavas":1857,"Ġind":1858,"Ġnig":1859,"avu":1860,"à®©à®®":1861,"Ġthante":1862,"Ġnot":1863,"per":1864,"edukk":1865,"Ġ_":1866,"rump":1867,"Ġsarv":1868,"ence":1869,"mb":1870,"ry":1871,"Ġpala":1872,"anakk":1873,"16":1874,"ident":1875,"ikh":1876,"ĠV":1877,"argal":1878,"Ġà¤ıà¤²":1879,"yon":1880,"Ġsey":1881,"Ġsur":1882,"Ġvik":1883,"Ġbaar":1884,"Ġà®µà®´à®Ļ":1885,"à´¤à´¨":1886,"Ġsab":1887,"à¯į)":1888,"Ġka":1889,"Ġyear":1890,"ins":1891,"asam":1892,"à´²à´¤":1893,"à´°à´¨":1894,"à®µà®¤à®±":1895,"30":1896,"oon":1897,"Ġthis":1898,"ions":1899,"Ġà´īàµ¾à´ª":1900,"à´¤à´°":1901,"ej":1902,"Ġcomm":1903,"aapt":1904,"Ġhue":1905,"ĠCh":1906,"à®®à®©":1907,"ugh":1908,"Ġà¤²à¤Ĺ":1909,"esham":1910,"Ġwho":1911,"à®°à®Ļ":1912,"ahar":1913,"Ġser":1914,"Ġà®ĩà®Ł":1915,"Ġcoun":1916,"Ġaandu":1917,"Ġang":1918,"Ġjisamen":1919,"Ġopp":1920,"Ġà®Ĩà®²":1921,"Ġkudumb":1922,"Ġà´ħà´²":1923,"Ġà´ıà´±":1924,"Ġgro":1925,"Ġà´ħà´µà´¸":1926,"\".":1927,"arp":1928,"Ġsath":1929,"Ġ2016":1930,"Ġà´īà´£":1931,"so":1932,"ve":1933,"Ġkhel":1934,"âĢĻ":1935,"Ġveliy":1936,"Ġà´ħà´®":1937,"ated":1938,"ait":1939,"Ġthozhil":1940,"Ġsel":1941,"ung":1942,"Ġkartaa":1943,"aikku":1944,"à®ªà®ķ":1945,"à¯Ī,":1946,"bhav":1947,"isth":1948,"ance":1949,"illa":1950,"àµį-":1951,"ttar":1952,"eye":1953,"athar":1954,"urn":1955,"Ġà¤īà¤ªà¤¯":1956,"Ġà´ķà´´":1957,"Ġdaur":1958,"à´ªà´°":1959,"to":1960,"ij":1961,"Ġmoolam":1962,"ward":1963,"Ġporu":1964,"Ġjuun":1965,"ue":1966,"Ġ=":1967,"angalum":1968,"Ġà´ķà´®":1969,"iz":1970,"aang":1971,"Ġmunbu":1972,"à´±à´¤":1973,"Ġà¤ķà¤¹":1974,"Ġà®ªà®¯":1975,"Ġà¤ıà¤¸":1976,"Ġkaaranam":1977,"inum":1978,"orm":1979,"Ġaanaal":1980,"Ġpii":1981,"ikkum":1982,"Ġà¤¸à¤¹":1983,"Ġpradh":1984,"Ġne":1985,"à¥Īà¤Ĥ,":1986,"Ġirunththathu":1987,"oney":1988,"Ġulpped":1989,"arch":1990,"Ġà´µàµ¼à´·":1991,"ime":1992,"Ġpravar":1993,"amm":1994,"à¤¸à¤ķ":1995,"Ġirandu":1996,"Ġreport":1997,"Ġak":1998,"196":1999,"aiya":2000,"Ġà®ļà®°":2001,"Ġkah":2002,"Ġeng":2003,"à®¤à®©à®°":2004,"Ġà¤ľà¤¨":2005,"Ġà¤¸à¤ķà¤¤":2006,"Ġavarude":2007,"sham":2008,"Ġther":2009,"oos":2010,"eral":2011,"Ġmore":2012,"à®³à®µ":2013,"Ġnirmm":2014,"12":2015,"Ġà®ĩà®£":2016,"à¤Ĺà¤°":2017,"Ġ2010":2018,"Ġà®ıà®±":2019,"ippu":2020,"Ġà´®à´¤":2021,"ft":2022,"Ġezhuth":2023,"Ġà®ķà®µ":2024,"Ġà¤ħà¤®":2025,"à´±à´±":2026,"Ġrash":2027,"Ġbah":2028,"Ġout":2029,"à®³à®©":2030,"ical":2031,"Ġol":2032,"thar":2033,"kkal":2034,"age":2035,"à®µà®Ł":2036,"Ġvibh":2037,"Ġyuu":2038,"athark":2039,"own":2040,"eedu":2041,"Ġ2017":2042,"ict":2043,"Ġseyal":2044,"aatha":2045,"14":2046,"Ġfir":2047,"\")":2048,"Ġà®¤à®©":2049,"Ġvaale":2050,"ite":2051,"Ġaer":2052,"Ġbl":2053,"Ġà´ªà´¤":2054,"triya":2055,"iii":2056,"ikku":2057,"Ġatt":2058,"dha":2059,"Ġà´Ĩà´¯":2060,"inj":2061,"Ġkend":2062,"ekin":2063,"Ġsad":2064,"Ġenbathu":2065,"Ġtheir":2066,"aagavum":2067,"Ġà®İà®Ł":2068,"Ġaval":2069,"à´ķà´²":2070,"à´ķà´¤":2071,"Ġfl":2072,"ott":2073,"Ġ2012":2074,"Ġrund":2075,"Ġtw":2076,"ose":2077,"Ġsain":2078,"à®²à®ķ":2079,"Ġamerica":2080,"irunn":2081,"à¤¬à¤¸":2082,"Ġ100":2083,"à®ļà®®":2084,"ikka":2085,"Ġkarate":2086,"Ġmath":2087,"aiyaana":2088,"Ġlekin":2089,"ington":2090,"Ġ23":2091,"Ġapani":2092,"erm":2093,"à®°à®°":2094,"à®°à®ª":2095,"Ġdev":2096,"à´ł":2097,"Ġkaam":2098,"eeii":2099,"à´Łà´¯":2100,"Ġ2011":2101,"ippad":2102,"aaram":2103,"Ġshr":2104,"ss":2105,"ors":2106,"à´°à´§":2107,"Ġ21":2108,"Ġà¤ªà¤¤":2109,"Ġà´Ĩà´°":2110,"Ġmaer":2111,"Ġnav":2112,"Ġazh":2113,"Ġpall":2114,"à¤²à¤¤":2115,"Ġà´ħà´±":2116,"à´°à´ŀ":2117,"riya":2118,"Ġcan":2119,"antha":2120,"Ġvyak":2121,"Ġà´Ĳ":2122,"__":2123,"ĠâĢ²":2124,"Ġpinnar":2125,"Ġjaa":2126,"Ġbhaag":2127,"pl":2128,"Ġsamb":2129,"Ġjaan":2130,"%;":2131,"Ġdou":2132,"Ġà´ĩà´¨":2133,"à®³à®®":2134,"à®²à®°":2135,"eendum":2136,"ild":2137,"Ġ22":2138,"à´ĩ":2139,"ys":2140,"Ġhad":2141,"Ġdiv":2142,"Ġtar":2143,"abhi":2144,"Ġthad":2145,"appettu":2146,"Ġuth":2147,"aadu":2148,"Ġkol":2149,"à¤°à¤µ":2150,"ne":2151,"Ġpoatt":2152,"Ġhuaa":2153,"desh":2154,"Ġà®ĩà®ļ":2155,"Ġrel":2156,"à¤ķà¤²":2157,"ene":2158,"à´®à´¸":2159,"enk":2160,"Ġprash":2161,"eld":2162,"Ġ2015":2163,"Ġkaee":2164,"Ġà¤ķà¤Ī":2165,"Ġ2013":2166,"ations":2167,"Ġbut":2168,"àµ¼à´¦":2169,"Ġprav":2170,"Ġoof":2171,"ruv":2172,"Ġvare":2173,"à´²à´µ":2174,"Ġlog":2175,"act":2176,"13":2177,"Ġ&":2178,"à¤¼à¥ĩ":2179,"Ġcheyy":2180,"arr":2181,"à´Ļàµ¾à´ķ":2182,"Ġ2014":2183,"Ġnigazh":2184,"à´¯à´¸":2185,"Ġirupp":2186,"Ġpayanpaduthth":2187,"Ġinter":2188,"our":2189,"iness":2190,"Ġkath":2191,"yalaya":2192,"Ġkee":2193,"aig":2194,"50":2195,"Ġtha":2196,"AP":2197,"Ġuruvaakk":2198,"Ġmal":2199,"chu":2200,"ace":2201,"Ġmil":2202,"aga":2203,"ng":2204,"à´Ĩ":2205,"illai":2206,"antra":2207,"ater":2208,"Ġà®®à®¤":2209,"Ġmed":2210,"esident":2211,"Ġwe":2212,"atthinte":2213,"Ġ50":2214,"Ġplay":2215,"Ġpras":2216,"àµºà´¸":2217,"Ġà®İà®´":2218,"akon":2219,"ars":2220,"aitt":2221,"à®ķà®ķ":2222,"Ġfin":2223,"Ġà´ķà´°":2224,"ino":2225,"ons":2226,"à®ªà®¨":2227,"Ġthur":2228,"ult":2229,"à´µàµ¼":2230,"Ġqu":2231,"zz":2232,"Ġkil":2233,"Ġà®µà®Ł":2234,"etra":2235,"Ġ2020":2236,"Ġkoott":2237,"Ġà¤¸à¤®à¤¯":2238,"anm":2239,"ukt":2240,"ound":2241,"à¤¤à¤ķ":2242,"Ġà¤Ĩà¤¯":2243,"ĠTh":2244,"appadug":2245,"yu":2246,"avadhi":2247,"Ġpariv":2248,"Ġer":2249,"Ġjohn":2250,"Ġcoll":2251,"àµģà´Ĥ.":2252,"Ġaii":2253,"ozh":2254,"à´±à´¯":2255,"ement":2256,"Ġvikas":2257,"Ġ26":2258,"able":2259,"aykk":2260,"à¤®à¤ķ":2261,"24":2262,"Ġ190":2263,"indr":2264,"Ġaagiy":2265,"Ġek":2266,"af":2267,"Ġà®İà®²":2268,"ade":2269,"ship":2270,"anil":2271,"vi":2272,"Ġseiyapp":2273,"Ġafter":2274,"Ġpodh":2275,"à¤¶à¤ķ":2276,"Ġjin":2277,"ix":2278,"Ġ2019":2279,"Ġà®ªà®³":2280,"à®ķà®Ļ":2281,"Ġaay":2282,"à´ķà´¨":2283,"Ġà´İà´¸":2284,"Ġà®īà®£":2285,"uss":2286,"Ġà®Ĵà®©":2287,"aithth":2288,"Ġoct":2289,"Ġkshetra":2290,"par":2291,"Ġbeen":2292,"ames":2293,"nn":2294,"Ġanya":2295,"arnnu":2296,"Ġà¤¶à¤¹à¤°":2297,"Ġfil":2298,"ember":2299,"Ġraajya":2300,"Ġkuchh":2301,"Ġpank":2302,"Ġvis":2303,"Ġ27":2304,"agam":2305,"Ġev":2306,"Ġpee":2307,"Ġ2008":2308,"Ġits":2309,"Ġrecord":2310,"Ġà¤°à¤ĸ":2311,"athi":2312,"ukalum":2313,"oj":2314,"iksh":2315,"ould":2316,"Ġsans":2317,"àµ»à´±":2318,"Ġettavum":2319,"ublic":2320,"11":2321,"Ġrand":2322,"Ġjaba":2323,"Ġthiru":2324,"à´²à´®":2325,"à¤ŀ":2326,"Ġà®®à®ķ":2327,"les":2328,"Ġà¤ħà¤Ń":2329,"Ġ29":2330,"Ġà´ħà´Ń":2331,"angalude":2332,"gr":2333,"enc":2334,"oathu":2335,"Ġpaad":2336,"kkur":2337,"Ġà´¸à´¹":2338,"Ġut":2339,"Ġdon":2340,"àµ¼à´¶":2341,"à¤®à¤¤":2342,"--":2343,"Ġvilaiy":2344,"ams":2345,"Ġ28":2346,"à®®à®°":2347,"ike":2348,"arv":2349,"patt":2350,"rith":2351,"'t":2352,"Ġkiye":2353,"ings":2354,"ĠSt":2355,"à´§à´¤":2356,"Ġsent":2357,"iyaan":2358,"usiness":2359,"Ġaras":2360,"Ġà®¤à®Ļ":2361,"ada":2362,"Ġbeach":2363,"Ġaagum":2364,"Ġà®®à®©":2365,"Ġà´µà´²":2366,"à´°à´µà´§":2367,"Ġullathu":2368,"Ġthog":2369,"akan":2370,"ier":2371,"à´Łàµ¼à´¨":2372,"à¤¨à¤°":2373,"ob":2374,"Ġà´µà´³":2375,"Ġrakh":2376,"Ġchal":2377,"Ġ2007":2378,"aippu":2379,"esday":2380,"Ġà¤¸à¤¬à¤¸":2381,"Ġà®Ī":2382,"erman":2383,"uddh":2384,"Ġvag":2385,"Ġà®µà®ķ":2386,"ma":2387,"Ġsaal":2388,"ayan":2389,"Ġsesham":2390,"Ġsabse":2391,"Ġshahar":2392,"Ġ189":2393,"mak":2394,"Ġass":2395,"lin":2396,"Ġsm":2397,"Ġpettr":2398,"engil":2399,"Ġ2009":2400,"indrana":2401,"Ġà®ħà®°à®ļ":2402,"Ġnoott":2403,"Ġvij":2404,"iyakk":2405,"urop":2406,"Ġmoon":2407,"atra":2408,"Ġmon":2409,"Ġpoo":2410,"Ġà¤¬à¤¹":2411,"194":2412,"ttr":2413,"Ġmals":2414,"Ġover":2415,"Ġthodar":2416,"avin":2417,"Ġdr":2418,"Ġwere":2419,"Ġdauran":2420,"ober":2421,"à®ķà®Ł":2422,"Ġsand":2423,"Ġaustr":2424,"kalil":2425,"ikar":2426,"à¤ķà¤°à¤£":2427,"Ġà´İà´²":2428,"ery":2429,"25":2430,"fr":2431,"2018":2432,"ithr":2433,"Ġsec":2434,"Ġkooduthal":2435,"à¤²à¤°":2436,"achch":2437,"inth":2438,"appattaar":2439,"rier":2440,"Ġsamooh":2441,"ww":2442,"Ġaas":2443,"Ġpoar":2444,"Ġniravadhi":2445,"unnathin":2446,"ppu":2447,"Ġlok":2448,"appu":2449,"Ġà¤īà¤¦":2450,"ics":2451,"Ġvaar":2452,"Ġmuzh":2453,"avillai":2454,"org":2455,"its":2456,"Ġà®ħà®Ļ":2457,"aathe":2458,"Ġà´ªà´Ł":2459,"Ġvishesh":2460,"Ġmukh":2461,"à´¨à´¯":2462,"Ġll":2463,"Ġaak":2464,"Ġem":2465,"aasth":2466,"rid":2467,"Ġthar":2468,"Ġvaazh":2469,"Ġhoney":2470,"Ġpoorv":2471,"à¤ļà¤¨":2472,"Ġthay":2473,"ory":2474,"Ġphir":2475,"à¤ªà¤¤":2476,"à´±à´ŀ":2477,"uththu":2478,"Ġabout":2479,"entr":2480,"Ġsthit":2481,"ates":2482,"Ġcompany":2483,"Ġkapp":2484,"à¤²à¤¬":2485,"àµ¼à´ª":2486,"ley":2487,"Ġnag":2488,"ket":2489,"aine":2490,"Ġher":2491,"aayum":2492,"ole":2493,"Ġaddehathinte":2494,"hy":2495,"Ġathu":2496,"Ġaarr":2497,"ahan":2498,"àµ½à´ª":2499,"Ġà®ĩà®±":2500,"Ġamg":2501,"yek":2502,"llathu":2503,"Ġtwo":2504,"Ġaadh":2505,"thiy":2506,"à¤¨à¤ķ":2507,"à¤ĩà¤Ł":2508,"Ġà´¨à´Łà´¤":2509,"aise":2510,"alil":2511,"Ġà¤ħà¤ķ":2512,"Ġà®®à®Ł":2513,"wari":2514,"Ġpaan":2515,"Ġà´Ĩà´ķ":2516,"Ġkir":2517,"Ġbhoom":2518,"Ġ2006":2519,"à´³à´¤":2520,"Ġunaki":2521,"ullathu":2522,"Ġpas":2523,"uka":2524,"aavil":2525,"à´µà´¶":2526,"osh":2527,"Ġpaguth":2528,"Ġà®īà®¯à®°":2529,"Ġ2021":2530,"à¤Ĺà¤¤":2531,"ron":2532,"Ġkanakk":2533,"à¤µà¤²":2534,"Ġennu":2535,"yog":2536,"Ġà®®à®°":2537,".)":2538,"àµĨ,":2539,"ition":2540,"Ġleag":2541,"Ġviru":2542,"ald":2543,"Ġaff":2544,"Ġàµ½":2545,"orth":2546,"ex":2547,"à¤ķà¤¨":2548,"Ġny":2549,"Ġnaan":2550,"ppam":2551,"à®¯à®±":2552,"Ġemm":2553,"Ġpaal":2554,"kka":2555,"ita":2556,"angkalil":2557,"Ġaadya":2558,"sk":2559,"ikaar":2560,"uthi":2561,"Ġmigavum":2562,"yl":2563,"à®ªà®²":2564,"Ġà®İà®¸":2565,"ugust":2566,"Ġone":2567,"aeru":2568,"Ġsaadh":2569,"ezh":2570,"aii":2571,"Ġanum":2572,"Ġbrit":2573,"Ġà¤ıà¤®":2574,"à´Ĺà´Ļ":2575,"Ġà¤Ĩà¤§":2576,"idam":2577,"Ġkuripp":2578,"Ġà¤ıà¤¨":2579,"à´Ĺà´®":2580,"Ġbandh":2581,"Ġchii":2582,"eshan":2583,"Ġà®Ĩà®µ":2584,"avargal":2585,"Ġsk":2586,"ink":2587,"Ġsays":2588,"à®¤à®ķ":2589,"aattr":2590,"Ġbee":2591,"Ġcumm":2592,"abd":2593,"Th":2594,"Ġfirst":2595,"de":2596,"Ġaiss":2597,"Ġathinte":2598,"Ġà¤ħà¤ª":2599,"aich":2600,"ĠÃ":2601,"Ġalso":2602,"Ġpeyar":2603,"Ġà¤Ī":2604,"irk":2605,"Ġvaend":2606,"Ġà®Ĵà®ª":2607,"akshin":2608,"Ġvas":2609,"Ġprabh":2610,"Ġclub":2611,"àµ¼à´¬":2612,"Ġà´ħà´¸":2613,"appadum":2614,"à®±à®®":2615,"Ġsila":2616,"Ġfoot":2617,"Ġà¤ľà¤¹":2618,"Ġthiranj":2619,"à´²à´ª":2620,"ida":2621,"unnathu":2622,"aab":2623,"Ġmakkal":2624,"ira":2625,"Ġà®ħà®ķ":2626,"urai":2627,"à´°à´¯":2628,"ĠY":2629,"à®ļà®²":2630,"athai":2631,"à®µà®ª":2632,"à¤¯à¤¤":2633,"Ġà´¬à´¨":2634,"Ġthitt":2635,"aramaaya":2636,"Ġhii":2637,"Ġtra":2638,"Ġà¤¬à¤¡":2639,"Ġà®ĩà®¯à®ķ":2640,"Ġpram":2641,"Ġà¤ħà¤°":2642,"Ġsii":2643,"iyaalar":2644,"Ġvin":2645,"appattana":2646,"rah":2647,"Ġà´ħà´ª":2648,"rap":2649,"Ġirunthaar":2650,"à®´à®ķ":2651,"Ġà®ķà®¤":2652,"Ġ188":2653,"Ġkaary":2654,"Ġaduth":2655,"ese":2656,"Ġisake":2657,"à´Ĵ":2658,"Ġadhy":2659,"Ġpaer":2660,"Ġtii":2661,"àµĭà´Ĥ":2662,"Ġà¤Ĩà¤µ":2663,"ps":2664,"ents":2665,"Ġà®·":2666,"Ġnaa":2667,"aththirk":2668,"Ġsatt":2669,"Ġaeye":2670,"à®®à®¤":2671,"à´ľà´¨":2672,"ou":2673,"avas":2674,"à¤¡à¤°":2675,"Ġdi":2676,"Ġhel":2677,"Ġipp":2678,"aval":2679,"à®ŀà®°":2680,"Ġtou":2681,"Ġcheiyunnu":2682,"Ġpen":2683,"à¤¦à¤¨":2684,"ĠII":2685,"ited":2686,"Ġà®ļà®ķ":2687,"ĠIn":2688,"appadukirathu":2689,"Ġlead":2690,"ĠPr":2691,"ikkunnathin":2692,"ield":2693,"Ġvishv":2694,"Ġnewy":2695,"Ġvadiv":2696,"Ġà´īà´¯":2697,"Ġiyakk":2698,"à®°à®²":2699,"Ġà®ļà®Ł":2700,"uc":2701,"Ġcheyth":2702,"à¤¼à¤¿":2703,"à¤ıà¤¸":2704,"Ġkoor":2705,"Ġmin":2706,"san":2707,"Ġirunthu":2708,"Ġkutt":2709,"Ġise":2710,"195":2711,"à´®à´¯":2712,"Ġghar":2713,"Ġwhich":2714,"Ġdur":2715,"Ġà¤ĺà¤°":2716,"ga":2717,"olog":2718,"Ġà®¤à®¯":2719,"à¤Ĺà¤²":2720,"Ġariv":2721,"tham":2722,"Ġsl":2723,"à¥ĭ,":2724,"Ġà¤¸à¤°":2725,"Ġpraapt":2726,"à´ªà´°à´®":2727,"à´¸àµº":2728,"Ġkaaran":2729,"Ġthodang":2730,"à´²à´ķ":2731,"Ġuyarn":2732,"aakkal":2733,"cha":2734,"mar":2735,"Ġvitt":2736,"ely":2737,"Ġà®ªà®±":2738,"Ġà´²à´Ń":2739,"Ġ40":2740,"Ġshar":2741,"arit":2742,"Ġfilm":2743,"Ġà´®à´¨":2744,"ational":2745,"ating":2746,"Ġgen":2747,"Ġà®Ĭ":2748,"Ġnirv":2749,"Ġ\"\"":2750,"Ġmuk":2751,"Ġbu":2752,"Ġwork":2753,"Ġkahaa":2754,"à¤Łà¤²":2755,"ttu":2756,"ikkal":2757,"Ġpravartth":2758,"ock":2759,"ert":2760,"Ġniy":2761,"à¤°à¤¶":2762,"Ġbadh":2763,"Ġjise":2764,"Ġdakshin":2765,"à´¯à´µ":2766,"oh":2767,"à´Łà´ª":2768,"Ġla":2769,"Ġmarch":2770,"àµ½à´¬":2771,"à´±à´ķ":2772,"ettu":2773,"Ġmillion":2774,"IN":2775,"Ġlabh":2776,"Ġshow":2777,"âĢĿ":2778,"ise":2779,"Ġallengil":2780,"Ġsank":2781,"Ġnaad":2782,"Ġpoathu":2783,"ikalil":2784,"à®Ĵ":2785,"Ġà®ħà®¨":2786,"ambh":2787,"Ġsaar":2788,"Ġgov":2789,"Ġkr":2790,"Ġkarna":2791,"Ġvazhangk":2792,"Ġfootball":2793,"à®µà®²":2794,"Ġ2022":2795,"Ġess":2796,"à¤°à¤Ń":2797,"Ġà´ªà´¦":2798,"à´±àµ½":2799,"Ġ31":2800,"28":2801,"à´¯àµ½":2802,"Ġsaan":2803,"Ġperu":2804,"Ġstud":2805,"uj":2806,"Ġà®ħà®³à®µ":2807,"Ġparty":2808,"Ġyou":2809,"avi":2810,"Ġà¤ıà¤«":2811,"iga":2812,"yaa":2813,"Ġnaal":2814,"Ġanus":2815,"27":2816,"Ġbar":2817,"uppu":2818,"Ġà®īà®Ł":2819,"alam":2820,"Ġhaal":2821,"ON":2822,"à¤µà¤µ":2823,"Ġland":2824,"Ġkeezh":2825,"Ġà¤¦à¤ķ":2826,"angkalai":2827,"kkurichu":2828,"Ġkall":2829,"oode":2830,"à®ªà®®":2831,"kalaikk":2832,"ople":2833,"udeyum":2834,"Ġthangal":2835,"kalaikkazh":2836,"form":2837,"Ġoor":2838,"Ġveer":2839,"Ġsakata":2840,"àµ½à´¡":2841,"ura":2842,"à¤¦à¤¸":2843,"Ġmattu":2844,"Ġpradhana":2845,"Ġbas":2846,"andhu":2847,"Ġthayaar":2848,"Ġchun":2849,"Ġrandaam":2850,"aara":2851,"ille":2852,"à´ķà´¸":2853,"thae":2854,"Ġparis":2855,"Ġneraththil":2856,"à¥Ģ-":2857,"umber":2858,"ica":2859,"aavin":2860,"no":2861,"Ġpalkalaikkazh":2862,"Ġsutt":2863,"Ġmalsar":2864,"à´¸à´°":2865,"Ġ187":2866,"risht":2867,"29":2868,"Ġaandugal":2869,"Ġ186":2870,"Ġpazh":2871,"antr":2872,"àµ¼à´¸":2873,"aiyaaga":2874,"Ġ2004":2875,"Ġpadh":2876,"Ġà´ħà´ķ":2877,"Ġback":2878,"Ġeff":2879,"àµ¼à´Ĺ":2880,"Ġpaas":2881,"ĠHe":2882,"vil":2883,"ami":2884,"Ġmeendum":2885,"à®ļà®¤":2886,"Ġurupp":2887,"Ġà´İà´´":2888,"Ġreg":2889,"Ġmaattr":2890,"cc":2891,"Ġform":2892,"Ġvaazhkk":2893,"à¤¾.":2894,"Ġsay":2895,"Ġà¤Ĩà¤Ī":2896,"à¤¨à¤²":2897,"ukkaana":2898,"à´¶à´¤":2899,"Ġà¤ħà¤¸":2900,"à®¯à®Ļ":2901,"Ġsamv":2902,"iththathu":2903,"anch":2904,"Ġincl":2905,"Ġkonda":2906,"Ġà¤¬à¤¢":2907,"Ġ2005":2908,"à®µà®©":2909,"ontru":2910,"Ġà®ĩà®Łà®¤":2911,"Ġvaral":2912,"anthr":2913,"be":2914,"Ġ[":2915,"Ġsany":2916,"Ġà´¸àµ¼à´µ":2917,"à´Ĺà´¸":2918,"sil":2919,"Ġà¤¸à¤Ń":2920,"Ġdoll":2921,"à¤¯à¤µ":2922,"Ġroo":2923,"Ġwould":2924,"laan":2925,"ainthu":2926,"rash":2927,"Ġprof":2928,"à´Łàµ¼":2929,"à¤Ĩà¤¤":2930,"Ġjeet":2931,"Ġinv":2932,"bhag":2933,"Ġnet":2934,"Ġà¤¬à¤ļ":2935,"26":2936,"Ġkaatt":2937,"Ġlast":2938,"à´Ńà´µ":2939,"iram":2940,"Ġ2000":2941,"ena":2942,"Ġtel":2943,"Ġvell":2944,"Ġcap":2945,"enkilum":2946,"Ġlad":2947,"arin":2948,"ittundu":2949,"Ġà®®à®£":2950,"ashington":2951,"Ġà¤ħà¤µ":2952,"Ġsin":2953,"aign":2954,"Ġaugust":2955,"Ġteen":2956,"àµ¼à´ľ":2957,"Ġenniva":2958,"Ġà´ªà´Ļ":2959,"rug":2960,"à¤ĩà¤¸":2961,"berg":2962,"bo":2963,"Ġavasaan":2964,"Ġmukhya":2965,"bur":2966,"à¤Ŀ":2967,"Ġà´ĺ":2968,"à¤°à¤¦à¤°":2969,"Ġà¤ķà¤²":2970,"la":2971,"Ġbill":2972,"Ġpart":2973,"Ġnedi":2974,"Ġwhen":2975,"ction":2976,"Ġpeople":2977,"ukkum":2978,"Ġà®ļà®¨":2979,"Ġathae":2980,"Ġsome":2981,"Ġà®¤à®°":2982,"Ġdec":2983,"Ġà´īà´¦":2984,"char":2985,"avattr":2986,"à´¸à´£":2987,"Ġdet":2988,"Ġnee":2989,"Ġov":2990,"Ġsept":2991,"ulai":2992,"avidyalaya":2993,"itva":2994,"Ġacc":2995,"à´Łà´±":2996,"paad":2997,"à¤®à¤²":2998,"Ġtime":2999,"unt":3000,"Ġliya":3001,"Ġmoontru":3002,"alif":3003,"à¥ģà¤Ĥ":3004,"ukalude":3005,"anon":3006,"à¤°à¤¦":3007,"Ġhotaa":3008,"à¤¾\"":3009,"arum":3010,"Ġnov":3011,"à´ļà´¯":3012,"Ġsadas":3013,"annu":3014,"Ġà¤¸à¤¦à¤¸":3015,"pan":3016,"Ġà´Ĵà´¨":3017,"Ġaalb":3018,"Ġuruppinar":3019,"Ġà´ªà´ķ":3020,"ha":3021,"à´¨à´±":3022,"Ġaavaar":3023,"Ġoctober":3024,"Ġperiya":3025,"cent":3026,"Ġpramukh":3027,"Ġvip":3028,"Ġà®ªà®Ļ":3029,"anthaar":3030,"Ġneeth":3031,"Ġkappal":3032,"à´¶à´Ļ":3033,"haa":3034,"ER":3035,"Ġrom":3036,"Ġà´¨à´Ĺ":3037,"Ġà®µà®¤":3038,"à¤¡à¤²":3039,"bert":3040,"Ġneer":3041,"Ġsams":3042,"à®¯à®µà®±":3043,"à¤¤à¤¨":3044,"Ġsn":3045,"à´İà´¸":3046,"à®İà®¸":3047,"...":3048,"Ġjaari":3049,"Ġhy":3050,"itti":3051,"40":3052,"Ġthol":3053,"Ġbel":3054,"Ġà®µà®¨":3055,"Ġpaathuk":3056,"Ġrele":3057,"eyy":3058,"Ġyuddh":3059,"thaan":3060,"unch":3061,"iyaana":3062,"Ġvyaap":3063,"Ġà®µà®°à®²":3064,"Ġbro":3065,"Ġdw":3066,"tar":3067,"esiya":3068,"ĠÃĤ":3069,"Ġinto":3070,"Ġpinneedu":3071,"ote":3072,"à´²à´¨":3073,"Ġmaas":3074,"ĠUn":3075,"aivu":3076,"Ġà´ıà´ķ":3077,"Ġdef":3078,"yathe":3079,"Ġiv":3080,"aarth":3081,"nuu":3082,"Ġother":3083,"ital":3084,"yaas":3085,"arshan":3086,"akkam":3087,"Ġvee":3088,"Ġsal":3089,"Ġà¤¦à¤°":3090,"ĠTrump":3091,"//":3092,"à¯ģ\"":3093,"à®®à®²":3094,"à¤ķà¤¸":3095,"à¤§à¤¨":3096,"193":3097,"Ġvig":3098,"umbol":3099,"Ġjaane":3100,"Ġà´µà´³à´°":3101,"Ġaim":3102,"Ġsambhav":3103,"Ġlogon":3104,"àµ½à´µ":3105,"à´ļà´°":3106,"Ġeurop":3107,"Ġair":3108,"sam":3109,"Ġmiss":3110,"ainth":3111,"atharku":3112,"Ġvadhu":3113,"Ġsaamb":3114,"Ġsambandh":3115,"ke":3116,"Ġpoantra":3117,"by":3118,"à¤ıà¤ķ":3119,"over":3120,"à®³à®ª":3121,"arnthu":3122,"Ġà´İà´«":3123,"Ġrashtriya":3124,"kkar":3125,"Ġpresident":3126,"ĠNew":3127,"ajan":3128,"atthai":3129,"Ġiruppinum":3130,"athaal":3131,"à´¤à´²":3132,"Ġà®µà®³à®°":3133,"à¤¹à¤¤":3134,"wan":3135,"à´ķà´±":3136,"Ġ()":3137,"Ġmattum":3138,"port":3139,"Ġezz":3140,"Ġpinth":3141,"Ġjust":3142,"aitthu":3143,"Ġkyon":3144,"ju":3145,"asht":3146,"val":3147,"Ġson":3148,"ivil":3149,"Ġeiii":3150,"Ġhui":3151,"Ġkam":3152,"Ġpull":3153,"patta":3154,"Ġpor":3155,"acha":3156,"chn":3157,"Ġkaryak":3158,"à´£à´®":3159,"wn":3160,"Ġvijay":3161,"Ġalb":3162,"ibh":3163,"athilum":3164,"ept":3165,"Ġtheer":3166,"rukk":3167,"avae":3168,"Ġ1990":3169,"Ġpu":3170,"à®ªà®©":3171,"Ġà¤¤à¤°à¤¹":3172,"à®°à®£à®®":3173,"Ġà´ķà´£à´ķ":3174,"Ġtarah":3175,"aykku":3176,"ities":3177,"Ġà´İàµ»":3178,"aangk":3179,"Ġsooch":3180,"ld":3181,"Ġz":3182,"Ġvishvavidyalaya":3183,"à´±à´¨":3184,"adhik":3185,"à¤·à¤ķ":3186,"kkaal":3187,"Ġà®µà®¯à®¤":3188,"à®´à®¨":3189,"ji":3190,"ennum":3191,"Ġoffic":3192,"Ġazhaikk":3193,"pur":3194,"Ġsing":3195,"Ġpett":3196,"ippichu":3197,"avari":3198,"aattu":3199,"irunnaalum":3200,"Ġ2002":3201,"Ġvalia":3202,"Ġsabhi":3203,"pect":3204,"à´µà´¤":3205,"eeksh":3206,"Ġpa":3207,"à´´à´ķ":3208,"Ġbec":3209,"Ġcons":3210,"ernth":3211,"OR":3212,"idhi":3213,"sar":3214,"à´Ĳ":3215,"Ġmand":3216,"Ġvivar":3217,"az":3218,"Ġà¤Ĳ":3219,"thal":3220,"Ġmaathram":3221,"Ġkyonki":3222,"li":3223,"Ġà®ľà®©":3224,"akkan":3225,"à®µà®ķ":3226,"Ġmoonnu":3227,"itha":3228,"Ġagain":3229,"Ġshe":3230,"Ġsamud":3231,"Ġudan":3232,"Ġrahey":3233,"à¤¨à¤¤":3234,"chim":3235,"://":3236,"aach":3237,"Ġsangeet":3238,"Ġsaf":3239,"Ġbunn":3240,"Ġ2003":3241,"Ġchithr":3242,"ium":3243,"Ġline":3244,"Ġveliya":3245,"à¤ªà¤ķ":3246,"idappattathu":3247,"leeii":3248,"new":3249,"Ġpaksh":3250,"aaen":3251,"à´°à´¶":3252,"à¤Ńà¤Ĺ":3253,"Ġes":3254,"Ġsanth":3255,"Ġmuth":3256,"à¤¨à¤¸":3257,"Ġhal":3258,"Ġantar":3259,"iyile":3260,"Ġay":3261,"Ġgu":3262,"Ġà®Ĩà®Ł":3263,"Ġcheytha":3264,"sw":3265,"Ġrhaa":3266,"aippad":3267,"Ġcor":3268,"Ġmarket":3269,"Ġ1980":3270,"eetham":3271,"Ġdisambar":3272,"angi":3273,"Ġà¤īà¤¸à¤ķ":3274,"Ġrail":3275,"Ġamerican":3276,"à®ĩà®¨":3277,"Ġmas":3278,"ikkappattathu":3279,"appol":3280,"idheekar":3281,"line":3282,"Ġà¤ĳà¤«":3283,"iththaar":3284,"ichathu":3285,"Ġthaesiya":3286,"Ġà®İà®®":3287,"iththu":3288,"ewal":3289,"aazh":3290,"à¤¦à¤²":3291,"ago":3292,"Ġà®Ĩà®±":3293,"Ġà¤ĵà¤°":3294,"aalargal":3295,"Ġkoodaathe":3296,"Ġà¤ļà¤²":3297,"Ġour":3298,"Ġangku":3299,"rist":3300,"Ġmag":3301,"ikkirathu":3302,"Ġà´İà´¤":3303,"Ġgroup":3304,"Ġpaadal":3305,"à¤µà¤¤":3306,"Ġaustral":3307,"alla":3308,"Ġthudarnnu":3309,"Ġyears":3310,"Ġà¤ļà¤°":3311,"Ġullana":3312,"Ġaaee":3313,"Ġà®µà®Łà®ķ":3314,"ament":3315,"Ġdash":3316,"Ġsit":3317,"Ġmod":3318,"Ġà´ħà´§":3319,"aatch":3320,"Ġonn":3321,"appattullathu":3322,"Ġneel":3323,"Ġdekh":3324,"umaayi":3325,"Ġcher":3326,"ets":3327,"Ġninnulla":3328,"Ġjeevan":3329,"Ġkamb":3330,"Ġbaj":3331,"Ġdollar":3332,"aaon":3333,"Ġhim":3334,"à¤ľà¤°":3335,"Ġaagiyavattr":3336,"ooth":3337,"Ġlaa":3338,"à´ķà´µ":3339,"oci":3340,"br":3341,"Ġgovern":3342,"Ġà®Ĩà®¯":3343,"Ġparish":3344,"Ġnavambar":3345,"Ġmaj":3346,"2010":3347,"Ġvaan":3348,"Ġà´ªà´°à´®":3349,"uva":3350,"anna":3351,"Ġdesign":3352,"Ġjaanaa":3353,"etta":3354,"Ġvimaan":3355,"ipr":3356,"à®°à®Ł":3357,"Ġinc":3358,"Ġ1970":3359,"Ġhav":3360,"Ġà´Ĩà´£":3361,"iyath":3362,"atthile":3363,"ikkapped":3364,"ihas":3365,"Ġà®µà®£":3366,"Ġà®¨à®Łà®¤":3367,"aippugal":3368,"Ġprofess":3369,"Ġantha":3370,"Ġpahali":3371,"Ġpayir":3372,"Ġusa":3373,"Ġseiyappatt":3374,"ithram":3375,"Ġontr":3376,"Ġpercent":3377,"aagak":3378,"erg":3379,"Ġà®¤à®Ł":3380,"à´¬à´±":3381,"Ġ2001":3382,"Ġdonon":3383,"àµį)":3384,"Ġmattumae":3385,"à´²à´±":3386,"Ġkul":3387,"Ġchaar":3388,"Ġvill":3389,"Ġennirunnaalum":3390,"ax":3391,"fl":3392,"aata":3393,"Ġtur":3394,"Ġve":3395,"Ġhigh":3396,"erson":3397,"eksh":3398,"Ġbritish":3399,"Ġniv":3400,"orld":3401,"yath":3402,"Ġà¤²à¤¡":3403,"ford":3404,"Ġmukiya":3405,"à´¤à´¯":3406,"Ġbanaa":3407,"Ġozh":3408,"Ġsangh":3409,"à´±à´Ļ":3410,"Ġavai":3411,"imes":3412,"uvar":3413,"aud":3414,"Ġvalangk":3415,"ayaayi":3416,"aksha":3417,"ĠAm":3418,"Ġà¤Ĭ":3419,"Ġaaramb":3420,"Ġpettraar":3421,"Ġpradesh":3422,"Ġthree":3423,"Ġprathyek":3424,"à´¤à´ķ":3425,"Ġà¤¬à¤°":3426,"Ġthun":3427,"apur":3428,"aththudan":3429,"à¤¿,":3430,"ral":3431,"Ġà´Ĩàµ»à´¡":3432,"Ġvaali":3433,"Ġmuun":3434,"Ġpuru":3435,"Ġà®ħà®ª":3436,"Ġshuruat":3437,"Ġveett":3438,"Ġkewal":3439,"Ġdel":3440,"Ġà´ļà´°":3441,"appeduth":3442,"Ġaavash":3443,"Ġinclud":3444,"à®Łà®µ":3445,"Ġash":3446,"els":3447,"ruk":3448,"Ġà¤ªà¤¦":3449,"Ġadippad":3450,"aman":3451,"iththa":3452,"oph":3453,"à´¨à´¸":3454,"à®ªà®°à®ª":3455,"ivers":3456,"Ġperump":3457,"Ġ1960":3458,"Ġvaendum":3459,"à®¾,":3460,"Ġvalar":3461,"pe":3462,"angkum":3463,"achu":3464,"Ġthaazh":3465,"aivar":3466,"fer":3467,"ilulla":3468,"pen":3469,"Ġphil":3470,"Ġpravesh":3471,"Ġlagbhag":3472,"Ġà¤²à¤Ĺà¤Ńà¤Ĺ":3473,"odu":3474,"askar":3475,"Ġins":3476,"raksh":3477,"yangal":3478,"à¥Ĥ.":3479,"Ġanaitthu":3480,"Ġtheev":3481,"med":3482,"Ġthalaim":3483,"irku":3484,"Ġcolleg":3485,"itch":3486,"ous":3487,"isi":3488,"Ġmee":3489,"try":3490,"Ġà¤®à¤¨":3491,"à®Łà®©à®°":3492,"intr":3493,"Ġpul":3494,"à¤¸à¤²":3495,"irect":3496,"akki":3497,"eal":3498,"Ġsil":3499,"Ġlekh":3500,"Ġà´¶à´¤à´®":3501,"Ġmathipp":3502,"à®°à®ļ":3503,"Ġà®ªà®´":3504,"à¤Łà¤ķ":3505,"ES":3506,"à´®àµ»":3507,"ester":3508,"aamb":3509,"than":3510,"aiyar":3511,"à®²à®©":3512,"Ġkod":3513,"Ġcould":3514,"ikon":3515,"Ġà®®à®²":3516,"Ġleeii":3517,"à´Łàµº":3518,"aant":3519,"Ġjaise":3520,"Ġshiksh":3521,"kalin":3522,"Ġprach":3523,"field":3524,"ren":3525,"Ġathil":3526,"Ġlaw":3527,"Ġà¤ĩà¤¨":3528,"à¤īà¤¨":3529,"ling":3530,"Ġtak":3531,"Ġà´¨à´Łà´¨":3532,"Ġà®ħà®Łà®Ļ":3533,"2016":3534,"Ġà´µà´Łà´ķ":3535,"tem":3536,"à¤²à¤µ":3537,"Ġpaniy":3538,"ththu":3539,"Ġà´Ĩà´¶":3540,"Ġellah":3541,"Ġdown":3542,"Ġà´¸àµ¼à´ķ":3543,"Ġthem":3544,"Ġaat":3545,"Ġuchch":3546,"eena":3547,"atham":3548,"Ġà®¤à®±":3549,"Ġalag":3550,"2019":3551,"ikalude":3552,"Ġthodarnthu":3553,"Ġathikaar":3554,"Ġvadakku":3555,"apoathu":3556,"Ġà´ĩà´°":3557,"Ġmay":3558,"à´µà´ķ":3559,"ĠIt":3560,"och":3561,"Ġaine":3562,"Ġavathar":3563,"à¤ıà¤¨":3564,"2014":3565,"adesh":3566,"à®İà®©":3567,"ittaar":3568,"à´ķà´ļ":3569,"à¤Łà¤¬":3570,"Ġuttar":3571,"apatta":3572,"Ġkhila":3573,"Ġsub":3574,"Ġrem":3575,"Ġnirmaan":3576,"Ġthro":3577,"Ġsamgh":3578,"ville":3579,"à¤ķà¤¡":3580,"à¤¯à¤²":3581,"apr":3582,"Ġpodhuv":3583,"apt":3584,"Ġà´īà´¯àµ¼à´¨":3585,"Ġaaa":3586,"Ġmer":3587,"Ġmel":3588,"àµ¾à´Ł":3589,"Ġjuulai":3590,"Ġà´µàµ¼à´·à´¤":3591,"Ġsanyukt":3592,"à¤°à¤¯":3593,"Ġà®īà®Łà®©":3594,"aliforn":3595,"akaa":3596,"reat":3597,"apan":3598,"Ġà¤¸à¤®à¤°":3599,"à´¤à´ª":3600,"Ġhaar":3601,"Ġariyapp":3602,"Ġ60":3603,",,":3604,"à´¨à´µ":3605,"Ġkhilaf":3606,"Ġprati":3607,"Ġcont":3608,"ampion":3609,"Ġmadhyam":3610,"adan":3611,"Ġreeth":3612,"Ġseva":3613,"anir":3614,"Ġany":3615,"Ġbhaar":3616,"ota":3617,"awa":3618,"Ġparivaar":3619,"Ġsign":3620,"àµ¼à´²":3621,"Ġ+":3622,"àµ¾à´¡":3623,"Ġà´Ĩà´µà´¶":3624,"Ġham":3625,"Ġbal":3626,"edn":3627,"Ġpid":3628,"eyil":3629,"Ġparambar":3630,"Ġà®¤à®µ":3631,"Ġshak":3632,"Ġsthal":3633,"Ġ1999":3634,"Ġà´ĵà´¸":3635,"ional":3636,"Ġmoo":3637,"athaanu":3638,"avan":3639,"Ġamerici":3640,"Ġmaaru":3641,"isht":3642,"2015":3643,"der":3644,"Ġsim":3645,"Ġà´ķà´ª":3646,"2011":3647,"aiyam":3648,"Ġtrans":3649,"ozhum":3650,"Ġmik":3651,"unar":3652,"bal":3653,"Ġupayogichu":3654,"Ġmy":3655,"Ġpathipp":3656,"à´Ĵà´°":3657,"aksham":3658,"poathu":3659,"Ġsid":3660,"Ġyog":3661,"Ġaarambh":3662,"Ġprabhaav":3663,"pathth":3664,"à´¿\"":3665,"iriyar":3666,"Ġprov":3667,"Ġirandaavathu":3668,"Ġà´ªà´ł":3669,"Ġvyath":3670,"Ġulppedunnu":3671,"chaal":3672,"Ġvii":3673,"Ġà®ķà®©":3674,"Ġà®µà®²":3675,"Ġfranc":3676,"Ġbadal":3677,"à®¤à®Ļ":3678,"Ġcurrier":3679,"Ġsathav":3680,"à¤ľà¤¬":3681,"Ġlamb":3682,"Ġà®ļà®¤à®µ":3683,"Ġaakar":3684,"Ġhoti":3685,"vin":3686,"à¤ķà¤¤":3687,"galai":3688,"Ġ185":3689,"In":3690,"Ġà®İà®£":3691,"Ġanu":3692,"Ġsecond":3693,"Ġbhash":3694,"Ġ1996":3695,"Ġpradarshan":3696,"à®ªà®Ļ":3697,"Ġà®īà®¤à®µ":3698,"Ġà´Ĩàµ½à´¬":3699,"Ġsy":3700,"inththa":3701,"Ġkaryakram":3702,"Ġà´§":3703,"Ġkl":3704,"Ġpalkalaikkazhag":3705,"maar":3706,"atharkaana":3707,"eri":3708,"ednesday":3709,"kkam":3710,"itta":3711,"à®ħà®µà®°":3712,"ama":3713,"ukiraar":3714,"Ġà®µà®´à®ķ":3715,"Ġà¤¨à¤µ":3716,"Ġà¤¦à¤¶à¤ķ":3717,"Ġkku":3718,"ades":3719,"Ġà¤«à¤°":3720,"ever":3721,"arg":3722,"àµ¾à´¸":3723,"karan":3724,"umar":3725,"Ġwhat":3726,"athile":3727,"à´°à´£à´¤":3728,"Ġdivision":3729,"aakki":3730,"Ġshrin":3731,"à´±àµ»":3732,"à®ī":3733,"à´²à´¬":3734,"appaduthth":3735,"Ġvarum":3736,"Ġsupp":3737,"Ġkuzhuv":3738,"ukkup":3739,"Ġcommun":3740,"Ġsthith":3741,"Ġà®ĵà®Ł":3742,"etrtr":3743,"àµ½à´¸":3744,"2012":3745,"à®Ĵà®°":3746,"à´ĵ":3747,"Ġdikh":3748,"Ġweek":3749,".,":3750,"Ġven":3751,"aguthiyil":3752,"Ġvaas":3753,"à¥Ģ\"":3754,"à®®à®£":3755,"à®¯à®Ł":3756,"Ġeph":3757,"Ġgeneral":3758,"à´²à´Ļ":3759,"Ġgame":3760,"à¤Ĺà¤¨":3761,"evision":3762,"Ġjod":3763,"Ġà´®à´°":3764,"2017":3765,"Ġà®¨à®ķà®°à®¤":3766,"Ġsav":3767,"agh":3768,"Ġep":3769,"Ġagainst":3770,"akam":3771,"Ġstate":3772,"Ġday":3773,"Ġvael":3774,"Ġà¤ªà¤¶":3775,"Ġà¤ħà¤Ĺ":3776,"Ġà¤Ĩà¤Ĺ":3777,"Ġvidh":3778,"Ġjahan":3779,"iti":3780,"ange":3781,"omm":3782,"___":3783,"ini":3784,"à®ªà®ª":3785,"à´ľà´¯":3786,"Ġà´ħà´µà´¤à´°":3787,"à®·à®©":3788,"ĠâĢľ":3789,"khala":3790,"Ġunder":3791,"Ġbahut":3792,"04":3793,"kaar":3794,"Ġear":3795,"Ġ65":3796,"Ġidaiyil":3797,"Ġprodu":3798,"ukay":3799,"Ġdashak":3800,"à®²à®µ":3801,"uththa":3802,"ency":3803,"à´®à´¨":3804,"Ġprog":3805,"Ġchern":3806,"pir":3807,"vaeru":3808,"Ġthere":3809,"iver":3810,"Ġvalare":3811,"à´ªà´±":3812,"Ġcall":3813,"Ġjud":3814,"Ġbaah":3815,"andr":3816,"ican":3817,"Ġdep":3818,"à¤®à¤¸":3819,"assil":3820,"Ġaen":3821,"Ġchila":3822,"Ġvith":3823,"Ġhar":3824,"aiyaal":3825,"akka":3826,"Ġjii":3827,"à¤¬à¤²":3828,"irunna":3829,"Ġmuzhuv":3830,"fore":3831,"rav":3832,"Ġoh":3833,"Ġrakhaa":3834,"ham":3835,"urch":3836,"aadugal":3837,"à´£à´¤":3838,"Ġà´¯à´¥":3839,"Ġendrum":3840,"Ġrelease":3841,"vel":3842,"Ġbusiness":3843,"Ġ184":3844,"ler":3845,"Ġà´ķà´¥":3846,"ansh":3847,"Ġadv":3848,"à¤ĩà¤¡":3849,"Ġkett":3850,"Ġà®Ĵà®µ":3851,"rail":3852,"rat":3853,"Ġovv":3854,"à®ı":3855,"à®¿\"":3856,"ona":3857,"à´³à´µ":3858,"Ġhotey":3859,"che":3860,"uththuv":3861,"Ġvict":3862,"itthaar":3863,"Ġsamm":3864,"Ġadhu":3865,"Ġpira":3866,"pril":3867,"à¤ĸà¤²":3868,"Ġ1995":3869,"Ġnigazhchch":3870,"jana":3871,"ks":3872,"eyim":3873,"aanth":3874,"ner":3875,"Ġthekk":3876,"Ġact":3877,"Ġaathar":3878,"Ġà®İà®°":3879,"aapaath":3880,"mo":3881,"Ġà®Ĩà®¤à®°":3882,"Ġavide":3883,"ious":3884,"Ġà®ħà®µà®³":3885,"Ġà¤¸à¤¤":3886,"Ġfar":3887,"Ġsarvakal":3888,"Ġà®īà®²":3889,"Ġdeseeya":3890,"uzh":3891,"Ġà®Ĵà®³":3892,"Ġradi":3893,"Ġpoal":3894,"2009":3895,"Ġvida":3896,"Ġdesh":3897,"aba":3898,"Ġkondullathu":3899,"Ġvadivam":3900,"Ġkn":3901,"ectr":3902,"Ġthirumb":3903,"à¥ĥà¤Ĥ":3904,"bi":3905,"min":3906,"angalkk":3907,"Ġgoal":3908,"Ġà´¸àµ¼à´µà´ķà´²":3909,"Ġaud":3910,"Ġnae":3911,"Ġà¤¨à¤ı":3912,"issy":3913,"path":3914,"eat":3915,"à¯į;":3916,"edupp":3917,"Ġoper":3918,"iththuv":3919,"Ġna":3920,"Ġadisth":3921,"yamaayi":3922,"Ġsrisht":3923,"à¤łà¤¨":3924,"à´°à´¹":3925,"Ġrev":3926,"....":3927,"bar":3928,"ilirunthu":3929,"Ġsuttru":3930,"à¤¾-":3931,"Ġanta":3932,"Ġà¤ĩà¤¤":3933,"Ġpakuth":3934,"Ġà´İà´ķ":3935,"aavatt":3936,"Ġnadatth":3937,"Ġcour":3938,"Ġmrit":3939,"à¯ģ-":3940,"uesday":3941,"Ġlu":3942,"Ġà¤ħà¤²à¤Ĺ":3943,"ja":3944,"Ġthav":3945,"uri":3946,"Ġà´īà´¤":3947,"Ġruss":3948,"yav":3949,"Ġà´¸à´¨":3950,"Ġpradaan":3951,"oppam":3952,"Ġsol":3953,"Ġnish":3954,"ras":3955,"à¤°à¤¨":3956,"Ġà¤¸à¤°à¤ķ":3957,"Ġdar":3958,"Ġà®Ĩà®ļ":3959,"Ġà´ĩà´ª":3960,"2013":3961,"ouse":3962,"àµģà´ĥ":3963,"chaar":3964,"Ġyudh":3965,"60":3966,"anai":3967,"à´¸à´¤":3968,"Ġchampion":3969,"kaal":3970,"à¥ĩ.":3971,"Ġfour":3972,"à¤ªà¤¸":3973,"alth":3974,"ison":3975,"à´·à´ª":3976,"aadesh":3977,"Ġporul":3978,"à´±à´¡":3979,"Ġcol":3980,"ĠAmeric":3981,"à¤¤à¤®":3982,"Ġgun":3983,"Ġpran":3984,"Ġkarati":3985,"athinaal":3986,"ugalai":3987,"à®¿-":3988,"adakk":3989,"Ġje":3990,"Ġkathaapaath":3991,"à¤°à¤¬":3992,"Ġmukk":3993,"Ġred":3994,"Ġkoee":3995,"Ġrashtr":3996,"à®±à®µ":3997,"à¤¹à¤¨":3998,"eter":3999,"ause":4000,"dan":4001,"vam":4002,"à®ķà®´à®ķà®¤":4003,"ject":4004,"Ġret":4005,"ukkal":4006,"con":4007,"kalai":4008,"Ġà¤¤à¤°":4009,"aatchi":4010,"upid":4011,"Ġnaanku":4012,"Ġidhil":4013,"reak":4014,"Ġprakaash":4015,"atv":4016,"Ġà¤īà¤ļ":4017,"ove":4018,"Ġ1997":4019,"Ġurim":4020,"ikalum":4021,"Ġvett":4022,"Ġà´¨à´µ":4023,"udd":4024,"ecut":4025,"Ġpratish":4026,"Ġaee":4027,"Ġgeyim":4028,"Ġparin":4029,"Ġanub":4030,"à®Ĳ":4031,"à®ªà®µà®°":4032,"Ġjanm":4033,"Ġnoottr":4034,"à´ķàµ¼":4035,"Ġkoll":4036,"Ġperum":4037,"aapp":4038,"à¤¨à¤µ":4039,"Ġtheen":4040,"Ġdig":4041,"Ġà¤¹à¤°":4042,"à´°à´£à´®":4043,"ikkunnathu":4044,"Ġà´¤à´Ł":4045,"à¤ĩà¤²":4046,"Ġtelevision":4047,"led":4048,"à®²à®ª":4049,"Ġà´µà´¨":4050,"Ġthen":4051,"eersh":4052,"Ġiruth":4053,"Ġbain":4054,"Ġdid":4055,"yas":4056,"Ġvich":4057,"Ġà¤¬à¤²":4058,"Ġthaakk":4059,"Ġ35":4060,"Ġmaarg":4061,"Ġnay":4062,"Ġà®ķà®³":4063,"ola":4064,"Ġà´¶à´°":4065,"ava":4066,"Ġà®ķà®ª":4067,"Ġyadh":4068,"Ġaadyathe":4069,"80":4070,"à®²à®Ļ":4071,"2007":4072,"Ġneed":4073,"urs":4074,"Ġavarkalin":4075,"mp":4076,"Ġnam":4077,"inal":4078,"Ġà´ķà´²":4079,"da":4080,"Ġà¤ħà¤¬":4081,"aththilirunthu":4082,"Ġlab":4083,"uble":4084,"nna":4085,"Ġlikh":4086,"rael":4087,"Ġcheyyukayum":4088,"Ġsamvid":4089,"cr":4090,"Ġà®¨à®®":4091,"Ġaanu":4092,"galil":4093,"ĠWednesday":4094,"Ġpathiv":4095,"Ġ1998":4096,"Ġmot":4097,"akaal":4098,"ism":4099,"ology":4100,"ante":4101,"Ġsun":4102,"Ġsaman":4103,"Ġbaare":4104,"jeev":4105,"Ġdab":4106,"Ġsirantha":4107,"Ġniruvan":4108,"Ġsadasya":4109,"ruth":4110,"Ġstart":4111,"Ġmaari":4112,"70":4113,"Ġà´Ĩà´¸":4114,"ints":4115,"Ġinth":4116,"dam":4117,"Ġà®Ĩà®¸":4118,"Ġadangkum":4119,"Ġshrinkhala":4120,"à®±à®Ļ":4121,"adesham":4122,"Ġennaal":4123,"Ġfinal":4124,"Ġgeet":4125,"Ġ1994":4126,"Ġhiss":4127,"Ġwell":4128,"Ġpalli":4129,"Ġtrack":4130,"Ġà®µà®³":4131,"angkalin":4132,"Ġputhth":4133,"Ġà¤ľà¤°":4134,"Ġà®Ĵà®¤":4135,"Ġvibhaag":4136,"Ġà´Ĩàµ¼":4137,"appetta":4138,"Ġbefore":4139,"Ġserv":4140,"ander":4141,"Ġà´Ĺà´µ":4142,"Ġkill":4143,"Ġdem":4144,"anju":4145,"Ġbanaaya":4146,"à´¸à´®":4147,"aarana":4148,"irupp":4149,"à¤¥à¤¨":4150,"ctor":4151,"Ġsiriya":4152,"Ġnoottaand":4153,"pas":4154,"onnaam":4155,"aarude":4156,"Ġsaah":4157,"Ġprast":4158,"Ġunakaa":4159,"à¤£à¤¨":4160,"Ġà®ķà®Łà®±":4161,"appadugindrana":4162,"Ġkizh":4163,"ator":4164,"abandh":4165,"Ġkattid":4166,"Ġmus":4167,"Ġbii":4168,"istr":4169,"Ġever":4170,"Ġparuv":4171,"31":4172,"Ġà®ĩà®¤à®©":4173,"Ġkandupid":4174,"Ġneend":4175,"ado":4176,"aati":4177,"yar":4178,"Ġthalaivar":4179,"oa":4180,"Ġ1992":4181,"Ġà®ķà®£à®ķ":4182,"hen":4183,"Ġved":4184,"Ġcamp":4185,"Ġsem":4186,"Ġapana":4187,"alaam":4188,"Ġshabd":4189,"iyoar":4190,"Ġinvest":4191,"Ġthrough":4192,"à®³à®ķ":4193,"Ġdirect":4194,"Ġvilaiyaad":4195,"ran":4196,"arbh":4197,"Ġtham":4198,"irikkunnu":4199,"Ġvilaiyaatt":4200,"arichu":4201,"Ġloc":4202,"off":4203,"dukal":4204,"Ġmozh":4205,"Ġsevanam":4206,"Ġhelp":4207,"angale":4208,"utth":4209,"aamm":4210,"Ġantim":4211,"work":4212,"Ġà´ªà´±à´ŀ":4213,"Ġà¤¬à¤¦à¤²":4214,"Ġaath":4215,"ney":4216,"arku":4217,"Ġ45":4218,"ohn":4219,"Ġhow":4220,"attra":4221,"à´·à´£àµ½":4222,"adhikam":4223,"ayal":4224,"itra":4225,"Ġif":4226,"Ġber":4227,"Ġà¤¸à¤«":4228,"Ġfound":4229,"à´ľà´¯à´ª":4230,"aigalai":4231,"rashtriya":4232,"à¤¨à¤®":4233,"à¤¤à¤µ":4234,"Ġnadathth":4235,"Ġthiraipp":4236,"Ġveg":4237,"Ġvarg":4238,"à¤Ĩà¤°":4239,"Ġjaati":4240,"Ġuyar":4241,"-à´¾à´Ĥ":4242,"athaaka":4243,"à¯Ī\"":4244,"à®µà®©à®¤":4245,"Ġjee":4246,"wer":4247,"aanki":4248,"Ġloss":4249,"Ġgal":4250,"Ġà´ħà´µà´³":4251,"Ġ1950":4252,"à´ªà´ķ":4253,"Ġbet":4254,"aamal":4255,"idha":4256,"Ġutpaad":4257,"was":4258,"Ġnor":4259,"Ġà´Ĵà´ķ":4260,"Ġbhar":4261,"à®ªà®¤à®±":4262,"Ġsamaj":4263,"Ġimp":4264,"paatt":4265,"Ġmak":4266,"Ġmug":4267,"ppar":4268,"à´®à´±":4269,"Ġà®Ĩà®°à®®":4270,"ula":4271,"Ġrailway":4272,"à®µà®Ļ":4273,"aayam":4274,"Ġsameep":4275,"Ġ33":4276,"Ġmrityu":4277,"AN":4278,"Ġvishva":4279,"Ġachch":4280,"atr":4281,"Ġadhikaar":4282,"Ġpust":4283,"Ġà®İà®¨":4284,"Ġà´ĩàµ»":4285,"ega":4286,"anki":4287,"irikk":4288,"à®£à®¤":4289,"Ġunm":4290,"ots":4291,"enil":4292,"Ġgaan":4293,"à¤¦à¤®":4294,"Ġusey":4295,"Ġmost":4296,"ress":4297,"yaksh":4298,"Ġsark":4299,"Ġmen":4300,"à´®àµ¼à´¶":4301,"tri":4302,"ĠIs":4303,"Ġvyakth":4304,"Ġnewyork":4305,"bandh":4306,"year":4307,"athinith":4308,"Ġkuzhandh":4309,"Ġkissy":4310,"Ġà®İà®ĥà®ª":4311,"2008":4312,"Ġgraam":4313,"Ġge":4314,"aththaip":4315,"à´°à´£à´¯":4316,"Ġkaalp":4317,"à®©à®²":4318,"ative":4319,"ures":4320,"aayulla":4321,"kil":4322,"uber":4323,"Ġbin":4324,"Ġcath":4325,"ĠSo":4326,"ĠTuesday":4327,"Ġà®Ĳà®°":4328,"Ġà®ħà®ļ":4329,"à®£à®ª":4330,"Ġà´īà´Ł":4331,"Ġà´Ķ":4332,"aly":4333,"gam":4334,"wa":4335,"Ġkendra":4336,"onday":4337,"Ġovvoru":4338,"ility":4339,"iradhu":4340,"à´¬à´¨":4341,"eesh":4342,"eta":4343,"à¥Ģà¤Ĥà¥¤":4344,"à¯ĩ,":4345,"Ġillai":4346,"à´Ĥ\"":4347,"imb":4348,"Ġmaarch":4349,"key":4350,"oow":4351,"arat":4352,"à´µà´²":4353,"elop":4354,"Ġrob":4355,"Ġnalki":4356,"Ġkandeth":4357,"Ġ1944":4358,"Ġmikacha":4359,"Ġmor":4360,"à¤¯à¤¸":4361,"à´ļà´ª":4362,"à´¡à´¨":4363,"ichch":4364,"Ġsamarth":4365,"Ġonly":4366,"ikkunnath":4367,"Ġpirathinith":4368,"Ġpuraskar":4369,"www":4370,"let":4371,"Ġlong":4372,"Ġpoints":4373,"Ġeer":4374,"galin":4375,"Ġà®īà®²à®ķ":4376,"à´±à´ª":4377,"à¤¸à¤¸":4378,"Ġcas":4379,"à´·à´¤":4380,"aivaaga":4381,"Ġaandin":4382,"Ġchurch":4383,"Ġ49":4384,"Ġprakaar":4385,"à´ĺà´Ł":4386,"2020":4387,"Ġulag":4388,"ikkan":4389,"Ġkalaign":4390,"Ġkadar":4391,"alifornia":4392,"Ġaash":4393,"à¤¬à¤®":4394,"Ġrekh":4395,"Ġà´ıà´ķà´¦":4396,"Ġveendum":4397,"Ġnamb":4398,"ual":4399,"Ġiraan":4400,"Ġpurath":4401,"inteyum":4402,"Ġpesh":4403,"athode":4404,"Ġmaavatt":4405,"Ġpooy":4406,"itham":4407,"à¤ļà¤°":4408,"aamas":4409,"Ġvishay":4410,"Ġaayirunnu":4411,"ased":4412,"Ġlike":4413,"Ġà´Ĵà´´":4414,"ittu":4415,"à®İà®®":4416,"à®Ĩà®°":4417,"35":4418,"Ġgl":4419,"Ġnagaram":4420,"Ġincluding":4421,"Ġpaniyaattr":4422,"ied":4423,"varum":4424,"aarum":4425,"Ġà®ķà®±":4426,"Ġpaschim":4427,"Ġuyarnna":4428,"ban":4429,"Ġ#":4430,"ife":4431,"pada":4432,"aikkuzh":4433,"à´¿-":4434,"Ġà´ĩà´Łà´¯":4435,"Ġsthir":4436,"Ġaavashyak":4437,"àµģ;":4438,"Ġpenn":4439,"Ġjol":4440,"Ġcle":4441,"omas":4442,"Ġtrain":4443,"Ġennivar":4444,"Ġà¤Ĩà¤ķ":4445,"à¤ĩà¤ķ":4446,"Ġ500":4447,"igalai":4448,"Ġkadal":4449,"ernthedukk":4450,"Ġsahay":4451,"75":4452,"Ġsheersh":4453,"Ġjul":4454,"wire":4455,"ico":4456,"Ġanuv":4457,"Ġben":4458,"Ġdoor":4459,"Ġcollege":4460,"à®°à®¸":4461,"Ġchaah":4462,"utha":4463,"ivugal":4464,"Ġisai":4465,"aakum":4466,"Ġmonth":4467,"Ġvetrtr":4468,"EN":4469,"ky":4470,"Ġsv":4471,"190":4472,"à¯į\",":4473,"arpoo":4474,"Ġver":4475,"ttan":4476,"Ġter":4477,"Ġvaazhkkai":4478,"str":4479,"Ġbachch":4480,"à´£à´¯":4481,"Ġstar":4482,"yamaaya":4483,"americ":4484,"res":4485,"Ġcounty":4486,"Ġstat":4487,"Ġ90":4488,"Ġfree":4489,"Ġà¤Ĩà¤µà¤¶":4490,"nam":4491,"kalukku":4492,"unny":4493,"à´¨à´®à´¨":4494,"Ġoop":4495,"à¤¸à¤¤":4496,"akaar":4497,"Ġà¤®à¤¹à¤¤":4498,"Ġintern":4499,"eyulla":4500,"à¤®à¤°":4501,"Ġiska":4502,"à´·à´¯":4503,"Ġabhin":4504,"paadu":4505,"Ġarasiyal":4506,"ox":4507,"Ġott":4508,"Ġjh":4509,"Ġpraadesh":4510,"à¤ĸà¤¨":4511,"Ġurpathth":4512,"ima":4513,"Ġà®ħà®µà®±":4514,"Ġkaund":4515,"à®¨à®°":4516,"Ġà´ĩà´±":4517,"Ġroad":4518,"apurna":4519,"ced":4520,"Ġbhag":4521,"Ġventr":4522,"Ġcard":4523,"aatak":4524,"ystem":4525,"Ġninn":4526,"ahat":4527,"uch":4528,"iyaaya":4529,"Ġthanne":4530,"Ġpahala":4531,"Ġkurippid":4532,"Ġalbum":4533,"Ġadhiga":4534,"ththaiya":4535,"Ġjabaki":4536,"pc":4537,"Ġnik":4538,"Ġprem":4539,"à¤¥à¤²":4540,"Ġà¤ľà¤¬à¤ķ":4541,"Ġsathaveetham":4542,"Ġà®ĩà®ª":4543,"ivar":4544,"akalil":4545,"igalil":4546,"Ġgovernment":4547,"raz":4548,"Ġhouse":4549,"wood":4550,"Ġkaiy":4551,"Ġbadey":4552,"add":4553,"tein":4554,"eph":4555,"por":4556,"Ġkid":4557,"à®µà®©à®®":4558,"Ġabb":4559,"asamkh":4560,"Ġmeyy":4561,"Ġtri":4562,"Ġinst":4563,"Ġà¤ĸà¤°":4564,"Ġaddehathe":4565,"Ġprasidheekar":4566,"erikk":4567,"à´²à´¸":4568,"Ġden":4569,"Ġarim":4570,"à´µà´¦":4571,"à¥ĩà¤Ĥà¥¤":4572,"press":4573,"Ġchhod":4574,"Ġà¤Ŀ":4575,"33":4576,"oal":4577,"Ġà®ĩà®Ļ":4578,"Ġwhere":4579,"Ġpolice":4580,"Ġsup":4581,"Ġlaksh":4582,"Ġà´¤à´®":4583,"ĠRep":4584,"Ġà®ªà®¤à®µ":4585,"Ġmeethu":4586,"Ġà®ĩà®Łà®®":4587,"à´¾à´Ĥ.":4588,"oman":4589,"aare":4590,"iyaayi":4591,"oorv":4592,"Ġà´ħà´ŀ":4593,"uthu":4594,"Ġundu":4595,"Ġ32":4596,"Ġamainthu":4597,"Ġcoach":4598,"for":4599,"erv":4600,"ilakku":4601,"Ġmc":4602,"angiya":4603,"Ġpathil":4604,"ady":4605,"anian":4606,"Ġkalikk":4607,"Ġà¤®à¤§":4608,"Ġrich":4609,"ices":4610,"Ġsr":4611,"Ġavattr":4612,"appedunnu":4613,"Ġ1993":4614,"Ġpravarth":4615,"Ġaagiyavai":4616,"Ġty":4617,"irundh":4618,"2022":4619,"Ġkaaranamaaga":4620,"Ġaut":4621,"Ġekadesham":4622,"Ġsell":4623,"Ġirukkum":4624,"Ġà®Ĳà®¨":4625,"Ġduring":4626,"atah":4627,"Ġshram":4628,"Ġaayi":4629,"à´°à´ĸ":4630,"earch":4631,"Ġnaalu":4632,"kr":4633,"Ġsaj":4634,"Ġvaad":4635,"Ġkann":4636,"à®©à®£":4637,"Ġgerman":4638,"Ġvilayaa":4639,"Ġà¤ķà¤ª":4640,"Ġnan":4641,"Ġà´¤àµ»":4642,"Ġviriv":4643,"Ġvanth":4644,"ular":4645,"Ġboard":4646,"Ġjuuna":4647,"Ġarimug":4648,"Ġworld":4649,"Ġcheyyaan":4650,"Ġ1988":4651,"news":4652,"Ġsamaapt":4653,"Ġ34":4654,"Ġpahunch":4655,"àµĢà´Ĥ":4656,"2021":4657,"Ġvidy":4658,"ippikkunnu":4659,"Ġ1991":4660,"cott":4661,"à¤¯à¤¯à¤¨":4662,"Ġfed":4663,"ĠMonday":4664,"Ġkshetr":4665,"Ġsanchaal":4666,"Ġmade":4667,"Ġkaalpandhu":4668,"Ġx":4669,"Ġhat":4670,"Ġà´İàµ½":4671,"Ġprakhy":4672,"Ġsteshan":4673,"Ġsitambar":4674,"Ġà´µà´¸":4675,"aiyaalar":4676,"Ġpaarambar":4677,"Ġhaalaanki":4678,"Ġthel":4679,"Ġà´ķà´Ł":4680,"hya":4681,"Ġnj":4682,"Ġrog":4683,"Ġclass":4684,"Ġennivay":4685,"Ġing":4686,"ger":4687,"Ġaaya":4688,"arter":4689,"shipp":4690,"sc":4691,"ori":4692,"Ġà¤īà¤®":4693,"aarambh":4694,"ĠPresident":4695,"back":4696,"à´§à´ª":4697,"Ġ1984":4698,"Ġniruvanam":4699,"Ġadhyayan":4700,"aambyan":4701,"à´²àµ¼":4702,"Ġhome":4703,"Ġnovember":4704,"su":4705,"chit":4706,"usare":4707,"Ġà®Ĵà®²":4708,"à¤¥à¤®":4709,"189":4710,"Ġmid":4711,"aph":4712,"Ġthodangk":4713,"Ġ1989":4714,"Ġseptambar":4715,"Ġik":4716,"Ġkadh":4717,"Ġathth":4718,"Ġà®ĩà®³":4719,"Ġvyavas":4720,"Ġscor":4721,"Ġmam":4722,"Ġnow":4723,"kalum":4724,"Ġà´İà´Ł":4725,"2000":4726,"Ġhead":4727,"intrana":4728,"Ġumm":4729,"à®¾\"":4730,"Ġbeh":4731,"Ġleey":4732,"orul":4733,"à®¤à®µà®°":4734,"Ġà¤ıà¤¡":4735,"ific":4736,"Ġelectr":4737,"Ġepis":4738,"Ġradio":4739,"angalai":4740,"Ġpurush":4741,")à¥¤":4742,"Ġà¤®à¤Ī":4743,"à¤µà¤ª":4744,"Ġà´µà´¯à´¸":4745,"Ġmaee":4746,"2006":4747,"Ġbhoomi":4748,"à¯ģ)":4749,"Ġshat":4750,"ukkaaga":4751,"Ġsig":4752,"Ġ1945":4753,"Ġkaat":4754,"Ġpirab":4755,"Ġcheria":4756,"Ġ70":4757,"Ġswat":4758,"Ġpattiyal":4759,"Ġwhile":4760,"Ġjohnn":4761,"Ġthiranjedukk":4762,"Ġsarkaar":4763,"Ġà´ŀ":4764,"Ġdevelop":4765,"à¯Į":4766,"Ġà¤Ĩà¤¤":4767,"Ġkavund":4768,"Ġmunnaal":4769,"ven":4770,"ware":4771,"Ġjanwari":4772,"Ġthudakk":4773,"Ġà¤ľà¤¨à¤µà¤°":4774,"gan":4775,"à¤¶à¤¤":4776,"Ġmatch":4777,"à´ªàµ¼":4778,"à¤ıà¤²":4779,"à´ªà´Ł":4780,"Ġchaambyan":4781,"utthu":4782,"Ġseer":4783,"à®®à®±":4784,"orida":4785,"Ġchik":4786,"Ġà®Łà®ª":4787,"usht":4788,"Ġoro":4789,"Ġepril":4790,"ollow":4791,"Ġisaikkuzh":4792,"Ġaap":4793,"Ġunion":4794,"ists":4795,"Ġthogai":4796,"Ġagal":4797,"amaanam":4798,"Ġparip":4799,"Ġcontr":4800,"bon":4801,"dhi":4802,"ants":4803,"Ġ80":4804,"Ġsince":4805,"ĠZ":4806,"addh":4807,"Ġkoorinaar":4808,"à´±à´®":4809,"Ġparim":4810,"Ġudaah":4811,"Ġghosh":4812,"pa":4813,"à¤°à¤²":4814,"à´µàµ»":4815,"Ġbig":4816,"Ġpress":4817,"Ġà´īà´³":4818,"Ġsaern":4819,"Ġsthaapit":4820,"Ġpublic":4821,"Ġmake":4822,"Ġchel":4823,"Ġ2023":4824,"ulan":4825,"veen":4826,"Ġà¤¹à¤®":4827,"Ġà®ĩà®±à®¨":4828,"Ġoott":4829,"Ġaavas":4830,"Ġbecause":4831,"yuu":4832,"Ġmat":4833,"à¤¸à¤µ":4834,"Ġà¤ĩà¤ķ":4835,"alon":4836,"angku":4837,"usth":4838,"Ġpathivu":4839,"Ġsathamaanam":4840,"TA":4841,"Ġget":4842,"ippich":4843,"Ġarug":4844,"Ġudh":4845,"Ġirunththana":4846,"à´ªà´£":4847,"atthe":4848,"It":4849,"tho":4850,"inthu":4851,"Ġarm":4852,"Ġtechn":4853,"Ġpratishat":4854,"Ġkarudh":4855,"ible":4856,"32":4857,"Ġdene":4858,"Ġà¤ħà¤ļ":4859,"à¤¯à¤µà¤¸":4860,"Ġà¤Ĳà¤¸":4861,"alai":4862,"Ġpaniyaattrinaar":4863,"ĠAr":4864,"Ġleak":4865,"artment":4866,"Ġpraadeshika":4867,"Ġà®ıà®©":4868,"Ġundaayirunnu":4869,"Ġvigyaan":4870,"iyulla":4871,"Ġnasht":4872,"Ġtru":4873,"Ġjiska":4874,"inaayi":4875,"Ġà´¨à´¯":4876,"Ġdouble":4877,"Ġà®Īà®°":4878,"aron":4879,"Ġcy":4880,"à´¦à´®":4881,"ippikkukayum":4882,"Ġà´²à´ķ":4883,"Ġputh":4884,"tro":4885,"Ġkhil":4886,"ider":4887,"Ġà¤ľà¤²":4888,"Ġà®¨à®©":4889,"2005":4890,"Ġkon":4891,"à´²à´§":4892,"abb":4893,"Ġyoon":4894,"Ġpinthun":4895,"Ġlo":4896,"kkuv":4897,"ĠRuss":4898,"Ġchhote":4899,"xt":4900,"iew":4901,"enna":4902,"Ġbat":4903,"Ġband":4904,"Ġathir":4905,"Ġchernnu":4906,"ez":4907,"yarch":4908,"Ġhtt":4909,"Ġtop":4910,"Ġnirm":4911,"Ġà´ıà´ª":4912,"Ġvarsham":4913,"ni":4914,"Ġpathin":4915,"Ġhai":4916,"Ġà¤¬à¤ľ":4917,"Ġpary":4918,"45":4919,"Ġdav":4920,"Ġjah":4921,"Ġà®µà®ļ":4922,"Ġwashington":4923,"\"-":4924,"adikk":4925,"ister":4926,"Ġà´ĩà´²":4927,"Ġà´¶à´ķ":4928,"Ġmedia":4929,"sp":4930,"see":4931,"anish":4932,"Ġpil":4933,"Ġrach":4934,"Ġtimes":4935,"Ġgol":4936,"Ġpothu":4937,"epral":4938,"Ġà´ĵà´Ł":4939,"Ġtherku":4940,"Ġsamaan":4941,"Ġlii":4942,"Ġstation":4943,"Ġoray":4944,"Ġjisase":4945,"aartha":4946,"ody":4947,"asi":4948,"Ġwin":4949,"Ġparay":4950,"Ġà´İà´¡":4951,"ittar":4952,"Ġà´ĵà´°":4953,"Ġbanaane":4954,"Ġparivart":4955,"Ġassoci":4956,"Ġsupport":4957,"Ġlev":4958,"Ġà¤¹à¤¸":4959,"Ġhast":4960,"ikale":4961,"à¤ĳ":4962,"anga":4963,"aaf":4964,"à´¤à´µ":4965,"aththu":4966,"Ġsuv":4967,"Ġvelippad":4968,"Ġsaarv":4969,"Ġnoottraand":4970,"Ġmain":4971,"à¤¡à¤¨":4972,"Ġart":4973,"van":4974,"ask":4975,"Ġseithaar":4976,"Ġà¤ĳà¤¸":4977,"Ġsenaa":4978,"Ġjulaai":4979,"estt":4980,"64":4981,"à´¯à´µà´¸":4982,"aichch":4983,"Ġbach":4984,"lock":4985,"Ġais":4986,"Ġà´®à´Łà´Ļ":4987,"Ġà´ĵà´Ĺà´¸":4988,"Ġpodhu":4989,"à´¨à´ķ":4990,"Ġà®İà®ļ":4991,"Ġsus":4992,"ather":4993,"65":4994,"ute":4995,"Ġà¤ķà¤¨":4996,"Ġanumath":4997,"olina":4998,"era":4999,"Ġmaanil":5000,"Ġkudiy":5001,"Ġmae":5002,"ullana":5003,"Ġmudiyum":5004,"kkurichulla":5005,"Ġpayirch":5006,"à®ªà®±":5007,"à´Łà´°":5008,"istt":5009,"ipar":5010,"Ġuddesh":5011,"athinum":5012,"Ġ37":5013,"Ġvimars":5014,"Ġjinhone":5015,"Ġbur":5016,"Ġ44":5017,"Ġpuratth":5018,"ights":5019,"38":5020,"athaaga":5021,"àµĨ.":5022,"Ġseiya":5023,"Ġà¤¶à¤¤":5024,"Ġdweep":5025,"Ġob":5026,"Ġà´µà´¹":5027,"iki":5028,"udhal":5029,"Ġprabandh":5030,"Ġamerikk":5031,"Ġvadakk":5032,"Ġnetwork":5033,"adesa":5034,"Ġdoos":5035,"aigalil":5036,"34":5037,"ethir":5038,"paadugal":5039,"athaan":5040,"atan":5041,"Ġvaag":5042,"avaad":5043,"Ġà¤ªà¤¡":5044,"Ġhissa":5045,"à´¿)":5046,"Ġavaa":5047,"ĠUnited":5048,"à´ī":5049,"Ġkram":5050,"Ġfeat":5051,"Ġaprail":5052,"Ġnim":5053,"à®£à®Ļ":5054,"agaala":5055,"Ġspec":5056,"à®ĩà®²":5057,"Ġmahatv":5058,"Ġà®ªà®©":5059,"Ġparanju":5060,"Ġnird":5061,"Ġcheiyunna":5062,"Ġsaambiyan":5063,"Ġpass":5064,"Ġathin":5065,"Ġagast":5066,"Ġvyakt":5067,"iet":5068,"tav":5069,"Ġà´Ĩà´±":5070,"Ġà®°à®¯":5071,"Ġà®ıà®ª":5072,"ĠÎ":5073,"Ġà´®à´§":5074,"Ġà¤¤à¤¬":5075,"Ġà¤ħà¤Ĺà¤¸":5076,"Ġpand":5077,"à´¤à´¨à´Ļ":5078,"Ġutt":5079,"à®Ĩà®®":5080,"Ġdun":5081,"Ġà®Ĩà®ĥà®ª":5082,"Ġà¤ıà¤ķà¤²":5083,"Ġà´ľà´¨à´¸":5084,"Ġthittam":5085,"Ġveerargal":5086,"à´¨à´²":5087,"Ġà®ªà®¨":5088,"Ġà´İà´ª":5089,"Ġ1986":5090,"Ġmurai":5091,"mer":5092,"tan":5093,"mon":5094,"uck":5095,"Ġjal":5096,"Ġà®ļà®Ļ":5097,"aham":5098,"ideo":5099,"Ġanusaar":5100,"lymp":5101,"Ġvarshon":5102,"yata":5103,"à´±à´²":5104,"Ġveed":5105,"à¥ĭà¤Ĥ,":5106,"Ġparaam":5107,"ffer":5108,"à´ķàµ½à´ª":5109,"Ġoctuber":5110,"Ġantarrashtriya":5111,"aali":5112,"à´ĺà´Łà´¨":5113,"Ġbol":5114,"Ġraksh":5115,"Ġrayil":5116,"àµ»à´ķ":5117,"âĢĶ":5118,"Ġ1985":5119,"à®İà®²":5120,"Ġmeet":5121,"à´µàµ¼à´¤":5122,"Ġà´µà´´":5123,"Ġoruvar":5124,"Ġ1940":5125,"Ġdesember":5126,"Ġdusare":5127,"Ġdoubl":5128,"IC":5129,"Ġekal":5130,"neet":5131,"aviyal":5132,"Ġà¤Ĺà¤°":5133,"aakh":5134,"Ġkhar":5135,"Ġsamoog":5136,"Ġbaahar":5137,"Ġhog":5138,"ikamaayi":5139,"Ġaab":5140,"à¤¬à¤¦":5141,"Ġà¤īà¤²":5142,"aaranayaayi":5143,"ior":5144,"aatr":5145,"à®©à®µ":5146,"Ġtharpoo":5147,"Ġleft":5148,"ichael":5149,"Ġtahat":5150,"Ġà¤¤à¤¹à¤¤":5151,"ection":5152,"Ġ1930":5153,"dii":5154,"Ġkab":5155,"ikaran":5156,"ives":5157,"aut":5158,"ials":5159,"àµįà´ĥ":5160,"amulla":5161,"ĠAn":5162,"Ġperumpaalum":5163,"Ġiy":5164,"Ġbase":5165,"itaa":5166,"ikkappatta":5167,"thukkal":5168,"Ġ38":5169,"khal":5170,"car":5171,"paar":5172,"à´Ļà´¨":5173,"Ġholl":5174,"37":5175,"à®±à®©à®°":5176,"à®³à®Łà®ķ":5177,"ĠCo":5178,"Ġusake":5179,"Ġ48":5180,"Ġbiru":5181,"Ġprathin":5182,"Ġà¤ħà¤¤":5183,"abdi":5184,"ING":5185,"à¤°à¤ľ":5186,"Ġaward":5187,"Ġvak":5188,"Ġchild":5189,"ikkappattaar":5190,"alin":5191,"Ġ\".":5192,"appadugiradhu":5193,"à´°à´ļ":5194,"à¤¼à¥ĭ":5195,"Ġvibhinn":5196,"à®¤à®Ł":5197,"Ġopen":5198,"Ġmoonnaam":5199,"Ġpaanch":5200,"Ġveerar":5201,"red":5202,"à®´à®²":5203,"athaayi":5204,"eekarichu":5205,"Ġpatr":5206,"Ġchampionship":5207,"à´±à´¸":5208,"Ġà´Ĩàµ¼à´Ł":5209,"Ġ180":5210,"Ġthodarp":5211,"66":5212,"irunth":5213,"Ġà¤ĩà¤®":5214,"aatmak":5215,"Ġmaem":5216,"Ġà®ķà®®":5217,"à¤¯à¤¹":5218,"Ġtaba":5219,"Ġpark":5220,"Ġà¤ıà¤ļ":5221,"Ġvardh":5222,"antham":5223,"orts":5224,"Ġmuyarch":5225,"iraargal":5226,"à´¬àµ¼à´Ĺ":5227,"Ġvilayaattu":5228,"anusht":5229,"à®°à®©":5230,"à¤¸à¤ª":5231,"Ġà¤Ĩà¤®":5232,"eekaran":5233,"Ġnigazhv":5234,"à®¿)":5235,"Ġcover":5236,"igat":5237,"à´Łà´£":5238,"Ġsambh":5239,"Ġsevanamanusht":5240,"Ġdv":5241,"Ġmahatvapurna":5242,"à´¸à´®à´¯":5243,"Ġà¤ħà¤«":5244,"Ġmukkiyam":5245,"à´ķà´£":5246,"Ġsumar":5247,"à´µà´¨à´®à´¨":5248,"à¤µà¤ľà¤¨":5249,"Ġà´ķà´µ":5250,"Ġà¤Ĺà¤¤":5251,"igan":5252,"Ġvaap":5253,"irodh":5254,"à´Ĺà´µ":5255,"Ġhalanki":5256,"gar":5257,"oston":5258,"uvari":5259,"Ġveliyidappattathu":5260,"90":5261,"eriya":5262,"Ġitihas":5263,"Ġulkk":5264,"ef":5265,"ein":5266,"ris":5267,"à¥ĩ-":5268,"à®°à®ķ":5269,"Ġà´¨à´¦":5270,"uval":5271,"oapp":5272,"à´¯à´²":5273,"Ġà´Ĩà´¨":5274,"Ġà¤°à¤¹à¤¤":5275,"Ġpratin":5276,"Ġà®īà®£à®µ":5277,"gin":5278,"ues":5279,"àµĭ,":5280,"ichirunnu":5281,"uke":5282,"Ġvaalaa":5283,"Ġà´īàµ¾à´ķ":5284,"%)":5285,"Ġbett":5286,"Ġcent":5287,"Ġpower":5288,"Ġexper":5289,"Ġ1972":5290,"Ġkaun":5291,"à´µàµ½":5292,"Ġà´¡à´¬":5293,"paguthiyil":5294,"Ġthamm":5295,"kkukal":5296,"Ġ1987":5297,"Ġjanasamkh":5298,"yaabh":5299,"ainthathu":5300,"Ġsammaan":5301,"Ġrun":5302,"Ġulloor":5303,"Ġudpada":5304,"Ġmaanaa":5305,"appedukayum":5306,"US":5307,"à®£à®®":5308,"Ġà´īàµ½à´ª":5309,"Ġbrand":5310,"aiss":5311,"Ġkuzhu":5312,"ihaas":5313,"Ġyadhaartha":5314,"à¯ģ;":5315,"à´ļà´±":5316,"Ġà´ªà´±à´¯":5317,"Ġsarkkar":5318,"Ġchunaav":5319,"Ġpusth":5320,"Ġdinn":5321,"Ġà´µàµ¼à´¦":5322,"Ġà¤Ńà¤°":5323,"Ġjoonn":5324,"Ġpalvaeru":5325,"ĠIII":5326,",âĢĿ":5327,"kayum":5328,"Ġà®ħà®¤à®±":5329,"angkalukku":5330,"formation":5331,"Ġevery":5332,"Ġneenda":5333,"Ġshatabdi":5334,"Ġà®ĩà®Łà®Ļ":5335,"à´¬à´¤":5336,"itter":5337,"ukale":5338,"Ġpaarv":5339,"Ġsthaapana":5340,"à¤¨à¤¨":5341,"Ġmattra":5342,"viy":5343,"Ġkor":5344,"Ġà´Ĵà´ª":5345,"yaabhyaas":5346,"AL":5347,"kum":5348,"Ġsystem":5349,"attu":5350,"Ġgames":5351,"Ġsthiti":5352,"à¤ķà¤Ł":5353,"Ġà´®à´£":5354,"Ġnadath":5355,"Ġnadaip":5356,"Ġcross":5357,"ajanik":5358,"au":5359,"aanathu":5360,"à¤¦à¤ķ":5361,"olv":5362,"Ġsett":5363,"Ġvarn":5364,"Ġulladakk":5365,"Ġprakaashit":5366,"thing":5367,"itthu":5368,"Ġpoong":5369,"Ġà´¨à´Ĺà´°à´¤":5370,"Ġsamarthan":5371,"ariy":5372,"à®£à®µà®°":5373,"Ġfeel":5374,"Ġfamil":5375,"Ġweb":5376,"Ġà¤¨à¤¦":5377,"aatham":5378,"Ġkazhiy":5379,"AS":5380,"urity":5381,"Ġpakuthi":5382,"anu":5383,"Ġlim":5384,"Ġgir":5385,"Ġtoo":5386,"Ġfeb":5387,"ikkappatt":5388,"Ġà®ķà®Łà®²":5389,"rukal":5390,"à®¤à®¨":5391,"evai":5392,"Ġmaanila":5393,"anja":5394,"iyantr":5395,"Ġblack":5396,"Ġshiksha":5397,"Ġjapan":5398,"Ġvart":5399,"----":5400,"Ġdetaa":5401,"Ġanubhav":5402,"Ġaenenil":5403,"à®±à®²":5404,"Ġthose":5405,"akaash":5406,"Ġint":5407,"Ġà´ľàµ¼à´®":5408,"Ġadhai":5409,"Ġgrand":5410,"Ġpaarkk":5411,"Ġaalbam":5412,"We":5413,"nil":5414,"aarit":5415,"Ġsontha":5416,"ween":5417,"Ġà´İà´£":5418,"Ġamaipp":5419,"Ġpattri":5420,"yakaala":5421,"Ġjeevit":5422,"à´²àµ»à´¡":5423,"Ġà®īà®¯":5424,"home":5425,"Ġsaadhaaranayaayi":5426,"Ġnorth":5427,"Ġleg":5428,"Ġprot":5429,"aff":5430,"eee":5431,"ukalkk":5432,"eekshan":5433,"Ġethiraaga":5434,"Ġmoontr":5435,"Ġmodel":5436,"Ġvend":5437,"ettar":5438,"Ġgood":5439,"Ġthann":5440,"Ġjaate":5441,"agal":5442,"Ġood":5443,"aappu":5444,"aras":5445,"Ġlook":5446,"Ġniyanthr":5447,"Ġlandan":5448,"Ġnear":5449,"Ġà´Ńà´°à´£":5450,"Ġ1983":5451,"Ġnilayil":5452,"ayilekku":5453,"ppan":5454,"omb":5455,"Ġanuk":5456,"Ġ1976":5457,"Ġangk":5458,"ooh":5459,"Ġglo":5460,"Ġ64":5461,"Ġmuthanm":5462,"Ġà¤¸à¤¡":5463,"Ġtake":5464,"ththiram":5465,"akalum":5466,"Ġmaerk":5467,"Ġpug":5468,"Ġ58":5469,"Ġbeing":5470,"Ġmiga":5471,"ĠPh":5472,"Ġpadinj":5473,"ariyapp":5474,"à®ªà®Łà®µ":5475,"à®ĩà®¤":5476,"Ġthaer":5477,"Ġvaeru":5478,"Ġà®ıà®°":5479,"tin":5480,"Ġyah":5481,"ovin":5482,"Ġariyapped":5483,"murai":5484,"Ġsarvadesa":5485,"ught":5486,"Ġpranali":5487,"aarambhik":5488,"ova":5489,"aasthr":5490,"Ġlabhichu":5491,"Ġrandaamathe":5492,"Ġendha":5493,"à´§à´¨":5494,"apar":5495,"Ġnilaiy":5496,"Ġvelipp":5497,"à´ķà´°à´£à´Ļ":5498,"Ġpakshe":5499,"Ġprakhyaap":5500,"Ġport":5501,"ugg":5502,"2004":5503,"Ġcountry":5504,"Ġpenkal":5505,"iyayile":5506,"emb":5507,"Ġjanuvari":5508,"Ġthirich":5509,"business":5510,"à´°àµ»":5511,"à¤¤à¤¤":5512,"udi":5513,"ograp":5514,"aaval":5515,"ĠNorth":5516,"Ġthudakkathil":5517,"Ġpuratthir":5518,"Ġech":5519,"Ġ1942":5520,"Ġrahee":5521,"Ġbhasha":5522,"à®¯à®ķ":5523,"attam":5524,"athekku":5525,"à¤ħà¤²":5526,"yr":5527,"Ġnuzh":5528,"ivag":5529,"Ġtheerum":5530,"Ġpunarn":5531,"Ġprathyeka":5532,"36":5533,"iff":5534,"Ġros":5535,"omen":5536,"Ġpost":5537,"Ġ1975":5538,"oyil":5539,"iyudan":5540,"Ġvaay":5541,"àµ»à´Ĺ":5542,"aayirunn":5543,"Ġkalaa":5544,"engilum":5545,"Ġsakate":5546,"Ġindustr":5547,"si":5548,"Ġ36":5549,"Ġà®ĩà®¯à®±":5550,"44":5551,"Ġhand":5552,"Ġown":5553,"omin":5554,"Ġà´ĩà´Ł":5555,"aisi":5556,"Ġpakaram":5557,"Ġmadhy":5558,"yeh":5559,"à®²à®¸":5560,"athinaayi":5561,"à®°à®µ":5562,"à´±àµ»à´¸":5563,"Ġizh":5564,"à®ķà®£":5565,"Ġkabhi":5566,"Ġà¤ķà¤Ń":5567,"aaron":5568,"aster":5569,"Ġà¤¶à¤°":5570,"Ġ39":5571,"Ġà®Ĩà®ķà®¸":5572,"Ġgreen":5573,"Ġdeval":5574,"Ġbaind":5575,"amayam":5576,"athilekku":5577,"Ġneen":5578,"Ġà®¤à®³":5579,"ĠSh":5580,"ech":5581,"onic":5582,"Ġpres":5583,"ished":5584,"Ġthanth":5585,"Ġthoal":5586,"ces":5587,"pal":5588,"onald":5589,"adel":5590,"Ġtal":5591,"ithamaaya":5592,"Ġhealth":5593,"Ġpoori":5594,"Ġthayaaripp":5595,"iyull":5596,"Ġtees":5597,"Ġà´ªà´ķà´°":5598,"Ġmekhal":5599,"ojit":5600,"à¤¾)":5601,"à¤²à¤ķ":5602,"Ġ1968":5603,"Ġpodhuvaaga":5604,"businesswire":5605,"aani":5606,"Ġhard":5607,"Ġtulan":5608,"eland":5609,"Ġ1920":5610,"Ġinaikk":5611,"Ġbharan":5612,"Ġprakad":5613,"Ġvartamaan":5614,"wal":5615,"Ġvideo":5616,"ape":5617,"ipath":5618,"Ġseptumber":5619,"Ġminn":5620,"Ġproc":5621,"Ġaazh":5622,"Ġà®Ĵà®±":5623,"ishesh":5624,"Ġseasonil":5625,"Ġthaar":5626,"à´ªà´²":5627,"ĠAnd":5628,"riti":5629,"Ġperil":5630,"Ġ1979":5631,"Ġà®Īà®Ł":5632,"Ġudaaharan":5633,"Ġà¤¹à¤µ":5634,"Ġà´®à´ķ":5635,"Ġà´ħà´µà´¯":5636,"shik":5637,"Ġnadee":5638,"à¤īà¤¸":5639,"à¤Ľà¤²":5640,"Ġkanad":5641,"This":5642,"amsh":5643,"Ġà´ħà´µà´ķ":5644,"Ġfranch":5645,"Ġtex":5646,"à´ĸà´²à´¯":5647,"Ġexpect":5648,"à´±à´ļ":5649,"Ġprop":5650,"à¤·à¤¤":5651,"à®ľà®©":5652,"à´Łàµ»":5653,"Ġwal":5654,"Ġuna":5655,"Ġaage":5656,"à¤¯à¤¨à¤¶":5657,"Ġà®Ĩà®¤à®°à®µ":5658,"Ġsaarvajanik":5659,"55":5660,"Ġniyantr":5661,"Ġjos":5662,"Ġgad":5663,"Ġwant":5664,"Ġvittu":5665,"aanennu":5666,"ersey":5667,"Ġpoortth":5668,"Ġmudiv":5669,"Ġmood":5670,"Ġà¤ķà¤¬":5671,"àµĨ\"":5672,"Ġfollow":5673,"aththaiyum":5674,"Ġmany":5675,"Ġporut":5676,"Ġenglaan":5677,"Ġtold":5678,"Ġfive":5679,"row":5680,"aajay":5681,"Ġpratyek":5682,"à®ĵ":5683,"Ġthernthedukk":5684,"à´µà´®":5685,"Ġeven":5686,"Ġaakram":5687,"nir":5688,"ines":5689,"Ġalavil":5690,"Ġ1973":5691,"Ġ1974":5692,"Ġparas":5693,"Ġisaki":5694,"Ġà´ĵà´ª":5695,"Ġà®īà®£à®°":5696,"ĠSouth":5697,"Ġaich":5698,"Ġà®Ĩà®ª":5699,"Ġparaajay":5700,"ains":5701,"raj":5702,"Ġà´°à´ķ":5703,"Ġnagara":5704,"Ġkazhiyum":5705,"Ġà¤ħà¤µà¤§":5706,"Ġghoshana":5707,"avugal":5708,"ĠAl":5709,"Ġ1943":5710,"à®ļà®ª":5711,"itr":5712,"Ġà´ķà´¤":5713,"uthor":5714,"Ġvividha":5715,"jur":5716,"Ġking":5717,"à´±àµº":5718,"Ġthaan":5719,"Ġthaamas":5720,"Ġlak":5721,"akkaar":5722,"Ġpalkalaikkazhagaththil":5723,"à¤Ĺà¤łà¤¨":5724,"trik":5725,"à´¶à´°":5726,"Ġsuch":5727,"Ġkondirundh":5728,"à®°à®µà®°":5729,"Ġsunny":5730,"imm":5731,"Ġpirath":5732,"Ġudyog":5733,"Ġadisthaanam":5734,"cil":5735,"amaanu":5736,"Ġarab":5737,"ĠCol":5738,"ĠInd":5739,"igalin":5740,"à®İà®ĥà®ª":5741,"enge":5742,"Ġà®¨à®ķà®°à®®":5743,"Ġinnum":5744,"Ġgrow":5745,"Ġpaid":5746,"à´¸à´°à´¤":5747,"à¯į.\"":5748,"ĠBut":5749,"Ġafr":5750,"Ġkendr":5751,"Ġsarvakalash":5752,"Ġpooyint":5753,"Ġbaadh":5754,"à´³à´ľ":5755,"ikkiraar":5756,"igr":5757,"rach":5758,"2002":5759,"à´ķà´°à´£à´¤":5760,"gress":5761,"Ġcathol":5762,"à¤¾;":5763,"àµĪà´Ĥ":5764,"Ġpaguthiyaaga":5765,"Ġbhaarat":5766,"Ġpirathinithiththuv":5767,"Ġurpaththi":5768,"Ġaus":5769,"à®³à®©à®°":5770,"Ġfull":5771,"oma":5772,"Ġbhoor":5773,"Ġvidesh":5774,"Ġainthu":5775,"Ġgan":5776,"zhs":5777,"Ġshould":5778,"ĠFr":5779,"Ġmadhya":5780,"nagar":5781,"iving":5782,"achar":5783,"Ġ1964":5784,"Ġveliyid":5785,"Ġaadhun":5786,"Ġkamban":5787,"à´ªà´ķàµ½à´ª":5788,"ithar":5789,"Ġsamraksh":5790,"roru":5791,"Ġbhoomika":5792,"iri":5793,"Ġà®¤à®ķ":5794,"Ġformer":5795,"Ġtharam":5796,"188":5797,"Ġkettid":5798,"Ġkaunsil":5799,"vad":5800,"Ġà´ĸ":5801,"à´¸à´¸":5802,"à®´à®ª":5803,"Ġbhav":5804,"Ġnirdesh":5805,"2003":5806,"AR":5807,"Ġvann":5808,"à¯ĩ.":5809,"Ġ1978":5810,"à¤¯à¤ķà¤¤":5811,"Ġmahila":5812,"iber":5813,"Ġcity":5814,"Ġà®¤à®¨":5815,"Ġadharku":5816,"Ġkaanoon":5817,"ojan":5818,"Ġgoing":5819,"Ġolipar":5820,"Ġvyakti":5821,"Ġkat":5822,"Ġsend":5823,"Ġsudh":5824,"iyog":5825,"ththathu":5826,"oyude":5827,"Ġirunththanar":5828,"unnathinaayi":5829,"Ġà¤«à¤°à¤µà¤°":5830,"Ġfarwari":5831,"Ġgath":5832,"aattru":5833,"Ġmanag":5834,"aashtra":5835,"mun":5836,"oar":5837,"Ġà¤ł":5838,"oothar":5839,"aped":5840,"Ġprathyaksh":5841,"Ġthiranjed":5842,"Ġtro":5843,"Ġiroapp":5844,"Ġmann":5845,"iththanar":5846,"Ġkazhinj":5847,"Ġstreet":5848,"Ġest":5849,"Ġà®®à®ķà®©":5850,"ittathu":5851,"Ġidaththil":5852,"Ġsakth":5853,"Ġstatement":5854,"à¤¥à¤°":5855,"ĠWh":5856,"Ġpattriya":5857,"Ġroman":5858,"ils":5859,"Ġthink":5860,"à´ľà´ķ":5861,"Ġsthaaniya":5862,"Ġvayathu":5863,"Ġfederal":5864,"amaagum":5865,"Ġyun":5866,"ishth":5867,"Ġvilakk":5868,"arta":5869,"Ġprofessor":5870,"ius":5871,"chin":5872,"Ġà®¨à®µà®®":5873,"ithu":5874,"lex":5875,"à¤ĸà¤ķ":5876,"Ġitaal":5877,"iji":5878,"yoj":5879,"Ġras":5880,"Ġchrist":5881,"ently":5882,"à´¯àµ»à´·":5883,"Ġvirumb":5884,"Ġadhyaksh":5885,"39":5886,"Ġspr":5887,"1990":5888,"Ġkurippaaga":5889,"ray":5890,"Ġkamm":5891,"Ġmis":5892,"enal":5893,"Ġoon":5894,"asari":5895,"Ġseik":5896,"Ġjisane":5897,"Ġà´¸à´®à´¯à´¤":5898,"Ġeduththu":5899,"naam":5900,"saath":5901,"à´°à´ªà´°à´®":5902,"à´·à´®":5903,"Ġà´Ĩà´³":5904,"ettra":5905,"ording":5906,"Ġadhikansh":5907,"Ġsentr":5908,"Ġulppede":5909,"Ġuthav":5910,"ying":5911,"Ġmish":5912,"à´Łà´®":5913,"Ġbis":5914,"Ġbish":5915,"Ġà´¨à´®":5916,"Ġkott":5917,"ngel":5918,"Ġanuvad":5919,"Ġseiv":5920,"Ġond":5921,"Ġ1969":5922,"Ġbanaae":5923,"kan":5924,"Ġped":5925,"à®µà®ļ":5926,"Ġmem":5927,"Ġchain":5928,"àµģ.\"":5929,"à¤Ńà¤µ":5930,"ender":5931,"Ġtulanaa":5932,"74":5933,"Ġaepral":5934,"Ġnight":5935,"Ġà´ªà´²":5936,"Ġà®İà®ª":5937,"Ġà®īà®±à®µ":5938,"Ġquarter":5939,"Ġkans":5940,"Ġbund":5941,"Ġgav":5942,"Ġcha":5943,"Ġkattupp":5944,"Ġresearch":5945,"Ġpuththag":5946,"ĠRepublic":5947,"Ġbull":5948,"avadikk":5949,"Ġjun":5950,"Ġ1981":5951,"Ġsangrah":5952,"ĠKore":5953,"Ġdably":5954,"anaal":5955,"à®Łà®µà®°":5956,"uraa":5957,"à¤ıà¤®":5958,"osp":5959,"uvai":5960,"Ġpradarsh":5961,"Ġiruthiyil":5962,"Ġchikits":5963,".âĢĿ":5964,"ipravari":5965,"mai":5966,"Ġà®Ĩà®Ļ":5967,"Ġexp":5968,"Ġkoodudhal":5969,"Ġarasaangk":5970,"entral":5971,"Ġippol":5972,"Ġveliyae":5973,"Ġadippadaiyil":5974,"rik":5975,"Ġà®ªà®ļ":5976,"aintha":5977,"anamaaya":5978,"jar":5979,"ros":5980,"Ġthaal":5981,"à®ļà®Ļ":5982,"Ġnadanna":5983,"Ġthodakk":5984,"Ġvaek":5985,"67":5986,"UR":5987,"Ġprev":5988,"leesh":5989,"Ġnab":5990,"Ġprasth":5991,"Ġmanush":5992,"istan":5993,"oodiya":5994,"aikalai":5995,"kkalaam":5996,"Ġsanskaran":5997,"Ġnumber":5998,"Ġchak":5999,"Ġmattoru":6000,"Ġpae":6001,"à´¸à´±":6002,"Ġà¤īà¤ªà¤¨":6003,"Ġmaran":6004,"Ġ75":6005,"Ġclo":6006,"Ġproduct":6007,"ful":6008,"Ġseiyappatta":6009,"pu":6010,"une":6011,"Ġà´ĩà´¸":6012,"Ġround":6013,"Ġsahod":6014,"Ġdigital":6015,"Ġaavashyakta":6016,"68":6017,"Ġveedu":6018,"Ġpos":6019,"Ġnadavadikk":6020,"appaduv":6021,"Ġmuthalil":6022,"Ġchhat":6023,"Ġà®¨à®Łà®µà®Ł":6024,"Ġniyukt":6025,"Ġvyaapak":6026,"aiwan":6027,"2001":6028,"Ġmuzhuvathum":6029,"Ġvictor":6030,"Ġknow":6031,"kur":6032,"uman":6033,"Ġball":6034,"Ġdata":6035,"Ġ1971":6036,"Ġpunar":6037,"Ġkaath":6038,"ayaal":6039,"aiyudan":6040,"ution":6041,");":6042,"à´¨àµ½":6043,"Ġvaris":6044,"Ġghat":6045,"Ġcourt":6046,"Ġmaiy":6047,"Ġcre":6048,"Ġavarukku":6049,"Ġaddehathinu":6050,"Ġmult":6051,"unnath":6052,"Ġkosh":6053,"à´İà´«":6054,"ĠLe":6055,"Ġippoathu":6056,"Ġdikhaai":6057,"Ġà¤¡à¤¬":6058,"Ġconc":6059,"Ġassociation":6060,"500":6061,"ayaan":6062,"àµ½à´®":6063,"Ġà®īà®¤":6064,"Ġavasana":6065,"Ġsix":6066,"esota":6067,"Ġmunththaiya":6068,"aashtr":6069,"Ġà´¨à´·":6070,"Ġaaru":6071,"Ġà¤ĩà¤²":6072,"avumaaya":6073,"Ġà¤ĩà¤¸à¤®":6074,"Ġswatantra":6075,"'re":6076,"kin":6077,"Ġkull":6078,"à¤ªà¤²":6079,"oli":6080,"Ġbheet":6081,"Ġisamen":6082,"à´°à´£à´Ļ":6083,"Ġjolie":6084,"à¯į),":6085,"à®©à®Ļ":6086,"Ġcalifornia":6087,"itty":6088,"ments":6089,"Ġhisse":6090,"ĠYork":6091,"ministr":6092,"Ġi":6093,"Ġâ":6094,"Ġjag":6095,"itz":6096,"ift":6097,"Ġpattam":6098,"Ġaduththa":6099,"):":6100,"akaran":6101,"Ġà¤®à¤ľà¤¬":6102,"Ġjames":6103,"iish":6104,"Ġrequ":6105,"ezhs":6106,"à´Ī":6107,"à´ļà´¨":6108,"Ġmech":6109,"aththaal":6110,"Ġarth":6111,"Ġà´ĩà´µ":6112,"Ġà®ĩà®²à®ķ":6113,"Ġspanish":6114,"Ġupayogikkunnu":6115,"Ġ1967":6116,"Ġadutha":6117,"conom":6118,"Ġaind":6119,"à¤µà¤¸":6120,"Ġuse":6121,"Ġanno":6122,"Ġidayil":6123,"Ġvidyaabhyaas":6124,"atharkaaga":6125,"Ġpaani":6126,"Ġpariseel":6127,"Ġà®ľà®©à®µà®°":6128,"Ġsthithi":6129,"Ġannoun":6130,"bin":6131,"iyaagum":6132,"Ġchil":6133,"Ġnews":6134,"Ġà´µàµ¼à´·à´Ļ":6135,"Ġbillion":6136,"Ġthalaimai":6137,"TH":6138,"Ġchaan":6139,"aagath":6140,"reas":6141,"Ġ1977":6142,"anaaya":6143,"Ġà¤Ĩà¤¬":6144,"à´´à´¯":6145,"Ġroopakal":6146,"Ġsahaay":6147,"Ġmadang":6148,"IS":6149,"sel":6150,"à´®à´ķ":6151,"Ġà´¤à´µ":6152,"Ġà¤Ĩà¤²":6153,"ukalkku":6154,"ĠHouse":6155,"Ġkolej":6156,"ppana":6157,"Ġà´ħà´¡":6158,"anthu":6159,"Ġthavar":6160,"Ġpirivu":6161,"Ġsamudaay":6162,"Ġhon":6163,"Ġà®ļà®µ":6164,"appozhum":6165,"Ġpadam":6166,"Ġsamooga":6167,"Ġmajb":6168,"Ġsatra":6169,"Ġà¤ħà¤¦":6170,"Ġarr":6171,"atthinu":6172,"Ġettu":6173,"Ġduniya":6174,"76":6175,"Ġà¤¬à¤¤":6176,"Ġenavae":6177,"Ġà®İà®©à®µ":6178,"Ġstand":6179,"à®µà®¤à®©":6180,"Ġpaguthiyil":6181,"Ġkilakku":6182,"Ġà¤®à¤¦":6183,"attai":6184,"aasiriyar":6185,"Ġhock":6186,"Ġbheetar":6187,"cy":6188,"avy":6189,"Ġpataa":6190,"Ġaadhar":6191,"Ġpuuraa":6192,"Ġsafal":6193,"Ġà´ħà´¯":6194,"Ġà¤°à¤ķ":6195,"Ġsamar":6196,"Ġvaralaattr":6197,"kirathu":6198,"irikkunna":6199,"aayak":6200,"à®ªà®Łà®¤":6201,"Ġann":6202,"Ġà¤¶à¤ķ":6203,"aaki":6204,"Ġvyav":6205,"Ġaustralian":6206,"Ġaththiy":6207,"Ġtheerumaan":6208,"alaya":6209,"Ġaik":6210,"Ġà¤ħà¤Ĺà¤²":6211,"atthiya":6212,"Ġaaga":6213,"à®ħà®®":6214,"à´°à´¦àµ¼à´¶":6215,"Ġaksar":6216,"Ġthaakkuthal":6217,"har":6218,"Ġvist":6219,"Ġjack":6220,"à¤µà¤°à¤£":6221,"angalilum":6222,"rian":6223,"Ġ1966":6224,"Ġà¤ĳà¤°":6225,"uel":6226,"Ġnas":6227,"udarnnu":6228,"Ġinformation":6229,"Ġkhud":6230,"à®ķà®°à®®":6231,"rn":6232,"uff":6233,"à´¨à´¨":6234,"à´£à´ª":6235,"Ġcru":6236,"ithaav":6237,"Ġà´Ĵà´Ł":6238,"Ġ1982":6239,"Ġ1965":6240,"Ġyour":6241,"He":6242,"aaee":6243,"à®ªà®¯":6244,"uro":6245,"Ġinjan":6246,"Ġà´¬à´¹":6247,"Ġnaat":6248,"Ġpros":6249,"à¤¼à¥ĭà¤Ĥ":6250,"ends":6251,"à´İà´¨":6252,"Ġjinamen":6253,"Ġchaahiye":6254,"aigalin":6255,"Ġbritt":6256,"à¥ĩ\"":6257,"à®Łà®±":6258,"ayaaya":6259,"iro":6260,"Ġ\"(":6261,"Ġà¤ķà¤°à¤ķ":6262,"Ġfrank":6263,"à®ľà®°":6264,"Ġcongress":6265,"eekaar":6266,"Ġaasiriyar":6267,"Ġtholaik":6268,"Ġdirector":6269,"ony":6270,"Ġvaithth":6271,"Ġjay":6272,"Ġkarke":6273,"Ġconn":6274,"Ġpolulla":6275,"Ġpoattiyil":6276,"CE":6277,"ritt":6278,"Ġaetr":6279,"eef":6280,"Ġvast":6281,"shesham":6282,"à¤·à¤°":6283,"Ġrunn":6284,"varal":6285,"Ġmaathrame":6286,"Ġmach":6287,"Ġrak":6288,"Ġturn":6289,"Ġcal":6290,"Ġà¤Ĩà¤¦":6291,"Ġathe":6292,"Ġvazhiyaaga":6293,"Ġloga":6294,"Ġpettrathu":6295,"Ġmuzhu":6296,"Ġfrancis":6297,"Ġkaatch":6298,"95":6299,"bl":6300,"Ġmcc":6301,"Ġgram":6302,"à¯ĭ,":6303,"ission":6304,"1970":6305,"Ġindi":6306,"Ġthodangiyathu":6307,"Ġsamanya":6308,"adem":6309,"Ġbru":6310,"Ġyojana":6311,"sky":6312,"Ġthodangkinaar":6313,"ience":6314,"ense":6315,"Ġoth":6316,"Ġamaippu":6317,"Ġalawa":6318,"ĠCar":6319,"Ġnext":6320,"raam":6321,"Ġkuth":6322,"Ġsqu":6323,"igar":6324,"Ġudam":6325,"Ġkshetron":6326,"Ġswar":6327,"Ġà´İà´ļ":6328,"aathaara":6329,"Ġà´ıà´¤":6330,"Ġattack":6331,"razil":6332,"aliye":6333,"Ġnetr":6334,"Ġchaal":6335,"Ġinjur":6336,"à´§à´®":6337,"Ġisrael":6338,"à´¥à´®":6339,"à¤ĩà¤¤":6340,"Ġjisake":6341,"Ġedward":6342,"Ġpradhaanam":6343,"Ġvibhaj":6344,"ross":6345,"shire":6346,"Ġtaur":6347,"Ġà®īà®ļ":6348,"Ġà´Ĩà´¤":6349,"à´¥à´¯":6350,"Ġirukk":6351,"oke":6352,"Ġà´ĺà´Ł":6353,"mur":6354,"esamayam":6355,"aashan":6356,"Ġmaal":6357,"Ġmov":6358,".-":6359,"jal":6360,"vid":6361,"à´°à´±":6362,"ikkappettu":6363,"àµ¾à´ª":6364,"à®µà®°à®²":6365,"angalin":6366,"akkum":6367,",,,,":6368,"ble":6369,"eni":6370,"Ġjill":6371,"andra":6372,"Ġpraj":6373,"Ġaround":6374,"ayilum":6375,"Ġkeezhil":6376,"lympic":6377,";-":6378,"Ġà´ªà´³":6379,"Ġà¤¬à¤¸":6380,"Ġmudivu":6381,"1999":6382,"Ġsandarbh":6383,"Ġuttari":6384,"cle":6385,"ullathum":6386,"ocrat":6387,"Ġnewyorg":6388,"Ġvaelai":6389,"à´ķà´Ł":6390,"à´¤à´°à´µ":6391,"ayaanu":6392,"Ġrest":6393,"Ġirunththa":6394,"Ġnilavil":6395,"Ġsuraksha":6396,"aiyae":6397,"Ġpettra":6398,"Ġaabaadi":6399,"iyaanu":6400,"à´µà´ļ":6401,"Ġneethim":6402,"tal":6403,"Ġpustak":6404,"amaayirunnu":6405,"à´³à´±":6406,"asal":6407,"apetta":6408,"Ġ150":6409,"Ġ1941":6410,"Ġthudangiya":6411,"Ġariviyal":6412,"Ġsingle":6413,"Ġhere":6414,"àµ½à´«":6415,"à¤Łà¤®":6416,"Ġyug":6417,"Ġà´ħà´µàµ¾":6418,"Ġaudyog":6419,"Ġdoublue":6420,"à´¨à´¡":6421,"Ġda":6422,"Ġennee":6423,"Ġ46":6424,"ustom":6425,"Ġnalkunnu":6426,"Ġavalude":6427,"Ġsov":6428,"à´°à´ª":6429,"chhe":6430,"à´¸à´°à´Ļ":6431,"akaram":6432,"Ġlow":6433,"Ġ55":6434,"Ġ1946":6435,"ms":6436,"vaan":6437,"ipatta":6438,"Ġ72":6439,"Ġmaerku":6440,"Ġvaapas":6441,"Ġnetritva":6442,"nut":6443,"Ġmattroru":6444,"unnathil":6445,"ĠAngel":6446,"âĢľ":6447,"à´İàµ»":6448,"Ġ1948":6449,"à®°à®ªà®²à®®":6450,"Ġvikasit":6451,"Ġbetween":6452,"aeye":6453,"à®ķà®¸":6454,"aduthth":6455,"Ġdrish":6456,"Ġà¤¤à¤Ł":6457,"aivil":6458,"vein":6459,"Ġabhinay":6460,"Ġnoottraandin":6461,"Ġvol":6462,"Ġshoot":6463,"à¤¼à¥į":6464,"Ġpadaipp":6465,"clr":6466,"Ġhastaksh":6467,"78":6468,"raaj":6469,"Ġpav":6470,"à´²à´£":6471,"Ġallow":6472,"Ġluis":6473,"Ġseen":6474,"Ġbaand":6475,"Ġinte":6476,"aagat":6477,"ĠWashington":6478,"Ġaayojit":6479,"mond":6480,"ichh":6481,"Ġanthaar":6482,"Ġà´Ĩà´Ĺ":6483,"Ġavarai":6484,"Ġjanavari":6485,"Ġsangathan":6486,"à¤ĩà¤¨à¤²":6487,"Ġutpaadan":6488,"lav":6489,"Ġiii":6490,"à®¤à®ķà®®":6491,"Ġbaal":6492,"kalude":6493,"à¤ıà¤Ĺ":6494,"Ġsamg":6495,"Ġidhan":6496,"Ġboth":6497,"dr":6498,"iyittundu":6499,"Ġà®ļà®¤":6500,"irum":6501,"Ġkoad":6502,"Ġsadak":6503,"adelph":6504,"aul":6505,"Ġsat":6506,"Ġnar":6507,"Ġnaee":6508,"Ġà´¨à´Łà´ª":6509,"zhal":6510,"Ġ51":6511,"à´ªà´°à´¯":6512,"Ġbuild":6513,"Ġpadhath":6514,"sbur":6515,"Ġsapt":6516,"Ġfac":6517,"Ġà¤¨à¤Ī":6518,"Ġà¤Ĩà¤ª":6519,"Ġvazhi":6520,"Ġbroad":6521,"Ġthammilulla":6522,"pinn":6523,"Ġà´ķà´¨":6524,"Ġaagiyoar":6525,"Ġshradh":6526,"Ġsattam":6527,"Ġcontinu":6528,"din":6529,"tain":6530,"à¤¾à¤ĥ":6531,"Ġmont":6532,"Ġbhagam":6533,"Ġaarop":6534,"Ġengleesh":6535,"anant":6536,"Ġsoor":6537,"Ġmass":6538,"atheyum":6539,"aans":6540,"Ġà´ªà´²à´ª":6541,"ikshan":6542,"unnathinu":6543,"Ġidam":6544,"Ġedukk":6545,"Ġpalappozhum":6546,"Ġdisc":6547,"Ġkathaapaaththir":6548,"Ġhttps":6549,"Ġpeed":6550,"Ġà´ħà´°":6551,"emm":6552,"Ġproject":6553,"aittad":6554,"Ġaakarsh":6555,"Ġvaastav":6556,"à¥Ģ)":6557,"itihas":6558,"aindha":6559,"aikkappattathu":6560,"Ġ1963":6561,"Ġuyir":6562,"Ġresp":6563,"88":6564,"Ġum":6565,"Ġà¤¹à¤®à¤²":6566,"à¤Ĺà¤Łà¤¨":6567,"à´ŀà´¤":6568,"Ġkank":6569,"àµ¼à´ĺ":6570,"Ġeconom":6571,"Ġaattr":6572,"à¯Ĥ.":6573,"anies":6574,"Ġà¤¢":6575,"ili":6576,"Ġnaatt":6577,"Ġyuva":6578,"Ġ300":6579,"Ġà´ħà´µàµ¼à´ķ":6580,"Ġthirakk":6581,"Ġà®¨à®Łà®¨":6582,"Ġnediya":6583,"Ġimarat":6584,"Ġleader":6585,"Ġlaut":6586,"69":6587,"pole":6588,"anco":6589,"Ġsahit":6590,"aikalil":6591,"aguthi":6592,"Ġvaralaattru":6593,"orj":6594,"Ġmax":6595,"à´ħà´®":6596,"Ġmaerpatta":6597,"Ġsant":6598,"Ġottr":6599,"à¤¹à¤ķ":6600,"aalaana":6601,"Ġpraadh":6602,"à¤ĩà¤®":6603,"Ġsaevai":6604,"inoppam":6605,"Ġprastut":6606,"Ġpayirchiyaalar":6607,"Ġadaiyaal":6608,"Ġà®¤à®µà®±":6609,"ean":6610,"side":6611,"Ġright":6612,"Ġshaadi":6613,"aagap":6614,"Ġanchu":6615,"Ġathig":6616,"Ġdete":6617,"Ġscr":6618,"Ġsankhya":6619,"Ġstudio":6620,"Ġbaseball":6621,"Ġayu":6622,"à®¯à®¸":6623,"Ġnational":6624,"Ġprer":6625,"Ġwon":6626,"ovil":6627,"Ġused":6628,"Ġcheiyunnathu":6629,"Ġbritiish":6630,"Ġmotor":6631,"nal":6632,"athr":6633,"kkil":6634,"à¤¹à¤°à¤£":6635,"Ġsamp":6636,"Ġà´ĩàµ»à´¸":6637,"à´¥à´¤":6638,"Ġiruthi":6639,"Ġondru":6640,"anathil":6641,"à´Ĥ)":6642,"à´ªàµ½":6643,"à´µà´±":6644,"Ġà¤ªà¤ķ":6645,"Ġanth":6646,"Ġalex":6647,"Ġà¤¸à¤®à¤Ŀ":6648,"Ġviol":6649,"Ġpirabal":6650,"NE":6651,"à´°à´Ń":6652,"ayulla":6653,"Ġà®ªà®Łà®®":6654,"Ġhit":6655,"Ġhom":6656,"ĠStates":6657,"Ġjeetaa":6658,"Ġveediyo":6659,"Ġanthaaraashtra":6660,"the":6661,"Ġsens":6662,"athaik":6663,"Ġà®ħà®³":6664,"ukintrana":6665,"Ġsamag":6666,"Ġadministr":6667,"Ġkurip":6668,"Ġvipul":6669,"di":6670,"rand":6671,"Ġharr":6672,"à´µàµ¼à´ķ":6673,"akalude":6674,"ĠWe":6675,"iyargal":6676,"Ġofficials":6677,"Ġaarambhichu":6678,"idi":6679,"Ġchutt":6680,"Ġfact":6681,"Ġavarkk":6682,"ged":6683,"Ġà´¤à´ķ":6684,"ayaas":6685,"Ġsharash":6686,"........":6687,"Ġsvayam":6688,"athaak":6689,"Ġthev":6690,"aniz":6691,"Ġmuch":6692,"Ġreal":6693,"Ġenbathai":6694,"Ġrepublic":6695,"Ġsambandhit":6696,"Ġtheliv":6697,"neetik":6698,"Ġpratinidh":6699,"Ġcam":6700,"uter":6701,"Ġà¤¶à¤¬":6702,"Ġaang":6703,"Ġstill":6704,"Ġalav":6705,"ope":6706,"Ġ.":6707,"aate":6708,"ones":6709,"used":6710,"eekaranam":6711,"à¤ĺà¤°":6712,"Ġlokam":6713,"ketball":6714,"à®µà®©à®Ļ":6715,"Ġà®Ĩà®¤":6716,"Ġkhand":6717,"Ġvizh":6718,"Ġsecurity":6719,"Ġsamsth":6720,"Ġprakhyaapichu":6721,"48":6722,"77":6723,"à¦":6724,"à§":6725,"atal":6726,"una":6727,"Ġanii":6728,"Ġisaliye":6729,"Ġà¤ĩà¤¸à¤²":6730,"ngin":6731,"Ġvisit":6732,"Ġprofessional":6733,"!\"":6734,"53":6735,"mit":6736,"opp":6737,"Ġsuru":6738,"attha":6739,"atri":6740,"Ġvai":6741,"avel":6742,"Ġà®ļà®ª":6743,"appattu":6744,"ief":6745,"orge":6746,"à®µà®°à®¤":6747,"Ġ1955":6748,"anmaar":6749,"Ġà¤Ĭà¤ªà¤°":6750,"Ġtexas":6751,"Ġnalla":6752,"akangal":6753,"à¤µà¤¶":6754,"akkaan":6755,"à¤«à¤²":6756,"Ġvimaana":6757,"Ġprogram":6758,"Ġaetrt":6759,"Ġscott":6760,"Ġgair":6761,"Ġà´¤à´°":6762,"ips":6763,"ĠAM":6764,"ests":6765,"Ġthott":6766,"99":6767,"ezz":6768,"oad":6769,"Ġalavu":6770,"à¤ĩà¤µ":6771,"Ġ47":6772,"Ġ1962":6773,"Ġmission":6774,"Ġpoortthiy":6775,"Ġrac":6776,"Ġà´¸à´µ":6777,"ukondu":6778,"Ġsthree":6779,"Ġsuttrupp":6780,"adelphia":6781,"lam":6782,"pro":6783,"time":6784,"Ġjaay":6785,"Ġavash":6786,"appattanar":6787,"aakkukayum":6788,"ugalil":6789,"Ġaagiya":6790,"Ġpratiyog":6791,"Ġulkkoll":6792,"Ġsaptah":6793,"keth":6794,"Ġvery":6795,"Ġfund":6796,"Ġà®İà®ķ":6797,"ritik":6798,"Ġuthar":6799,"Ġuthpp":6800,"Ġmagan":6801,"Ġprovid":6802,"Ġinvestig":6803,"Ġrichard":6804,"Ġdut":6805,"Ġlib":6806,"à¤ªà¤·":6807,"à´¦à´¨":6808,"Ġset":6809,"uththathu":6810,"Ġthird":6811,"Ġpaathai":6812,"Ġkolg":6813,"Ġamainthullathu":6814,"witter":6815,"à´¦à´¤":6816,"à¤ľà¤ķ":6817,"Ġà´ļàµ¼à´ļ":6818,"ustral":6819,"100":6820,"oth":6821,"à´¨àµ¼à´¨":6822,"Ġdeg":6823,"Ġdoctor":6824,"Ġ1939":6825,"Ġà¤§à¤°":6826,"Ġselv":6827,"Ġà¤¸à¤¹à¤¯":6828,"Ġvettri":6829,"56":6830,"htt":6831,"kae":6832,"Ġpush":6833,"Ġait":6834,"Ġbreak":6835,"Ġodu":6836,"anthara":6837,"aims":6838,"Ġaksh":6839,"atharkum":6840,"Ġanumati":6841,"vu":6842,"ikkai":6843,"ols":6844,"Ġkalvi":6845,"Ġscore":6846,"Ġperson":6847,"Ġmul":6848,"Ġtax":6849,"llana":6850,"omp":6851,"riday":6852,"Ġmoontraavathu":6853,"ĠAngeles":6854,"73":6855,"à¤ķà¤ª":6856,"Ġdays":6857,"Ġlink":6858,"oti":6859,"Ġphot":6860,"Ġsaha":6861,"Ġjile":6862,"à´İàµ½":6863,"à¯į/":6864,"Ġpook":6865,"eetha":6866,"à´²à´ĺà´Ł":6867,"Ġenter":6868,"à®´à®®":6869,"Ġvilaivaaga":6870,"Ġà´ªà´°à´¸":6871,"Ġcompanies":6872,"1980":6873,"Ġreturn":6874,"Ġkhilaadi":6875,"rus":6876,"Ġvaang":6877,"Ġ41":6878,"à´ľà´¨à´¨":6879,"Ġpaathukaappu":6880,"emocrat":6881,"Ġsthanant":6882,"Ġpaathukaapp":6883,"Ġkatch":6884,"à´ªà´¬":6885,"à¤²à¤®":6886,"Ġcame":6887,"à´Ĺàµ¼":6888,"Ġkarar":6889,"Ġpolit":6890,"Ġavatharipp":6891,"other":6892,"à®ķà®ļ":6893,"arai":6894,"uring":6895,"à¤ªà¤£":6896,"Ġeedu":6897,"Ġvirodh":6898,"Ġsmith":6899,"Ġnivaas":6900,"ukayo":6901,"do":6902,"iyat":6903,"Ġvaah":6904,"elan":6905,"à´§à´Ļ":6906,"Ġpot":6907,"Ġpoint":6908,"Ġpeechhe":6909,"num":6910,"araaga":6911,"à¥Ĥà¤Ĥ":6912,"aamathe":6913,"idhu":6914,"à¤«à¤°":6915,"priya":6916,"Ġaadyamaayi":6917,"Ġnadatthi":6918,"Ġmaad":6919,"à¤¬à¤¨":6920,"Ġaanaar":6921,"Ġthunai":6922,"Ġdablyu":6923,"dd":6924,"yap":6925,"iyiyal":6926,"Ġprayaas":6927,"Ġà´Ĩà´§":6928,"ĠComm":6929,"iano":6930,"Ġbadee":6931,"Ġmadad":6932,"Ġnirddesh":6933,"Ġglobal":6934,"Ġà¤®à¤¦à¤¦":6935,"à®©à®ª":6936,"Ġvott":6937,"Ġlene":6938,"Ġlife":6939,"à®ªà®Łà®®":6940,"Ġpareekshan":6941,"ippikkaan":6942,"Ġpathav":6943,"Ġseiyappattathu":6944,"Ġoopar":6945,"ca":6946,"aniya":6947,"Ġmatthiya":6948,"à®®à®¸":6949,"à¤·à¤¦":6950,"Ġ400":6951,"Ġmaariyathu":6952,"Ġthudar":6953,"Ñģ":6954,"ano":6955,"à®©à®¸":6956,"à´¶à´¨":6957,"àµºà´ķ":6958,"Ġà®Ĳà®ķ":6959,"Ġteams":6960,"Ġezhuthiya":6961,"Ġnirmmicha":6962,"Ġkilap":6963,"aippaduthth":6964,"Ġhaih":6965,"àµį\",":6966,"idayil":6967,"athulla":6968,"apo":6969,"Ġà¤Ĩà¤¨":6970,"Ġaangal":6971,"undaayirunnu":6972,"ruvari":6973,"Ġkalluri":6974,"Ġbinaa":6975,"Ġsharashari":6976,"han":6977,"vik":6978,"ze":6979,"Ġq":6980,"Ġà¤®à¤¤":6981,"ikkappett":6982,"à¤·à¤®":6983,"Ġaup":6984,"à´ļàµ¼":6985,"à¤µà¤ķ":6986,"iment":6987,"apati":6988,"aava":6989,"ugirathu":6990,"Ġsoft":6991,"Ġanubav":6992,"Ġathinaal":6993,"varalaaru":6994,"ganiz":6995,"à¤°à¤ªà¤¤":6996,"akash":6997,"icago":6998,"à¥Īà¤Ĥà¤ĥ":6999,"Ġhainh":7000,"aahi":7001,"Ġpetr":7002,"Ġvazhakk":7003,"ague":7004,"mik":7005,"til":7006,"anda":7007,"à¥Īà¤ĥ":7008,"Ġà¤ıà¤ª":7009,"Ġ42":7010,"Ġdivas":7011,"Ġviruthu":7012,"à¯Ī-":7013,"à´¸àµ¼":7014,"Ġtheruv":7015,"ĠSp":7016,"Ġà´¦à´¶":7017,"Ġennivayude":7018,"Ġpattik":7019,"1996":7020,"Ġjeevith":7021,"Ġaandugalil":7022,"Ġdoubleu":7023,"book":7024,"Ġpanth":7025,"Ġpitaa":7026,"Ġach":7027,"Ġà¤¸à¤ª":7028,"Ġà´¸à´ľ":7029,"à¤·à¤¯":7030,"Ġà´Ĩà´´":7031,"Ġexecut":7032,"ouis":7033,"Ġcloud":7034,"irik":7035,"à´³àµ¼":7036,"Ġjim":7037,"Ġennum":7038,"avarkal":7039,"Ġconf":7040,"Ġkadin":7041,"aiththu":7042,"Ġà®ĵà®¯":7043,"Ġmedical":7044,"Ġgaanv":7045,"EY":7046,"haar":7047,"Ġkaiv":7048,"Ġdin":7049,"Ġra":7050,"Ġà®¨à®ªà®°":7051,"Ġsarasari":7052,"Ġprakriya":7053,"Ġseema":7054,"aranam":7055,"Ġcustom":7056,"odoppam":7057,"kari":7058,"Ġsoc":7059,"Ġdha":7060,"Ġ1958":7061,"Ġthamas":7062,"ihaasik":7063,"gy":7064,"je":7065,"orado":7066,"Ġchithram":7067,"ĠMc":7068,"armman":7069,"ploy":7070,"Ġjinhen":7071,"Ġà¤Ĳà¤¤":7072,"Ġaitihaasik":7073,"72":7074,"II":7075,"thii":7076,"Ġterm":7077,"aththirkaana":7078,"Ġiyakkunar":7079,"Ġsaanketh":7080,"42":7081,"58":7082,"ĠÂ":7083,"umaiyaana":7084,"à´²à´ķà´³":7085,"Ġdavid":7086,"ichuv":7087,"ikalkk":7088,"uppar":7089,"Ġthudangi":7090,"1998":7091,"96":7092,"Ġhist":7093,"Ġmahil":7094,"201804":7095,"charithram":7096,"pathaam":7097,"Ġanubandh":7098,"Ġpunarnir":7099,"Ġmic":7100,"à´ªà´®":7101,"Ġà®ķà®´":7102,"andi":7103,"ichittundu":7104,"Ġshekh":7105,"ittund":7106,"ĠAss":7107,"Ġdoes":7108,"Ġsakati":7109,"Ġabhee":7110,"Ġà¤ĵà¤²":7111,"Ġneeche":7112,"Ġsom":7113,"Ġput":7114,"Ġbatt":7115,"appadavillai":7116,"Ġooo":7117,"Ġrock":7118,"ference":7119,"Ġkadarkar":7120,"TE":7121,"à®ķà®±":7122,"Ġnirn":7123,"Ġakram":7124,"Ġidaiyilaana":7125,"Ġtholaikaatchi":7126,"arana":7127,"à¤¯à¤¦":7128,"Ġeach":7129,"Ġorungin":7130,"Ġshh":7131,"Ġmarup":7132,"Ġà¤°à¤¹à¤¨":7133,"eettar":7134,"janm":7135,"Ġthodarchch":7136,"arik":7137,"Ġmaheen":7138,"à´¤à´Ļ":7139,"à¥ĭ-":7140,"Ġnidh":7141,"aank":7142,"Ġfut":7143,"Ġà¤¦à¤¸":7144,"Ġavadhi":7145,"Ġpiranthaar":7146,"Ġà¤Īà¤¸":7147,"Ġvellai":7148,"dy":7149,"gen":7150,"inc":7151,"Ġkw":7152,"Ġnum":7153,"Ġennariyapp":7154,"que":7155,"ĠJohn":7156,"1995":7157,"Ġminut":7158,"Ġiraanuv":7159,"98":7160,"WOR":7161,"à®Łà®³":7162,"àµ»à´Ł":7163,"ĠCity":7164,"à¤Ĩà¤Ī":7165,"aththirkup":7166,"Ġniyamikkappattaar":7167,"Ġreported":7168,"Ġventraar":7169,"den":7170,"Ðµ":7171,"à¤°à¤ļà¤¨":7172,"asa":7173,"Ġtat":7174,"Ġà´ªà´£":7175,"ora":7176,"Ġprayog":7177,"Ġfell":7178,"Ġkhoj":7179,"paduththuv":7180,"ĠState":7181,"sii":7182,"Ġauthor":7183,"à®±à®µà®°":7184,"eem":7185,"ayar":7186,"Ġfal":7187,"Ġsaamooh":7188,"ĠAmerican":7189,"ient":7190,"atur":7191,"à®¨à®ķà®°":7192,"irukkum":7193,"Ġtheriv":7194,"Ġmilit":7195,"Ġlocal":7196,"less":7197,"Ġside":7198,"Ġbest":7199,"Ġfri":7200,"ikkuka":7201,"Ġyoo":7202,"Ġswantham":7203,"oyile":7204,"Ġezhuthth":7205,"Ġthozhilaazh":7206,"Ġmichael":7207,"Ġblock":7208,"Ġà®¤à®£":7209,"Ġmaruth":7210,"Ġathesamayam":7211,"Ġkalakar":7212,"padi":7213,"Ġ1947":7214,"aisa":7215,"à´Ĩà´¦":7216,"à´¯àµ»à´¸":7217,"Ġthag":7218,"Ġgat":7219,"vare":7220,"Ġvazhivag":7221,"Ġseluthth":7222,"patti":7223,"raparamaaya":7224,"Ġklaas":7225,"don":7226,"Ġris":7227,"Ġcup":7228,"warup":7229,"Ġasal":7230,"ullavar":7231,"Ġseithu":7232,"amswarup":7233,"Ġà´ªà´¦à´µ":7234,"Ġlikhaa":7235,"à´¨à´ª":7236,"ered":7237,"Ġlik":7238,"à¤ľà¤²":7239,"Ġà®ĩà®¤à®´":7240,"Ġidhazh":7241,"Ġkudiya":7242,"Ġpoly":7243,"jananam":7244,"Ġsanraksh":7245,"Ġjeevitam":7246,"well":7247,"Ġà®ħà®ļà®²":7248,"Ġjap":7249,"ivesh":7250,"Ġepp":7251,"Ġardh":7252,"Ġprote":7253,"Ġchikitsa":7254,"anthth":7255,"à¤²à¤¸":7256,"aasan":7257,"Ġpiriv":7258,"Ġdhaar":7259,"Ġà®ĵà®°":7260,"Ġsnaatak":7261,"59":7262,"à´¤à´¸":7263,"Ġdiye":7264,"à¤ªà¤¶":7265,"dhu":7266,"Ġà´İà´ŀ":7267,"Ġadhin":7268,"Ġthiran":7269,"ĠEurop":7270,"Ġà´ĺà´Łà´ķ":7271,"kad":7272,"uf":7273,"za":7274,"ench":7275,"andal":7276,"Ġwomen":7277,"agan":7278,"Ġkarm":7279,"uvin":7280,"à¥Ģà¤Ĥ,":7281,"Ġvestt":7282,"ump":7283,"avumaayi":7284,"Ġkuritthu":7285,"Ġà®ıà®´":7286,"Ġ1949":7287,"Ġagr":7288,"Ġcharles":7289,"ĠThey":7290,"Ġbachchon":7291,"Ġmemb":7292,"aalayil":7293,"Ġprathirodh":7294,"Ġsooththiram":7295,"Ġchildren":7296,"Ġoduvil":7297,"alat":7298,"Ġaezh":7299,"ilaanu":7300,"ilaip":7301,"Ġthese":7302,"Ġvamsh":7303,"aalay":7304,"aththaik":7305,"Ġ52":7306,"Ġrece":7307,"AC":7308,"Ġsag":7309,"à´¨à´°":7310,"à®µà®³":7311,"Ġlive":7312,"Ġà®Ĵà®Ł":7313,"Ġclark":7314,"aadheen":7315,"Ġperumpaalaana":7316,"Ġsthithich":7317,"à®®à®ķ":7318,"à®ļà®ķà®°":7319,"Ġà´ļà´²":7320,"taon":7321,"à´·à´£à´¤":7322,"Ġparinamswarup":7323,"Ġvidyaarth":7324,"Ġdveep":7325,"Ġpag":7326,"Ġvaakk":7327,"Ġathikar":7328,"amaanathu":7329,"Ġappro":7330,"Ġvyavasaay":7331,"pol":7332,"Ġsabh":7333,"Ġpash":7334,"Ġvaid":7335,"à´³à´®":7336,"Ġwar":7337,"ived":7338,"Ġyatra":7339,"road":7340,"Ġamaippugal":7341,"ĠMay":7342,"Ġà´¶à´¬":7343,"Ġkalai":7344,"Ġcouncil":7345,"Ġscored":7346,"Ġvendi":7347,"pok":7348,"Ġpaththir":7349,"asya":7350,"Ġlitt":7351,"Ġparaj":7352,"Ġposs":7353,"Ġamb":7354,"ested":7355,"Ġvarshathe":7356,"Ġ1951":7357,"Ġazhaikkappadukirathu":7358,"Ġagale":7359,"But":7360,"Ġmav":7361,"Ġadu":7362,"à´°àµ½":7363,"eyin":7364,"Ġanup":7365,"Ġsanchaalan":7366,"ginia":7367,"Ġthoalviy":7368,"Ġbhooribh":7369,"jo":7370,"mark":7371,"yaar":7372,"Ġool":7373,"Ġthae":7374,"à¤¹à¤®":7375,"Ġ59":7376,"Ġseithathu":7377,"Ġmusic":7378,"Ġyunaittad":7379,"Ġthomas":7380,"Ġrang":7381,"Ġgold":7382,"Ġfer":7383,"Ġkoopp":7384,"Ġarg":7385,"Ġsurang":7386,"Ġkristh":7387,"Ġparishad":7388,"ĠCoun":7389,"Ġthodarpud":7390,"Ġanukool":7391,"dee":7392,"à´³à´ķ":7393,"oro":7394,"Ġga":7395,"Ġpariyo":7396,"Ġà®īà®Łà®²":7397,"Ġà´¡à´¯à´±":7398,"Ġkuraindha":7399,"Ġ1961":7400,"ujood":7401,"Ġnorw":7402,"Ġpurathir":7403,"Ġpathilaaka":7404,"Ġsaer":7405,"Ġlater":7406,"à´¯à´¤à´¯":7407,"Ġsoathan":7408,"Ġdhyaan":7409,"Ġazhaikkappadum":7410,"Ġjeane":7411,"71":7412,"kiraar":7413,"Ġà®ªà®Łà®¤":7414,"Ġcak":7415,"Ġparv":7416,"Ġshodh":7417,"Ġanug":7418,"Ġennivayil":7419,"Ġà®ķà®©à®Ł":7420,"Ġoliparapp":7421,"49":7422,"vir":7423,"yasth":7424,"Ġthaav":7425,"ayed":7426,"Ġbit":7427,"Ġhold":7428,"Ġà¤®à¤¸":7429,"Ġyude":7430,"Ġchhah":7431,"Ġà¤Ľà¤¹":7432,"Ġraajneetik":7433,"Ġabhipr":7434,"Ġmuzhuvan":7435,"lant":7436,"à¥ĭ\"":7437,"Ġjerman":7438,"aiyaip":7439,"aint":7440,"ththir":7441,"Ġà®ľà®ª":7442,"ĠDemocrat":7443,"Ġbaney":7444,"Ġsudhaar":7445,"lic":7446,"pathu":7447,"vennu":7448,"àµģ\"":7449,"Ġsug":7450,"Ġseek":7451,"Ġhen":7452,"Ġhapp":7453,"thaiya":7454,"uver":7455,"kutt":7456,"Ġpirpaguthiyil":7457,"ston":7458,"Ġbadaa":7459,"Ġfamily":7460,"Ġpitch":7461,"à®¯à®µà®°":7462,"Ġprom":7463,"iyag":7464,"akkaaran":7465,"à¥Īà¥¤\"":7466,"tern":7467,"Ġà®ĩà®©à®Ļ":7468,"Ġsamajik":7469,"Ġtechnology":7470,"Ġmakan":7471,"Ġchart":7472,"à®ªà®Łà®²":7473,"ichath":7474,"Ġà´ħà´µà´¨":7475,"Ġkadaisi":7476,"Ġpravartthanangal":7477,"Ġcakoothar":7478,"dle":7479,"àµģ-":7480,"adami":7481,"Ġenchin":7482,"Ġshally":7483,"Ġmaujood":7484,"aji":7485,"ĠBusiness":7486,"aashaal":7487,"unnathinum":7488,"Ġdekhaa":7489,"Ġninnum":7490,"bs":7491,"ten":7492,"angalile":7493,"ipt":7494,"Ġ43":7495,"Ġasp":7496,"Ġfrance":7497,"Ġthalam":7498,"Ġ1954":7499,"Ġbasketball":7500,"andu":7501,"Ġthoatt":7502,"Ġroll":7503,"Ġkaalagh":7504,"Ġpakuthikal":7505,"Ġsamvidaanam":7506,"Ġgeorg":7507,"Ġsthithicheyy":7508,"79":7509,"ault":7510,"Ġvers":7511,"Ġfail":7512,"à´°à´®à´£":7513,"Ġkattam":7514,"Ġvivaham":7515,"idamirunthu":7516,"Ġbajaay":7517,"EYWOR":7518,"EYWORD":7519,"51":7520,"Ġgot":7521,"Ġà®¨à®µ":7522,"ival":7523,"usarichu":7524,"Ġswaadheen":7525,"taur":7526,"Ġathikaarapp":7527,"Ġchelav":7528,"46":7529,"Ġmukalil":7530,"àµ»à´ªà´¤":7531,"à´¦à´°":7532,"Ġanupp":7533,"Ġennam":7534,"Ġ53":7535,"Ġaarog":7536,"Ġmaanej":7537,"ized":7538,"à¤Ĺà¤®":7539,"Ġparam":7540,"Ġullekh":7541,"Ġabhiyaan":7542,"Ġjuuniyar":7543,"Ġvyaapaar":7544,"Ġlekhak":7545,"Ġsavishesh":7546,"Ġprastaav":7547,"à´³à´¯":7548,"Ġluc":7549,"Ġej":7550,"Ġsex":7551,"ugindrana":7552,"Ġsour":7553,"Ġ1935":7554,"Ġkilom":7555,"Ġkiraam":7556,"Ġroopakalppana":7557,"ko":7558,"à®¤à®ķà®¤":7559,"Ġkitt":7560,"Ġpipravari":7561,"Ġbaat":7562,"ikkumbol":7563,"Ġbhaash":7564,"Ġà´²à´£":7565,"ĠMar":7566,"ffic":7567,"Ġkodu":7568,"Ġ1938":7569,"onto":7570,"Ġacross":7571,"Ġnaadugal":7572,"eeksha":7573,"isipp":7574,"Ġkaruv":7575,"Ġkaalaththil":7576,"ĠGames":7577,"Ġsitt":7578,"à´¸à´µ":7579,"Ġenj":7580,"usesham":7581,"Ġsever":7582,"allas":7583,"eshanam":7584,"Ġà´Ĺà´£":7585,"arnth":7586,"Ġthoantr":7587,"Ġvidyalaya":7588,"Ġaalp":7589,"Ġkuzhandhaigal":7590,"Ġams":7591,"ĠFor":7592,"Ġ1956":7593,"Ġantatah":7594,"Ġprasid":7595,"kkurich":7596,"Ġkadarpad":7597,"jh":7598,"yatha":7599,"Ġrank":7600,"Ġchr":7601,"Ġaatt":7602,"appattullana":7603,"udaneel":7604,"ĠBr":7605,"Ġniruvanangal":7606,"Ġpayirchi":7607,"Ġfebruvari":7608,"Ġthupp":7609,"rupp":7610,"à´³à´µà´°":7611,"Ġjapp":7612,"Ġcentral":7613,"Ġsame":7614,"à¤īà¤Ł":7615,"Ġpoornn":7616,"etro":7617,"Ġsoochi":7618,"Ġsaambath":7619,"Ġmembers":7620,"à®©à®Ł":7621,"Ġhitt":7622,"galukku":7623,"Ġ(<":7624,"Ġchang":7625,"aththiya":7626,"Ġà¤°à¤ĸà¤¨":7627,"Ġhavaai":7628,"Ġparinam":7629,"Ġhoga":7630,"Ġwebs":7631,"Ġhastakshar":7632,"ba":7633,"nte":7634,"atic":7635,"Ġhol":7636,"Ġdarsh":7637,"Ġwind":7638,"irunththu":7639,"evar":7640,"ending":7641,"Ġennivid":7642,"Ġrahane":7643,"à´¨àµ¼":7644,"Ġnaav":7645,"Ġà®®à®ķà®³":7646,"Ġdaav":7647,"Ġtaaki":7648,"Ġà´µà´ķ":7649,"Ġchit":7650,"Ġshesh":7651,"Ġtourn":7652,"Ġnedukayum":7653,"à®²à®¯à®¤":7654,"apatt":7655,"à´ħà´¤":7656,"Ġpaschimi":7657,"Ġadisthaanamaakk":7658,"63":7659,"lorida":7660,"à®ªà®µ":7661,"angiy":7662,"Ġparich":7663,"à¤ĩà¤¯":7664,"aikkum":7665,"Ġnilav":7666,"à®ķà®µà®²":7667,"Ġ1959":7668,"Ġvagaiyil":7669,"Ġsitti":7670,"à´Łàµ¼à´ļ":7671,"Ġjarmman":7672,"Ġà¤Ķà¤¸à¤¤":7673,"eman":7674,"Ġsweekar":7675,"Ġexpress":7676,"adium":7677,"Ġkudumba":7678,"Ġà®ªà®¯à®£":7679,"Ġkalloor":7680,"Ġausat":7681,"Ġsthanantarit":7682,"iev":7683,"alab":7684,"Ġsram":7685,"amaayum":7686,"Ġvaath":7687,"Ġà¤ıà¤ľ":7688,"Ġshail":7689,"Ġ57":7690,"inthur":7691,"Ġshakti":7692,"Ġprograam":7693,"alukal":7694,"athal":7695,"ading":7696,"Ġà¤ªà¤¢":7697,"eduth":7698,"Ġcorn":7699,"Ġmotham":7700,"Ġulaga":7701,"Ġsuttr":7702,"Ġ1953":7703,"skaar":7704,"Ġaccording":7705,"Ġuruppinaraaga":7706,"Ġkizhakk":7707,"uy":7708,"Ġanother":7709,"akkamaana":7710,"ĠBoston":7711,"Ġithanaal":7712,"Ġsarvakalaashaal":7713,"Ġvichaar":7714,"Ġkilled":7715,"Ġthiraippat":7716,"Ġaisaa":7717,"eak":7718,"Ġà´ªà´´à´¯":7719,"Ġef":7720,"ained":7721,"ĠStr":7722,"St":7723,"lum":7724,"Ġ...":7725,"ero":7726,"à´¸à´Ļ":7727,"Ġpiraan":7728,"Ġirunth":7729,"Ġaagrah":7730,"Ġphal":7731,"Ġthalaipp":7732,"Ġpoore":7733,"aimug":7734,"Ġsamayat":7735,"ize":7736,"Ġdiffer":7737,"Ġpazhaya":7738,"Ġsahayak":7739,"jii":7740,"Ġà®İà®³":7741,"uvil":7742,"Ġperr":7743,"igalukku":7744,"à´İà´ļ":7745,"pattathu":7746,"Ġbirudam":7747,"Ġprathinidheekar":7748,"Ġkondirundhadhu":7749,"Ġsiv":7750,"uda":7751,"Ġà¤¦à¤²":7752,"Ġmob":7753,"Ġorganiz":7754,"Ġplace":7755,"Ġà¤ĺà¤Łà¤¨":7756,"ĠChina":7757,"Ġangre":7758,"Ġjaanch":7759,"rugiya":7760,"ursday":7761,"Ġnidhi":7762,"enchu":7763,"à¤µà¤ľ":7764,"Ġcond":7765,"à®ªà®Łà®Ļ":7766,"anti":7767,"Ġnilanir":7768,"Ġvivaah":7769,"board":7770,"Ġà´¦à´¶à´²à´ķ":7771,"Ġpariyojana":7772,"85":7773,"ste":7774,"vill":7775,"Ġmaag":7776,"ately":7777,"Ġbook":7778,"Ġlic":7779,"Ġuts":7780,"Ġpoakku":7781,"aikkal":7782,"Ġorikkal":7783,"Ġà®ĩà®¯à®¨":7784,"Ġoppanth":7785,"Ġkudumbangal":7786,"aasthya":7787,"Ġcommunity":7788,"Ġrashtrapati":7789,"Ġpratinidhitva":7790,"TR":7791,"kkukayum":7792,"urt":7793,"Ġparinthur":7794,"Ġiranthaar":7795,"Ġkalv":7796,"Ġcome":7797,"Ġkattum":7798,"Ġsakey":7799,"Ġdeal":7800,"Ġkhela":7801,"Ġiyan":7802,"anum":7803,"intha":7804,"ats":7805,"Ġvit":7806,"Ġgw":7807,"à®´à®±":7808,"ulpped":7809,"Ġà´ıà´´":7810,"acy":7811,"Ġseiyappad":7812,"Ġcalled":7813,"Ġsigichch":7814,"aaivu":7815,"Ġkeep":7816,"àµ¼à´«":7817,"Ġtook":7818,"Ġjey":7819,"Ġcharan":7820,"Ġà¤Ĩà¤¸à¤ª":7821,"Ġaspas":7822,"Ġsouth":7823,"1960":7824,"ikkunnathinaayi":7825,"Ġmile":7826,"akaala":7827,"Ġraashtr":7828,"aatar":7829,"Ġsthaanam":7830,"Ġà®µà®°à®µ":7831,"Ġalla":7832,"uruthth":7833,"Ġ1934":7834,"1997":7835,"atharkaaka":7836,"Ġsmaar":7837,"ridge":7838,"Ġkireed":7839,"Ġmonths":7840,"Ġiyark":7841,"61":7842,"ness":7843,"àµĭ-":7844,"Ġtor":7845,"Ġscot":7846,"Ġfrancisi":7847,"Ġà´Ķà´¦":7848,"Ġjanasamkhy":7849,"cus":7850,"yathinte":7851,"à¤Ķ":7852,"Ġpast":7853,"Ġhassil":7854,"ury":7855,"Ġwest":7856,"Ġwater":7857,"Ġank":7858,"raft":7859,"egas":7860,"arnthaar":7861,"eeti":7862,"Ġdistr":7863,"Ġneu":7864,"iversity":7865,"Ġsamvidaan":7866,"Ġdam":7867,"à®£à®°":7868,"ages":7869,"Ġmagal":7870,"atthilulla":7871,"avastha":7872,"Ġannounced":7873,"hu":7874,"Ġkrish":7875,"chii":7876,"aayirunna":7877,"osed":7878,"aikappatta":7879,"athinushesham":7880,"Ġaakiyoar":7881,"AT":7882,"far":7883,"eedugal":7884,"Ġchair":7885,"elu":7886,"à¤Ĺà¤¦":7887,"Ġaall":7888,"eller":7889,"Ġà®²à®£":7890,"Ġeuropian":7891,"Ġonnaam":7892,"Ġà´¤à´µà´£":7893,"Ġkoleju":7894,"Ġvistaar":7895,"62":7896,"Ġkim":7897,"adana":7898,"Ġdeer":7899,"Ġmet":7900,"Ġà´ħàµ½":7901,"à¤·à¤®à¤¤":7902,"Ġpoll":7903,"Ġà¤ļà¤°à¤£":7904,"appedut":7905,"Ġ1957":7906,"Ġcred":7907,"Ġpoattiy":7908,"Ġvilaiyaadinaar":7909,"?\"":7910,"aanum":7911,"Ġhill":7912,"Ġ1918":7913,"aniel":7914,"Ġpada":7915,"Ġillaath":7916,"Ġusee":7917,"à´°à´ķà´Łà´¨":7918,"Ġnalkukayum":7919,"à´ĩà´¨":7920,"ethire":7921,"Ġkach":7922,"à¤¿à¥¤":7923,"à´µà´¤à´¨":7924,"Ġless":7925,"aha":7926,"dhii":7927,"aaksh":7928,"Ġkuru":7929,"Ġ1936":7930,"Ġpurushan":7931,"Ġthavana":7932,"57":7933,"Ch":7934,"hal":7935,"Ġniji":7936,"Ġcase":7937,"Ġpriv":7938,"athint":7939,"iple":7940,"innesota":7941,"Ġspasht":7942,"Ġmunm":7943,"Ġ1933":7944,"Ġaasth":7945,"Ġspecial":7946,"thurai":7947,"Ġsaw":7948,"Ġmunk":7949,"Ġram":7950,"Ġtata":7951,"Ġà®¤à®ķà®µà®²":7952,"Ġà¤īà¤¡":7953,"ified":7954,"à®ħà®¤":7955,"Ġà¤īà¤ªà¤²à¤¬":7956,"athumaaya":7957,"Ġrahate":7958,"Ġnyoo":7959,"à´°à´¶à´¸":7960,"Ġeduththukk":7961,"Ġmahilaaon":7962,"Ġ-":7963,"Ġthazh":7964,"shr":7965,"akaaran":7966,"aard":7967,"Ġjam":7968,"edia":7969,"Ġà¤Ĺà¤£":7970,"apad":7971,"Ġunit":7972,"Ġdhaa":7973,"ikkunnathil":7974,"Ġmudiy":7975,"Ġ1931":7976,"Ġvaniga":7977,"Ġevent":7978,"Ġemploy":7979,"Ġthagaval":7980,"92":7981,"nj":7982,"tim":7983,"à¯į'":7984,"ared":7985,"Ġple":7986,"Ġmess":7987,"Ġà¤Ĩà¤®à¤¤":7988,"ukalilum":7989,"Ġà´Ĺà´¤":7990,"Ġmark":7991,"Ġaamtaur":7992,"ĠNo":7993,"Ġethiraana":7994,"Ġmajor":7995,"ei":7996,"vyak":7997,"yaap":7998,"Ġdenn":7999,"asan":8000,"ahaay":8001,"Ġnirdh":8002,"Ġpadaippugal":8003,"Ġmigapp":8004,"Ġthiranjedupp":8005,"Ġkavundi":8006,"Ġcenter":8007,"Ġpratiyogita":8008,"87":8009,"Ġdell":8010,"à¤¶à¤²":8011,"à¤«à¤¨":8012,"Ġ54":8013,"1994":8014,"Ġthogupp":8015,"Ġexpected":8016,"ĠX":8017,"inad":8018,"Ġlaur":8019,"ention":8020,"à´¯à´®à´Ļ":8021,"Ġconst":8022,"Ġsarvakalashaalayil":8023,"Ġunn":8024,"thik":8025,"aakku":8026,"airi":8027,"à´¡à´±":8028,"ittsbur":8029,"ĠSen":8030,"Ġkurachu":8031,"Ġkuranja":8032,"Ġvilaiv":8033,"Ġreb":8034,"1989":8035,"Ġà®Ĭà®ķ":8036,"Ġsadasyon":8037,"Ġà´¡à´¯à´±à´ķ":8038,"Ġkaalaghatt":8039,"Ġpool":8040,"Ġbudh":8041,"erst":8042,"à´Ńà´¯":8043,"Ġmantri":8044,"Ġkurugiya":8045,"Ġwithout":8046,"Ġjanath":8047,"Ġsiddh":8048,"ĠRussia":8049,"mat":8050,"yakal":8051,"Ġ000":8052,"à®®à®®":8053,"à´ªà´±à´¯":8054,"Ġcro":8055,"à¤ıà¤«":8056,"Ġswaasthya":8057,"Ġcharithr":8058,"Ġchalaa":8059,"Ġkanakkaakk":8060,"Ġcheythath":8061,"Ġontraaka":8062,"rth":8063,"Ġsivil":8064,"kkaar":8065,"Ġtalk":8066,"oronto":8067,"Ġesh":8068,"Ġshot":8069,"Ġ1952":8070,"Ġlaabh":8071,"Ġdidn":8072,"Ġvelippaduthth":8073,"Ġsamsthaana":8074,"Ġparajay":8075,"Ġnool":8076,"Ġjang":8077,"Ġjorj":8078,"à¤ĸà¤¤":8079,"head":8080,"Ġalleg":8081,"Ġphill":8082,"Ġsanrach":8083,"Ġvayass":8084,"Ġveliyeett":8085,"Ġchunaa":8086,"Ġvepp":8087,"86":8088,"Part":8089,"àµĨà´Ĥ":8090,"Ġnambar":8091,"à¤¤à¤°à¤£":8092,"uni":8093,"Ġopt":8094,"Ġà´Ĵà´±":8095,"ippugal":8096,"oorn":8097,"Ġforward":8098,"Ġaaloch":8099,"Ġbox":8100,"Ġvazhangkappattathu":8101,"Ġsaerntha":8102,"Ġneeng":8103,"Ġpakk":8104,"isl":8105,"Ġlist":8106,"Ġcrit":8107,"aiyaik":8108,"à´¶à´®":8109,"osa":8110,"Ġital":8111,"Ġirukka":8112,"Ġà´ľà´¨à´±àµ½":8113,"aadukal":8114,"SE":8115,"Ġkin":8116,"Ġsaat":8117,"Ġpally":8118,"Ġnip":8119,"Ġà®µà®Ļ":8120,"Ġgri":8121,"àµģà´Ĥ\"":8122,"Ġà®ĩà®¸":8123,"Ġfais":8124,"Ġwinn":8125,"aavukku":8126,"Ġstock":8127,"ĠPol":8128,"Ġkalaignar":8129,"Ġpaththirig":8130,"Ġ|":8131,"à¯ĭ\"":8132,"à¯ĭ-":8133,"à´¬à´Ļ":8134,"Ġariy":8135,"Ġeuropeeya":8136,"Ġlambe":8137,"dis":8138,"anavum":8139,"Ġpaatt":8140,"Ġà¤¸à¤²":8141,"Ġlund":8142,"agon":8143,"Ġ1914":8144,"Ġoraal":8145,"Ġdeath":8146,"orney":8147,"arkalin":8148,"Ġpayanpaduththi":8149,"Ġlaunch":8150,"american":8151,"Ġdoosara":8152,"Ġpadaippir":8153,"eyude":8154,"iyilum":8155,"antar":8156,"ĠPro":8157,"Ġthozh":8158,"ikarik":8159,"Ġinternational":8160,"47":8161,"laa":8162,"Ġsaksham":8163,"Ġdro":8164,"à´«à´·à´£àµ½":8165,"ththam":8166,"Ġmarichu":8167,"Ġnilaiyam":8168,"Ġreach":8169,"aikalin":8170,"Ġyoung":8171,"ungaatch":8172,"Ġsaadhaarana":8173,"Ġdecision":8174,"ograph":8175,"83":8176,"IR":8177,"cum":8178,"cur":8179,"john":8180,"Ġvash":8181,"Ġpraarambhik":8182,"Ġsamyoj":8183,"Ġkaruth":8184,"eshak":8185,"Ġbell":8186,"Ġsports":8187,"ĠDonald":8188,"Ġmunisipp":8189,"Ġnagaraththin":8190,"à®¤à®°à®°":8191,"Ġsirappu":8192,"ancer":8193,"Ġà´ĺà´Łà´¨":8194,"Ġozhiv":8195,"Ġjahaan":8196,"atthakka":8197,"ĠAssoci":8198,"Ġder":8199,"Ġavare":8200,"Ġbhej":8201,"à¯į\".":8202,"Ġorder":8203,"Ġkathaapaathr":8204,"Ġavattrin":8205,"Ġprocess":8206,"eam":8207,"Ġbav":8208,"à´µà´¨à´Ļ":8209,"Ġcub":8210,"Ġà¤¹à¤Ł":8211,"Ġà´ķà´Łà´¨":8212,"Ġà®ĩà®µ":8213,"Ġà¤¨à¤Ĺà¤°":8214,"akkil":8215,"Ġvarthth":8216,"ĠTaiwan":8217,"Ġ56":8218,"Ġusaki":8219,"Ġprakaram":8220,"Ġreports":8221,"Ġindustry":8222,"TON":8223,"Ġgul":8224,"Ġaabh":8225,"olin":8226,"Ġvaraiyar":8227,"avaris":8228,"Ġmartin":8229,"aikka":8230,"à®ħà®²":8231,"Ġ04":8232,"Ġconnect":8233,"paksh":8234,"à¤°à¤ļ":8235,"athayil":8236,"athakal":8237,"à´ļà´ķ":8238,"Ġfind":8239,"Ġ1929":8240,"aiyana":8241,"ĠJersey":8242,"Ġsentar":8243,"An":8244,"fee":8245,"iladelphia":8246,"athay":8247,"akad":8248,"Ġyuv":8249,"à¯ģ.\"":8250,"oto":8251,"ĠCon":8252,"Ġfred":8253,"Ġà®ķà®Łà®¨":8254,"Ġà¤ªà¤¹à¤ļ":8255,"Ġvadakkan":8256,"Ġoorj":8257,"Ġsamsthaan":8258,"ians":8259,"Ġmoor":8260,"à´¹à´°":8261,"ĠDec":8262,"ilekkulla":8263,"Ġsambhavana":8264,"Ġcampaign":8265,"Ġpaarambariya":8266,"Ġsiddhant":8267,"aae":8268,"Ġdaan":8269,"Ġequ":8270,"Ġanim":8271,"Ġà´¤à´¤":8272,"adhan":8273,"2023":8274,"ĠWire":8275,"Ġksham":8276,"Ġulppeduth":8277,"81":8278,"à®ªà®£":8279,"erve":8280,"à¤¸à¤¬":8281,"aamath":8282,"thira":8283,"ĠRes":8284,"Ġpurvi":8285,"Ġsuzh":8286,"Ġvaakku":8287,"Ġolii":8288,"Ġvipar":8289,"Ġthalaivaraaga":8290,"Ġbachche":8291,"Ġtournament":8292,"sang":8293,"Ġà¤ķà¤ķ":8294,"unj":8295,"astt":8296,"ugiraar":8297,"Ġaaraa":8298,"Ġdharm":8299,"Ġautom":8300,"Ġaetrtrukk":8301,"Ġthoalviyad":8302,"Ġmigapperiya":8303,"go":8304,"ret":8305,"à´Ĥà´ĥ":8306,"à¥Ī;":8307,"Ġ1919":8308,"tries":8309,"à¤¾à¥¤\"":8310,"Ġnilai":8311,"Ġamericavil":8312,"thozhil":8313,"54":8314,"aris":8315,"à¤¸à¤¦":8316,"àµĭ\"":8317,"Ġdaud":8318,"ippukal":8319,"Ġpop":8320,"Ġà¤Ĩà¤¯à¤°":8321,"unday":8322,"ĠWorld":8323,"ĠEx":8324,"Ġà®ĵà®µ":8325,"akaranam":8326,"akaarya":8327,"eiii":8328,"nav":8329,"Ġsikkal":8330,"iyaal":8331,"angalukku":8332,"Ġyill":8333,"Ġyaath":8334,"Ġà®Ĵà®´":8335,"Ġvishwas":8336,"Ġkadannu":8337,"Ġthozhilnut":8338,"eim":8339,"ges":8340,"iyayil":8341,"à´Łà´²":8342,"Ġà®ªà®µ":8343,"ended":8344,"Ġmutt":8345,"Ġà¤īà¤¸à¤¨":8346,"Ġneethrth":8347,"Ġreethiyaaga":8348,"Ġangreji":8349,"iod":8350,"ially":8351,"Ġkeey":8352,"Ġà´ħà´¬":8353,"à´¦àµ¼à´¶":8354,"ivi":8355,"illi":8356,"aast":8357,"Ġkalichu":8358,"Ġusane":8359,"à®ĩà®©":8360,"Ġgroupp":8361,"Ġkendrit":8362,"Ġbandham":8363,"Ġmalsarathil":8364,"athinteyum":8365,"à¤®à¤ļ":8366,"Ġarungaatch":8367,"à´¥à´²à´¤":8368,"Ġsainya":8369,"Ġleading":8370,"Ġgermany":8371,"Ġshooting":8372,"Ġadministration":8373,"eeram":8374,"Ġthonn":8375,"Ġnuk":8376,"uthup":8377,"Ġà¤µà¤¸":8378,"utions":8379,"Ġvarud":8380,"uvatharku":8381,"à´¥à´²à´Ļ":8382,"aththilum":8383,"Ġoffice":8384,"Ġcompet":8385,"Ġpinvarum":8386,"Ġudyogasth":8387,"Ġpiraanthiy":8388,"alo":8389,"Ġpichh":8390,"Ġjana":8391,"Ġwil":8392,"Ġà®¨à®²":8393,"ĠShe":8394,"à¤ĩà¤ľ":8395,"ĠAs":8396,"Ġpirenchu":8397,"Ġvishisht":8398,"Ġudal":8399,"à´¯à´ķà´°à´®":8400,"Ġ1932":8401,"Ġshareer":8402,"Ġrooad":8403,"Ġprathyekichu":8404,"Ġparipaad":8405,"BA":8406,"cons":8407,"Ð¸":8408,"ilai":8409,"à¤®à¤Ĺ":8410,"Ġà®µà®©":8411,"elt":8412,"ippikkunna":8413,"Ġkuriththa":8414,"umbus":8415,"Ġà´ľà´¨à´ª":8416,"ancial":8417,"Ġuyarnilaip":8418,"Ġkambani":8419,"Ġdeergh":8420,"%,":8421,"Ġmich":8422,"Ġà®¨à®£":8423,"Ġeth":8424,"ither":8425,"à´Ĺà´£":8426,"ukaar":8427,"Ġaluval":8428,"ĠSan":8429,"Ġkurikkirathu":8430,"ĠNational":8431,"Ġcharcha":8432,"Ġdeb":8433,"Ġà¤°à¤ĸà¤¤":8434,"Ġearl":8435,"Ġrashtreeya":8436,"Ġyoonivers":8437,"Most":8438,"ror":8439,"we":8440,"wh":8441,"Ġsook":8442,"Ġà¤ķà¤¥":8443,"Ġthh":8444,"unhone":8445,"Ġtaiyar":8446,"Ġgas":8447,"Ġà´ħà´Łà´Ļ":8448,"ithan":8449,"Ġbete":8450,"Ġsootra":8451,"Ġthekkan":8452,"Ġpallyil":8453,"sa":8454,"Ġsuth":8455,"aaniv":8456,"Ġtest":8457,"Ġavail":8458,"aadam":8459,"ettam":8460,"inethir":8461,"Ġsaathan":8462,"iththal":8463,"à¤ħà¤ª":8464,"Ġplayoff":8465,"Ġpoalavae":8466,"Ġperumb":8467,"ĠKorea":8468,"Ġpoakkuvar":8469,"pi":8470,"waas":8471,"Ġpithaav":8472,"Ġolympic":8473,"Ġled":8474,"Ġcare":8475,"ready":8476,"count":8477,"Ġvahaan":8478,"Ġcharit":8479,"1988":8480,"Ġsaine":8481,"Ġaadhikarik":8482,"Ġtharpoothaiya":8483,"Ġkshamata":8484,"à´Ľ":8485,"ayer":8486,"Ġlat":8487,"angalkku":8488,"à¤§à¤ķ":8489,"akkiya":8490,"ipathi":8491,"ĠDep":8492,"lu":8493,"aring":8494,"Ġcole":8495,"Ġà¤ıà¤°":8496,"Ġadalat":8497,"Ġpirachch":8498,"oomi":8499,"Ġamgeekar":8500,"Ġà®Ĭà®´":8501,"Ġsidh":8502,"ches":8503,"Ġgreat":8504,"àµ¾à´ķ":8505,"Ġechu":8506,"uthalil":8507,"Ġupalab":8508,"Ġthudarch":8509,"Ġ1937":8510,"riddhi":8511,"ikkappedunnu":8512,"Ġlosses":8513,"Ġvaagd":8514,"Partly":8515,"à´°à´ľ":8516,"chaath":8517,"Ġà¤¸à¤ļ":8518,"Ġà¤¹à¤¤":8519,"àµ»à´¹":8520,"Ġà®¤à®ª":8521,"Ġsamaaj":8522,"à¤ļà¤ķ":8523,"ule":8524,"Ġà®ĩà®°à®Ł":8525,"rie":8526,"à´·à´£à´Ļ":8527,"à´Ĩàµ¼":8528,"Ġplayers":8529,"aasthram":8530,"52":8531,"àµį;":8532,"Ġ1927":8533,"Ġunited":8534,"appada":8535,"Ġindian":8536,"Ġaerpad":8537,"Ġkoottam":8538,"Ġjohns":8539,"Ġeurope":8540,"Ġseveral":8541,"yathil":8542,"Ġkaik":8543,"à®µà®²à®°":8544,"enue":8545,"ooru":8546,"shas":8547,"à´¡àµ»":8548,"àµ»à´¡à´±":8549,"udha":8550,"Ġseven":8551,"Ġmaathir":8552,"Ġsenatt":8553,"Ġsaint":8554,"burg":8555,"Ġpaes":8556,"à®®à®£à®®":8557,"Ġsammelan":8558,"Ġjoseph":8559,"Ġsoftware":8560,"poorv":8561,"ually":8562,"ved":8563,"Ġ*":8564,"à®Łà®¸":8565,"Ġmunna":8566,"à´Łàµ½":8567,"idappatta":8568,"Ġgerm":8569,"Ġwhe":8570,"ukizh":8571,"anigal":8572,"aramaana":8573,"Ġsthaapichu":8574,"aththirkum":8575,"paschim":8576,"Ġkaathal":8577,"nad":8578,"iyaavil":8579,"Ġà®ĩà®±à®ķ":8580,"Ġà´®à´²":8581,"Ġà®¨à®ķ":8582,"ichi":8583,"à´¶à´ª":8584,"Ġpoon":8585,"aadiyon":8586,"ĠAll":8587,"Ġsouthu":8588,"ibaddh":8589,"Ġsthaanathe":8590,"Ġsuraksh":8591,"Ġprashans":8592,"07":8593,"Ġkent":8594,"erc":8595,"Ġà®¤à®³à®®":8596,"Ġpraksh":8597,"Ġwarn":8598,"Ġkaafee":8599,"Ġà´ĩà´²à´ķ":8600,"Ġupeksh":8601,"aramaayi":8602,"Ġningal":8603,"okes":8604,"Ġserkk":8605,"Ġseyalpad":8606,"Ġloka":8607,"Ġepisode":8608,"archi":8609,"Ġthul":8610,"shika":8611,"Ġcos":8612,"Ġfew":8613,"aging":8614,"Ġseat":8615,"padinj":8616,"Ġexpl":8617,"Ġpatra":8618,"Ġgharelu":8619,"Ġpazhaiya":8620,"Ġontraakum":8621,"Ġninnaan":8622,"Ġiroappiya":8623,"matt":8624,"Ð°":8625,"à´ı":8626,"inent":8627,"Ġpaaya":8628,"àµ½à´±":8629,"Ġchin":8630,"appil":8631,"à¤Ĺà¤¹":8632,"Ġà¤ħà¤ªà¤°":8633,"ayumaayi":8634,"Ġmaruththu":8635,"Ġkoat":8636,"Ġrakhane":8637,"ĠIsland":8638,"thudarnnu":8639,"Ġsach":8640,"asil":8641,"Ġmex":8642,"Ġshort":8643,"ishya":8644,"Ġà¤Ĩà¤ı":8645,"ikalp":8646,"Ġmaanavargal":8647,"Ġroyal":8648,"Ġhalf":8649,"Ġpodhuvaana":8650,"Ġnoottaandinte":8651,"Ġcases":8652,"Ġtharpoothu":8653,"Ġlibr":8654,"Ġlittle":8655,"'ve":8656,"get":8657,"ineer":8658,"Ġkenn":8659,"Ġpati":8660,"à¤Łà¤¸":8661,"Ġfight":8662,"à¤¡à¤®":8663,"à´¡àµ½":8664,"uted":8665,"Ġmarab":8666,"Ġvilay":8667,"Ġrung":8668,"thiran":8669,"ensive":8670,"Ġthozhilmurai":8671,"Ġnjaan":8672,"Ġpadinjaaran":8673,"Ġaakraman":8674,"à®Ī":8675,"amin":8676,"umulla":8677,"Ġboy":8678,"Ġà¤²à¤ķ":8679,"eshth":8680,"Ġthoattr":8681,"1991":8682,"Ġpanked":8683,"lament":8684,"Ġnid":8685,"Ġà®®à®°à®ª":8686,"Ġdasal":8687,"agn":8688,"Ġinainthu":8689,"Ġà¤Ńà¤µ":8690,"athilulla":8691,"ully":8692,"Ġnaamit":8693,"Ġnirmaata":8694,"Ġmilitary":8695,"43":8696,"Ġmaid":8697,"Ġren":8698,"Ġtheru":8699,"ipur":8700,"appadalaam":8701,"ortun":8702,"Ġulpp":8703,"à®¤à®°à®µ":8704,"Ġcountries":8705,"Ġà®ħà®ķà®±":8706,"Ġearly":8707,"Ġvaagdaanam":8708,"à®¯à®ķà®®":8709,"à´®àµ¼":8710,"à´¸à´¨":8711,"àµ¼à´²à´®":8712,"à®µà®°à®Ļ":8713,"ability":8714,"aps":8715,"1950":8716,"à´¹à´®":8717,"etting":8718,"Ġà´ħà´µà´¶":8719,"ĠAfr":8720,"iyamaana":8721,"Ġilam":8722,"Ġbahum":8723,"Ġaerpaduthth":8724,"Ġuruvaakkappattathu":8725,"Ġladaai":8726,"Ġmaarukayum":8727,"Ġthernthedukkappattaar":8728,"Ġcatholica":8729,"etroit":8730,"41":8731,"jit":8732,"Ġnatch":8733,"Ġà´ªà´¨":8734,"Ġfoc":8735,"Ġthanipatta":8736,"Ġulln":8737,"Ġreally":8738,"Ġaadyam":8739,"Ġchhaatr":8740,"Ġmaatti":8741,"argalin":8742,"Ġneelam":8743,"Ġkaundi":8744,"Ġdoosari":8745,"Ġbhaaratiya":8746,"Ġchhatron":8747,"à´ķà´Ļ":8748,"à´¤à´°à´£":8749,"Ġvev":8750,"Ġvangk":8751,"Ġox":8752,"à¤µà¤¯":8753,"Ġmeter":8754,"Ġgathan":8755,"Ġà¤Ĺà¤łà¤¨":8756,"Ġsamiti":8757,"Ġupa":8758,"Ġbanaai":8759,"Ġangkeekar":8760,"Ġaththiyaay":8761,"89":8762,"Ġthr":8763,"Ġrod":8764,"Ġ1921":8765,"Ġ1928":8766,"athine":8767,"Ġvalakkamaana":8768,"Ġperuv":8769,"acter":8770,"Ġpolic":8771,"Ġkanada":8772,"Ġengland":8773,"Ġavalok":8774,"ĠPress":8775,"Ġsheershak":8776,"aathamik":8777,"Ġpanam":8778,"à´¯à´°":8779,"athaith":8780,"Ġvasth":8781,"adron":8782,"Ġwalk":8783,"Ġà¤µà¤ķ":8784,"Ġmoas":8785,"1993":8786,"Ġsaamane":8787,"à®°à®£à®¤":8788,"Ġnaall":8789,"aththirkaaga":8790,"Ġpeshevar":8791,"Ġjahaaj":8792,"Ġennariyapped":8793,"eru":8794,"Ġà´Ĭ":8795,"atmak":8796,"Ġkaruppu":8797,"Ġà®ĩà®°à®µ":8798,"ctober":8799,"à®¯à®°à®ļ":8800,"Ġvilyam":8801,"Ġpaaththir":8802,"à®µà®®à®©":8803,"Ġimm":8804,"Ġkudumbam":8805,"Ġnirnay":8806,"matra":8807,"chaan":8808,"atti":8809,"Ġfun":8810,"ela":8811,"Ġ1924":8812,"Ġaae":8813,"Ġseiyum":8814,"Ġonline":8815,"à´°à´®à´¤":8816,"Ġmanj":8817,"Ġconv":8818,"Ġplat":8819,"ĠUS":8820,"Ġnott":8821,"àµ¼à´¬à´¨":8822,"Ġincre":8823,"Ġvyathyasth":8824,"Ġklabb":8825,"Ġimpro":8826,"Ġuddeshya":8827,"Ġbhooribhaagavum":8828,"kaan":8829,"porul":8830,"à®²à®¯à®®":8831,"àµĭ.":8832,"Ġdish":8833,"Ġcov":8834,"Ġ1917":8835,"ential":8836,"rib":8837,"à´°à´¤à´®":8838,"Ġlagaaya":8839,"Ġpoatti":8840,"dish":8841,"ravar":8842,"aall":8843,"à®²à®±":8844,"iyaip":8845,"à¤¨à¤¦":8846,"aaramb":8847,"Ġà®ķà®ļ":8848,"à´Ĺà´±":8849,"aiyaalargal":8850,"akkar":8851,"ukalai":8852,"Ġmanii":8853,"Ġplan":8854,"ustin":8855,"appeduthi":8856,"ĠJul":8857,"Ġethirk":8858,"Ġmandal":8859,"Ġaustralia":8860,"Ġaadhunik":8861,"Ġmajboot":8862,"Ġpradhaanamaayum":8863,"echn":8864,"vaaru":8865,"Ġkay":8866,"Ġkooruk":8867,"Ġà´İà´¯àµ¼":8868,"Ġstadium":8869,"atthatta":8870,"Ġadharit":8871,"under":8872,"ullil":8873,"ĠBay":8874,"Ġsweekaar":8875,"Ġà¤¤à¤ķà¤¨":8876,"Ġà´Ĳà´ķ":8877,"Ġmukkiyamaana":8878,"Ġprevious":8879,"Ġneethrthw":8880,"ny":8881,"Ġjy":8882,"Ġ1925":8883,"Ġanur":8884,"Ġtown":8885,"aattin":8886,"Ġ63":8887,"Ġmantr":8888,"Ġninaiv":8889,"Ġident":8890,"Ġà´¸à´®à´¯":8891,"Ġsevaaniv":8892,"Ġcommand":8893,"Ġnyoos":8894,"Ġsevanamanushtichu":8895,"Ġottrai":8896,"Ġjaayega":8897,"84":8898,"Ġvote":8899,"Ġvaangk":8900,"Ġjil":8901,"à¥ģà¤ģ":8902,"Ġ1922":8903,"Ġ1910":8904,"olam":8905,"Ġamong":8906,"à¤īà¤¨à¤ķ":8907,"Ġsucc":8908,"Ġpratik":8909,"Ġhyee":8910,"uddy":8911,"Ġvanthathu":8912,"\"),":8913,"rey":8914,"Ġakk":8915,"Ġbul":8916,"Ġhras":8917,"Ġdrug":8918,"Ġoaivu":8919,"Ġpraant":8920,"iven":8921,"ittee":8922,"ikalkku":8923,"Ġoozh":8924,"à´°à´ķà´Ł":8925,"ampa":8926,"1992":8927,"à¤ħà¤¨":8928,"Ġkurippidatthakka":8929,"Ġaasthaanam":8930,"82":8931,"Ġthoo":8932,"Ġjald":8933,"à´¡à´²":8934,"à´¬àµ¼à´Ł":8935,"Ġniroop":8936,"avarathu":8937,"Ġroopeekar":8938,"ĠAP":8939,"riz":8940,"Ġadded":8941,"arian":8942,"Ġthoark":8943,"Ġsakriya":8944,"acebook":8945,"Ġippozhum":8946,"Ġsamsaar":8947,"à®ħà®µà®°à®¤":8948,"Ġkizhakkan":8949,"Ġprabandhan":8950,"Ġpusthak":8951,"Ġjapanese":8952,"Ġnearly":8953,"Ð¾":8954,"aathu":8955,"Ġjail":8956,"Ġalready":8957,"àµºà´«":8958,"Ġoral":8959,"Ġagency":8960,"asthiti":8961,"Ġoperation":8962,"91":8963,"ways":8964,"iyirun":8965,"Ġvriddhi":8966,"Ġnever":8967,"Ġlang":8968,"Ġlock":8969,"Ġà´¨à´¨":8970,"Ġentr":8971,"ipal":8972,"Ġnirbandh":8973,"Ġvivas":8974,"à´ķà´®à´¹":8975,"Ġtharavaris":8976,"Ġà´Ĩà´ķàµ¼à´·":8977,"Ġformula":8978,"Ġà®¤à®°à®µà®°":8979,"Ġvyathyas":8980,"Ġsanchaalit":8981,"Ġraashtreey":8982,"ethi":8983,"Ġkruth":8984,"Ġah":8985,"eega":8986,"Ġop":8987,"Ġjaar":8988,"arden":8989,"aiyilirunthu":8990,"Ġsaamana":8991,"Ġmuraiyaaga":8992,"Ġchaley":8993,"Ġpoarin":8994,"Ġà´¨à´Ĺà´°":8995,"Ġgovernor":8996,"Ġvalangkukirathu":8997,"Ġaatch":8998,"Ġservices":8999,"dar":9000,"erd":9001,"Ġnat":9002,"adiyaaga":9003,"irn":9004,"Ġsekar":9005,"à´§à´µ":9006,"Ġà¤ıà¤ķà¤®":9007,"Ġà´Ĩà´Ń":9008,"Ġapr":9009,"Ġvyaav":9010,"Ġdhan":9011,"Ġref":9012,"Ġà¤īà¤ªà¤¸":9013,"à®Ĩà®°à®®":9014,"ylvan":9015,"irkaana":9016,"Ġvaanij":9017,"Ġlokamahaay":9018,"aon":9019,"Ġkae":9020,"Ġpudh":9021,"iyilekku":9022,"à®¯à®ķà®¤":9023,"Ġlot":9024,"Ġalle":9025,"Ġshradha":9026,"shreshth":9027,"Ġwhether":9028,"mir":9029,"rem":9030,"à®²à®¨":9031,"eration":9032,"iteeya":9033,"àµĤ.":9034,"Ġstor":9035,"Ġ66":9036,"Ġcheck":9037,"Ġsamudra":9038,"Ġnivesh":9039,"Ġiraanuva":9040,"Ġkuripitta":9041,"Ġnuksan":9042,"Ġavailable":9043,"01":9044,"94":9045,"rich":9046,"ince":9047,"Ġchall":9048,"illaatha":9049,"Ġperiod":9050,"onnum":9051,"Ġrepres":9052,"Ġezhuthi":9053,"Ġmooththa":9054,"Ġaatharav":9055,"Ġlabel":9056,"Ġfeatures":9057,"Ġdegree":9058,"des":9059,"Ġmust":9060,"Ġvaik":9061,"Ġfair":9062,"Ġwild":9063,"à¤Ĺà¤¸":9064,"ukaaran":9065,"àµºà´Ł":9066,"ansank":9067,"Ġoffees":9068,"aera":9069,"Ġezhuthinaar":9070,"Ġvillium":9071,"Ġdasalaksham":9072,"Ġkavar":9073,"Ġkaim":9074,"Ġjad":9075,"à¤Łà¤µà¤°":9076,"Ġavakaash":9077,"Ġbhaai":9078,"Ġà®¹à®µ":9079,"ĠEng":9080,"Ġà¤§à¤¨":9081,"Ġekmatra":9082,"aiththathu":9083,"aththirkul":9084,"Ġkeezhae":9085,"Ġkuzhuvin":9086,"Ġarugilulla":9087,"Ġthozhir":9088,"Ġpey":9089,"à®³à®Ļ":9090,"Ġnation":9091,"oose":9092,"ikkiya":9093,"angl":9094,"Ġapeksh":9095,"Ġnadakk":9096,"Ġkudiyar":9097,"icket":9098,"Ġvanig":9099,"Ġnerukk":9100,"Ġbhaagamaayi":9101,"Ġsansthaan":9102,"Ġmaking":9103,"Ġsaambiyanshipp":9104,"Ġthodakkaththil":9105,"Ġkilometer":9106,"-à´¾":9107,"93":9108,"vis":9109,"Ġtheey":9110,"Ġbik":9111,"à´®à´£":9112,"ired":9113,"Ġanch":9114,"Ġarang":9115,"ĠJose":9116,"Ġaadyakaala":9117,"Ġà®¨à®ķà®°à®Ļ":9118,"Ġprabhaavit":9119,"Ġulladakkiyathu":9120,"Ġmaruthuv":9121,"umpoathu":9122,"Ġrav":9123,"Ġemb":9124,"à´¹à´ļà´°":9125,"Ġkaryalaya":9126,"Ġkaaval":9127,"Ġvarav":9128,"Ġà¤¤à¤¤":9129,"oorva":9130,"ĠCup":9131,"Ġdhii":9132,"Ġneram":9133,"arvu":9134,"Ġsaalai":9135,"Ġtakn":9136,"Ġgrowth":9137,"oath":9138,"eeshan":9139,"Ġbed":9140,"attin":9141,"Ġà´ħà´£":9142,"Ġà®¨à®¤":9143,"aattil":9144,"Ġvaluv":9145,"Ġsweed":9146,"1986":9147,"Ġnagrik":9148,"Ġbeliev":9149,"Ġpaathukaakk":9150,"ĠCarolina":9151,"Ġkuthir":9152,"Ġlicens":9153,"cast":9154,"lan":9155,"uh":9156,"Ġsiru":9157,"Ġvams":9158,"ened":9159,"Ġbay":9160,"tta":9161,"à¤ıà¤ļ":9162,"atthaal":9163,"ows":9164,"Ġask":9165,"Ġporulaathaara":9166,"Ġlokamahaayudh":9167,"kila":9168,"pii":9169,"paattu":9170,"Ġnyu":9171,"Ġhosp":9172,"à®ļà®ķ":9173,"Ġà´ħà´³à´µ":9174,"Ġshik":9175,"Ġà´¤à´¯":9176,"Ġuntil":9177,"Ġvarukirathu":9178,"iyilulla":9179,"uththam":9180,"chchiy":9181,"Ġcomputer":9182,"Ġstrong":9183,"Ġkahani":9184,"Ġpoornnamaayum":9185,"ulppede":9186,"of":9187,"uon":9188,"ym":9189,"à¤Ĭ":9190,"Ġmos":9191,"eyaanu":9192,"aaranam":9193,"Ġ1915":9194,"Ġyeye":9195,"Ġà®Łà®µ":9196,"Ġkaalam":9197,"Ġpaarlament":9198,"Ġrecent":9199,"Ġpatni":9200,"ikhit":9201,"Ġadippadaiy":9202,"Ġseerees":9203,"Ġthaaratham":9204,"Ġsentraar":9205,"Ġsahodaran":9206,"Mostly":9207,"ylvania":9208,"band":9209,"ekkum":9210,"iavin":9211,"maer":9212,"yaat":9213,"Ġà¤ķà¤µ":9214,"Ġvo":9215,"Ġvaikk":9216,"Ġ1900":9217,"à¤ļà¤²":9218,"Ġnadaim":9219,"Ġexc":9220,"anangalum":9221,"Ġ250":9222,"Ġvaralaaru":9223,"kool":9224,"Ġkel":9225,"oov":9226,"avam":9227,"Ġà´¤à´¦":9228,"Ġpott":9229,"Ġmanaiv":9230,"Ġà´Ńà´ķ":9231,"ĠLos":9232,"Ġsuuppar":9233,"à®ħà®©":9234,"ettrathu":9235,"Ġvayathil":9236,"veland":9237,"Ġnanku":9238,"Ġpatrika":9239,"Ġvarnit":9240,"Ġthaerthal":9241,"Ġke":9242,"àµ¼à´Ń":9243,"à¤µà¤¹":9244,"à¤¹à¤²":9245,"ingham":9246,"à´¶à´ķ":9247,"à´¶à´µ":9248,"Ġunavu":9249,"Ġadhig":9250,"Ġkuriy":9251,"ĠFed":9252,"Ġhotel":9253,"Ġniruvappattathu":9254,"Ġthaddesh":9255,"ĠThat":9256,"Ġrecording":9257,"Ġviniyo":9258,"ĠInc":9259,"Ġà®īà®²à®ķà®ª":9260,"Ġulagap":9261,"Ġpinthunaykk":9262,"--------":9263,"Ġmaheene":9264,"Ġkittatthatta":9265,"Ġprakshep":9266,"Wh":9267,"Ġjac":9268,"à´£àµ½":9269,"ically":9270,"trop":9271,"Ġà¤¯à¤¦":9272,"arnn":9273,"Ġsoozh":9274,"odhan":9275,"Ġà´®à´¨à´¸":9276,"Ġkamee":9277,"Ġgeorge":9278,"Ġchaambyanshipp":9279,"udaneelam":9280,"Ġmight":9281,"Ġà¤ķà¤ł":9282,"Ġthii":9283,"à´³à´ª":9284,"Ġ\",":9285,"Ġprim":9286,"Ġpraathamik":9287,"cker":9288,"usets":9289,"Ġanaly":9290,"Ġà´±à´·":9291,"Ġà®°à®·":9292,"Ġvishad":9293,"Ġpoorna":9294,"Ġbetter":9295,"Ġsahaayata":9296,"Ġpraadham":9297,"Ġsaankethik":9298,"vee":9299,"arangal":9300,"Ġkaay":9301,"Ġsor":9302,"à´¨àµ½à´ķ":9303,"Ġlay":9304,"Ġà´¸à´¸":9305,"Ġuud":9306,"akkatt":9307,"ower":9308,"ĠMin":9309,"ĠLouis":9310,"Ġstettu":9311,"Ġquest":9312,"Ġbandhappett":9313,"Ġdakshini":9314,"ĠWhite":9315,"à´±à´£":9316,"Ġbra":9317,"Ġhang":9318,"Ġdy":9319,"Ġdom":9320,"aayirikk":9321,"ikkaatt":9322,"Ġkool":9323,"Ġthoand":9324,"Ġmaanav":9325,"Ġkadam":9326,"Ġmudinth":9327,"Ġenbavar":9328,"Ġoppid":9329,"isthaap":9330,"Ġfirm":9331,"Ġpankedukk":9332,"Ġsmall":9333,"Ġsandarsh":9334,"oog":9335,"Ġdrisht":9336,"asy":9337,"Ġjaisa":9338,"à´¦à´Ļ":9339,"Ġyadi":9340,"Ġsampr":9341,"ukalile":9342,"Ġkalin":9343,"aivaana":9344,"à´ĸà´ª":9345,"Ġsahyog":9346,"Ġirandaam":9347,"enkil":9348,"Ġnirvaaga":9349,"Ġavatharippichu":9350,"Ġà´īà´Łà´®à´¸":9351,"Ġrobbert":9352,"Ġudamasth":9353,"Ġvyathyastha":9354,"Î±":9355,"ÑĤ":9356,"Ġneth":9357,"adv":9358,"Ġbart":9359,"Ġbaith":9360,"Ġbrazil":9361,"ttil":9362,"Ġlate":9363,"àµ»à´¬":9364,"Ġà´ħà´Ļ":9365,"Ġwall":9366,"aagam":9367,"Ġanthar":9368,"Ġà´Ĩàµ¼à´ķ":9369,"à´ħà´²":9370,"Ġkaanaped":9371,"Ġsaambathika":9372,"à¤Ķà¤°":9373,"pid":9374,"à®¾-":9375,"iyaayirunnu":9376,"Ġdaiv":9377,"Ġpray":9378,"Ġaathaar":9379,"Ġennaanu":9380,"ukkuth":9381,"Ġnilaiyaana":9382,"Ġbrig":9383,"aliz":9384,"Ġezhu":9385,"Ġarimugappaduthth":9386,"Ġafrican":9387,"Ġproducts":9388,"irumanam":9389,"Ġaangkila":9390,"lim":9391,"yle":9392,"anana":9393,"Ġhop":9394,"Ġdall":9395,"Ġdair":9396,"Ġdarr":9397,"Ġà®ķà®µà®°":9398,"àµ½à´¤":9399,"Ġrain":9400,"Ġlarg":9401,"Ġshav":9402,"abl":9403,"aavu":9404,"Ġupar":9405,"yamulla":9406,"Ġpadaa":9407,"àµ»à´¸à´¸":9408,"Ġkazhil":9409,"Ġnokk":9410,"Ġundaayirunn":9411,"Ġengineer":9412,"Ġnirdhaarit":9413,"ittsburgh":9414,"For":9415,"cu":9416,"sm":9417,"ĠQ":9418,"Ġaikkiya":9419,"aton":9420,"Ġnich":9421,"Ġneg":9422,"Ġbir":9423,"Ġraay":9424,"galudan":9425,"Ġà´¨à´Łà´ķ":9426,"appedunna":9427,"anjan":9428,"Ġsansh":9429,"Ġpunith":9430,"Ġfuture":9431,"soo":9432,"vish":9433,"anan":9434,"alag":9435,"Ġpann":9436,"Ġà¤ķà¤Ł":9437,"Ġthakar":9438,"à¤ķà¤Ń":9439,"Ġjoo":9440,"à¤¶à¤ª":9441,"Ġshaahi":9442,"aparamaaya":9443,"à¤£à¤¯":9444,"aavai":9445,"Ġà´ħà´µà´²":9446,"Ġ600":9447,"Ġà´ĵà´ķ":9448,"abhaav":9449,"Ġà®ħà®²à®ķ":9450,"Ġago":9451,"ĠEn":9452,"Ġvirpan":9453,"Ġimport":9454,"Ġmunnariy":9455,"Ġsainika":9456,"Ġsanket":9457,"ESS":9458,"Ġsammaanit":9459,"Ġpaida":9460,"eyo":9461,"umutt":9462,"aanthira":9463,"shippu":9464,"à¤¸à¤¬à¤°":9465,"itions":9466,"Ġchange":9467,"Ġkaryon":9468,"ankan":9469,"Ġiruvarum":9470,"ected":9471,"Ġrok":9472,"Ġkanakkil":9473,"Ġnyaay":9474,"Ġachchi":9475,"Ġpurushon":9476,"Ġdaavaa":9477,"EC":9478,"Ġkes":9479,"sha":9480,"Ġà®¤à®³à®¤":9481,"Ġpraayam":9482,"Ġà¤ıà¤¯à¤°":9483,"Ġà¤Ĩà¤¶":9484,"Ġà¤Ĩà¤ķà¤°":9485,"ashville":9486,"ibi":9487,"Ġpratham":9488,"Ġadhikaari":9489,"Ġkandethi":9490,"Ġsaying":9491,"Ġavasaanathil":9492,"Ġturant":9493,"Ġaarambagaala":9494,"Ġsamghadan":9495,"Ġprasiddh":9496,"Ġvevvaeru":9497,"IL":9498,"Ġmans":9499,"aykkum":9500,"aded":9501,"uraigal":9502,"Ġlagu":9503,"elf":9504,"ikrit":9505,"agaththin":9506,"uvathu":9507,"ĠSunday":9508,"Ġillaatha":9509,"à¤°à¤®à¤£":9510,"Ġkavan":9511,"à´Ńà´µà´Ļ":9512,"my":9513,"arikk":9514,"change":9515,"Ġheld":9516,"Ġlar":9517,"Ġlet":9518,"Ġ(;":9519,"Ġsamayam":9520,"Ġà¤ĳà¤ªà¤°":9521,"kizh":9522,"urnal":9523,"ĠThursday":9524,"Ġrussie":9525,"ĠIsrael":9526,"Ġpoongaa":9527,"Ġversion":9528,".>":9529,"05":9530,"based":9531,"Ġkrith":9532,"Ġsandh":9533,"ands":9534,"Ġgay":9535,"àµ¾à´«":9536,"aththaith":9537,"ards":9538,"Ġmunb":9539,"Ġkavanam":9540,"Ġacadem":9541,"Ġà®ķà®µà®©à®®":9542,"ĠThis":9543,"Ġturkey":9544,"Ġikai":9545,"Ġumr":9546,"Ġtit":9547,"Ġà®ĩà®´à®ª":9548,"inger":9549,"uty":9550,"à´ľà´±":9551,"Ġbhaav":9552,"ugalin":9553,"iyaathu":9554,"à¤ħà¤®":9555,"Ġviram":9556,"1987":9557,"Ġsarvshreshth":9558,"Ġnaadak":9559,"Ġà®ªà®´à®®":9560,"rizona":9561,"Ġdrishtikon":9562,"/>":9563,"chal":9564,"enberg":9565,"à¤µà¤¹à¤¨":9566,"Ġchuv":9567,"Ġeur":9568,"Ġsho":9569,"aiyan":9570,"Ġtour":9571,"Ġà´ĩà´·":9572,"angkalaip":9573,"Ġnadannu":9574,"à´µàµ¼à´Ĺ":9575,"Ġsansth":9576,"Ġworking":9577,"Ġchithreekar":9578,"Ġpuratthirangi":9579,"à¤ħà¤²à¤Ĺ":9580,"nik":9581,"thod":9582,"Ġsumm":9583,"Ġaway":9584,"Ġbank":9585,"attathil":9586,"à¤¦à¤µ":9587,"olf":9588,"Ġalong":9589,"Ġaalo":9590,"Ġuruvaakka":9591,"Ġlokpriya":9592,"Ġactiv":9593,"Ġunmaiyana":9594,"Ġgativ":9595,"Ġaction":9596,"ators":9597,"Ġbre":9598,"Ġcert":9599,"Ġpraay":9600,"à´¶à´¯":9601,"osis":9602,"endru":9603,"ĠMarch":9604,"Ġà´īà´ªà´¦":9605,"Ġsarvees":9606,"Ġopportun":9607,"Ġthuraimug":9608,"Ġveettil":9609,"Ġsuper":9610,"ĠDepartment":9611,"Ġadippadaiyaagak":9612,"Ab":9613,"bee":9614,"Ġmaiyam":9615,"à´¯àµ¼à´®":9616,"adian":9617,"Ġhaath":9618,"Ġdip":9619,"zhch":9620,"Ġà®Ĩà®³":9621,"abar":9622,"à´¹à´¸":9623,"ĠCl":9624,"ondaar":9625,"Ġbindu":9626,"Ġpirachchan":9627,"',":9628,"Ġpatth":9629,"Ġthiy":9630,"Ġbil":9631,"Ġhor":9632,"Ġrag":9633,"attum":9634,"à®£à®²":9635,"Ġgaanam":9636,"Ġisane":9637,"Ġà¤ĩà¤¸à¤¨":9638,"Ġleast":9639,"chchu":9640,"Ġà´Īà´¸":9641,"Ġext":9642,"Ġà¤īà¤ªà¤ķà¤°à¤£":9643,"Ġkendriya":9644,"Ġthavira":9645,"Ġthiraippada":9646,"Ġmeeting":9647,"palika":9648,"Ġpanthay":9649,"Ġcredit":9650,"cop":9651,"Ġsos":9652,"kkaayi":9653,"Ġà´ªàµ¼à´µ":9654,"à¤µà¤¦":9655,"edy":9656,"à®¨à®Łà®¤":9657,"apath":9658,"Ġkaapp":9659,"uli":9660,"Ġà¤Ĩà¤ł":9661,"emp":9662,"ĠCan":9663,"Ġkalaach":9664,"à¥Ģ.)":9665,"Ġirukkalaam":9666,"Ġabhim":9667,"1977":9668,"1967":9669,"Ġparisar":9670,"Ġneekkam":9671,"Ġtheermaan":9672,"Ġconsider":9673,"Ġlevel":9674,"ĠRepublican":9675,"Ġsaaj":9676,"Ġmikka":9677,"iladhikam":9678,"à®µà®´":9679,"Ġbast":9680,"Ġtark":9681,"Ġjeey":9682,"Ġfield":9683,"apettu":9684,"Ġmarsh":9685,"à´¾à´Ĥ,":9686,"1984":9687,"1985":9688,"Ġkhele":9689,"medi":9690,"Ġbehind":9691,"Ġhonah":9692,"Ġdey":9693,"Ġ\",\"":9694,"Ġling":9695,"Ġà®ĩà®´à®¨":9696,"aalai":9697,"Ġ1923":9698,"aiyaith":9699,"athinulla":9700,"Ġà®µà®°à®®":9701,"Ġidamp":9702,"Ġudgh":9703,"Ġtrade":9704,"Ġkolamb":9705,"Ġbandhapetta":9706,"Ġskool":9707,"Ġthaazhe":9708,"Ġhockey":9709,"irikt":9710,"Ġupalabdh":9711,"jood":9712,"kabhi":9713,"piyal":9714,"sy":9715,"Ġkom":9716,"iland":9717,"Ġthand":9718,"astr":9719,"Ġavale":9720,"roup":9721,"Ġ800":9722,"lott":9723,"Ġshreni":9724,"Ġmaattrappattathu":9725,"ikkappedukayum":9726,"Ġdikhaaya":9727,"Ġgaeen":9728,"Ġsanrachana":9729,"Ġbavjood":9730,"Ġkudiyaras":9731,"Ph":9732,"sl":9733,"iyullathu":9734,"Ġgit":9735,"Ġà´ħà´°à´Ļ":9736,"à´§à´°":9737,"Ġarts":9738,"à´ľà´¯à´¤":9739,"Ġà¤ļà¤²à¤¤":9740,"egi":9741,"Ġjanan":9742,"ector":9743,"ĠGerman":9744,"Ġniyamit":9745,"Ġmilaa":9746,"Ġà´ĩà´°à´Ł":9747,"ĠAmerica":9748,"Ġfaisala":9749,"Ġsuthanth":9750,"08":9751,"97":9752,"kl":9753,"à¤°à¤¥à¤®":9754,"Ġpitt":9755,"Ġmakal":9756,"à®²à®Ł":9757,"à¤¨à¤Ł":9758,"oni":9759,"shi":9760,"ured":9761,"Ġavakash":9762,"ogen":9763,"ĠBall":9764,"Ġullitta":9765,"Ġkaalayal":9766,"à´²à´¯à´³à´µ":9767,"Ġblue":9768,"Ġdevelopment":9769,"INGTON":9770,"Ġkammeeshan":9771,"naan":9772,"aril":9773,"Ġkai":9774,"Ġmanthr":9775,"à®©à®µà®°":9776,"Ġvikalp":9777,"Ġà¤ªà¤ķà¤¡":9778,"aalam":9779,"Ġprachch":9780,"Ġfur":9781,"Ġ1912":9782,"icle":9783,"Ġaavar":9784,"imai":9785,"àµºà´µ":9786,"Ġsouk":9787,"Ġupayogikkunna":9788,"Ġnaveena":9789,"Ġaaramba":9790,"Ġvetrtrik":9791,"Ġniyantran":9792,"Ġmazh":9793,"à¤¨à¤¹":9794,"Ġnaatak":9795,"pper":9796,"Ġtir":9797,"Ġà´Ĩà´µ":9798,"Ġkarutthu":9799,"Ġthodakka":9800,"à®ħà®Ł":9801,"Ġraajaa":9802,"eettu":9803,"Ġcarrier":9804,"Ġparisheel":9805,"Ġgall":9806,"Ġprotect":9807,"Ġsaankethikavid":9808,"viv":9809,"Ġduss":9810,"Ġtail":9811,"Ġà´®à´°à´£":9812,"aiyaagum":9813,"Ġsamachar":9814,"Ġà´¬à´¸":9815,"Ġà¤Ĩà¤ľ":9816,"storm":9817,"Ġmaanyata":9818,"Ġabhyaas":9819,"Ġvanita":9820,"Ġnagaichch":9821,"Ġà®¤à®°à®µ":9822,"Ġunmaiyil":9823,"Ġà´ŀà´Ļ":9824,"Ġkudiyirupp":9825,"ĠÎ±":9826,"ASH":9827,"aray":9828,"ined":9829,"à´¨à´¦":9830,"iyaik":9831,"ainthaar":9832,"achary":9833,"Ġapakad":9834,"Ġnadathu":9835,"Ġireland":9836,"Ġjohnson":9837,"lor":9838,"vaar":9839,"aaiyon":9840,"Ġsaand":9841,"amaakk":9842,"à´®à´®":9843,"Ġà¤¸à¤ľ":9844,"Ġtim":9845,"Ġmeater":9846,"Ġà®ĩà®³à®®":9847,"eluthth":9848,"Ġà¤ľà¤Ĺà¤¹":9849,"ithi":9850,"Ġullaar":9851,"Ġookkuv":9852,"à´ħà´¨":9853,"Ġkondadhu":9854,"Ġsathamaan":9855,"Ġdivasam":9856,"Ġchalach":9857,"Ġmamalon":9858,"Ġjagah":9859,"Ġà´ļà´²à´ļ":9860,"Ġpichhale":9861,"'m":9862,"Ġkkum":9863,"Ġaise":9864,"à´ªà´Ļ":9865,"ispar":9866,"olan":9867,"ento":9868,"Ġmuraiyil":9869,"Ġvayath":9870,"Ġvayassil":9871,"ences":9872,"Ġ1890":9873,"Ġà´Ĩàµ½à´¬à´¤":9874,"Ġdepartment":9875,"Ġà´Ĺà´µàµ¼à´£":9876,"Ġvipareet":9877,"Ġcharitraparamaaya":9878,"Ġmaap":9879,"isab":9880,"Ġraksha":9881,"itive":9882,"Ġà´¸à´¬":9883,"iller":9884,"Ġswaam":9885,"Ġhein":9886,"icks":9887,"Ġutp":9888,"ittyoott":9889,"Ġpirabalamaana":9890,"isttar":9891,"Ġtirumanam":9892,"Ġjon":9893,"idence":9894,"Ġchum":9895,"eli":9896,"à´Ĺà´¨":9897,"ichappol":9898,"aththuv":9899,"à¤ıà¤Łà¤°":9900,"Ġarch":9901,"ĠAt":9902,"Ġvyap":9903,"à¤Ĩà¤¨":9904,"à¤Ĩà¤§":9905,"igaludan":9906,"Ġkoatt":9907,"Ġà´ħà´Łà´¯":9908,"ĠChicago":9909,"Ġamgangal":9910,"à¤¯à¤µà¤¹":9911,"Ġpartner":9912,"Ġofficial":9913,"Ġteesare":9914,"bii":9915,"Ġsaksh":9916,"aanulla":9917,"Ġbi":9918,"Ġhumm":9919,"à´µàµ¼à´£":9920,"isan":9921,"àµĩ,":9922,"Ġjaak":9923,"Ġca":9924,"Ġwent":9925,"Ġinangkal":9926,"etter":9927,"ĠSte":9928,"Ġwhite":9929,"Ġithinu":9930,"Ġà®ªà®¤à®ķ":9931,"iyappol":9932,"Ġkhelon":9933,"1969":9934,"appadugiraar":9935,"Ġsonth":9936,"Ġvyaktigat":9937,"Ġdevalay":9938,"Ġintell":9939,"Ġexecutive":9940,"Ġjimmed":9941,")\"":9942,"eduppu":9943,"Ġmejar":9944,"Ġpract":9945,"aataa":9946,"Ġ85":9947,"Ġà´ıàµ¼à´ª":9948,"à´ĸà´°":9949,"ĠGr":9950,"Ġcapital":9951,"Ġpartic":9952,"Ġpugazh":9953,"Ġhenry":9954,"alg":9955,"Ġpack":9956,"ontr":9957,"Ġnadhi":9958,"aanmai":9959,"Ġà®®à®ļ":9960,"Ġà´İà´±":9961,"ettil":9962,"andhaan":9963,"Ġkuraykk":9964,"Ġlearn":9965,"amparik":9966,"Ġcarolina":9967,"Ġmillie":9968,"1940":9969,"Ġavasaanathode":9970,"Ġadhiniyam":9971,"Ġsuccess":9972,"fil":9973,"à¯į).":9974,"à®Łà®ķà®°":9975,"Ġmoney":9976,"atva":9977,"Ġà´ķà´¯à´±":9978,"ikkaam":9979,"Ġà®ĩà®¤à®±":9980,"shanal":9981,"Ġmaanavar":9982,"Ġbrook":9983,"Ġaalukal":9984,"àµ¼à´£à´®":9985,"1979":9986,"Ġservice":9987,"Ġaspatal":9988,"Ġrepresent":9989,"vash":9990,"Â°":9991,"Ġpens":9992,"Ġthart":9993,"Ġbag":9994,"Ġà¤¸à¤¬":9995,"Ġkarp":9996,"Ġkarupp":9997,"Ġariya":9998,"bha":9999,"roy":10000,"Ġnadig":10001,"Ġgrah":10002,"aiskool":10003,"Ġaccess":10004,"ĠÏ":10005,"iyas":10006,"Ġnibh":10007,"akaramaaya":10008,"aaryam":10009,"Ġà®İà®µ":10010,"ambath":10011,"Ġmaria":10012,"ateg":10013,"Ġà´īà´ªà´ķà´°à´£à´Ļ":10014,"phen":10015,"Ġnalkiy":10016,"Ġdrive":10017,"ergy":10018,"Ġiruthip":10019,"Ġkoodudhalaaga":10020,"Ġadaiyaalam":10021,"Ġsivappu":10022,"Ġkas":10023,"Ġthenn":10024,"Ġnayaa":10025,"Ġbaas":10026,"Ġdor":10027,"aaril":10028,"Ġaapr":10029,"Ġsameeksha":10030,"Ġà´Ĵà´³":10031,"ĠTwitter":10032,"Ġà´°à´ľ":10033,"Ġupakaran":10034,"Ġupasthiti":10035,"Ġcompan":10036,"anilai":10037,"Ġpaeraasiriyar":10038,"Ġinclude":10039,"Ġsinim":10040,"Ġniruvanaththin":10041,"Ġcontrib":10042,"Ġbigg":10043,"Ġexperience":10044,"Ġsource":10045,"Ġà¤ĭ":10046,"inus":10047,"iyoo":10048,"Ġ1913":10049,"Ġisl":10050,"1972":10051,"Ġmunnani":10052,"Ġfinancial":10053,"ozhekkum":10054,"à´µà´¶à´¤":10055,"Ġcorpor":10056,"Ġmayer":10057,"Ġredu":10058,"Ġà¤¸à¤«à¤²à¤¤":10059,"Ġporutkal":10060,"pam":10061,"pee":10062,"ux":10063,"Ġken":10064,"Ġsul":10065,"à¤ķà¤®":10066,"sht":10067,"Ġbuss":10068,"Ġwor":10069,"Ġsampatti":10070,"Ġanton":10071,"Ġà´Ĩà´«":10072,"Ġbhaksh":10073,"ĠMinnesota":10074,"Ġkurichu":10075,"Ġseitha":10076,"Ġkilapp":10077,"Ġ1908":10078,"Ġanusandhaan":10079,"Ġingland":10080,"Ġgavesh":10081,"nalikhit":10082,"Ġaezhu":10083,"Ġjaarj":10084,"09":10085,"rig":10086,"iraal":10087,"Ġà¤ªà¤¸":10088,"Ġjaims":10089,"Ġà¤ľà¤®":10090,"Ġ1926":10091,"Ġà¤¨à¤¯":10092,"aadyakaala":10093,"ipeg":10094,"Ġfort":10095,"Ġidaththaip":10096,"Ġpuraane":10097,"Ġà´Ĳà´¸":10098,"Ġà¤Ĭà¤°":10099,"Ġmamle":10100,"Ġsooksh":10101,"Ġimmigr":10102,"CT":10103,"NI":10104,"ritti":10105,"ser":10106,"Ñĩ":10107,"amo":10108,"akum":10109,"Ġà¤®à¤°":10110,"ttukal":10111,"Ġrid":10112,"Ġcast":10113,"ittum":10114,"itted":10115,"azhi":10116,"Ġpirivugal":10117,"Ġatirikt":10118,"à´ĸà´²":10119,"ords":10120,"ĠJapan":10121,"Ġkooda":10122,"orning":10123,"akanum":10124,"Ġmalsaram":10125,"ikkunnathinum":10126,"Ġnauk":10127,"cal":10128,"vey":10129,"aakkuv":10130,"Ġkaksh":10131,"Ġvot":10132,"avaath":10133,"ikkaaga":10134,"agaththil":10135,"à®¸à®©":10136,"aiyal":10137,"Ġanj":10138,"Ġanw":10139,"Ġthaniththuv":10140,"Ġ73":10141,"Ġsoll":10142,"1964":10143,"Ġneela":10144,"Ġpaarvaiyaalar":10145,"Ġjunier":10146,"nth":10147,"Ġsai":10148,"Ġthang":10149,"aanavai":10150,"avio":10151,"asco":10152,"Ġà®ħà®ŀ":10153,"Ġcamb":10154,"Ġparikk":10155,"illy":10156,"bhar":10157,"à´Ńà´ľ":10158,"Ġ68":10159,"Ġà´ıà´·":10160,"Ġ99":10161,"Ġseries":10162,"à´²à´µà´´":10163,"Ġvijayam":10164,"tarik":10165,"Ġsaernthaar":10166,"Ġthodarchchiyaana":10167,"oornament":10168,"EL":10169,"aun":10170,"ekk":10171,"kazh":10172,"Ġkyaa":10173,"à´ªà´ª":10174,"oob":10175,"Ġà¤®à¤ķ":10176,"itya":10177,"à¤¡à¤¬":10178,"usam":10179,"à´¹à´°à´£à´¤":10180,"à´¥à´¤à´¯":10181,"roh":10182,"ĠSw":10183,"Ġitali":10184,"Ġvishal":10185,"Ġninaivu":10186,"Ġswayam":10187,"Ġvivaad":10188,"Ġdead":10189,"Ġvansh":10190,"Ġinsur":10191,"Ġyogdan":10192,"Ġaaraaichi":10193,"araayi":10194,"àµģ)":10195,"Ġhir":10196,"tts":10197,"à¤ªà¤ļ":10198,"Ġshah":10199,"Ġà®İà®Ļ":10200,"Ġannu":10201,"apatch":10202,"ety":10203,"Ġà¤¸à¤®à¤¸":10204,"ĠJo":10205,"Ġpratispar":10206,"Ġkendram":10207,"Ġthoguth":10208,"Ġairish":10209,"Ġthiranjeduppu":10210,"Ġchelavazh":10211,"consin":10212,"à®Łà®£":10213,"Ġmang":10214,"iyadhu":10215,"à¤Ĥà¥¤":10216,"à¤¨à¤¬":10217,"eya":10218,"akth":10219,"Ġlost":10220,"Ġ1911":10221,"ichirunna":10222,"Ġparaval":10223,"Ġarai":10224,"etp":10225,"ĠTechn":10226,"à¤ĩà¤ķà¤²":10227,"Ġmoththa":10228,"coll":10229,"Ġchhoti":10230,"à´ħà´¦":10231,"Ġlabhyam":10232,"Ġuruppinarkal":10233,"Ġmuthir":10234,"Ġvalarchch":10235,"Ġsamgeeth":10236,"Ġnideshak":10237,"ASHINGTON":10238,"cel":10239,"kaari":10240,"oen":10241,"arthth":10242,"Ġname":10243,"Ġbomb":10244,"ivid":10245,"Ġshare":10246,"ably":10247,"Ġpothuv":10248,"bhaag":10249,"roth":10250,"ĠAustral":10251,"Ġswakaarya":10252,"Ġillaamal":10253,"1975":10254,"bury":10255,"juun":10256,"Ġinstittyoott":10257,"Ġpolitical":10258,"à®©à®ķ":10259,"athaayirunnu":10260,"Ġba":10261,"à´®à´ķà´°à´£":10262,"andar":10263,"lands":10264,"Ġà®ªà®°à®µà®²":10265,"Ġnaamak":10266,"Ġamainthulla":10267,"LO":10268,"fter":10269,"mal":10270,"Ġmove":10271,"Ġhong":10272,"Ġrad":10273,"Ġchatt":10274,"à´¦à´Ĺ":10275,"Ġtheat":10276,"Ġstaand":10277,"athilaanu":10278,"Ġbeat":10279,"Ġ61":10280,"Ġmaang":10281,"Ġnigazhthth":10282,"à´¤à´ķà´Ļ":10283,"Ġkalaignargal":10284,"Ġbetty":10285,"Ġsamagri":10286,"Ġthoarkad":10287,"erum":10288,"iyayude":10289,"aantrik":10290,"à´¸à´¯":10291,"evin":10292,"ews":10293,"arnna":10294,"à´ĸà´¤":10295,"Ġudyaan":10296,"Ġsaahachary":10297,"Ġjheel":10298,"Ġlakshyam":10299,"Ġfollowing":10300,"Ġshekhar":10301,"Ġthuppaakk":10302,"Ġyooniversitti":10303,"iyatt":10304,"atam":10305,"cher":10306,"Ġnic":10307,"àµ½à´¨":10308,"Ġeight":10309,"irukk":10310,"ĠCong":10311,"Ġooppar":10312,"à´İà´²":10313,"Ġsuy":10314,"loud":10315,"Ġsafed":10316,"Ġozhung":10317,"Ġcommunist":10318,"ĠFrance":10319,"Ġsaamoohika":10320,"TER":10321,"àµį),":10322,"à´°à´Ł":10323,"run":10324,"avo":10325,"Ġjer":10326,"à´¶à´¦":10327,"akkukayum":10328,"Ġnireeksh":10329,"ĠTur":10330,"avarum":10331,"Ġaaraay":10332,"asson":10333,"ĠDetroit":10334,"Ġvazhinad":10335,"1976":10336,"Ġprashikshan":10337,"Ġkaiyezh":10338,"à´ĺà´Łà´¨à´¯":10339,"Ġseikirathu":10340,"Ġsamarpp":10341,"Ġsampark":10342,"Ġinvestigation":10343,"Ġsmaarak":10344,"Ġaalochana":10345,"Ġmaruththuva":10346,"lad":10347,"tag":10348,"tiyon":10349,"anivesh":10350,"oora":10351,"Ġbord":10352,"Ġhaiskool":10353,"Ġliber":10354,"galaal":10355,"Ġà´®à´¹":10356,"à´Ĺàµ»":10357,"imp":10358,"à´ľàµ¼":10359,"Ġmaed":10360,"Ġà®Ĩà®ķà®µ":10361,"Ġkattappattathu":10362,"Ġettedukk":10363,"1973":10364,"Ġdied":10365,"Ġnirvach":10366,"Ġpremi":10367,"ufact":10368,"BI":10369,"can":10370,"thalil":10371,"Ġkk":10372,"Ġkuv":10373,"à®¾.":10374,"à¤¨à¤¯":10375,"Ġ120":10376,"Ġlor":10377,"Ġwood":10378,"Ġavan":10379,"Ġanal":10380,"bhaav":10381,"aattam":10382,"ĠSec":10383,"ession":10384,"Ġaddition":10385,"Ġmanufact":10386,"arti":10387,"Ġ95":10388,"Ġgraph":10389,"Ġoffer":10390,"Ġpattan":10391,"à®ħà®ķ":10392,"Ġmahaan":10393,"Ġpasand":10394,"Ġbataaya":10395,"Ġkanadai":10396,"Ġneethimandr":10397,"Ġsensus":10398,"Ġnilavile":10399,"Ġswaamitva":10400,"If":10401,"eff":10402,"ality":10403,"atland":10404,"Ġrann":10405,"Ġtoornament":10406,"Ġfire":10407,"Ġà¤°à¤ļà¤¨":10408,"imin":10409,"ippicha":10410,"ĠAd":10411,"endo":10412,"ĠOT":10413,"ĠOr":10414,"ghan":10415,"Ġkondullana":10416,"Ġpankaal":10417,"Ġvaendiya":10418,"Ġsellum":10419,"Ġdevalayam":10420,"Ġconcern":10421,"Ġà´ĺà´Łà´ķà´Ļ":10422,"Ġnadathukayum":10423,"sin":10424,"ī¤":10425,"Ġkind":10426,"Ġthatt":10427,"abi":10428,"anap":10429,"ippai":10430,"lement":10431,"praarambhik":10432,"Ġaagavum":10433,"Ġà´īà´ªà´°":10434,"à®ĩà®°":10435,"Ġnalkunna":10436,"useum":10437,"akanaaya":10438,"Ġà¤ħà¤°à¤¬":10439,"Ġmaathramaan":10440,"Ġscreen":10441,"06":10442,"à®¤à®±":10443,"Ġkaipp":10444,"à´¤à´ķà´¤":10445,"ruct":10446,"à¤²à¤Ĺ":10447,"Ġbey":10448,"Ġbern":10449,"Ġli":10450,"itor":10451,"Ġ1916":10452,"Ġaaj":10453,"Ġens":10454,"ĠSe":10455,"Ġ71":10456,"Ġpadavi":10457,"Ġniyamichu":10458,"Ġprashasth":10459,"Ġinvolv":10460,"Ġennivayulppede":10461,"Ġmuthanmuthalil":10462,"Ġdifferent":10463,"august":10464,"Ġà§":10465,"à®ķà®µà®°":10466,"Ġgar":10467,"Ġà´¨à´²":10468,"Ġinfl":10469,"eern":10470,"ĠMan":10471,"abha":10472,"Ġjanicha":10473,"Ġusing":10474,"Ġuyarth":10475,"Ġkondaar":10476,"Ġthozhilthurai":10477,"unnathinulla":10478,"organ":10479,"Ġsoochibaddh":10480,"Ġvalangkinaar":10481,"Ġknown":10482,"Ġdarj":10483,"Ġà¤¸à¤«à¤²":10484,"Ġimpact":10485,"Ġkaiyeluthth":10486,"Ġsambhaav":10487,"Ġgathag":10488,"Ġprajaat":10489,"Ġdiscuss":10490,"ION":10491,"mah":10492,"à®²à®µà®°":10493,"ilar":10494,"Ġà®ķà®Łà®©":10495,"Ġraas":10496,"Ġmej":10497,"Ġgati":10498,"à´ľà´¯à´ķà´°à´®":10499,"uviyiyal":10500,"Ġathlet":10501,"ĠBl":10502,"Ġvivaran":10503,"Ġmudiyaathu":10504,"Ġplayed":10505,"Ġvagaiyaana":10506,"addeh":10507,"Ġarugil":10508,"Ġorikkalum":10509,"Ġà¤¨à¤Ĺà¤°à¤ª":10510,"-\"":10511,"SO":10512,"ough":10513,"àµį'":10514,"à®µà®±":10515,"Ġnann":10516,"à´ªà´¯":10517,"Ġhost":10518,"Ġcancer":10519,"dhin":10520,"à¤§à¤¤":10521,"asha":10522,"Ġà¤ĩà¤°":10523,"à¥Įà¤Ĥ":10524,"Ġcheyyappettu":10525,"Ġsansad":10526,"Ġsuttri":10527,"Ġjodaa":10528,"Ġadhikaariyon":10529,"Ġclassic":10530,"Ġthiranjedukkappettu":10531,"Ġaadhunika":10532,"apoathilum":10533,"Ġthaethi":10534,"currier":10535,"Ġmaruthuvaman":10536,"oid":10537,"rupt":10538,"à´¸à´ª":10539,"aardukal":10540,"Ġà´¨à´¶":10541,"eeni":10542,"Ġà¤¤à¤²":10543,"yamaanu":10544,"Ġpadak":10545,"Ġable":10546,"ĠEd":10547,"arkalukku":10548,"Ġ1904":10549,"Ġnadatthiya":10550,"Ġparivartan":10551,"Ġkaikaaryam":10552,"ĠIslanders":10553,"Ġjilaa":10554,"WASHINGTON":10555,"men":10556,"Ġiyar":10557,"à´¤à´°à´®":10558,"à¤¤à¤ļ":10559,"Ġradd":10560,"Ġjilla":10561,"ivaar":10562,"à¤¡à¤µ":10563,"à´¡à´±àµ½":10564,"Ġvaramb":10565,"Ġvalathu":10566,"Ġ76":10567,"Ġulagal":10568,"Ġkaalak":10569,"Ġirunththapoathilum":10570,"Ġaavan":10571,"Ġcareer":10572,"Ġseithanar":10573,"1971":10574,"ysis":10575,"Ġplayer":10576,"fred":10577,"Ġnaank":10578,"Ġleaders":10579,"aarthathil":10580,"Ġà®īà®²à®ķà®³":10581,"forman":10582,"NO":10583,"à®¤à®¯à®¤":10584,"Ġpandh":10585,"enh":10586,"umo":10587,"undugal":10588,"llaar":10589,"itaab":10590,"Ġgop":10591,"ikkend":10592,"Ġkooru":10593,"Ġsamanamaaya":10594,"Ġanigal":10595,"ults":10596,"Ġ88":10597,"à®¤à®©à®®":10598,"à®ķà®´à®ķà®®":10599,"Ġoutside":10600,"Ġlokt":10601,"Ġpaul":10602,"Ġvilliyam":10603,"Ġfocus":10604,"Ġpratikriya":10605,"OP":10606,"On":10607,"à®¤à®ķà®Ļ":10608,"Ġkap":10609,"Ġpanj":10610,"Ġmir":10611,"à¤Ĥ,":10612,"Ġthings":10613,"Ġveen":10614,"Ġhuman":10615,"Ġtem":10616,"Ġà´®à´ķà´¨":10617,"Ġà¤°à¤¨":10618,"Ġà´¤à´²à´¸":10619,"1930":10620,"Ġpour":10621,"ifa":10622,"Ġidathu":10623,"Ġcharitra":10624,"ĠKim":10625,"Ġisaikkuzhu":10626,"Ġfrancisco":10627,"ukizhakkan":10628,"down":10629,"kol":10630,"Ġker":10631,"à´ķà´ķ":10632,"Ġpeh":10633,"Ġdaatt":10634,"Ġtre":10635,"Ġà´ķà´±":10636,"aayath":10637,"Ġà¤¬à¤¦":10638,"Ġanaithth":10639,"Ġaann":10640,"Ġpiraanth":10641,"à´°à´¤à´¯":10642,"aikkaala":10643,"1982":10644,"Ġattorney":10645,"Ġvijayakaram":10646,"Ġaagiyavattril":10647,"Ġyahudi":10648,"makkal":10649,"thur":10650,"Ġpers":10651,"Ġthreat":10652,"à¤¸à¤«":10653,"isa":10654,"Ġree":10655,"Ġgaayak":10656,"Ġug":10657,"Ġshiv":10658,"ogn":10659,"à¤ĸà¤°":10660,"ĠTr":10661,"aippai":10662,"Ġthalasth":10663,"Ġuruth":10664,"Ġnagarpalika":10665,"Ġvijeta":10666,"Ġaarambaththil":10667,"Ġaatm":10668,"Ġvenal":10669,"Ġinthiya":10670,"Ġummid":10671,"iety":10672,"Ġspring":10673,"ancouver":10674,"SW":10675,"Ġpaim":10676,"Ġmeen":10677,"à®©à®©":10678,"Ġboo":10679,"Ġreyil":10680,"attru":10681,"Ġlain":10682,"Ġmell":10683,"igence":10684,"ĠApp":10685,"opt":10686,"à®©à®°à®²":10687,"à®ªà®¤à®©":10688,"Ġspokes":10689,"à¤īà¤¤":10690,"à®ĩà®°à®£":10691,"Ġpankal":10692,"à¤ħà¤ªà¤¨":10693,"Ġkazhiv":10694,"Ġethirppu":10695,"Ġnambikk":10696,"Ġsakthamaaya":10697,"Ġdrishya":10698,"Ġezhuththaalar":10699,"door":10700,"Î¹":10701,"algal":10702,"Ġraat":10703,"Ġroom":10704,"andram":10705,"dhan":10706,"imar":10707,"iger":10708,"Ġennikk":10709,"Ġniraiv":10710,"ovic":10711,"angkaludan":10712,"Ġkhad":10713,"arket":10714,"Ġthough":10715,"à´ĩà´¤":10716,"Ġthirumbinaar":10717,"Ġvarnan":10718,"Ġothers":10719,"Ġcustomers":10720,"Ġeen":10721,"à¤°à¤§":10722,"à´Łà´µ":10723,"Ġvanthaar":10724,"ayirunnu":10725,"Ġbarr":10726,"à´µà´¨à´¤":10727,"Ġraani":10728,"Ġlaal":10729,"Ġjool":10730,"Ġjaw":10731,"ivaadi":10732,"Ġethi":10733,"Ġaantarik":10734,"Ġsteel":10735,"Ġà´«à´²à´®":10736,"tract":10737,"Ġkadumaiyaana":10738,"okth":10739,"Ġà®ķà®²à®µ":10740,"à´¯à´ķà´¨":10741,"Ġprashn":10742,"Ġfinish":10743,"ibhaash":10744,"Ġnaus":10745,"Ġpirivin":10746,"Ġmobile":10747,"bad":10748,"rangal":10749,"sey":10750,"yavum":10751,"aakar":10752,"Ġsann":10753,"ising":10754,"Ġtell":10755,"Ġganar":10756,"Ġendh":10757,"Ġmattr":10758,"round":10759,"Ġstaff":10760,"ĠSup":10761,"Ġsthalam":10762,"Ġupany":10763,"upt":10764,"ube":10765,"àµ»à´¸àµº":10766,"Ġpole":10767,"1983":10768,"1968":10769,"ritha":10770,"Ġarasa":10771,"Ġthodarbu":10772,"There":10773,"Ġnirvaag":10774,"Ġchaambyanshippu":10775,"Ġthayaarippaalar":10776,"Ġalavilaana":10777,"Ġprerit":10778,"Ġracing":10779,"aturday":10780,"ging":10781,"jin":10782,"amaaka":10783,"à´Łàµ¼à´®":10784,"Ġjar":10785,"Ġfarm":10786,"aheim":10787,"angers":10788,"irunthth":10789,"aanakk":10790,"akkunnu":10791,"Ġdocum":10792,"Ġidangkalil":10793,"Ġmaark":10794,"ĠJune":10795,"Ġpaaramparik":10796,"awn":10797,"Ġprotein":10798,"Ġniruthth":10799,"That":10800,"ĠUniversity":10801,"Ġà®ľà®©à®¨":10802,"Ġà¤ªà¤¦à¤ķ":10803,"ĠRussian":10804,"Ġlikely":10805,"Ġgeorgia":10806,"mbu":10807,"Ġputt":10808,"Ġmaine":10809,"Ġveh":10810,"aker":10811,"Ġraan":10812,"Ġtipp":10813,"Ġcost":10814,"Ġà´¸à´ĸ":10815,"ahi":10816,"zhuthup":10817,"à´§à´ķ":10818,"ilekkum":10819,"Ġbhug":10820,"Ġà´¬à´±":10821,"ĠArizona":10822,"akale":10823,"Ġconference":10824,"Ġphoor":10825,"Ġvelin":10826,"Ġniyamam":10827,"1978":10828,"1945":10829,"Ġdavit":10830,"Ġparaamarsh":10831,"ography":10832,"Ġarangettam":10833,"win":10834,"anusarichu":10835,"Ġdush":10836,"Ġtreat":10837,"udar":10838,"innipeg":10839,"Ġaddress":10840,"Ġà®¹à®©":10841,"Ġseedh":10842,"à¤łà¤Ń":10843,"Ġsangeetha":10844,"Ġnagaril":10845,"Ġnoakki":10846,"anced":10847,"Ġ1906":10848,"Ġvagai":10849,"Ġeffect":10850,",,,,,,,,":10851,"About":10852,"zhuthupo":10853,"EO":10854,"ric":10855,"saay":10856,"sev":10857,"Ġ{":10858,"à´ķà´°à´®":10859,"à´¤à´¨à´¤":10860,"à´£à´Ļ":10861,"Ġmesh":10862,"àµ»à´®":10863,"àµ»à´µ":10864,"Ġsamarp":10865,"Ġunar":10866,"Ġfront":10867,"Ġudaan":10868,"Ġbring":10869,"Ġsthaanon":10870,"Ġsenior":10871,"1974":10872,"Ġkaaranamaayi":10873,"newy":10874,"Ġjanasamkhya":10875,"Ġvictoria":10876,"ds":10877,"Ġthaay":10878,"erine":10879,"Ġcut":10880,"ively":10881,"ithal":10882,"Ġadangiy":10883,"bhal":10884,"à´ķà´¯à´±":10885,"avarude":10886,"athekkurichu":10887,"ĠBuff":10888,"Ġprathikar":10889,"Ġneradi":10890,"Ġsaamraaj":10891,"Ġà¤ķà¤¹à¤¤":10892,"Ġvasiththu":10893,"Ġnaadaalum":10894,"Ġstudiyo":10895,"Ġsoochippikkunnu":10896,"Ġsamajh":10897,"Ġlaker":10898,"Ġafrica":10899,"Ġavashesh":10900,"Ġennividangalil":10901,"Ġpoakkuvaraththu":10902,"ontreal":10903,"zo":10904,"Ġsite":10905,"à´±àµ¼à´¨":10906,"Ġvae":10907,"erland":10908,"Ġneett":10909,"akamaaya":10910,"Ġrais":10911,"Ġlaakh":10912,"Ġà®µà®±":10913,"àµ»à´²":10914,"apane":10915,"Ġà®Łà®ļ":10916,"ĠSch":10917,"Ġjob":10918,"Ġmanitha":10919,"ĠFriday":10920,"Ġsevanangal":10921,"Ġ1902":10922,"Ġ1909":10923,"Ġpakuthikalil":10924,"Ġtruck":10925,"Ġbuilding":10926,"Ġvaastavik":10927,"Ġveediyoa":10928,"Ġtheatre":10929,"As":10930,"sur":10931,"sav":10932,"à¤°à¤«":10933,"iyaagavum":10934,"atives":10935,"à´Łà´£à´¤":10936,"à¯Ī)":10937,"aandu":10938,"asp":10939,"Ġcir":10940,"idiyoo":10941,"irukkalaam":10942,"Ġadesh":10943,"Ġapar":10944,"Ġà®°à®©":10945,"Ġvilambar":10946,"Ġithine":10947,"appedutth":10948,"aadhyam":10949,"Ġdhana":10950,"Ġnedunj":10951,"Ġflorida":10952,"Ġsansk":10953,"juulai":10954,"Ġhamla":10955,"Ġparambara":10956,"NEW":10957,"ĠCounty":10958,"rom":10959,"sn":10960,"Ġnuc":10961,"Ġrights":10962,"attathu":10963,"Ġlal":10964,"Ġguj":10965,"abil":10966,"Ġvareyulla":10967,"ĠCor":10968,"athekkurichulla":10969,"Ġclose":10970,"Ġà¤ľà¤¨à¤¸":10971,"aykkaayi":10972,"Ġnaashanal":10973,"Ġconsum":10974,"Ġberlin":10975,"Ġpooyi":10976,"Ġariyappedunna":10977,"Ġkoshish":10978,"Ġhistory":10979,"Ġlibrary":10980,"CON":10981,"maarude":10982,"Ġthath":10983,"à¤ķà¤µ":10984,"Ġnaas":10985,"Ġnila":10986,"Ġhoom":10987,"idae":10988,"Ġ(,":10989,"elson":10990,"ichirikkunnu":10991,"Ġà¤Ĺà¤¹à¤°":10992,"dul":10993,"ĠIV":10994,"anthathu":10995,"Ġphone":10996,"Ġagree":10997,"Ġsuh":10998,"Ġpayanpaduththuv":10999,"Ġkudumbaththin":11000,"Ġregul":11001,"Ġdwiteeya":11002,"Ġsimp":11003,"Ġsammath":11004,"Ġrekha":11005,"Ġbhagid":11006,"Ġnovemberil":11007,"Ġvadakkae":11008,"Ġthodarpudaiya":11009,"Ġnaankaavathu":11010,"iana":11011,"ywood":11012,"Ġpangku":11013,"à´¤à´ķà´³":11014,"à´®à´ķà´³":11015,"Ġha":11016,"ttawa":11017,"Ġlaagat":11018,"ides":11019,"kall":11020,"usar":11021,"Ġà´Ĩà´ª":11022,"ĠCalifornia":11023,"Ġà®ıà®ŀ":11024,"Ġnilavar":11025,"Ġnilaiyil":11026,"Ġusase":11027,"alki":11028,"Ġà¤īà¤¸à¤¸":11029,"Ġnalkia":11030,"iction":11031,"Ġnirmit":11032,"Ġdavis":11033,"Ġpossible":11034,"02":11035,"Ġpair":11036,"amum":11037,"iyinar":11038,"ayudeyum":11039,"à´µà´ª":11040,"Ġreh":11041,"Ġlin":11042,"Ġà¤¨à¤¸":11043,"Ġseg":11044,"idhyam":11045,"Ġmarus":11046,"angkalaik":11047,"ĠNov":11048,"ails":11049,"Ġmurpaguthiyil":11050,"arkalil":11051,"Ġvaarshik":11052,"irkaaga":11053,"Ġdeliver":11054,"Ġfourth":11055,"Ġminutes":11056,"03":11057,"eans":11058,"athaar":11059,"atar":11060,"Ġnaera":11061,"ador":11062,"Ġà´ħàµ¼à´¤":11063,"ele":11064,"Ġà´İà´®":11065,"Ġà´¤à´²à´¤":11066,"à¤Īà¤¸":11067,"à¤ĸà¤Ń":11068,"season":11069,"Ġlegal":11070,"Ġperforman":11071,"Ġoov":11072,"à´µà´°à´Ļ":11073,"Ġà¤ĳà¤ķ":11074,"Ġà®ĵà®ķ":11075,"Ġilakk":11076,"Ġpalkalaikkazhagam":11077,"Ġkhareed":11078,"Ġchainees":11079,"Ġpoortthiyaakk":11080,"Ġpunarnirmm":11081,"Ġthall":11082,"russ":11083,"Ġnev":11084,"Ġdrum":11085,"Ġrol":11086,"Ġcand":11087,"Ġprison":11088,"Ġà´µà´ļ":11089,"Ġeath":11090,"Ġà¤ıà¤¶":11091,"Ġà´ļà´ķ":11092,"Ġkarein":11093,"uvaar":11094,"Ġà´ĩà´Łà´ª":11095,"anththa":11096,"chchi":11097,"Ġshuruati":11098,"à¤°à¤¹à¤£":11099,"Ġsomething":11100,"Ġbajar":11101,"Ġprovide":11102,"Ġmozhi":11103,"Ġitaaliyan":11104,"à´¨à´¡à´¯":11105,"http":11106,"Ġà¤Ĺà¤£à¤°":11107,"Ġplatform":11108,"Ġsaav":11109,"atkar":11110,"à´µà´³":11111,"iks":11112,"ims":11113,"ills":11114,"Ġà´Ĩàµ»":11115,"à´¥à´²":11116,"Ġathaavathu":11117,"Ġmanassil":11118,"Ġelection":11119,"Ġaccount":11120,"Ġlagaatar":11121,"Ġavasaanam":11122,"Ġpayanpaduththappadukirathu":11123,"inois":11124,"exas":11125,"Ġnoval":11126,"Ġeste":11127,"Ġdekhbhal":11128,"Ġsanghiya":11129,"Ġsaambiyanship":11130,"Ġkatchi":11131,"algary":11132,"yo":11133,"ania":11134,"Ġping":11135,"Ġrace":11136,"idal":11137,"à®¨à®ªà®°":11138,"aagatha":11139,"Ġyaad":11140,"Ġà´ĩà´¨à´Ļ":11141,"Ġ86":11142,"Ġvyakh":11143,"paduththa":11144,"Ġ91":11145,"inder":11146,"Ġà´¸à´®àµ¼à´ª":11147,"Ġprakrith":11148,"ikkaanum":11149,"Ġinnov":11150,"Ġtherkae":11151,"Ġsales":11152,"Ġclear":11153,"Ġprotest":11154,"Ġsangrahalaya":11155,"Ġmaidan":11156,"aarambagaala":11157,"Ġky":11158,"Ġked":11159,"Ġbud":11160,"Ġà®®à®¨":11161,"Ġà¤¹à¤²":11162,"Ġmett":11163,"Ġchinn":11164,"Ġà¤ħà¤¡":11165,"aakritik":11166,"ĠCON":11167,"Ġmanila":11168,"track":11169,"Ġmaarkk":11170,"Ġcharge":11171,"Ġsevaaon":11172,"Ġthozhilaall":11173,"Ġ1907":11174,"makers":11175,"Ġpaadalkal":11176,"Ġyudhathil":11177,"america":11178,"Ġsradh":11179,"Ġkavundiyil":11180,"Ġvakupp":11181,"iyullaar":11182,"Ġenglaanthu":11183,"Ġathigamaaga":11184,"Ġsevaanivritt":11185,"Ġsaga":11186,"Ġpick":11187,"Ġà®®à®°à®£à®¤":11188,"Ġcode":11189,"à¤Łà¤«":11190,"Ġsella":11191,"Ġist":11192,"Ġisase":11193,"Ġnadupp":11194,"Ġà¤ĩà¤¸à¤¸":11195,"ĠBar":11196,"aipad":11197,"Ġidaiyae":11198,"Ġspeak":11199,"Ġ125":11200,"Ġnerittu":11201,"Ġurav":11202,"Ġsamghad":11203,"Ġhttp":11204,"Ġprakadanam":11205,"Ġsurukk":11206,"Ġauthorities":11207,"Ġjanathipathi":11208,"Cop":11209,"ves":11210,"Ġbor":11211,"à´®à´¦":11212,"avul":11213,"Ġcit":11214,"aaye":11215,"Ġà¤°à¤¸":11216,"ullah":11217,"onda":11218,"à®İà®ļ":11219,"Ġkattidam":11220,"Ġcommission":11221,"Ġporupp":11222,"play":11223,"Ġpaalam":11224,"Ġthirakkappattathu":11225,"Ġkrishi":11226,"Ġthiyettar":11227,"Ġpaimaane":11228,"AD":11229,"latt":11230,"Ġthin":11231,"Ġnon":11232,"akrith":11233,"Ġjansank":11234,"uthe":11235,"Ġthett":11236,"Ġenc":11237,"iman":11238,"Ġunav":11239,"Ġamaich":11240,"ajya":11241,"anton":11242,"Ġjanuvar":11243,"Ġtravel":11244,"ĠFlorida":11245,"Ġelisab":11246,"Ġnerangalil":11247,"Ġappear":11248,"Ġakadami":11249,"Ġpoattikalil":11250,"ikkunnathinulla":11251,"Ġkshetriya":11252,"Ġmudivad":11253,"................":11254,"ĠAssociated":11255,"bor":11256,"fa":11257,"Ġawas":11258,"Ġà¤ªà¤Ł":11259,"Ġà¤ľà¤µ":11260,"Ġà¤īà¤ł":11261,"Ġpound":11262,"adhana":11263,"ried":11264,"à´°à´®à´Ļ":11265,"ĠWest":11266,"phy":11267,"Ġeduthth":11268,"Ġpinththaiya":11269,"Ġkonduvar":11270,"Ġminitt":11271,"Ġtaken":11272,"Ġtype":11273,"Ġparasp":11274,"Ġchilappol":11275,"Ġà´¨à´Łà´ªà´Ł":11276,"pakshe":11277,"Ġearlier":11278,"Ġpehchaan":11279,"\";":11280,"UB":11281,"ho":11282,"pin":11283,"vaath":11284,"zon":11285,"thiya":11286,"Ġkaise":11287,"à®¾)":11288,"Ġnib":11289,"uns":11290,"ided":11291,"Ġmeal":11292,"Ġfig":11293,"Ġfish":11294,"Ġparyav":11295,"à´¥à´¨":11296,"iparamaaya":11297,"àµį.\"":11298,"athilirunthu":11299,"Ġkuttr":11300,"abhoomi":11301,"ĠBe":11302,"Ġmuttr":11303,"Ġkudip":11304,"Ġbob":11305,"Ġdaura":11306,"ourt":11307,"aiththaar":11308,"Ġemerg":11309,"Ġviruth":11310,"Ġvalangkiyathu":11311,"Ġphilipp":11312,"Ġsajeev":11313,"Ġaavasy":11314,"yright":11315,"ISC":11316,"Ġsthreekal":11317,"Ġvaluvaana":11318,"ead":11319,"Ġpaththu":11320,"à´¯à´§":11321,"amayi":11322,"ayon":11323,"Ġà¤¸à¤µ":11324,"Ġtool":11325,"Ġmetro":11326,"Ġface":11327,"agaiya":11328,"Ġent":11329,"à´ľàµ»à´¸":11330,"Ġatharam":11331,"prappu":11332,"Ġphys":11333,"aalaraaka":11334,"occh":11335,"Ġà¤¬à¤¨à¤¨":11336,"asamay":11337,"Ġthurannu":11338,"2400":11339,"Ġthodarb":11340,"Ġnyay":11341,"Ġbecome":11342,"Ġà®ªà®´à®Ļ":11343,"Ġtaking":11344,"Ġparayunnu":11345,"2018042400":11346,"Ġwebsite":11347,"hol":11348,"vaad":11349,"anin":11350,"Ġpeer":11351,"eneg":11352,"Ġbody":11353,"à´®à´Ļ":11354,"Ġraa":11355,"aayil":11356,"Ġchi":11357,"ikkanam":11358,"appozhekkum":11359,"uki":11360,"Ġà´¤à´²":11361,"Ġà´ĩàµ»à´¡":11362,"ritya":11363,"Ġpera":11364,"Ġpradesham":11365,"Ġvaetp":11366,"Ġvirginia":11367,"poathum":11368,"à´ªà´¨à´¯":11369,"Ġsamoohon":11370,"Ġkanakkedupp":11371,"Ġpeyarid":11372,"Ġnetaa":11373,"Ġaagiyavattrin":11374,"Ġkhilaadiyon":11375,"'ll":11376,"Col":11377,"Ġmorning":11378,"à®²à®³":11379,"à¤¨à¤ļ":11380,"chakal":11381,"à´µà´Ń":11382,"avor":11383,"ised":11384,"Ġgive":11385,"aayir":11386,"Ġfall":11387,"appal":11388,"Ġà´®à´¸":11389,"Ġaver":11390,"Ġtoday":11391,"Ġkaazhch":11392,"Ġstop":11393,"Ġmanith":11394,"Ġwithin":11395,"Ġkuzhukkal":11396,"Ġkanuni":11397,"akkalai":11398,"Ġschools":11399,"Ġaerpattathu":11400,"IND":11401,"Ġgovarn":11402,"Ġbased":11403,"ĠNews":11404,"Ġweeks":11405,"Ġvilaiyaattukal":11406,"Ġnigazhvugal":11407,"ĠPhiladelphia":11408,"Ġdoesn":11409,"AM":11410,"riy":11411,"vaadi":11412,"venkilum":11413,"à´¨à´µà´°":11414,"amai":11415,"athaip":11416,"Ġà®ªà®Łà®Ļ":11417,"eduthu":11418,"Ġeaka":11419,"angaludeyum":11420,"Ġpoth":11421,"Ġaaney":11422,"Ġà´īà´±à´ª":11423,"Ġnadantha":11424,"Ġ69":11425,"Ġkuranj":11426,"ĠâĢĵ":11427,"Ġcommander":11428,"Ġariyappad":11429,"Ġproduction":11430,"Ġpathivukal":11431,"Ġpathilal":11432,"Ġbishap":11433,"Ġkankaan":11434,"viron":11435,"cement":11436,"nar":11437,"wo":11438,"thanam":11439,"à´ķà´£à´®":11440,"Ġsud":11441,"Ġmeettar":11442,"athaagak":11443,"ruvar":11444,"onia":11445,"Ġvesh":11446,"Ġnick":11447,"à´ªà´ķà´°":11448,"Ġrab":11449,"Ġtenn":11450,"Ġaaiv":11451,"Ġaafr":11452,"Ġbhook":11453,"Ġ93":11454,"Ġithil":11455,"ernand":11456,"eeke":11457,"Ġrej":11458,"1966":11459,"anmai":11460,"Ġashay":11461,"Ġmerk":11462,"ravaai":11463,"Ġverthir":11464,"Ġmoonnaamathe":11465,"Ġâī¤":11466,"soos":11467,"ubh":11468,"alu":11469,"Ġsatta":11470,"iyaththin":11471,"à¤ķà¤¦à¤®":11472,"à¥ĭà¥¤":11473,"Ġnut":11474,"avudan":11475,"Ġring":11476,"anding":11477,"Ġgambh":11478,"Ġchod":11479,"Ġward":11480,"à¤Ĺà¤£à¤¨":11481,"à´¹à´Ļ":11482,"Ġsaathi":11483,"Ġ89":11484,"Ġsound":11485,"ĠDallas":11486,"Ġpanii":11487,"Ġvigith":11488,"Ġpaniyaatt":11489,"Ġrekhappeduth":11490,"Ġkazhinju":11491,"Ġkadannupok":11492,"vennum":11493,"Ġkong":11494,"Ġsaa":11495,"Ġsik":11496,"kkunnu":11497,"Ġlob":11498,"Ġcable":11499,"Ġguru":11500,"Ġgarm":11501,"Ġà®ļà®£":11502,"Ġavenue":11503,"aper":11504,"Ġkaryakal":11505,"aavinte":11506,"ipe":11507,"Ġmanikk":11508,"Ġvilikkunnu":11509,"Ġ83":11510,"ĠFeb":11511,"à®ħà®ª":11512,"Ġseemit":11513,"arkalai":11514,"Ġvisaaran":11515,"Ġkuttikal":11516,"ological":11517,"Ġariviththathu":11518,"Ġofficer":11519,"Ġcorps":11520,"Ġpulis":11521,"Ġvidhey":11522,"Ġnayichu":11523,"Ġsaahitya":11524,"Ġcontrol":11525,"à¤ĳà¤«":11526,"Ġvibhajit":11527,"ĠSenate":11528,"Ġennariyappedunna":11529,"Ġmudinthathu":11530,"ĠBuffalo":11531,"OM":11532,"lain":11533,"aigh":11534,"Ġwatch":11535,"Ġà´¤à´Łà´¯":11536,"Ġvarii":11537,"idhai":11538,"Ġalm":11539,"Ġ62":11540,"Ġ78":11541,"Ġjisaki":11542,"Ġpurathu":11543,"à´İà´ķ":11544,"Ġarea":11545,"Ġuyaram":11546,"Ġulppedunna":11547,"Ġtherthalil":11548,"Ġchalata":11549,"Ġanusarichu":11550,"Ġreleased":11551,"Ġyadhaarthathil":11552,"Ġaathh":11553,"Ġkalikkaran":11554,"ĠColumbus":11555,"Ġmultim":11556,"Ġparajayappettu":11557,"Ġpremiere":11558,"Ġpiraanthiya":11559,"bathu":11560,"cos":11561,"sept":11562,"xy":11563,"à¯ģ\".":11564,"chai":11565,"Ġnikal":11566,"Ġbene":11567,"à´¸àµ¼à´µ":11568,"Ġduk":11569,"itute":11570,"Ġmeas":11571,"Ġinai":11572,"Ġparav":11573,"Ġà¤Ĺà¤ł":11574,"Ġà®īà®ª":11575,"Ġpoathum":11576,"Ġarikk":11577,"etic":11578,"Ġà®Łà®ķ":11579,"atthilum":11580,"Ġthaniyar":11581,"Ġasam":11582,"Ġkush":11583,"Ġhours":11584,"Ġtrying":11585,"ĠGu":11586,"aces":11587,"1965":11588,"skritik":11589,"Ġvasath":11590,"Ġ1870":11591,"Ġmaasathil":11592,"Ġtrial":11593,"Ġfeeld":11594,"Ġjackson":11595,"Ġeedupatt":11596,"Ġvazhivaguththathu":11597,"Ġlatest":11598,"gi":11599,"inter":11600,"à´¨à´Ł":11601,"iyaathe":11602,"avukku":11603,"Ġà®µà®ļà®¤":11604,"aathai":11605,"unnathum":11606,"Ġpozhuthupo":11607,"esha":11608,"ittanar":11609,"à®Łà®®à®©":11610,"à®ĥà®ªà®°":11611,"ikkunnathinu":11612,"Ġproble":11613,"antrata":11614,"Ġpadhathi":11615,"Ġhyd":11616,"Ġpulligal":11617,"Ġvella":11618,"Ġennivayaanu":11619,"à´ķà´£à´ķ":11620,"Ġruns":11621,"Ġitaaliya":11622,"Ġchaals":11623,"Ġdutch":11624,"Ġsocial":11625,"Ġbhugtan":11626,"bil":11627,"bel":11628,"vy":11629,"à®Łà®ķà®¤":11630,"ato":11631,"attil":11632,"aayar":11633,"Ġuch":11634,"à¤¡à¤¸":11635,"aama":11636,"ĠSaturday":11637,"à¤ĩà¤ª":11638,"Ġjoh":11639,"appadi":11640,"Ġviidiyoo":11641,"Ġgrade":11642,"Ġchhota":11643,"Ġenbathaik":11644,"ances":11645,"à´µà´¨à´ķ":11646,"ĠVII":11647,"1962":11648,"They":11649,"Ġsneh":11650,"ports":11651,"Ġnoottaandil":11652,"Ġlegisl":11653,"https":11654,"Ġaabhy":11655,"Ġthaddesheeya":11656,"bas":11657,"hib":11658,"wick":11659,"Ġsistt":11660,"Ġmol":11661,"athvam":11662,"à®¯à®³":11663,"adal":11664,"Ġbes":11665,"à¤®à¤¦":11666,"à¤¹à¤¤à¤°":11667,"à¤Łà¤µ":11668,"Ġà¤²à¤ķà¤¡":11669,"Ġorupoathum":11670,"Ġparantha":11671,"à´¯à´®à´¤":11672,"Ġ84":11673,"ify":11674,"Ġdhw":11675,"àµ¼à´µà´ļ":11676,"Ġà¤®à¤¹à¤¸":11677,"Ġniruvapatta":11678,"Ġsarvocch":11679,"Ġsainikon":11680,"Ġpayanpaduththappattathu":11681,"Ġdriver":11682,"Ġvazhangkuv":11683,"Ġprathyakshappettu":11684,"Ġcontinue":11685,"ĠCongress":11686,"kish":11687,"isil":11688,"Ġrating":11689,"Ġgil":11690,"Ġshasson":11691,"ettukal":11692,"Ġennathu":11693,"karta":11694,"aapth":11695,"Ġthanin":11696,"aippin":11697,"àµ»à´¡àµ¼":11698,"ĠNashville":11699,"Ġpaaraatt":11700,"Ġmahsoos":11701,"Ġkazhichu":11702,"Ġstream":11703,"Ġmaatham":11704,"Ġimmedi":11705,"Ġà¤ľà¤¨à¤Ĺà¤£à¤¨":11706,"irkum":11707,"à´ķà´¸à´¨":11708,"Ġaagiyavattrai":11709,"Ġohiyo":11710,"Ġavattril":11711,"iffle":11712,"Ġlakadi":11713,"Ġjanganana":11714,"Ġthheek":11715,"Ġthaniththuvamaana":11716,"à®®à®ª":11717,"Ġthapp":11718,"Ġdra":11719,"avoru":11720,"Ġgarbh":11721,"Ġprep":11722,"à´¦à´°à´¨":11723,"à´·à´Ļ":11724,"Ġparisth":11725,"Ġtotal":11726,"Ġniras":11727,"Ġà®īà®³à®µ":11728,"Ġmoth":11729,"ĠFacebook":11730,"Ġà®ªà®°à®¨":11731,"Ġstraigh":11732,"Ġpoattiyaalar":11733,"Ġprashams":11734,"aigyaan":11735,"Ġparivahan":11736,"Ġpaeraras":11737,"Ġdeshon":11738,"Ġà®¤à®³à®Ļ":11739,"Ġthanthai":11740,"Ġuthppann":11741,"Ġabhipraay":11742,"Ġjanapr":11743,"Ġpraadhamika":11744,"kud":11745,"roo":11746,"vim":11747,"thiru":11748,"Ġpaakk":11749,"Ġpuddy":11750,"iyaavin":11751,"Ġnep":11752,"Ġbow":11753,"Ġdal":11754,"Ġlight":11755,"aayu":11756,"iyaiyum":11757,"Ġchief":11758,"Ġcheeni":11759,"Ġsamasya":11760,"Ġbhed":11761,"à´ŀà´¨":11762,"Ġmac":11763,"Ġnaditthaar":11764,"appadaatha":11765,"Ġswabhaav":11766,"Ġà®ªà®Łà®ķ":11767,"Ġaayuth":11768,"Ġvilaiyaadu":11769,"Ġà´ħà´ªà´ķ":11770,"Ġvanthanar":11771,"Ġparyaapt":11772,"Ġmishigan":11773,"Ġprosecut":11774,"Ġathikaarappoorva":11775,"Ġaarogya":11776,"Ġpolicy":11777,"Ġpugazhp":11778,"oenix":11779,"Ġganarajya":11780,"Copyright":11781,")-":11782,"aaz":11783,"Ġthuru":11784,"onnu":11785,"à´ªà´ķà´®":11786,"Ġlake":11787,"Ġà¤ħà¤ľ":11788,"Ġà´İà´Ļ":11789,"Ġstory":11790,"Ġupabh":11791,"Ġaarthik":11792,"ĠPittsburgh":11793,"annel":11794,"oyi":11795,"Ġcurrent":11796,"à®ķà®´à®ķ":11797,"comp":11798,"Ġilavar":11799,"Ġpettru":11800,"Ġeerkk":11801,"Ġà®ĩà®³à®µà®°":11802,"Ġeduththukkaatt":11803,"Ġthaarathamy":11804,"Ġudamasthathayil":11805,"Ġmaruseeram":11806,"Ġstraight":11807,">)":11808,"iams":11809,"Î½":11810,"Ġmeeth":11811,"Ġvidhi":11812,"Ġhath":11813,"edh":11814,"edan":11815,"Ġcel":11816,"ikkappattana":11817,"à¥Ĥ-":11818,"à¤¬à¤¹":11819,"Ġshil":11820,"Ġà¤Ĺà¤²à¤¤":11821,"Ġà´Ĵàµ»à´ªà´¤":11822,"akkoodiya":11823,"etnaam":11824,"Ġast":11825,"ario":11826,"Ġ74":11827,"oodeyum":11828,"Ġsarkkaar":11829,"Ġtrip":11830,"eekaaram":11831,"Ġresident":11832,"à¤ĺà¤Łà¤¨":11833,"Ġvishvaas":11834,"Ġroose":11835,"Ġoctoberil":11836,"Ġgroups":11837,"Ġadisthaan":11838,"Ġreview":11839,"Ġinthap":11840,"Ġcatholic":11841,"Ġjapani":11842,"400":11843,"athiya":11844,"eriy":11845,"Ġlam":11846,"ikkappetta":11847,"igg":11848,"ulk":11849,"Ġstates":11850,"ĠApril":11851,"ĠMex":11852,"Ġà¤ĸà¤¡":11853,"Ġirunththapoathu":11854,"Ġsched":11855,"Ġapplic":11856,"Ġnirmmaanam":11857,"ORK":11858,"Ġstarted":11859,"aamasiyaathe":11860,"Ġsrot":11861,"Ġsandarbhit":11862,"Ġuthppaad":11863,"ĠEuropean":11864,"Ġjorjju":11865,"Ġoorjaa":11866,"Ġullnaattu":11867,"BUS":11868,"rin":11869,"Ġmim":11870,"à¤¿\"":11871,"Ġvent":11872,"umaiyaaga":11873,"Ġbangal":11874,"Ġoththu":11875,"isch":11876,"Ġcart":11877,"Ġà´ħà´«":11878,"aathaar":11879,"ĠTexas":11880,"Ġvalo":11881,"ĠBrit":11882,"Ġkaarravaai":11883,"uuu":11884,"Ġthoond":11885,"Ġclos":11886,"anning":11887,"Ġstetts":11888,"Ġflor":11889,"iksha":11890,"Ġsoukary":11891,"Ġmultimedia":11892,"sen":11893,"sir":11894,"Ġakkaal":11895,"chang":11896,"Ġnritya":11897,"eyaana":11898,"à´ªà´¸":11899,"à´®à´°":11900,"unil":11901,"Ġhaan":11902,"ural":11903,"aart":11904,"isai":11905,"Ġjen":11906,"ikkaana":11907,"Ġà®¨à®Łà®©":11908,"à´·à´ķà´¨":11909,"ukad":11910,"duct":11911,"ippeans":11912,"uttha":11913,"Ġstore":11914,"Ġupay":11915,"Ġà¤¸à¤®à¤ķ":11916,"Ġ77":11917,"Ġ81":11918,"Ġspeed":11919,"ample":11920,"Ġmudivil":11921,"aikalukku":11922,"Ġnaamanir":11923,"Ġangane":11924,"Ġuthbhav":11925,"Ġanumaan":11926,"Ġ1880":11927,"Ġpalkalaikkazhaga":11928,"Ġdetee":11929,"Ġtheevir":11930,"Ġyogya":11931,"Ġsolutions":11932,"Ġsuvidha":11933,"Ġà´Ńà´°à´£à´ķ":11934,"Ġsendru":11935,"Ġaudyogika":11936,"ĠÂ£":11937,"timore":11938,"IRE":11939,"Ġsuthanthir":11940,"Ġsaitt":11941,"Ġmith":11942,"à®ªà®³":11943,"àµĨ)":11944,"kkai":11945,"Ġbos":11946,"Ġraak":11947,"Ġtank":11948,"Ġà®ħà®Łà®°":11949,"Ġà´ªà´¶":11950,"Ġadikk":11951,"odi":11952,"Ġamaith":11953,"Ġkolla":11954,"vert":11955,"Ġcharacter":11956,"iththana":11957,"Ġkavita":11958,"aangkal":11959,"Ġseyalmur":11960,"ĠYou":11961,"Ġvinod":11962,"1939":11963,"Ġaustraliyai":11964,"Ġparambaraagatha":11965,"chaarik":11966,"Ġmaarchil":11967,"Ġbirud":11968,"Ġà®¤à®³à®ªà®¤":11969,"Ġnaatkal":11970,"Ġthiranjeduppil":11971,"Ġpratispardha":11972,"october":11973,"Ġpunk":11974,"Ġmaadhyam":11975,"Ġà¤ķà¤µà¤°":11976,"onesh":11977,"adu":11978,"ikkam":11979,"Ġwr":11980,"anggal":11981,"Ġavayude":11982,"dhaan":11983,"aagar":11984,"Ġennathaanu":11985,"angkalaiyum":11986,"Ġamericavin":11987,"Ġ130":11988,"Ġjuul":11989,"Ġlagaa":11990,"Ġaerpaadu":11991,"Ġuruvaakkinaar":11992,"ylv":11993,"ĠYORK":11994,"Ġremain":11995,"Ġbehtar":11996,"Ġudhav":11997,"Ġyahaan":11998,"Ġsexual":11999,"arnthathu":12000,"Ġlicenses":12001,"Ġmunnariyipp":12002,"Ġperformance":12003,"gg":12004,"Ġsum":12005,"Ġmukt":12006,"Ġhudd":12007,"Ġ1000":12008,"à´µà´°à´£":12009,"aver":12010,"à¤µà¤Ł":12011,"Ġcell":12012,"Ġà´ķàµºà´¸":12013,"Ġà®¤à®¤":12014,"ikkil":12015,"Ġà´¤à´Ļ":12016,"allengil":12017,"Ġarik":12018,"aaviya":12019,"ĠCent":12020,"ĠCalgary":12021,"ikalin":12022,"umbu":12023,"aced":12024,"à¤ħà¤°":12025,"Ġresults":12026,"Ġà´īà´¯àµ¼à´¤":12027,"Ġuyarnththa":12028,"carrier":12029,"Ġenbavaraal":12030,"IT":12031,"iami":12032,"wadi":12033,"zer":12034,"Ð½":12035,"ening":12036,"aduththa":12037,"Ġdoo":12038,"Ġcho":12039,"Ġà¤Ĺà¤µà¤°":12040,"rop":12041,"Ġthalaiv":12042,"ĠEl":12043,"Ġpolum":12044,"Ġà´ħà´Łà´ļ":12045,"Ġjeevanakk":12046,"Ġseyalthiran":12047,"Ġinterest":12048,"Ġpoaril":12049,"INESS":12050,"laanthu":12051,"audi":12052,"Ġkodathi":12053,"Ġbaahari":12054,"Ġinthath":12055,"Ġprasidheekarichu":12056,"Ġprajaati":12057,"Ġutharavaad":12058,"disambar":12059,"Ġheinry":12060,"Ġà¤ĭà¤£":12061,"Ġseedhe":12062,"vironment":12063,"More":12064,"maka":12065,"pah":12066,"Ġkick":12067,"à¤¨à¤¬à¤°":12068,"Ġnamm":12069,"aanm":12070,"Ġbon":12071,"Ġbutt":12072,"llanar":12073,"Ġà´¸à´Ļ":12074,"Ġchenn":12075,"à¥ĭà¤Ĥ\"":12076,"Ġorum":12077,"Ġpoantr":12078,"Ġbhaari":12079,"ashion":12080,"empt":12081,"ĠCourt":12082,"Ġupkaran":12083,"Ġà¤¡à¤°":12084,"à¯į\")":12085,"Ġnind":12086,"aigalukku":12087,"ĠGen":12088,"Ġseesan":12089,"à¤łà¤ķ":12090,"à®Łà®ķà®Ļ":12091,"Ġviraivil":12092,"Ġporutth":12093,"Ġtareeke":12094,"Ġprashiksh":12095,"Ġeratta":12096,"Ġseptambaril":12097,"yria":12098,"Ġstatements":12099,"Ġthozhilaazhargal":12100,"navambar":12101,"inethire":12102,"jee":12103,"leshan":12104,"mein":12105,"sch":12106,"saah":12107,"town":12108,"ingal":12109,"Ġmuseum":12110,"Ġaj":12111,"Ġahead":12112,"à´±àµ¼à´®":12113,"Ġà´¸à´¯àµ»à´¸":12114,"Ġà®ļà®²":12115,"agangal":12116,"Ġenth":12117,"Ġshaar":12118,"Ġshayed":12119,"Ġsto":12120,"Ġvalupp":12121,"Ġvivaath":12122,"Ġrecently":12123,"Ġà¤¸à¤¹à¤®à¤¤":12124,"Ġseyalpaatt":12125,"Ġthaev":12126,"Ġ1903":12127,"thiyaaka":12128,"Ġvasthukkal":12129,"Ġiva":12130,"Ġà´Ķà´Ł":12131,"Ġkabja":12132,"kkurichum":12133,"TRY":12134,"Ġmanaivi":12135,"Ġjanuvariyil":12136,"Al":12137,"ksh":12138,"muthal":12139,"à®²à®£":12140,"Ġbaan":12141,"Ġodh":12142,"edi":12143,"à®¨à®Ł":12144,"Ġfans":12145,"à¤¡à¤ķ":12146,"Ġà´Ĩà´¯à´ª":12147,"Ġà´ľà´¯":12148,"à´´à´²":12149,"ĠToronto":12150,"Ġbear":12151,"Ġ87":12152,"Ġà®ħà®®à®°":12153,"Ġdhar":12154,"Ġelith":12155,"Ġkavith":12156,"Ġvayu":12157,"Ġveliyittaar":12158,"Ġbadhaava":12159,"Ġivai":12160,"Ġseiyappattaar":12161,"Ġadippadai":12162,"Ġpustakal":12163,"Ġvaidy":12164,"Ġchitrit":12165,"Ġkallooriyil":12166,"Ġsachiv":12167,"Ġsuyaath":12168,"Ġnausena":12169,"Ġkudipey":12170,"\".\"":12171,"View":12172,"bani":12173,"rew":12174,"Ġpaat":12175,"Ġthoor":12176,"Ġbenn":12177,"Ġtap":12178,"Ġtaamasiyaathe":12179,"à¤Łà¤¤":12180,"Ġoften":12181,"Ġjournal":12182,"Ġkhola":12183,"Ġswath":12184,"Ġchhor":12185,"view":12186,"Ġvarumaanam":12187,"Ġswatantrata":12188,"Ġpuratthirakki":12189,"immy":12190,"ĠLeague":12191,"Ġincrease":12192,")--":12193,"ount":12194,"vaha":12195,"Ġpakar":12196,"à¤ľà¤®":12197,"Ġavadh":12198,"usa":12199,"abal":12200,"aamil":12201,"Ġbhaw":12202,"aavum":12203,"Ġamm":12204,"Ġkalude":12205,"Ġmanor":12206,"Ġclin":12207,"Ġ96":12208,"Ġullanar":12209,"Ġteji":12210,"Ġmunch":12211,"Ġscatland":12212,"Ġnalkaan":12213,"Ġjuunil":12214,"Ġpaguthiyaagum":12215,"Ġkuzhuvil":12216,"Ġrachana":12217,"Ġulkkollunna":12218,"Ġjansankhya":12219,"BUSINESS":12220,"kins":12221,"thukayum":12222,"Ġmaa":12223,"à´¤à´ķàµ¾":12224,"à´¸àµ½":12225,"Ġrate":12226,"Ġcaliforn":12227,"Ġpraakritik":12228,"ahoma":12229,"Ġà´®à´ŀ":12230,"Ġà¤µà¤¨":12231,"iminal":12232,"Ġyork":12233,"à¤·à¤ľ":12234,"unnilla":12235,"akkood":12236,"Ġà¤ļà¤¯à¤¨":12237,"Ġmarik":12238,"Ġiravu":12239,"Ġmount":12240,"ream":12241,"Ġà®ħà®±à®ķ":12242,"ettraar":12243,"Ġpakad":12244,"Ġthuraiyil":12245,"ements":12246,"--(":12247,"Ġtouch":12248,"Ġlandanil":12249,"Ġreethiyil":12250,"Ġvictory":12251,"Ġkendreekar":12252,"Ġmajboor":12253,"Ġthozhilnutpa":12254,"Ġaaraaychch":12255,"Ġendhavoru":12256,"AG":12257,"sent":12258,"Ġpubl":12259,"runo":12260,"kkile":12261,"ader":12262,"aduth":12263,"à´µà´§":12264,"edic":12265,"Ġà®¤à®®":12266,"Ġà´ħà´Ĺ":12267,"anagal":12268,"ippil":12269,"Ġvarishth":12270,"roll":12271,"à¤Ńà¤°":12272,"Ġnadapp":12273,"ĠWIRE":12274,"Ġvazhakku":12275,"Ġmoolya":12276,"Ġsahakar":12277,"Ġnagaraththil":12278,"Ġuruvaakkuv":12279,"Ġcount":12280,"Ġthaernthedukk":12281,"Ġaayappozhekkum":12282,"Ġstudents":12283,"ĠUnion":12284,"Ġà®īà®Łà®©à®Ł":12285,"Ġbusinesses":12286,"Ġà¤ıà¤¡à¤µà¤°":12287,"TACT":12288,"Ġariyappedunnu":12289,"Ġpradarshit":12290,"Ġbrun":12291,"Cloud":12292,"bol":12293,"Ġsi":12294,"Ġpit":12295,"Ġpaap":12296,"Ġmom":12297,"Ġvatt":12298,"istry":12299,"ikkappattullathu":12300,"aged":12301,"tral":12302,"aasat":12303,"àµºà´Ĺ":12304,"athiloode":12305,"Ġfraans":12306,"Ġà´ĵàµº":12307,"Ġkoch":12308,"Ġnilaim":12309,"Ġplans":12310,"Ġmaanad":12311,"landile":12312,"Ġnirmmaan":12313,"à®²à®ķà®Ł":12314,"1949":12315,"Ġshower":12316,"box":12317,"Ġmaster":12318,"Ġsangharsh":12319,"Ġventrathu":12320,"USTRY":12321,"ĠDecember":12322,"Ġsosaitt":12323,"SOUR":12324,"Ġnucle":12325,"PUB":12326,"Ġsithth":12327,"Ġsold":12328,"chester":12329,"Ġthaguth":12330,"Ġdu":12331,"orial":12332,"ented":12333,"ulation":12334,"ashaasthr":12335,"Ġasth":12336,"egg":12337,"Ġkalav":12338,"arty":12339,"ĠRangers":12340,"Ġmaanak":12341,"Ġuruvaakkappatta":12342,"Ġprasn":12343,"Ġ1901":12344,"à¤ıà¤¸à¤ıà¤¨":12345,"Ġmalsarangal":12346,"Ġà´¤à´Łà´µ":12347,"Ġmiddle":12348,"Ġnimnalikhit":12349,"Ġprasthaan":12350,"Ġdhaarmik":12351,"Ġimportant":12352,"CONTACT":12353,"Ġbenef":12354,"800":12355,"DISC":12356,"KEYWORD":12357,"ea":12358,"hi":12359,"puthiya":12360,"innu":12361,"inese":12362,"Ġmeett":12363,"à¤®à¤¹":12364,"à´³à´¨":12365,"Ġtas":12366,"Ġjiss":12367,"uku":12368,"Ġshaasthr":12369,"Ġamaichch":12370,"aakkunnu":12371,"star":12372,"Ġ67":12373,"elle":12374,"Ġkaarr":12375,"Ġspace":12376,"Ġpayintr":12377,"ĠKEYWORD":12378,"Ġà¤ľà¤¨à¤°à¤²":12379,"Ġutk":12380,"Ġà´İàµ»à´ķ":12381,"Ġmandir":12382,"Ġkaryakramon":12383,"Ġbusinesswire":12384,"Ġachchha":12385,"Ġtheerumaanichu":12386,"Ġeconomy":12387,"Ġshhow":12388,"Ġcakootharar":12389,"Ġadisthaanamaakkiyulla":12390,"Ġmaagaan":12391,"INDUSTRY":12392,"Ġpugazhpettra":12393,"SOURCE":12394,"à´°à´ķà´³":12395,"atil":12396,"onpathaam":12397,"Ġfood":12398,"elo":12399,"ichirunn":12400,"Ġadayaal":12401,"ukalaayi":12402,"Ġà¤ĩà¤ļ":12403,"Ġkhaadi":12404,"aiyilaana":12405,"Ġhous":12406,"Ġvarshangalil":12407,"Ġsawari":12408,"Ġissue":12409,"à®ķà®©à®µ":12410,"ĠVir":12411,"ĠVegas":12412,"Ġvisheshag":12413,"Ġpenkutt":12414,"Ġkuttram":12415,"Ġà®¤à®Łà®ķà®³":12416,"Ġtheevu":12417,"Ġpratibandh":12418,"Ġpadinjaaru":12419,"Ġmannar":12420,"Ġvaralaattril":12421,"Ġbikri":12422,"wide":12423,"inpadi":12424,"amukh":12425,"shine":12426,"Ġchayan":12427,"Ġanjal":12428,"Ġà¤¤à¤¸":12429,"aakukayum":12430,"Ġforce":12431,"Ġnadapad":12432,"Ġcomes":12433,"istic":12434,"à®ķà®²à®®":12435,"onny":12436,"Ġdisk":12437,"Ġà¤ĳà¤²":12438,"2300":12439,"1981":12440,"Ġkonduv":12441,"ĠView":12442,"Ġselkirathu":12443,"unnathuvare":12444,"Ġneekk":12445,"Ġveedugal":12446,"Ġporch":12447,"Ġà´§à´°":12448,"Ġrussia":12449,"Ġmaanejment":12450,"Ġjanasamkhyayude":12451,"Ġhospital":12452,"Ġjimmedaar":12453,"Ġnannayi":12454,"cing":12455,"veer":12456,"àµį/":12457,"à®¤à®ªà®Ł":12458,"àµģ\".":12459,"à®Łà®ķà®®":12460,"Ġpaint":12461,"à´ªà´¦":12462,"Ġhunt":12463,"Ġtaar":12464,"Ġmean":12465,"Ġà®ĩà®´":12466,"aalamaana":12467,"Ġchee":12468,"agath":12469,"eens":12470,"Ġvaruv":12471,"Ġmausam":12472,"Ġasw":12473,"ĠMich":12474,"Ġà¤ĸà¤¤à¤°":12475,"Ġidain":12476,"Ġsarkari":12477,"engk":12478,"Ġvaalon":12479,"Ġrajisttar":12480,"Ġolimb":12481,"Ġmathram":12482,"enez":12483,"Ġ1899":12484,"Ġthodangi":12485,"Ġkaryakari":12486,"Ġhaving":12487,"Ġkodath":12488,"Ġliie":12489,"Ġbritten":12490,"Ġpotential":12491,"Ġdinon":12492,"angladesh":12493,"kash":12494,"anya":12495,"Ġpizh":12496,"ayanam":12497,"Ġbus":12498,"aarr":12499,"àµ½à´Ł":12500,"Ġten":12501,"ites":12502,"à¥Ī)":12503,"Ġwww":12504,"à¤Ĺà¤µ":12505,"anger":12506,"adhikar":12507,"ovsky":12508,"à¤ĩà¤¬":12509,"Ġkurav":12510,"Ġorig":12511,"Ġjanichathu":12512,"Ġcharges":12513,"1961":12514,"Ġezhuththu":12515,"Ġ1882":12516,"Ġroodh":12517,"Ġjody":12518,"Ġparuvaththil":12519,"Ġnadaipettrathu":12520,"Ġmanagement":12521,"pura":12522,"Ġana":12523,"Ġsanj":12524,"Ġvaiv":12525,"irakk":12526,"avali":12527,"Ġparih":12528,"Ġà´īà´°":12529,"Ġkhitaab":12530,"Ġbegan":12531,"Ġà¤Łà¤°":12532,"Ġwhiffle":12533,"Ġkural":12534,"Ġirumbu":12535,"Ġnilanil":12536,"Ġsou":12537,"Ġpuratch":12538,"Ġsangam":12539,"yakram":12540,"Ġurapp":12541,"1963":12542,"Ġ1897":12543,"Ġbadalkar":12544,"Ġà¤¬à¤¦à¤²à¤ķà¤°":12545,"ENT":12546,"oorvamaaga":12547,"Ġelectric":12548,"Ġeconomic":12549,"2018042300":12550,"Ġkaanapedunnu":12551,"Ġgambhir":12552,".'":12553,"col":12554,"vaazh":12555,"Ġkaii":12556,"atory":12557,"Ġvachu":12558,"à¤¯à¤ª":12559,"Ġdaar":12560,"Ġdog":12561,"à´ļà´¸":12562,"Ġrose":12563,"Ġà®µà®²à®¤":12564,"Ġgaay":12565,"Ġgadan":12566,"ikan":12567,"ikirathu":12568,"ikaaram":12569,"Ġwrit":12570,"odum":12571,"Ġ1850":12572,"Ġalbert":12573,"Ġkhet":12574,"iyilirunthu":12575,"Ġcomment":12576,"Ġmaelae":12577,"aadhipath":12578,"Ġcharged":12579,"Ġabhine":12580,"ĠOttawa":12581,"Ġbott":12582,"à´µà´¸à´¤":12583,"Ġground":12584,"wards":12585,"audyog":12586,"Ġcourse":12587,"cript":12588,"Ġmakes":12589,"Ġpravarthichu":12590,"Ġparaamar":12591,"Ġizhapp":12592,"Ġpirathipal":12593,"Ġprasthaav":12594,"Ġrespond":12595,"Ġjappan":12596,"Ġsawal":12597,"Ġpatthar":12598,"And":12599,"jon":12600,"iyaya":12601,"Ġnal":12602,"eyadhikam":12603,"à´ªà´¨à´Ļ":12604,"edd":12605,"Ġà´¸à´¤":12606,"Ġà®ļà®±":12607,"Ġà®¤à®ļ":12608,"agai":12609,"Ġink":12610,"Ġethuv":12611,"tell":12612,"Ġkariyar":12613,"appattapoathu":12614,"Ġà´ħà´µàµ»":12615,"aapak":12616,"Ġmaruththuv":12617,"ĠCEO":12618,"anka":12619,"Ġuska":12620,"Ġbanane":12621,"point":12622,"Ġà´ħà´²à´ķ":12623,"Ġseyalpaadugal":12624,"Ġjaankaari":12625,"nnay":12626,"Ġaustrali":12627,"Ġnirvag":12628,"Ġsnow":12629,"Ġjudge":12630,"Ġharaaya":12631,"Ġsemif":12632,"monton":12633,"Ġsquadron":12634,"Ġkaivash":12635,"Ġutpann":12636,"mand":12637,"sal":12638,"tthi":12639,"à´¿;":12640,"inam":12641,"Ġsaatt":12642,"Ġmaith":12643,"iyitt":12644,"uram":12645,"Ġlind":12646,"Ġà®µà®¯à®²":12647,"Ġprint":12648,"eless":12649,"Ġà¤¦à¤¬":12650,"Ġà´ļà´¤":12651,"à¤¼à¤¾à¥¤":12652,"Ġarakkatt":12653,"athinusesham":12654,"Ġà´ĩà´Łà´¤":12655,"ecast":12656,"Ġà´ľà´ª":12657,"essy":12658,"eere":12659,"à¤īà¤¥":12660,"Ġeduc":12661,"Ġsaernth":12662,"Ġsaamskaar":12663,"Ġkanis":12664,"Ġplaying":12665,"Ġ1905":12666,"àµ¼à´²àµ»à´¡":12667,"Ġkettidam":12668,"à´¸à´®à´¯à´¤":12669,"Ġelectronic":12670,"Ġcoverage":12671,"à§į":12672,"Ġiyanththir":12673,"Ġitalvi":12674,"Ġsradhey":12675,"pitaa":12676,"Ġkamaan":12677,"à´¤à´±":12678,"à´¯àµ¼à´¤":12679,"Ġnett":12680,"adang":12681,"Ġbalki":12682,"esi":12683,"Ġcab":12684,"Ġà¤¹à¤¦":12685,"ikappatta":12686,"Ġtheater":12687,"Ġallaatha":12688,"Ġvib":12689,"Ġennivaykku":12690,"Ġnagaratthile":12691,"odhit":12692,"Ġengane":12693,"Ġsmart":12694,"Ġsaadhyath":12695,"Ġsignal":12696,"Ġscotish":12697,"Ġnatchaththir":12698,"reme":12699,"Ġfurther":12700,"Ġcompaniyon":12701,"Ġsanskriti":12702,"iny":12703,"inson":12704,"à®®à®Ł":12705,"ature":12706,"Ġbij":12707,"à´¸à´ŀ":12708,"Ġocc":12709,"isin":12710,"Ġrinn":12711,"aiyaad":12712,"Ġtoge":12713,"aavaaya":12714,"Ġà®Łà®©":12715,"Ġalan":12716,"ththil":12717,"à´Ńà´°à´£":12718,"ĠCle":12719,"Ġà¤īà¤ªà¤ļ":12720,"Ġvidroh":12721,"Ġpratheeksh":12722,"Ġnerid":12723,"Ġ1894":12724,"1948":12725,"Ġemp":12726,"ishthabhoomi":12727,"Ġvyavhaar":12728,"Ġsigichchai":12729,"padinjaaran":12730,"Ġupanyaas":12731,"Ex":12732,"faan":12733,"ls":12734,"Ġsatah":12735,"à´²à´ķà´¨":12736,"Ġdaf":12737,"Ġlaitt":12738,"Ġà¤¹à¤¡":12739,"ikas":12740,"Ġintr":12741,"aavakaash":12742,"leag":12743,"Ġadhika":12744,"endr":12745,"upaduthth":12746,"Ġirunda":12747,"à´¯à´®à´¨":12748,"à¤ģà¥¤":12749,"tact":12750,"Ġpanb":12751,"Ġabhy":12752,"Ġyaatra":12753,"Ġpaguthiyai":12754,"ealand":12755,"Ġà¤¸à¤¤à¤¹":12756,"Ġthiraippatan":12757,"Ġà´īà´Łà´®":12758,"Ġpattiyalil":12759,"Ġudaaharanathinu":12760,"Ġsafalata":12761,"àµ¼à´ĺà´ķ":12762,"Ġbudhim":12763,"shastra":12764,"Ġviniyoag":12765,"Ġbraun":12766,"Ġjoolaiyil":12767,"Ġnaduppaguthiyil":12768,"dw":12769,"lov":12770,"galaip":12771,"Ġgave":12772,"Ġgetting":12773,"iyapoathu":12774,"Ġà®Ĵà®¯":12775,"Ġà´¬à´¯":12776,"Ġà¤Ĩà¤¸":12777,"aasar":12778,"Ġniram":12779,"ĠWilli":12780,"ooking":12781,"Ġà®ļà®®à®®":12782,"Ġthuramukh":12783,"Ġà¤ħà¤µà¤¸à¤°":12784,"Ġvalareyadhikam":12785,"aptan":12786,"à®ıà®ª":12787,"Ġnigazhchchi":12788,"Ġjeff":12789,"Ġeprilil":12790,"Ġà´ĩà´Łà´µ":12791,"Ġproper":12792,"Ġà¤®à¤¤à¤¦":12793,"Ġintelligence":12794,"Am":12795,"jha":12796,"kir":12797,"à´¢":12798,"aro":12799,"à´¤à´²à´¤":12800,"kkan":12801,"erk":12802,"à´µà´µ":12803,"aser":12804,"à´£à´¨":12805,"à¤¹à¤¸":12806,"Ġukr":12807,"ikkatt":12808,"Ġshaas":12809,"angaludan":12810,"à¤¥à¤µ":12811,"Ġarppan":12812,"à´«àµ¼":12813,"Ġà´²à´¯":12814,"ugai":12815,"Ġà¤ļà¤Ł":12816,"aakavum":12817,"epend":12818,"iyamaaga":12819,"Ġvietnaam":12820,"Ġkaala":12821,"Ġporuth":12822,"Ġthadagal":12823,"appadugirathu":12824,"Ġà®®à®£à®¨":12825,"Ġromanian":12826,"Ġdefense":12827,"Ġpuul":12828,"Ġfebruvar":12829,"munbu":12830,"Ġpadaippirivu":12831,"mattrum":12832,"Ġmoasamaana":12833,"Ġentraalum":12834,"Ġsampreshanam":12835,"Ġinsurance":12836,"Ġodhukk":12837,"Ġtogether":12838,"New":12839,"Rep":12840,"]]":12841,"rad":12842,"vadhu":12843,"Ġib":12844,"aniyil":12845,"anakal":12846,"Ġmaataa":12847,"eeg":12848,"Ġwarm":12849,"Ġshaik":12850,"à´¬à´²":12851,"1920":12852,"Ġcoming":12853,"ardo":12854,"Ġkoattai":12855,"Ġvaett":12856,"Ġpolish":12857,"Ġaandukku":12858,"Ġprashaas":12859,"Ġmalai":12860,"lines":12861,"Ġaduthulla":12862,"1953":12863,"ristan":12864,"Ġpuththagam":12865,"Ġsusp":12866,"kanavae":12867,"reasing":12868,"Ġà´¤à´ķàµ¼à´¨":12869,"Ġkadarkarai":12870,"Ġjapanian":12871,"Ġsathamaanavum":12872,"Ġloktaantrik":12873,"Ġsamarpit":12874,"Ġhoome":12875,"eck":12876,"mas":12877,"olla":12878,"athaagavum":12879,"kkunna":12880,"Ġdek":12881,"Ġdub":12882,"tti":12883,"avis":12884,"ivision":12885,"Ġadarthth":12886,"adhish":12887,"Ġvaraivu":12888,"à¤ĩà¤¸à¤ķ":12889,"Ġupadesh":12890,"Ġ82":12891,"Ġrud":12892,"Ġusers":12893,"à¤īà¤²":12894,"ĠGA":12895,"ookie":12896,"iyumaayi":12897,"Ġsthaapikkukayum":12898,"Ġoppukk":12899,"Ġveliyittathu":12900,"Ġ1898":12901,"Ġtrail":12902,"1956":12903,"Ġsaanskritik":12904,"Ġà´¨à´Ĺà´°à´Ļ":12905,"Ġpradeshathe":12906,"yavasth":12907,"Ġbench":12908,"Ġummeed":12909,"Ġthirichar":12910,"Ġveliyidappatta":12911,"Ġcreate":12912,"Ġaiks":12913,"lantic":12914,"Ġsuttriyulla":12915,"Ġceleb":12916,"Ġpayintraar":12917,"house":12918,"katt":12919,"nag":12920,"pite":12921,"ued":12922,"yin":12923,"araaya":12924,"iloode":12925,"athir":12926,"athayum":12927,"Ġbog":12928,"àµĩà´Ĥ":12929,"Ġà¤¹à¤¥":12930,"Ġgod":12931,"Ġà´¨à´ķ":12932,"iva":12933,"Ġà¤¨à¤·":12934,"ichathinu":12935,"Ġsamjha":12936,"uled":12937,"ukaludeyum":12938,"Ġennathil":12939,"ĠSyria":12940,"Ġupd":12941,"Ġpirivil":12942,"ĠGP":12943,"ĠJan":12944,"oys":12945,"angalilonn":12946,"à®ĩà®ª":12947,"Ġcharithram":12948,"à®Ĩà®ķà®¸":12949,"Ġethirpaar":12950,"akha":12951,"Ġà´µà´³àµ¼à´¨":12952,"Ġathupole":12953,"bandhan":12954,"Ġmember":12955,"Ġcamer":12956,"burn":12957,"Ġmins":12958,"iyirunnu":12959,"à®®à®Ļ":12960,"Ġà®ħà®¯à®°":12961,"orter":12962,"à´¡àµ¼":12963,"imo":12964,"irunthaar":12965,"Ġkaruthth":12966,"Ġung":12967,"ilekk":12968,"Ġà¤ĩà¤¨à¤ķ":12969,"Ġalways":12970,"inning":12971,"ctions":12972,"Ġkalicha":12973,"aikkirathu":12974,"Ġpadonn":12975,"Ġà®Ĳà®ª":12976,"Ġresult":12977,"Ġà®ħà®´à®ķ":12978,"Ġschoolil":12979,"Ġkael":12980,"Ġrashtra":12981,"1943":12982,"Ġveezh":12983,"Ġsoochana":12984,"Ġsidney":12985,"uzhal":12986,"Ġhogi":12987,"Ġpirathaana":12988,"ĠEurope":12989,"Ġmunmozh":12990,"ĠResearch":12991,"aigyaanik":12992,"Ġorumichu":12993,"NW":12994,"bane":12995,"Ġkaayam":12996,"Ġmes":12997,"aanaar":12998,"Ġdone":12999,"à¤µà¤ļ":13000,"Ġà´µàµ¼à´ķ":13001,"Ġfashion":13002,"Ġwing":13003,"Ġà¤¦à¤«à¤¨":13004,"Ġà¤°à¤ľ":13005,"osition":13006,"Ġà´ľà´¨à´¤":13007,"atthilekku":13008,"àµºà´®":13009,"ramam":13010,"Ġupaadh":13011,"Ġathlatt":13012,"aththinaar":13013,"Ġidaiv":13014,"à¤ľà¤¨à¤ķ":13015,"Ġrecogn":13016,"Ġmaattruv":13017,"erald":13018,"Ġaayog":13019,"Ġpaadagar":13020,"Ġà¤¬à¤¹à¤¨":13021,"Ġvittiya":13022,"Ġgener":13023,"Ġpazham":13024,"Ġkodunk":13025,"Ġcommunic":13026,"chaariyon":13027,"Ġhatyaa":13028,"Ġghatana":13029,"Ġkalaachaara":13030,"Ġkaiyeluththittaar":13031,"à®²à®µà®°à®ª":13032,"Ġnilavarappadi":13033,"Ġà¤Ĺà¤łà¤¬":13034,"Ġethuvum":13035,"\").":13036,"oard":13037,"vit":13038,"inas":13039,"Ġhug":13040,"aves":13041,"aving":13042,"iser":13043,"ored":13044,"à¥ĩà¤Ĥ)":13045,"kaludan":13046,"aale":13047,"Ġfest":13048,"à´·à´ķà´³":13049,"Ġavsar":13050,"tead":13051,"aiyid":13052,"Ġà´Ĩàµ¼à´®":13053,"ippikkunnathu":13054,"Ġmaranam":13055,"Ġidharku":13056,"Ġ79":13057,"Ġperis":13058,"Ġclasco":13059,"Ġpurame":13060,"shanik":13061,"orden":13062,"Ġkaalan":13063,"ĠGe":13064,"Ġsujh":13065,"Ġmahal":13066,"Ġcarl":13067,"odhana":13068,"ippaduthth":13069,"Ġà´ħà´±à´¸":13070,"Ġmaasik":13071,"Ġmarkets":13072,"opher":13073,"Ġneeds":13074,"Ġulagin":13075,"Ġaththagaiya":13076,"Ġthernthedukkappatta":13077,"Ġnirdeshan":13078,"Ġoonch":13079,"ĠKorean":13080,"prof":13081,"Ġlargest":13082,"jaise":13083,"oathum":13084,"sid":13085,"arude":13086,"Ġvaikal":13087,"aiththa":13088,"ttinte":13089,"Ġothth":13090,"à´³à´£":13091,"iting":13092,"kalilum":13093,"àµ»à´«":13094,"Ġfram":13095,"Ġfly":13096,"à¤ľà¤µ":13097,"angh":13098,"Ġà´Ĵà´¬":13099,"uting":13100,"Ġadim":13101,"rob":13102,"Ġà´«à´²à´Ļ":13103,"iance":13104,"Ġsakh":13105,"Ġpanipur":13106,"Ġpayanpaatt":13107,"Ġcarbon":13108,"ĠVancouver":13109,"Ġpradhaan":13110,"Ġkoottrupp":13111,"Ġregion":13112,"Ġveliyaer":13113,"odulla":13114,"Ġshikshak":13115,"Ġpalkalaikkazhagaththin":13116,"Ġvenkal":13117,"Ġbhavishya":13118,"Ġsanrakshan":13119,"Ġchanges":13120,"ĠStreet":13121,"Ġchalleng":13122,"Ġdipl":13123,"Ġnagaichchuvai":13124,"Ġbudhimutt":13125,"Ġkoottruppadi":13126,"gent":13127,"gers":13128,"mi":13129,"more":13130,"à¤°à¤ĸ":13131,"Ġmast":13132,"amaer":13133,"à¥Ģà¤ĥ":13134,"Ġnice":13135,"eyae":13136,"Ġdoow":13137,"Ġà®µà®®":13138,"Ġaaivu":13139,"ichathaayi":13140,"à¤¥à¤ķ":13141,"Ġbhoop":13142,"Ġvaraipad":13143,"ukalkkum":13144,"otic":13145,"Ġeest":13146,"issa":13147,"ĠNBA":13148,"Ġpatthu":13149,"Ġnirmmaana":13150,"Ġpoattikal":13151,"ĠThere":13152,"Ġmontr":13153,"Ġsharaab":13154,"Ġaandugalaaka":13155,"ikkappedunna":13156,"Ġpidich":13157,"Ġshakth":13158,"Ġtyp":13159,"Ġhataa":13160,"Ġtheliy":13161,"Ġkharaab":13162,"Ġaattrin":13163,"Ġnorwey":13164,"Ġkadarpadai":13165,"Ġarungaatchiyag":13166,"Ġmuttrilum":13167,"asamayathu":13168,"GY":13169,"Sunny":13170,"kood":13171,"lay":13172,"me":13173,"à¥ĩ)":13174,"Ġsukh":13175,"à´¯à´ķà´³":13176,"kkinte":13177,"ume":13178,"Ġhund":13179,"Ġtv":13180,"Ġà´ªà´¬":13181,"à¥Ī.":13182,"Ġgur":13183,"Ġgah":13184,"ikkappadukirathu":13185,"ivivar":13186,"Ġyu":13187,"ĠTimes":13188,"ĠAir":13189,"Ġkhou":13190,"Ġkaaranangal":13191,"ĠWinnipeg":13192,"Ġuyarnnu":13193,"à¤¦à¤°à¤Ĺ":13194,"Ġpunah":13195,"Ġpakupp":13196,"Ġkhelane":13197,"Ġevents":13198,"Ġpinthudar":13199,"Ġmaavattaththil":13200,"Ġkudiyett":13201,"athaakavum":13202,"Ġrepublican":13203,"Ġanalyst":13204,"Ġsujhaav":13205,"600":13206,"wad":13207,"à´¿à´ĥ":13208,"Ġseena":13209,"à´°à´²":13210,"àµĨ-":13211,"Ġrick":13212,"Ġliv":13213,"Ġgra":13214,"Ġ($":13215,"Ġpraav":13216,"Ġfo":13217,"Ġeuro":13218,"Ġsher":13219,"Ġyaadh":13220,"à¤ļà¤µ":13221,"Ġà´Ĩà´µàµ¼à´¤":13222,"allathu":13223,"Ġà´ľà´¡":13224,"ipi":13225,"ĠSy":13226,"ĠCap":13227,"stan":13228,"Ġbeg":13229,"aippandhu":13230,"Ġà´ĵàµ¼à´¡":13231,"Ġkurainthathu":13232,"Ġleon":13233,"Ġsoon":13234,"Ġkattapatta":13235,"Ġà¤®à¤¹à¤²":13236,"Ġissues":13237,"Ġappeal":13238,"ĠChrist":13239,"Ġaerkanavae":13240,"ikshep":13241,"Ġ1895":13242,"Ġmukad":13243,"Ġpravartthanam":13244,"Ġsamudri":13245,"Ġlambi":13246,"Ġkazhiyunna":13247,"Ġvyavasth":13248,"Ġkarmchaariyon":13249,"Ġmudiyavillai":13250,"Ġmunisippaal":13251,"Ġpustakalaya":13252,"So":13253,"ntha":13254,"pool":13255,"worth":13256,"Î¿":13257,"asar":13258,"Ġtan":13259,"Ġly":13260,"Ġwoman":13261,"Ġinf":13262,"Ġinaipp":13263,"Ġsheet":13264,"angalkkum":13265,"ishk":13266,"ukalulla":13267,"Ġ1840":13268,"prat":13269,"Ġà´ıà´ľàµ»à´¸":13270,"Ġ101":13271,"ĠGroup":13272,"Ġseett":13273,"akizh":13274,"Ġhotal":13275,"club":13276,"Ġà¤ĵà¤ķ":13277,"ĠOn":13278,"ĠOpen":13279,"Ġmalik":13280,"afees":13281,"Ġvaarthth":13282,"Ġanuman":13283,"ĠIntern":13284,"1954":13285,"Ġvyathyaas":13286,"Ġfoundation":13287,"Ġkadhai":13288,"à´īà´¦":13289,"Ġpaidal":13290,"Ġboxes":13291,"ming":13292,"mith":13293,"arpp":13294,"Ġmana":13295,"Ġainth":13296,"Ġveel":13297,"Ġnai":13298,"à´ªà´ļ":13299,"Ġdow":13300,"atter":13301,"à´£à´²":13302,"Ġeathaan":13303,"à¤ľà¤§":13304,"Ġsha":13305,"omer":13306,"à´«à´±":13307,"Ġupchaar":13308,"Ġnadiyude":13309,"Ġpados":13310,"ĠLat":13311,"udhir":13312,"Ġpathippu":13313,"à´ħà´µ":13314,"Ġseasonile":13315,"à®Ĩà®ĥà®ª":13316,"ĠChinese":13317,"Ġuruvaakkiyathu":13318,"Ġrakhate":13319,"Ġassist":13320,"Ġvaarshika":13321,"aasthra":13322,"1955":13323,"Ġroobert":13324,"Ġventra":13325,"Ġtraining":13326,"Ġvimarsan":13327,"aashanal":13328,"Ġsarvakalaashaalayile":13329,"Ġemployees":13330,"Ġmexico":13331,"ĠEngland":13332,"Ġchalachith":13333,"nee":13334,"ril":13335,"à¯ģ),":13336,"Ġaul":13337,"atholam":13338,"ayaayirunnu":13339,"Ġneeti":13340,"à´ªà´¨à´¤":13341,"à´¸à´²":13342,"Ġdue":13343,"asaay":13344,"Ġshaan":13345,"abama":13346,"Ġandolan":13347,"Ġisi":13348,"ovai":13349,"Ġforces":13350,"Ġwhy":13351,"Ġà´ĵàµ¼à´®":13352,"Ġruchi":13353,"umbia":13354,"aalaraaga":13355,"Ġmiller":13356,"ermar":13357,"Ġthadaak":13358,"Ġchune":13359,"ERIC":13360,"Ġkarudhappadugiradhu":13361,"ethiraaya":13362,"Ġgathbandhan":13363,"Ġaattral":13364,"TED":13365,"Ġnadaimur":13366,"Ġulagalaaviya":13367,"Ġjawab":13368,"Ġadikkadi":13369,"ben":13370,"fort":13371,"yangalil":13372,"Ġii":13373,"inulla":13374,"Ġsco":13375,"Ġsuvar":13376,"Ġaya":13377,"Ġore":13378,"avattru":13379,"Ġjel":13380,"à®ļà®Ł":13381,"iyagam":13382,"Ġà¤¨à¤ķ":13383,"Ġà¤ıà¤ķà¤¤":13384,"ippathu":13385,"Ġkarega":13386,"Ġnirnnay":13387,"Ġ92":13388,"Ġvarshangal":13389,"Ġsirapp":13390,"Ġsevan":13391,"Ġviman":13392,"Ġvantha":13393,"Ġpayanpaduththappadum":13394,"Ġquick":13395,"1958":13396,"Ġbelj":13397,"Ġconserv":13398,"Ġgraameen":13399,"Ġottumo":13400,"Ġmcd":13401,"Ġparaamars":13402,"Ġroundil":13403,"Ġreceived":13404,"retary":13405,"Ġvarudaanthira":13406,"Ġmerkaththiya":13407,"yil":13408,"kki":13409,"kkaan":13410,"Ġnikshep":13411,"Ġhoot":13412,"irand":13413,"Ġà¤®à¤Ľà¤²":13414,"Ġoonn":13415,"Ġrole":13416,"Ġcham":13417,"ivan":13418,"Ġorupakshe":13419,"Ġshir":13420,"aiyaaka":13421,"Ġsamanil":13422,"Ġisaiyam":13423,"Ġà´īà´ļ":13424,"à´«à´¸à´±":13425,"Ġà´«à´¸":13426,"ukkuch":13427,"Ġmoonn":13428,"Ġà®ĩà®©à®®":13429,"Ġdeep":13430,"à¤ħà¤¬":13431,"tiz":13432,"thuvid":13433,"Ġkandumutt":13434,"Ġsooththir":13435,"yantr":13436,"Ġappo":13437,"Ġsurr":13438,"Ġaerpatta":13439,"Ġprasaran":13440,"Ġvagupp":13441,"Ġvisheshta":13442,"à®Łà®µà®£":13443,"Ġvalarchi":13444,"Ġlawy":13445,"apradesh":13446,"Ġsameepam":13447,"Ġnimid":13448,"Ġfollowed":13449,"self":13450,"Ġoppanthaththil":13451,"Ġpudhupp":13452,"ĠTechnavio":13453,"ĠAustralia":13454,"aartment":13455,"TES":13456,"austral":13457,"brit":13458,"fed":13459,"game":13460,"iers":13461,"lab":13462,"neta":13463,"sarv":13464,"anagar":13465,"Ġkell":13466,"Ġvinn":13467,"enia":13468,"Ġhaas":13469,"Ġtek":13470,"iter":13471,"Ġcheef":13472,"Ġinam":13473,"Ġparidh":13474,"Ġsamy":13475,"à´¥à´²à´®":13476,"Ġà´°à´ļ":13477,"Ġasaadh":13478,"Ġmananthaar":13479,"Ġsosh":13480,"ĠJust":13481,"Ġpattika":13482,"Ġà®ªà®¯à®£à®¤":13483,"Ġvirupp":13484,"Ġthayaarippu":13485,"Ġ1860":13486,"Ġregister":13487,"Ġgeyimukal":13488,"Ġamerikkayil":13489,"Ġchakravar":13490,"Ġpraadhaan":13491,"Ġfalamaayi":13492,"farans":13493,"Ġphillippeans":13494,"Ġlunden":13495,"àµºà´«à´±àµ»à´¸":13496,"Ġabhimukh":13497,"Ġkaithu":13498,"mu":13499,"Ġpac":13500,"à¤¨à¤µà¤°":13501,"Ġnash":13502,"Ġdain":13503,"Ġdost":13504,"Ġdomin":13505,"aargal":13506,"Ġà´¨à´Ł":13507,"agrah":13508,"Ġearn":13509,"iruth":13510,"Ġà¤ıà¤µ":13511,"à®µà®°à®µ":13512,"Ġtopp":13513,"Ġtoun":13514,"Ġà´Ĵà´²":13515,"Ġaruvai":13516,"Ġà¤ļà¤ķ":13517,"ĠAc":13518,"ribe":13519,"endra":13520,"Ġà®°à®¤":13521,"Ġvaliy":13522,"Ġaarvam":13523,"ĠPts":13524,"Ġvilangku":13525,"Ġswaath":13526,"Ġ94":13527,"ibility":13528,"ĠGF":13529,"Ġkoodi":13530,"aththaich":13531,"Ġvarshathil":13532,"à®Ĩà®©":13533,"Ġgoals":13534,"Ġsenate":13535,"Ġà´Ĳà´±":13536,"Ġpaalan":13537,"ORTH":13538,"swick":13539,"Ġpradeshathu":13540,"Ġincludes":13541,"Ġmoozh":13542,"Ġmukkiyamaaga":13543,"Ġthiranjedutthu":13544,"Ġvidyaabhyaasam":13545,"Ġpeedit":13546,"Ġejans":13547,"Ġthalaippil":13548,"Ġpankedutthu":13549,"Ġpakuppaaivu":13550,"à®Łà®Ł":13551,"atho":13552,"Ġà´ħà´ļ":13553,"Ġchitra":13554,"Ġà´®à´ķàµ»":13555,"Ġà®Ĩà®´à®®":13556,"Ġaaivugal":13557,"olution":13558,"angalilekku":13559,"uvatharkaana":13560,"aavunna":13561,"iporul":13562,"Ġalavid":13563,"Ġjoy":13564,"opa":13565,"Ġnadan":13566,"Ġnadigar":13567,"read":13568,"iforn":13569,"ĠDirect":13570,"Ġtry":13571,"à®İà®ķ":13572,"Ġrefer":13573,"Ġseithi":13574,"Ġthaday":13575,"Ġveliyaettr":13576,"Ġprachod":13577,"Ġlawmakers":13578,"Ġvitharanam":13579,"kaaleen":13580,"Ġmaavattam":13581,"Ġkabristan":13582,"Ġlimited":13583,"Ġnuzhaiv":13584,"Ġvidyaabhyaasa":13585,"Ġkattumaan":13586,"Ġkireedam":13587,"Ġchairman":13588,"Ġsummer":13589,"Ġkaalayalavil":13590,"Ġroodhivaadi":13591,"arl":13592,"indu":13593,"à¤°à¤Ĺ":13594,"eezh":13595,"Ġvadh":13596,"à¤²à¤¹":13597,"Ġji":13598,"Ġà´µà´§":13599,"ikayum":13600,"ichir":13601,"Ġyet":13602,"ogan":13603,"ramaaya":13604,"ĠComp":13605,"Ġkhat":13606,"ĠIf":13607,"Ġirattai":13608,"Ġwhose":13609,"aikkappatta":13610,"Ġvishwaas":13611,"Ġcontract":13612,"igalaal":13613,"Ġ97":13614,"Ġ98":13615,"Ġplaatt":13616,"eekrit":13617,"eevu":13618,"Ġbrid":13619,"ĠUNI":13620,"Ġmahas":13621,"à´ħà´ª":13622,"Ġezhuththukkal":13623,"Ġsainyam":13624,"Ġthaed":13625,"Ġpramey":13626,"ĠHealth":13627,"Ġesp":13628,"Ġincar":13629,"Ġnivasi":13630,"Ġanuyoj":13631,"neeti":13632,"Ġdauth":13633,"Ġraundu":13634,"Ġthozhilaazhar":13635,"Ġmunkoott":13636,"Ġoozhiyargal":13637,"Ġasked":13638,"Ġislaam":13639,"miss":13640,"oz":13641,"à¤¾\",":13642,"Ġayal":13643,"Ġthing":13644,"uma":13645,"Ġdick":13646,"akers":13647,"Ġoafees":13648,"Ġlath":13649,"Ġjersey":13650,"Ġcra":13651,"Ġà®ļà®©":13652,"ichuk":13653,"aathr":13654,"kkulla":13655,"Ġà´Ĩà´ĺ":13656,"Ġpoala":13657,"Ġarjit":13658,"Ġonnu":13659,"Ġmoththam":13660,"Ġà´ĵàµ¾":13661,"à®·à®ª":13662,"à¤¸à¤®à¤°":13663,"Ġboll":13664,"armaar":13665,"Ġthadass":13666,"Ġprashaasan":13667,"Ġpravish":13668,"Ġslov":13669,"Ġnirvaach":13670,"Ġaandugalukkup":13671,"Ġà´§à´¨à´¸":13672,"Ġà´¤à´Łà´¸":13673,"Ġdoori":13674,"Ġpratinidhi":13675,"Ġsystems":13676,"Ġtoofaan":13677,"ĠColorado":13678,"Ġsentrathu":13679,"Ġnasl":13680,"Ġutsav":13681,"Ġà®®à®°à®ªà®£":13682,"Ġanaiththum":13683,"Ġpozhuthupoakku":13684,"equ":13685,"math":13686,"mor":13687,"alt":13688,"Ġaetrtr":13689,"à¥Ģ;":13690,"Ġthaguthi":13691,"rup":13692,"Ġbod":13693,"irandu":13694,"iier":13695,"à¯ĩ\"":13696,"Ġchoo":13697,"Ġwat":13698,"ichukondu":13699,"à¤¼à¥ģ":13700,"ettirunnu":13701,"Ġbha":13702,"àµºà´·":13703,"Ġees":13704,"Ġswadesh":13705,"Ġkadanthu":13706,"Ġkoodaippandhu":13707,"coun":13708,"Ġindia":13709,"Ġnirmmichu":13710,"inju":13711,"Ġ1892":13712,"Ġthodarin":13713,"Ġnyayal":13714,"Ġpravartthikkunna":13715,"Ġkallar":13716,"Ġaccused":13717,"eethamulla":13718,"Ġnikat":13719,"Ġthaervu":13720,"ĠIndia":13721,"pinnar":13722,"Ġpayirchiyaalaraaka":13723,"Ġsociety":13724,"Ġiyarkai":13725,"iyirunththathu":13726,"Ġaavarth":13727,"Ġsambhaavit":13728,"Ġshivir":13729,"At":13730,"giraar":13731,"kul":13732,"nthth":13733,"twitter":13734,"Ġakal":13735,"Ġduu":13736,"à¤®à¤¶":13737,"Ġgill":13738,"ici":13739,"dhani":13740,"ental":13741,"aakkil":13742,"ansas":13743,"Ġaarv":13744,"Ġkurikk":13745,"Ġà´ħà´¨à´¨":13746,"à¤¶à¤¨à¤²":13747,"à®ļà®©à®Ļ":13748,"Ġà®ĩà®¯à®Ļ":13749,"Ġprasaarit":13750,"enced":13751,"Ġthodaril":13752,"avalkkar":13753,"Ġfilmon":13754,"Ġsankeern":13755,"Ġaandugalukku":13756,"Ġpadhavi":13757,"mouth":13758,"Ġnanb":13759,"Ġparaajayappeduthi":13760,"Ġnabar":13761,"Ġposition":13762,"Ġsoviyat":13763,"Ġmonteneg":13764,"Ġalexander":13765,"Ġpushti":13766,"ddesham":13767,"Ġvottu":13768,"Ġthodarpudaiy":13769,"Ġkanakkaakkappedunnu":13770,"Ġmunisippal":13771,"Ġsthaanathethi":13772,"Ġsaajha":13773,"thad":13774,"Ġkathin":13775,"Ġaid":13776,"Ġvrith":13777,"à´ªà´ķà´¨":13778,"Ġà®µà®Łà®®":13779,"lloo":13780,"aalaththil":13781,"Ġfill":13782,"uther":13783,"igyaan":13784,"igatha":13785,"eters":13786,"erse":13787,"oord":13788,"Ġfore":13789,"Ġsthaayi":13790,"Ġmosham":13791,"Ġswitch":13792,"Ġà®ıà®ķ":13793,"ayogi":13794,"Ġmuyantr":13795,"à®İà®Ł":13796,"Ġghaati":13797,"ocol":13798,"Ġennivaye":13799,"Ġviduv":13800,"Ġavarkalukku":13801,"Ġmadangi":13802,"ĠViet":13803,"Ġevvaaru":13804,"encies":13805,"Ġ1885":13806,"Ġvaazhkkaiyin":13807,"laant":13808,"Ġjeetane":13809,"Ġprachaar":13810,"Ġarasiyalvaath":13811,"Ġdesemberil":13812,"Ġkalakaron":13813,"Ġvaravaer":13814,"ĠCenter":13815,"Ġabhyarth":13816,"Ġnyayalaya":13817,"light":13818,"mool":13819,"naad":13820,"rec":13821,"à®±à®ļ":13822,"à¤¨à¤¸à¤¨":13823,"rud":13824,"erto":13825,"ayik":13826,"Ġà¤®à¤¶":13827,"Ġà´¸àµ¼":13828,"Ġush":13829,"appo":13830,"agr":13831,"Ġechch":13832,"Ġà¤ıà¤¥à¤²":13833,"à¤ıà¤Ł":13834,"à´¬à´¸":13835,"ipparay":13836,"ipik":13837,"Ġniraththil":13838,"ikalaaya":13839,"Ġà®ķà®Łà®µ":13840,"Ġdoing":13841,"ĠBen":13842,"Ġphastt":13843,"à´ĸà´¯":13844,"Ġà´īà´ªà´Ń":13845,"Ġrahata":13846,"Ġnigam":13847,"Ġcommittee":13848,"Ġoppuv":13849,"Ġezhuthukaaran":13850,"Ġaeraalamaana":13851,"Ġà´µà´³àµ¼à´¤":13852,"1959":13853,"Ġgharon":13854,"Ġsignific":13855,"Ġchernn":13856,"ĠAmericans":13857,"Ġstarting":13858,"Ġisaikkuzhuvin":13859,"Ġkonfarans":13860,"Ġvimarsagar":13861,"Ġprabandhak":13862,"Ġfeature":13863,"Ġpusthakam":13864,"Ġchauthe":13865,"Ġà´ħà´¯à´ļ":13866,"Ġpinvarumaaru":13867,"Ġlarge":13868,"Ġgatividh":13869,"Ġpirachchanaikal":13870,"ĠGermany":13871,"Ġgallery":13872,"Ġnyayadhish":13873,"300":13874,"With":13875,"hali":13876,"ias":13877,"à®°à®´":13878,"Ġmut":13879,"Ġbaatt":13880,"Ġà®®à®°à®Ļ":13881,"Ġcult":13882,"Ġchannel":13883,"Ġchuzhal":13884,"ikkapatta":13885,"ichirikkunna":13886,"abor":13887,"Ġaniyin":13888,"allaamal":13889,"Ġarther":13890,"Ġnirodh":13891,"Ġstad":13892,"ĠServ":13893,"angkalum":13894,"anthira":13895,"Ġcoup":13896,"ayilulla":13897,"Ġleave":13898,"Ġà®²à®¤":13899,"Ġpahaadi":13900,"Ġpaarees":13901,"Ġreason":13902,"Ġvirk":13903,"à´Ĺà´¤à´¯":13904,"Ġilirunththu":13905,"Ġà®ķà®µà®©":13906,"Ġattempt":13907,"Ġsattru":13908,"avasa":13909,"veli":13910,"Ġbenz":13911,"Ġvirivaakk":13912,"Ġbandarg":13913,"Ġinjured":13914,"Ġà¤¬à¤¦à¤²à¤¨":13915,"alavil":13916,"Ġpaa":13917,"Ġbri":13918,"Ġhamp":13919,"à´µàµ»à´¸":13920,"ichilla":13921,"Ġyuke":13922,"ippi":13923,"Ġonbathu":13924,"ĠSTA":13925,"Ġirakk":13926,"Ġrug":13927,"Ġview":13928,"Ġ155":13929,"Ġ159":13930,"Ġagent":13931,"Ġà®ķà®²à®¨":13932,"Ġvazhiyil":13933,"Ġ110":13934,"amaanennu":13935,"Ġcriminal":13936,"Ġmedel":13937,"Ġ1893":13938,"1947":13939,"Ġbaink":13940,"akaalik":13941,"Ġthamasam":13942,"leton":13943,"Ġtrust":13944,"Ġmachine":13945,"Ġinjury":13946,"Ġsoviyatt":13947,"Ġalleged":13948,"Ġkuranjathu":13949,"fal":13950,"iot":13951,"now":13952,"pit":13953,"à´Ķ":13954,"Ġpaae":13955,"à´¤à´¶":13956,"oozhal":13957,"à´¸à´«":13958,"Ġdaa":13959,"Ġdol":13960,"akt":13961,"aarthi":13962,"à´³à´Ļ":13963,"Ġtape":13964,"à¤ªà¤¹à¤²":13965,"Ġà´®à´ķà´³":13966,"à´·àµ»à´¸":13967,"à´·à´°à´Ļ":13968,"Ġenough":13969,"imate":13970,"Ġonce":13971,"Ġpirantha":13972,"Ġkuraivaana":13973,"ĠPark":13974,"à®·à®°":13975,"ĠHis":13976,"Ġsaraasar":13977,"ength":13978,"Ġ140":13979,"Ġedav":13980,"Ġabhiv":13981,"Ġvaach":13982,"Ġpooll":13983,"entraal":13984,"Ġpaaliyal":13985,"Ġpeyaril":13986,"Ġ1864":13987,"Ġchithratthil":13988,"Ġsrishtichu":13989,"Ġvyaktiyon":13990,"Ġmultiple":13991,"Ġallowed":13992,"ĠAMERIC":13993,"Ġakshar":13994,"Ġrisk":13995,"Ġcritic":13996,"Ġkaiyezhuthth":13997,"Ġolimbik":13998,"Sh":13999,"à¥ĩ;":14000,"Ġkej":14001,"Ġsaab":14002,"ilton":14003,"iyathil":14004,"eech":14005,"Ġvaakkal":14006,"aangal":14007,"oof":14008,"Ġbab":14009,"Ġdaniel":14010,"oria":14011,"ichum":14012,"Ġà´İà´¯":14013,"aada":14014,"Ġstaar":14015,"uththar":14016,"Ġathine":14017,"Ġnadann":14018,"Ġà´¦à´ķ":14019,"Ġkoayil":14020,"Ġsariyaana":14021,"ikkaanulla":14022,"Ġinnings":14023,"Ġcommon":14024,"Ġdaure":14025,"ijing":14026,"aiyaiyum":14027,"Ġjinake":14028,"1944":14029,"ezhsan":14030,"Ġvijayichu":14031,"rench":14032,"Ġvirivaana":14033,"Ġadippadaiyilaana":14034,"Ġsamaroh":14035,"Ġpashchaath":14036,"Ġrebound":14037,"alized":14038,"Ġstaanderd":14039,"Ġummidwar":14040,"Ġaverage":14041,"Ġrejiment":14042,"Ġfebruvariyil":14043,"vaas":14044,"Ġisht":14045,"athaiyum":14046,"chals":14047,"à¤ķà¤¬":14048,"ayat":14049,"à´Ĥ-":14050,"à¤¤à¤²":14051,"shala":14052,"àµ½à´¹":14053,"Ġ(),":14054,"Ġprag":14055,"Ġà®Ĩà®ªà®¤":14056,"à´¡à´¯":14057,"ippin":14058,"Ġbhram":14059,"Ġmail":14060,"rote":14061,"Ġont":14062,"Ġcoff":14063,"Ġchean":14064,"Ġvadakizh":14065,"ĠOb":14066,"ancy":14067,"Ġvannu":14068,"Ġindonesh":14069,"Ġtheriy":14070,"Ġmiles":14071,"1946":14072,"Ġpadhav":14073,"Ġcape":14074,"Ġhimself":14075,"Ġvakeel":14076,"Ġniyantrit":14077,"ĠRepublicans":14078,"Ġeppoathum":14079,"ÑĤÐµ":14080,"Ġdukaan":14081,"enezuel":14082,"gl":14083,"sing":14084,"Ġkudhir":14085,"Ġmorgan":14086,"kkatt":14087,"umaar":14088,"Ġdil":14089,"itan":14090,"Ġà´ħà´ľ":14091,"à¤Ĺà¤ľ":14092,"àµĤ,":14093,"Ġkaruththu":14094,"Ġbhojan":14095,"Ġasistt":14096,"anthar":14097,"Ġvalarth":14098,"Ġroj":14099,"Ġkaalaththirku":14100,"à®¹à®©":14101,"Ġpalar":14102,"Ġdeane":14103,"Ġnirmmichathu":14104,"inja":14105,"Ġpoost":14106,"Ġdriving":14107,"Ġladakon":14108,
[...]
